#version: 0.2
à ¤
à ¥
Ġ à¤
à¤ ¾
à¥ į
à¥ ĩ
à¤ °
à¤ ¤
à¥ Ģ
à¤ ²
à¤ ¯
à¤ ¨
à¤ ¿
à¤ ļ
à¤ Ĥ
à¤ ķ
à¤ ¹
à¤ µ
à¤ ¸
à¥ ĭ
à¤ £
Ġà¤ ķ
à¤ ®
à¥ ģ
Ġà¤ Ĩ
Ġà¤ ®
Ġà¤ ¤
à¤ ª
Ġà¤ ª
à¥ Ĥ
Ġà¤ ¹
Ġà¤ ¸
à¤ Ĺ
Ġà¤ ħ
à¤ ¦
à¤ Ł
Ġà¤ µ
à¤ ¡
Ġà¤ ¨
à¤¾ à¤Ĥ
à¤ ³
à¤ ľ
à¤ ¶
Ġà¤ ¬
Ġà¤ ¦
à¤ ¬
Ġà¤ ľ
à¤ §
Ġà¤ ²
à¥ĩ .
Ġà¤ħ à¤¸
à¤ ·
Ġà¤ Ĺ
à¤ ĸ
Ġà¤Ĩ à¤¹
Ġà¤ ¯
à¤¾ .
à¥Ģ .
. .
à¤µ à¤°
Ġà¤ °
Ġà¤ķ à¤°
Ġà¤ ¶
à¤ ł
Ġà¤ ļ
Ġà¤Ĩ à¤£
à¤ ¥
Ġà¤ ı
Ġà¤ ĺ
Ġà¤ Ń
Ġà¤ı à¤ķ
à¤¹ à¤£
à¤ Ń
Ġà¤ ī
Ġà¤ Ŀ
Ġà¤ ĸ
â Ģ
Ġà¤¤ à¤°
Ġà¤ «
à¤ Ī
à¤ Ĩ
à¤ Ŀ
à¤ ¢
à¤¤ à¤°
à¤ª à¤£
à¤ ĺ
à¤¯ à¤ļ
à¤° à¤¤
à¤ ħ
à¤¤ à¤²
à¤ Ĭ
à¤ª à¤²
Ġà¤Ĩ à¤²
Ġà¤ ĩ
à¥ Ī
à¤µ à¤²
à¤¯ à¤²
Ġà¤ħà¤¸ à¤¤
à¥ ī
Ġà¤ Ł
à¤ķ à¤¡
à¤µ à¤¤
à¤Ĥ .
à¤¿ à¤Ĥ
à¥ĭ .
à¤ «
à¤Ĺ à¤²
à¤¹ à¤¤
à¤¾ ,
Ġà¤ ł
à¤° à¤£
Ġà¤ª à¤£
à¤¡ à¤²
à¥ĩ ,
à¥ ħ
Ġà¤ ¡
à¤Ĺ à¤³
à¤° à¤ķ
Ġà¤µ à¤°
à¥Ģ ,
Ġà¤ §
Ġà¤¨ à¤µ
Ġà¤Ĩ à¤ªà¤²
à¤° à¤²
à¥ ĥ
Ġà¤ħ à¤¨
à¤® à¤§
Ġà¤ķà¤° à¤¤
à¤ķ à¤°
à¤Ł à¤²
à¤¬ à¤°
à¤µ à¤¸
Ġà¤¸ à¤®
Ġà¤® à¤²
* *
à¤ª à¤°
Ġ à¥
à¤¸ à¤²
- -
à¤Ĭ à¤¨
à¤¯ à¤ķ
Ġà¤Ĩ à¤¤
à¤® à¤ļ
Ġà¤ħà¤¸ à¤²
à¤¸ à¤¤
à¤¤ à¤ķ
à¤¸ à¤°
à¤° à¤®
Ġà¤¸ à¤°
à¤° à¤ļ
Ġà¤ ¥
.. ..
à¤ ı
Ġà¤Ĩ à¤µ
âĢ į
à¤µ à¤£
à¥ģ à¤Ĥ
à¤Ĺ à¤¤
à¤ķ à¤²
Ġà¤ª à¤°
Ġà¤ķà¤° à¤£
à¤ķ à¤¤
Ġà¤ħ à¤¶
Ġà¤® à¤¨
à¤¦ à¤°
à¤¦ à¤²
Ġà¤¸ à¤Ĺà¤³
Ġà¤® à¤§
à¤¹à¤£ à¤ľ
à¥ ¦
à¤° à¤ĸ
à¤° à¤µ
Ġà¤ĺ à¤°
= =
Ġà¤¬ à¤ĺ
à¥ĩ à¤Ĥ
à¥į âĢį
à¤µ à¤³
> >
à¤Ł à¤¤
à¤ ĩ
à¥Ģ à¤Ĥ
à¤¾ ?
Ġ "
à¥ Į
à¤Ī à¤²
à¤ Ľ
à¤¡ à¤¤
Ġà¤ Ľ
Ġà¤¬ à¤°
à¤¤ à¤ļ
Ġà¤ ĵ
à¤ ±
Ġ '
Ġ ,
à¤¨ à¤ļ
Ġà¤¨ à¤ķ
Ġ (
Ġ âĢ
à¤° à¤¸
à¤³ à¤¤
Ġà¤Ĩ à¤ľ
à¤ı à¤ķ
à¤Ĩ à¤£
à¤ ĥ
à¤® à¤²
à¤Ĺ à¤¦
à¤ļ à¤²
à¤¬ à¤¦
âĢ Ļ
à¤· à¤£
** **
Ġà¤® à¤¹
à¤ ī
à¤¶ à¤¨
.. .
à¤¯ à¤¤
Ġà¤Ĩ à¤®
-- --
à¥ §
à¤Ĩ à¤¤
Ġà¤¤ à¤¸
à¤² à¤¤
Ġà¤ Ĳ
Ġà¤ľ à¤°
Ġà¤Ĩ à¤ªà¤£
Ġà¤ķ à¤§
à¤Ĺ à¤£
Ġà¤ħ à¤°
_ _
à¥ĭ à¤Ĥ
Ġà¤Ĩ à¤ł
Ġà¤ī à¤¤
à¤Ł à¤°
à¤¾ !
Ġà¤ħ à¤ľ
à¤® à¤¸
à¤° à¤¶
à¤¸ à¤®
Ġà¤¸à¤® à¤ľ
à¤ª à¤¨
à¤® à¤Ĺ
Ġà¤¸ à¤¹
Ġà¤ª à¤¹
Ġà¤ĸ à¤°
à¤Ł à¤ķ
Ġà¤ķ à¤¸
à¤® à¤¤
t h
à¤ħ à¤°
à¤° à¤ľ
Ġà¤¬ à¤¸
Ġà¤® à¤Ĺ
à¤Ĥ ,
à¤ľ à¤°
à¤¹ à¤°
à¤µ à¤¨
âĢ Ŀ
à¤¯ à¤µ
à¤² à¤ķ
Ġà¤ķ à¤®
à¤£ à¤¸
à¤µ à¤Ł
Ġà¤¹ à¤µ
Ġ -
i n
a n
à¤µ à¤¢
Ġà¤ĩ à¤¥
à¤° à¤ª
Ġà¤¶ à¤ķà¤¤
à¤¹à¤£ à¤¤
à¥ĭ ,
à¤¬ à¤¤
Ġà¤ª à¤¡à¤²
à¤³ à¤²
Ġà¤Ĩ à¤®à¤ļ
Ġà¤Ĩ à¤Ī
à¤¡ à¤ķ
== ==
Ġà¤ħ à¤Ĺà¤¦
Ġà¤ıà¤ķ à¤¦
Ġà¤ª à¤°à¤¤
Ġà¥ §
Ġà¤¬ à¤¸à¤²
à¤§ à¤¨
à¤ł à¤²
Ġà¤¶ à¤ķ
à¥Ģ !
Ġà¤ĩ à¤¤à¤ķ
Ġà¤ ĳ
Ġà¤² à¤ķ
à¥ĩ !
Ġà¤Ĩ à¤¯
à¥ĩ ?
Ġà¤Ĩ à¤§
ĠâĢ ĺ
Ġà¤ī à¤¦
à¤¬ à¤²
à¤Ń à¤°
" "
Ġà¤ķ à¤¥
e r
Ġà¤ħ à¤Ń
Ġà¤ī à¤ª
à¤² à¤²
à¤ľ à¤¨
Ġà¤ī à¤Ń
Ġà¤² à¤Ĺ
! !
à¤µ à¤¶
à¤¡ à¤£
à¤® à¤¨
Ġà¤¶ à¤¬
Ġà¤ķ à¤²
à¤¨ à¤ķ
à¤ª à¤¤
à¤¢ à¤²
à¤µà¤° à¤ļ
à¤Ĺ à¤°
à¤³ à¤£
à¤Ĩ à¤ľ
Ġà¤ħ à¤ª
à¤² à¤Ĺ
Ġà¤ħ à¤¤
à¤¯ à¤®
Ġà¤° à¤¸
à¤ ŀ
Ġà¤¨ à¤¸à¤¤
à¥¦ à¥¦
Ġà¤« à¤ķ
à¤£ à¤¤
à¥ ¨
Ġ th
à¤¯ à¤¨
a t
Ġà¤¬ à¤¹
âĢ ľ
Ġà¤® à¤°
à¤Ń à¤µ
à¤¤ à¤®
à¤· à¤¯
Ġà¤Ĩ à¤¨
Ġà¤ħ à¤§
à¤ľ à¤²
à¤¨ à¤¹
à¤ħ à¤¸
Ġà¤Ĩà¤µ à¤¡à¤²
Ġà¤¨ à¤¸
Ġà¥ ¨
o n
Ġà¤ľ à¤µà¤³
à¤² à¤ļ
à¤² à¤£
Ġà¤ı à¤ĸ
à¤Ĩ à¤ªà¤²
à¤ ģ
à¤² à¤¯
à¤° à¤¯à¤¤
**** ****
a r
Ġà¤Ĩ à¤°
Ġà¤Ĳ à¤ķ
Ġà¤¤ à¤¯
Ġà¤µ à¤Ĺ
à¤³ à¤ĸ
Ġà¤ħà¤¸ à¤£
à¤¹ à¤®
Ġà¤¬ à¤¨
Ġ s
à¤¢ à¤ļ
à¥Ģ ?
à¤® à¤ķ
---- ----
Ġà¤ķ à¤¶
Ġà¤® à¤¸
Ġà¤¬à¤ĺ à¤¤
Ġà¤¬ à¤¦à¤²
à¤µ à¤¡
Ġà¤ľ à¤Ĺ
.... ....
à¤° à¤¹
à¤ļ à¤¤
Ġà¤ħ à¤µ
Ġà¤ª à¤¤
à¤ĸ à¤°
Ġà¤ľ à¤¨
à¤¾ -
à¤Ł à¤¨
à¤¸ à¤ļ
Ġà¤ľ à¤®
Ġà¤ĩ à¤¤à¤°
Ġà¤¸ à¤¤
Ġ Ġ
à¤¦ à¤¨
à¤ħ à¤¨
à¤Ī à¤¨
à¤ļ à¤¨
à¤µ à¤¯
Ġà¤§ à¤°
à¥ «
à¤² à¤¨
à¤ħ à¤¶
Ġà¤® à¤¹à¤¤
Ġ a
à¤¸ à¤¨
__ __
à¤¤ à¤¸
Ġà¤Ĩ à¤¶
o r
à¤¤ à¤¨
Ġà¤ķ à¤ª
i s
à¤ ĵ
Ġà¤Ń à¤°
Ġà¤ħ à¤®
Ġà¤ĵ à¤³à¤ĸ
à¤° à¤¦
à¤Ī à¤Ł
âĢį à¥ħ
à¤µ à¤ķà¤°
Ġà¤¦ à¤°
à¤¨ à¤µ
Ġ w
à¤µ à¤ļ
Ġà¤² à¤¹
e n
Ġà¤ª à¤¡
à¤ļ à¤°
à¤¸ à¤ķ
Ġà¤µ à¤¸
à¤¶ à¤¯
Ġà¤ķ à¤³
Ġà¤ł à¤°
à¥ ©
à¥ ¯
Ġà¤ķ à¤¡
à¤ĺ à¤°
Ġà¤¸ à¤°à¤ķ
à¤¢ à¤¤
a l
à¤¯ à¤°
Ġà¤Ĺ à¤°à¤ľ
Ġth e
à¤Ĺ à¤¡
à¤°à¤ª à¤Ł
o u
Ġà¤¸ à¤ķ
à¤¡ à¤¸
Ġà¤ı à¤µà¤¢
Ġà¤ī à¤ĺ
à¤¡ à¤µ
==== ====
à¤¯ à¤¬
à¤Ĺ à¤ļ
Ġà¤Ĩ à¤ķ
Ġà¤° à¤¹
à¤Ĺ à¤µ
à¤Ĩ à¤®
i t
à¤¤ à¤¹
à¤¦ à¤¤
Ġà¤Ĩà¤ł à¤µà¤£
à¤¶ à¤ķ
Ġà¤§ à¤¨
Ġà¤ķ à¤µ
Ġà¤ª à¤¦
Ġà¤ª à¤¡à¤¤
âĢ ĺ
e s
Ġ b
à¤¨ à¤²
à¤¨ à¤¸
Ġà¤ĳ à¤«
à¤¤ à¤µ
Ġà¤Ĩ à¤ª
à¤ª à¤ļ
à¤Ĥ ?
Ġà¤¹ à¤³
Â ł
Ġà¤ľ à¤£
à¤ľ à¤µà¤³
à¤¸ à¤¹
Ġà¤¨ à¤¸à¤²
Ġà¤¨ à¤ľà¤°
à¤¯ à¤¸
Ġà¤Ĩà¤µ à¤¡à¤¤
à¤ĩ à¤¥
Ġ t
Ġ c
à¤ĸ à¤¨
Ġ m
à¤µ à¤ľ
à¤² à¤µ
à¤¸ à¤Ĺà¤³
à¤§ à¤¤
à¤¯ à¤¦
à¤ļ à¤ķ
à¤¸ à¤£
Ġà¤¶ à¤°
Ġà¤ Ī
à¤Ĥ !
à¤· à¤ķ
Ġà¤ħ à¤ļ
à¤ķ à¤£
' '
e d
à¤ķ à¤³
Ġà¤ıà¤ķà¤¦ à¤®
à¤® à¤°
Ġ p
Ġà¤¤ à¤¶
? ?
à¤Ĩ à¤®à¤ļ
a s
Ġà¤® à¤¤
Ġà¤Ĺ à¤°
à¤ĩ à¤¤à¤ķ
à¤¹ à¤Łà¤²
à¤ª à¤Ł
Ġà¤Ĩà¤µ à¤¡
à¤¤ à¤¤
à¤ķ à¤Ł
Ġà¤ī à¤¤à¤°
Ġà¤¨ à¤¯
à¤ķ à¤ļ
à¤¹ à¤¨
à¤µ à¤ª
Ġ o
à¥ ¤
à¤ķ à¤¨
à¤µ à¤ķ
Ġà¤ķ à¤³à¤²
âĢ ¦
>> >
à¤¯ à¤µà¤¸
Ġà¤® à¤ľ
à¥ ª
à¤ľ à¤µ
à¤¬ à¤Ī
à¤ļ à¤£
Ġà¤ ¢
Ġà¤Ĩà¤£ à¤ĸ
ĠâĢ ľ
in g
à¥ ¬
à¤§ à¤°
à¤Ĩ à¤ªà¤£
à¤ķ à¤¦
Ġà¤® à¤¦à¤¤
à¤Ł à¤£
r e
Ġ h
à¤¶ à¤²
Ġà¤² à¤µà¤ķà¤°
Ġà¤ī à¤²
s s
à¤Ł à¤ļ
à¤ľ à¤ļ
à¤® à¤¹
à¤® à¤£
Ġà¤ıà¤ķ à¤®
à¤³ à¤ľ
à¤° à¤¥
Ġà¤ħ à¤¡
à¥ ®
à¤ľ à¤¤
à¤° à¤Ń
à¥Ĥ à¤Ĥ
Ġà¤ħ à¤ķ
Ġà¤ļ à¤°
à¤¹ à¤³
à¤¸ à¤ª
à¤¸ à¤±
à¤ħ à¤ľ
à¤ķ à¤§
o m
à¥Ģ -
à¤ķ à¤¸
Ġà¤ª à¤ķ
à¤ħ à¤Ĺà¤¦
à¤ļ à¤µ
à¤£ à¤¯
Ġà¤ĩ à¤¤
à¤ķ à¤¶
à¤ĸ à¤ķ
à¥Ĥ .
Ġà¤Ĺ à¤ª
Ġà¥ ©
Ġà¤Ĩà¤ł à¤µà¤¤
à¤³ à¤µ
Ġo f
i c
Ġ f
à¤ľ à¤£
Ġà¤Ĩà¤£ à¤²
à¤ª à¤¯
à¤¡ à¤³
Ġà¤ıà¤ķ à¤Ł
à¤Ĩ à¤§
Ġà¤ł à¤°à¤²
Ġ d
à¤ķ à¤µ
à¤¹ à¤²
Ġà¤µ à¤¯
Ġà¤ī à¤¡
an d
à¤¨ à¤¨
Ġà¤µ à¤¡
.... .
à¤ıà¤ķ à¤¦
à¤¤ à¤³
à¤¬ à¤¡
Ġà¤¸à¤®à¤ľ à¤²
e l
à¤ª à¤ķ
Ġà¤¹ à¤¸
Ġà¤¦ à¤¹
Ġà¤ĩ à¤ļ
à¤° à¤¨
à¤ª à¤¹
Ġ l
à¥ Ń
Ġà¤ī à¤Ĺ
à¤ĸ à¤²
Ġà¤ī à¤ł
Ġ 1
******** ********
-------- --------
Ġ +
i on
à¤ª à¤¡
à¤³ à¤ļ
à¤§ à¤²
à¤µà¤° à¤£
à¤Ĩ à¤Ī
Ġà¤łà¤° à¤µà¤²
Ġà¤Ĺ à¤£
Ġà¤Ĳ à¤ķà¤²
à¤¾ '
>> >>
à¤ī à¤¨
à¤µà¤Ł à¤ļ
à¤µ à¤¡à¤²
Ġà¤ª à¤¸
à¤² à¤ķà¤°
à¤ħ à¤ª
à¥ĭ !
Ġà¤ħ à¤²
à¤ľ à¤¸
Ġà¤ī à¤ļà¤²
à¤¢ à¤£
à¤ķ à¤°à¤£
à¤ª à¤¦
Ġ in
Ġà¤ķ à¤³à¤¤
Ġà¤ĺ à¤Łà¤¨
Ġà¤ķ à¤¸à¤²
à¤Ī à¤ķ
à¥ĩ )
Ġà¤ª à¤Ł
Ġà¤ķ à¤¦
Ġà¤Ĩ à¤Ń
Ġà¤¹ à¤ľ
à¤ª à¤·
Ġ n
à¤ľ à¤ķ
à¤¨ à¤°
à¤£ à¤¨
Ġà¤ļ à¤ķ
Ġà¤®à¤§ à¤²
Ġà¤ķà¤ª à¤¡
Ġà¤īà¤ĺ à¤¡
Ġà¤¬ à¤¦
à¤¬ à¤¹
à¤®à¤§ à¤²
à¤ª à¤°à¤¤
à¤¹à¤£ à¤£
a m
Ġà¤Ĩ à¤Ĺ
à¤° à¤¡
à¥Ģ '
Ġà¤ª à¤ķà¤¡
à¤¦ à¤¸
à¤¡ à¤ļ
Ġà¤Ĩà¤Ī à¤ļ
Ġà¤īà¤ª à¤¯
a d
à¤° à¤¯
à¤¤ à¤ªà¤£
Ġà¤ĺ à¤¡
Ġà¤® à¤¶
Ġà¤¹ à¤¸à¤¤
Ġà¤ļ à¤¹
i l
à¤¨ à¤¤
.. "
à¤¥ à¤²
Ġà¤¸à¤¹ à¤ľ
à¤¾ )
à¤Ł à¤¸
à¤ĸ à¤µ
à¤¿ .
à¤ļ à¤ļ
Ġà¤¶ à¤¹à¤°
à¤¯à¤ķ à¤²
c h
Ġ :
à¤¾ "
à¥Ģ )
Ġà¤ª à¤³
à¤« à¤ķ
à¤ī à¤¦
à¤² à¤°
à¤¬ à¤¨
Ġà¤¯ à¤¶
à¤ħ à¤¤
à¤µ à¤Ń
à¤¦ à¤ķ
à¤¡ à¤®
à¤¬ à¤¸
Ġà¤ľ à¤¸
Ġà¤Ĩà¤ł à¤µà¤²
< <
â Ĺ
Ġà¤ª à¤²
à¤ĸ à¤µà¤²
âĹ ı
à¤ ½
à¤¡ à¤°
Ġà¤ľ à¤®à¤²
Ġà¤ľ à¤¬
Ġà¤ļ à¤¢
Ġà¤Ń à¤°à¤²
Ġà¥ «
à¥§ à¥§
âĢĿ âĢľ
a y
Ġ g
Ġà¤ ĭ
à¤ľ à¤¯
à¤ĸ à¤£
Ġà¤§ à¤¡
Ġà¤Ĩà¤µ à¤¶
Ġà¥¨ à¥¦
Ġ )
à¤¨ à¤¦
____ ____
Ġà¤ħ à¤µà¤¸
Ġ /
Ġà¤ Ķ
à¤¹ à¤°à¤£
Ġà¤¬ à¤¸à¤¤
Ġà¤Ĺ à¤¡
âĹı âĹı
à¤¯ à¤ª
Ġà¤¹ à¤²
à¤¦ à¤¯
Ġà¤¨ à¤µà¤°
à¤¶ à¤ļ
Ġà¤ĺ à¤¡à¤²
Ġà¤Ń à¤¯
Ġà¤¹ à¤°
Ġà¥ ª
à¤¤ à¤ª
Ġà¤µ à¤³
Ġà¤ĩ à¤¨
h e
Ġà¤ıà¤ķ à¤ļ
o w
à¤¨ à¤¶
Ġà¤¤ à¤¤
à¤¨ à¤Ĺ
à¤Łà¤ķ à¤¨
h t
Ġ and
à¤ķ à¤¥
à¤¸ à¤®à¤§
Ġà¤¨ à¤¦
à¤Ĩ à¤µà¤¡à¤²
Ġà¤¸à¤®à¤ľ à¤¤
l e
Ġà¤Ĩ à¤¦
Ġà¤µà¤° à¤ļ
Ġ M
Ġ S
à¥Ģ "
à¤ª à¤¡à¤²
Ġà¤ıà¤ķ à¤¤
Ġ I
Ġà¤¸ à¤§
Ġà¤² à¤¢
à¤Ī à¤ļ
à¤ħ à¤Ń
Ġà¤Ĳ à¤ķà¤¤
Ġt o
Ġà¤Ĩ à¤Īà¤²
Ġà¤° à¤ķ
Ġà¤« à¤°à¤ķ
Ġà¤¡ à¤¬
Ġà¤¸à¤° à¤³
à¤ī à¤¤
Ġà¤ħà¤µ à¤ĺ
Ġà¤¸ à¤µà¤¯
Ġà¥§ à¥¯
en t
Ġ y
à¤° à¤Ĺ
à¤¨ à¤ªà¤£
Ġà¤¸ à¤²
Ġà¤¦ à¤°à¤µ
======== ========
à¤¾ âĢĻ
à¥ĩ "
à¤² à¤¹
Ġà¤Ĩ à¤¢
à¤ł à¤µ
à¤ı à¤ĸ
Ġà¤ı à¤¸
Ġà¤ĩ à¤ķà¤¡
Ġà¥ ŀ
à¤°à¤¥ à¤®
Ġ 2
à¤¨ à¤®à¤§
Ġà¤Ĩ à¤¸
à¤§ à¤ķ
à¤¥ à¤³
à¤Ĭ à¤¸
Ġà¤¸à¤¤ à¤¤
à¥Ĥ ,
Ġà¤° à¤µ
Ġà¤Ń à¤°à¤ª
s t
u n
à¤° à¤§
à¤² à¤®
Ġ e
à¤ĸ à¤µà¤¤
Ġà¤° à¤¤à¤¨
Ġà¤īà¤ĺ à¤¡à¤²
. "
Ġà¤ķ à¤ł
Ġà¤¶ à¤ķà¤²
Ġà¤ī à¤®
Ġà¤§ à¤°à¤²
Ġà¤¸à¤¹ à¤ķ
Ġà¤ª à¤Łà¤²
Ġà¤ļ à¤²
à¤ı à¤µà¤¢
ĠâĢ ĵ
Ġà¤ľà¤µà¤³ à¤ļ
w w
Ġà¤ħ à¤¬
à¤¬à¤° à¤ļ
à¤° à¤ªà¤£
........ ........
Ġà¤ľà¤¨ à¤¤
à¤ Ĳ
à¥ĩ -
à¤¨ à¤µà¤°
à¤ķ à¤®
Ġà¤¦ à¤Ĺà¤¡
Ġà¤ľ à¤ª
Ġà¤Ĺ à¤³
Ġà¤ī à¤ļ
Ġà¤Ĩà¤ľ à¤ļ
Ġ k
à¤® à¤¶
Ġà¤Ĩ à¤µà¤°
Ġà¤ħ à¤¹
à¤® à¤µ
Ġà¤¤ à¤ª
Ġà¤ħ à¤ĸ
à¤¶ à¤µ
Ġà¤ªà¤° à¤µ
à¤£ à¤ļ
Ġà¤¹ à¤²à¤ķ
à¤³ à¤ķ
Ġà¤ī à¤ªà¤²
à¤ķà¤¡ à¤ļ
Ġà¤¬à¤¸ à¤£
Ġà¤īà¤² à¤Ł
à¥ĩ '
à¤¸ à¤µ
Ġà¤¤ à¤³
à¤¡ à¤¨
Ġà¤ī à¤¨
Ġà¤ĸ à¤¡
à¤ħ à¤®
Ġà¤Ł à¤ķ
Ġà¤ĵ à¤²
a v
e t
Ġà¤ Ĭ
Ġà¤µ à¤¹
Ġà¤ĵ à¤°
c t
Ġà¤ķ à¤Ł
à¤Ł à¤®
Ġà¤Ń à¤ķ
Ġà¤Ń à¤µ
c e
Ġ C
Ġà¤¦ à¤ķ
à¤ĸ à¤®
à¤ĩ à¤¨
à¤ ĳ
à¤¹ à¤¢
à¤£ à¤µ
à¤® à¤¦
Ġà¤ħ à¤£
Ġà¤īà¤ªà¤² à¤¬
o t
à¤¯ à¤¥
à¤¸ à¤³
Ġà¤ª à¤¡à¤£
à¤¬ à¤³
Ġà¤ĺ à¤¡à¤¤
à¤Ĩ à¤¯
Ġà¤§ à¤ķ
à¤¬à¤° à¤¦à¤¸
at ion
o d
u t
à¤£ à¤µà¤²
Ġà¤ħ à¤Ĺ
à¤¬ à¤°à¤²
Ġà¤¶ à¤¸
Ġà¤Ń à¤²
à¤¹ à¤¸
à¤£ à¤ªà¤£
à¥ģ à¤ĥ
Ġà¤¸ à¤ª
à¤¦ à¤µ
Ġà¤¬ à¤±
Ġà¤² à¤ª
à¤¥ à¤µ
Ġà¤ī à¤łà¤²
à¤°à¤ķ à¤°à¤£
Ġà¤Ĩà¤ł à¤µà¤¡
à¤ª à¤°à¤²
Ġà¤ª à¤¨
Ġà¤ħ à¤µà¤²
à¤ľ à¤Ĺ
à¤¬ à¤ķ
Ġà¤° à¤¡
à¤¤à¤° à¤ļ
à¤Ĭ à¤²
Ġà¤¬à¤ĺ à¤£
Ġà¤¸à¤¹ à¤¨
à¤® à¤¯
à¤ľ à¤®
Ġà¤ī à¤¶
Ġà¤« à¤³
ĠâĢ ¦
Ġà¤ªà¤¸ à¤°à¤²
i m
Ġ B
Ġ is
Ġà¤¸ à¤µ
Ġà¤ħ à¤¦
à¤¦ à¤ļ
à¤Ł à¤µà¤°
à¤ľ à¤µà¤°
à¤§ à¤£
Ġà¤¶ à¤¹
Ġà¤ī à¤°à¤²
Ġà¤ī à¤ľà¤µ
à¤¢ à¤°
à¤ħ à¤µ
à¤¨ à¤¯
Ġà¤¹ à¤¤
à¤Ł à¤ª
à¤¡ à¤ª
Ġà¤¨ à¤°
Ġà¤¬ à¤³
à¤· à¤¤
Ġà¤¬à¤¦à¤² à¤²
i v
à¤¾ à¤ģ
à¤£ à¤µà¤¤
à¥ģ :
Ġà¤ĺ à¤°à¤ļ
Ġà¤ľà¤µà¤³ à¤ª
Ġà¤īà¤¤à¤° à¤²
Ġà¥¨à¥¦ à¥§
à¥ĭ ?
Ġà¤Ĩà¤£ à¤£
à¤ħ à¤Ĺ
à¤ĩ à¤²
!! !
a g
l y
u s
Ġ on
à¤¤ à¤¶
à¤µ à¤§
Ġà¤ķ à¤¬
Ġà¤¸ à¤¦
à¤Ĺ à¤¸
Ġà¤ħ à¤Ł
Ġà¤ľ à¤Ĺà¤£
à¤ł à¤µà¤²
à¥ħ à¤Ĥ
ĠâĢ Ļ
a b
i g
Ġ A
à¤² à¤µà¤¤
à¥Ī .
à¤°à¤® à¤¶
Ġy ou
a k
i r
à¤° à¤Ĺà¤¤
à¤² à¤¸
à¤£ à¤ķ
Ġà¤¹ à¤ķ
Ġà¤¸ à¤Ń
à¤¦ à¤¹
Ġà¤¬ à¤¡
Ġà¤° à¤¶
à¤Ŀ à¤°
Ġà¤ĩ à¤®
Ġà¥ ®
Ġà¥ Ń
o l
t p
à¥Ģ âĢĻ
à¤ķ à¤°à¤¤
Ġà¤® à¤ľà¤²
à¤Ĺ à¤®
à¤· à¤°
Ġà¤ī à¤¸
à¤¸ à¤°à¤²
Ġà¤Ĩ à¤¦à¤°
à¤ª à¤¸
à¤Ĺ à¤¨
Ġà¤¨ à¤¶
à¤¬ à¤µ
à¤ħ à¤²
Ġà¤ł à¤°à¤µ
à¤½ à¤½
/ /
Ġ v
à¤¯ à¤£
Ġà¤¸ à¤ľ
à¤ľ à¤¬
à¤¥ à¤°
Ġà¤ĩ à¤¸
à¤°à¤ķ à¤¤
Ġà¥ ¬
Ġà¤ĵ à¤¢
: //
à¥ ľ
à¤² à¤Ł
à¤¸ à¤¦
Ġà¤ķ à¤¨
Ġà¤¨ à¤¹
Ġà¤Ń à¤°à¤¤
à¤Ŀ à¤²
à¤ħ à¤¹
Ġw h
Ġb e
Ġà¤ħà¤µà¤ĺ à¤¡
à¤° à¤³
à¤¤ à¤ķà¤°
à¤¸ à¤§
Ġà¤Ł à¤ª
à¤µà¤¸ à¤Ńà¤°
th er
Ġà¤¬à¤¨ à¤µà¤²
) .
c om
Ġ it
Ġ re
à¤² à¤¦
à¤® à¤ľ
Ġà¤¨ à¤®
à¤§ à¤³
à¤µà¤° à¤¹
à¤Ĩ à¤ª
Ġà¤¬à¤¨ à¤µ
Ġà¤¬à¤¦à¤² à¤¤
ht tp
Ġ P
à¤ ¼
à¤² à¤¬
à¤ķ à¤µà¤£
Ġà¤ª à¤Łà¤ķà¤¨
à¤¦ à¤³
à¤¬ à¤ĺ
Ġà¤ł à¤°à¤¤
à¤°à¤ķ à¤²
à¥Į à¤Ĥ
Ġà¤ĵ à¤³
is t
u l
à¥ĩ à¥¤
à¤° à¤«
à¤¯ à¤ķà¤°
à¤ķ à¤ª
à¤® à¤Ł
à¥ģ .
à¤· à¤¦
à¤ĸ à¤¤
Ġà¤ĸ à¤°à¤ļ
Ġà¥§ à¥¦à¥¦
r o
à¤¾ :
à¤¨ à¤®
à¤¹ à¤µ
Ġà¤ķ à¤¹
Ġà¤ķ à¤·
à¤ª à¤µ
à¤ª à¤¡à¤¤
à¤Ł à¤µ
à¤ħ à¤ļ
a p
i d
à¤¢ à¤µ
à¤¬à¤Ī à¤¤
Ġà¤Ĺà¤£ à¤ªà¤¤
Ġà¤īà¤ļà¤² à¤²
à¤² à¤ª
à¤® à¤®à¤§
Ġà¤ħ à¤«
Ġà¤ħ à¤¥à¤µ
Ġà¤ı à¤µ
à¤°à¤ķ à¤°
es t
h an
Ġ T
Ġ an
à¤ ĭ
à¤° à¤°
à¤² à¤µà¤²
Ġà¤ª à¤¶
à¥Ĥ ?
à¤¶ à¤¬
Ġà¤° à¤¤
à¤Ī à¤¤
à¤Ĩ à¤°
Ġà¤ħà¤¶ à¤ķ
` `
Ġ >>
Ġà¤® à¤¦
Ġà¤µ à¤³à¤£
Ġà¤¬ à¤²
Ġà¤ľ à¤¹
Ġà¤Ĩà¤£ à¤¤
à¤Ĭ à¤ķ
Ġà¤¶à¤ķ à¤£
à¥¨ à¥¦
---------------- ----------------
" ,
à¤¨ à¤ª
à¤ķ à¤µà¤²
à¤£ à¤¬
Ġà¤¤ à¤¡à¤ķ
à¤« à¤°
à¤¯à¤µ à¤¹
Ġà¤ĩà¤¥ à¤²
Ġà¥§ à¥¦
Ġà¤ªà¤ķà¤¡ à¤²
Ġà¤¯à¤¶ à¤¸
à¤ķ à¤µà¤¤
à¤® à¤³
Ġà¤¹ à¤¸à¤²
à¤³ à¤µà¤²
Ġà¤ī à¤°
Ġà¤ī à¤ľ
à¤ĩ à¤¤à¤°
à¤Łà¤° à¤¨
Ġà¤Ĩà¤Ī à¤¨
à¤Ĩà¤ľ à¤ļ
Ġf or
Ġ1 9
âĹıâĹı âĹıâĹı
u m
Ġ G
Ġà¤¹ à¤®
Ġà¤¹ à¤°à¤ķà¤¤
à¤Ĺ à¤ª
Ġà¤īà¤ª à¤ķ
Ġà¤¬à¤¨ à¤²
Ġà¤ħà¤¡ à¤ļà¤£
à¤° à¤¦à¤°
à¤¯ à¤®à¤ļ
à¤ļ à¤µà¤²
à¤ķ à¤¹
à¤¸ à¤µà¤°
Ġà¤Ĩ à¤¸à¤ª
à¤ª à¤³
Ġà¤ľ à¤®à¤¤
.... ..
Ġà¤Ľ à¤¤
Ġà¤²à¤µà¤ķà¤° à¤ļ
à¤ıà¤ķà¤¦ à¤®
u r
à¤¯ à¤Ł
Ġà¤Ĩ à¤ķà¤¡
Ġà¤® à¤Ł
Ġà¤¤ à¤ķ
à¤Ł à¤®à¤§
Ġà¤ľ à¤Ĺà¤¤
Ġà¤ı à¤®
à¤¦à¤² à¤ļ
**************** ****************
+ +
n d
u p
Ġà¤Ĩ à¤³
à¤¶ à¤¦
Ġà¤ľ à¤¬à¤°à¤¦à¤¸
à¤· à¤°à¤¶
Ġà¤Ķ à¤°
Ġ2 0
) ,
Ġ r
à¤° à¤µà¤°
à¤ļ à¤¯
à¤ļ à¤¦
à¤ľ à¤ª
à¤· à¤®à¤¤
à¤ĸ à¤¦
er e
Ġ D
à¥ĩ ;
à¤° à¤µà¤²
à¤µ à¤¹
à¤¸ à¤¬
à¤Ń à¤²
Ġà¤ĩ à¤¶
à¤µà¤² à¤ķà¤°
Ġà¤¨à¤ķ à¤³à¤¤
à¤°à¤¸ à¤¨
à¥¦à¥¦ à¥¦
c k
i th
à¤² à¤µà¤ķà¤°
Ġà¤¸ à¤ļ
à¤¦ à¤£
Ġà¤µ à¤ľà¤¨
à¤ĸ à¤µà¤£
à¤ĺ à¤¤
Ġà¤¸à¤¹ à¤Ń
Ġà¥§ à¥¨
Ġà¤īà¤ª à¤¸
as t
s e
Ġà¤ į
à¥ĩ âĢĻ
Ġà¤Ĩ à¤¤à¤²
Ġà¤Ĩ à¤ķà¤°
Ġà¤ª à¤³à¤¤
à¤¦ à¤°à¤®
Ġà¤µ à¤ķ
Ġà¤¨ à¤·
à¤³ à¤µà¤£
à¤¶ à¤°
à¤¶ à¤¸
Ġà¤Ĺ à¤Ł
à¤Ī à¤ªà¤°
à¤Ĩ à¤¨
à¤Ĩ à¤¶
à¤°à¤® à¤£
in d
Ġs t
2 0
a ch
Ġ L
à¤¹ à¤ľ
à¤¹ à¤±
à¥ģ ,
Ġà¤ª à¤Ĺ
Ġà¤¸ à¤¨
à¤¡ à¤µà¤°
à¤ľ à¤®à¤§
à¤ī à¤Ĺ
Ġà¤Ĩà¤ł à¤µ
Ġà¤ĳ à¤ķ
a h
r i
Ġ R
à¤² à¤ĸ
à¤² à¤µà¤°
à¤² à¤µà¤£
à¤ļ à¤¸
Ġà¤¤ à¤¬
Ġà¤ª à¤Łà¤¤
Ġà¤¹ à¤Ł
Ġà¤ħ à¤Ĺà¤¤
Ġà¤¬ à¤ķ
Ġà¤¦ à¤¤
à¤¬ à¤¦à¤²
Ġà¤Ĺ à¤°à¤®
Ġà¤ļ à¤®à¤¤
à¤¥ à¤¨
Ġà¤ĺ à¤Ł
Ġà¤ī à¤ªà¤¨
à¥Ģ, "
Ġà¤ħà¤¨ à¤¨
Ġà¤¸à¤® à¤°
Ġà¥ ¯
.... ...
Ġà¤Ĩà¤ľ à¤¹
à¥§ à¥¯
à¤°à¤ª à¤¤
is h
à¤¸à¤ķ à¤Ł
à¤Ĳ à¤µà¤ľ
e ar
v er
Ġ H
à¤° à¤¬
à¤¤ à¤¯
à¤² à¤Ń
Ġà¤¤ à¤¡
à¤³ à¤µà¤³
à¤¶ à¤¨à¤ļ
Ġà¤¬ à¤ľ
Ġà¤° à¤¡à¤¤
à¤Ī à¤¸
à¤Ĩ à¤²
à¤ĺ à¤£
Ġà¤ĵ à¤ĺ
Ġà¤¸à¤¹ à¤®à¤¤
Ġà¤¬à¤¸ à¤µ
Ġw as
Ġà¤¢ à¤ķà¤²
a th
à¥Ģ ;
à¤² à¤ªà¤£
à¤² à¤®à¤§
à¤® à¤¹à¤¤
Ġà¤¸ à¤¬
à¤¡ à¤Ĺ
à¤³ à¤Ĺ
Ġà¤¬ à¤¬à¤¨
à¤· à¤§
à¤ĸ à¤°à¤ļ
à¤ł à¤µà¤£
Ġà¤ĩ à¤²
à¤« à¤²
Ġà¤¸à¤® à¤¸
... "
Ġà¤ĭ à¤·
Ġà¤Ĺà¤¡ à¤¬à¤¡
i a
o o
Ġ x
à¤¯ à¤¸à¤¨
à¤ķ à¤¸à¤²
à¤® à¤°à¤£
à¤§ à¤µ
Ġà¤¶ à¤¤à¤ķ
Ġà¤ļ à¤µ
à¤¥ à¤ķ
Ġà¤« à¤°
à¤Ī à¤®
à¤ı à¤µ
à¤ĩ à¤ķà¤¡
à¤ī à¤²à¤Ł
!! !!
Ġà¥¨ à¥¦à¥¦
Ġà¥¨ à¥«
Ġà¤Ĳà¤ķ à¤£
http s
, âĢľ
0 0
Ġ j
à¤¨ à¤¡
à¤ķ à¤ªà¤£
Ġà¤¹ à¤¸à¤£
à¤¬ à¤£
Ġà¤ľ à¤¯
Ġà¤ľ à¤ĸà¤®
Ġà¤Ĺ à¤¯
âĢ Į
Ġà¤Ĩà¤¯ à¤¡
ar t
Ġ 3
à¤¤ à¤¬
à¤ļ à¤¬à¤°
à¤Ĥ -
Ġà¤ª à¤¦à¤°
à¤Ł à¤°à¤ļ
à¤¬ à¤Ł
Ġà¤Ĺ à¤²
à¤ĸ à¤³
Ġà¤« à¤²
à¤ħ à¤ķ
Ġà¤Ĩà¤ľ à¤µà¤°
âĢĻ âĢĻ
Ġà¤Ĳ à¤µà¤ľ
Ġà¥§ à¥§
Ġà¥§ à¥«
Ġth at
Ġw ith
ww w
Ġà¤ĵà¤° à¤¡à¤²
' .
/ \
Ġ K
Ġ W
à¥ ŀ
à¤¾ à¥ħ
à¤° à¤µà¤¤
à¤¤ à¤ªà¤¤
à¤µ à¤§à¤°
à¥ĭ -
Ġà¤ª à¤ª
Ġà¤ª à¤¸à¤°
Ġà¤ħ à¤µà¤¤
à¤Ł à¤ªà¤£
Ġà¤µ à¤¨
Ġà¤µ à¤³à¤²
Ġà¤ļ à¤¢à¤²
à¤Ĩ à¤¹
à¤¾, âĢľ
Ġà¤®à¤¨ à¤¸
Ġà¤¨à¤¸ à¤£
Ġà¤ĵà¤³à¤ĸ à¤¤
à¤²à¤ķà¤° à¤ļ
Ġà¤Ķ à¤·à¤§
e m
i f
l d
y a
à¤² à¤ľ
à¤¹ à¤ļà¤²
Ġà¤ħ à¤ªà¤°
Ġà¤ħ à¤¡à¤ķ
à¤Ł à¤¹
Ġà¤¦ à¤µ
à¤¬ à¤¡à¤¤
à¤¬ à¤¤à¤ļ
Ġà¤ľ à¤¶
à¤· à¤®
Ġà¤Ĺ à¤®
Ġà¤ı à¤¨
Ġà¤ıà¤ķ à¤¹
Ġà¤Ŀ à¤ķ
à¥Ī à¤Ĥ
Ġà¤ħà¤ª à¤ĺ
Ġs h
ou r
Ġc om
Ġà¤ħà¤¡ à¤ķà¤²
X X
c i
Ġ E
Ġ N
Ġ V
à¤¯ à¤ľ
à¤ļ à¤¹
à¤ļ à¤¶
à¤ķ à¤ĺà¤°
à¤¸ à¤¸
Ġà¤ķ à¤ļ
Ġà¤Ĩ à¤ĺ
à¤ª à¤®
Ġà¤¸ à¤¦à¤¸
à¤Ĺ à¤¶
à¤¦ à¤®
à¤¡ à¤¬
à¤³ à¤¸
Ġà¤¬ à¤¬
.. ""
à¤Ń à¤µà¤²
à¤Ī à¤¡
>> >>>
à¤¶à¤¨ à¤²
à¥§ à¥«
Ġà¤¸à¤®à¤ľ à¤£
à¥¦à¥¦ à¥¦à¥¦
Ġà¤ħà¤µ à¤¯à¤µ
Ġb y
o g
o p
à¥į .
à¤° à¤µà¤£
à¤¯ à¤¹
à¤¿ ,
à¤¹ à¤ķ
à¤µ à¤Ĺ
à¤µ à¤¦
à¤£ à¤Ĺ
à¤ª à¤¥
à¤Ĺ à¤µà¤²
Ġà¤¬ à¤Ĺ
Ġà¤¦ à¤®
à¤µà¤° à¤¤
Ġà¤¶ à¤¤
Ġà¤ļ à¤³à¤µà¤³
Ġà¤Ń à¤°à¤£
à¤¹à¤£ à¤²
Ġà¤ī à¤§
Ġà¤ĵ à¤°à¤¡
à¥© à¥¦
à¤µà¤ľ à¤£
?? ?
Ġà¤Ĩà¤¢ à¤³à¤¤
. !!
à¤¾ /
à¤¾ ""
à¤¤ à¤ľ
à¤ļ à¤µà¤£
à¤µ à¤ľà¤¨
à¤¸ à¤°à¤ķ
à¤ª à¤¶
à¤ª à¤µà¤°
Ġà¤¸ à¤ĸ
à¤Ł à¤«
à¤¶ à¤®
à¤¬ à¤ļ
Ġà¤ľ à¤²
à¤· à¤Ńà¤°
Ġà¤Ĺ à¤µà¤¤
Ġà¤Ń à¤Łà¤ķ
à¤Ī à¤ª
Ġà¤§ à¤°à¤£
à¤ªà¤° à¤µ
Ġà¤ªà¤° à¤¦
à¤Īà¤² à¤ļ
Ġà¤ĵ à¤µ
Ġà¤ĵ à¤¸
Ġà¤ľà¤µà¤³ à¤ľà¤µà¤³
ĠĠ ĠĠ
Ġà¤ªà¤¡ à¤¦
it y
Ġh av
il l
t er
Ã ¢
Ġ F
à¥Ģ :
à¤ļ à¤ª
à¥Ĥ !
Ġà¤¹ à¤ľà¤°
Ġà¤¨ à¤µà¤²
à¤¬ à¤µà¤²
à¤¬ à¤±
à¤§ à¤µà¤Ł
Ġà¤ħà¤¸ à¤¹
à¤ĸ à¤ļ
Ġà¤ļ à¤®
à¤Ń à¤ķ
à¤ĺ à¤Łà¤¨
à¤ı à¤¨
Ġà¤ĺà¤° à¤Ł
Ġà¤ĵ à¤ł
à¥§ à¥¦
Ġà¤Ĩà¤ªà¤£ à¤¹
Ġà¤¬à¤¨ à¤¤
Ġa l
Ġà¤¸à¤°à¤ķ à¤¤
âĢ¦ .
ss ss
Ġn e
================ ================
o od
t a
Ġ 6
à¥Ģ /
à¤µ à¤µ
Ġà¤® à¤°à¤£
à¤ª à¤°à¤£
Ġà¤µ à¤¤
à¤³ à¤ª
à¤ľ à¤µà¤²
à¤¬ à¤°à¤¤
Ġà¤ľ à¤¡
Ġà¤² à¤¯
Ġà¤ļ à¤ª
Ġà¤ĺ à¤¡à¤µ
Ġà¤« à¤Łà¤ķ
à¥ī .
Ġà¤¥ à¤ķà¤²
à¤Ľ à¤¤
à¤¶à¤¨ à¤µà¤°
Ġà¤¬à¤¸ à¤µà¤²
er s
Ġà¤ľà¤¨ à¤°à¤²
Ġà¤ĵà¤³à¤ĸ à¤²
ou t
Ġà¤¢ à¤Ĺ
Ġe x
: )
e ct
à¤¤ à¤¦
à¤¯ à¤Ĺ
à¤¨ à¤ªà¤¤
à¤¹ à¤¯
à¥ĭ '
Ġà¤ķ à¤£
à¤® à¤ª
Ġà¤¤ à¤ľ
Ġà¤ª à¤µ
à¤¦ à¤¶
à¤³ à¤ķà¤°
à¤ľ à¤µà¤Ł
à¤¬ à¤Ĺ
Ġà¤° à¤ĺ
Ġà¤° à¤«
Ġà¤ļ à¤®à¤ķ
Ġà¤Ń à¤¨
Ġà¤Ń à¤Ĺà¤µ
Ġà¤ī à¤²à¤Ĺ
à¤ħ à¤¸à¤²
Ġà¤§ à¤®à¤ķ
ar d
Ġà¤łà¤° à¤µà¤¤
à¤ľà¤µà¤³ à¤ļ
Ġc h
Ġà¤°à¤¤ à¤¨à¤ļ
u b
à¤¾ âĢĿ
à¤¤ à¤¡à¤ķ
à¥Ģ âĢĿ
à¤¸ à¤«
Ġà¤Ĩ à¤ļ
Ġà¤Ĩ à¤¡à¤µ
à¤ª à¤µà¤²
à¤¦ à¤°à¤ļ
à¤ľ à¤¹
à¤§ à¤®
Ġà¤ļ à¤¢à¤¤
Ġà¤ı à¤²
Ġà¤Ń à¤Ł
à¤Ń à¤µà¤¤
** *
à¤¸à¤¤ à¤¤
à¤ĩ à¤¸
Ġà¤ĵ à¤¢à¤²
à¤Ĩà¤£ à¤ĸ
à¥§ à¥¨
Ġà¤¸à¤¹ à¤¸
es s
à¤ĩà¤¥ à¤²
Ġà¤¹à¤° à¤µà¤²
1 9
h a
i k
o st
s h
à¤¾ âĢ¦
à¥ĩ âĢ¦
à¤° à¤Ł
à¤¸ à¤°à¤¤
à¤£ à¤²
Ġà¤Ĩ à¤ĸ
à¤Ĺ à¤¹
à¤Ĺ à¤Ł
à¤Ĺ à¤¦à¤°
Ġà¤¨ à¤¯à¤¨
Ġà¤¬ à¤ļ
à¤§ à¤¶
Ġà¤° à¤®
Ġà¤Ń à¤²à¤¤
Ġà¤ĸ à¤Ł
Ġà¤ĸ à¤¬à¤°
à¤Ĭ à¤Ł
Ġà¤ĩ à¤¸à¤®
à¥ī à¤Ĥ
à¤ķà¤² à¤¨
à¤ĩ à¤Ł
à¤Łà¤° à¤µà¤°
Ġà¤Ĩà¤Ī à¤µà¤¡
Ġà¤¬à¤¨ à¤µà¤¤
or y
Ġà¤Ĩà¤ª à¤¸
Ġc on
à¤Ĩà¤Ī à¤ļ
________ ________
' !
i e
r a
Ġ 5
Ġ =
à¤° à¤Ńà¤°
à¥Ģ à¥¤
à¤¯ à¤¶
à¤ļ à¤µà¤¤
à¤Ĥ ;
à¤¸ à¤ĸ
à¤® à¤µà¤°
Ġà¤¤ à¤®
à¤Ĺ à¤®à¤§
Ġà¤ħ à¤µà¤¶
Ġà¤¨ à¤Ĭ
Ġà¤¨ à¤®à¤¸
à¤ľ à¤¬à¤°à¤¦à¤¸
Ġà¤¦ à¤¯
Ġà¤¦ à¤°à¤®
Ġà¤Ĺ à¤¤
Ġà¤Ĺ à¤¦
Ġà¤° à¤¨
à¤¥ à¤®
Ġà¤ĺ à¤Łà¤ķ
Ġà¤ıà¤ķ à¤µ
à¤Ī à¤Ī
à¤¤à¤° à¤¹
à¤ħ à¤ĸ
Ġà¤¨à¤µ à¤±
à¤¤à¤ķ à¤±
à¤ı à¤Ł
an g
à¤¡à¤ķ à¤¨
Ġà¤ĳ à¤ªà¤°
Ġà¤ĳ à¤Ĺà¤¸
Ġà¤īà¤ª à¤ļ
Ġà¤¬à¤¨ à¤µà¤£
Ġà¤ªà¤Ł à¤µ
am e
Ġà¤¤à¤³ à¤µà¤²à¤ķà¤°
à¤ĳ à¤«
T h
p t
à¤¸ à¤³à¤²
Ġà¤Ĩ à¤Ł
Ġà¤Ĩ à¤¡
Ġà¤ª à¤°à¤®
Ġà¤¸ à¤«
à¤¡ à¤¶
à¤¡ à¤µà¤¤
Ġà¤Ĺ à¤ļ
Ġà¤Ĺ à¤Ŀà¤²
à¤µà¤° à¤²
Ġà¤° à¤Ŀ
à¤Ĩ à¤ł
à¤ħ à¤¬
Ġà¤Ł à¤°
à¤ı à¤¸
Ġa s
à¤ĵ à¤¹
Ġà¤īà¤¤à¤° à¤¤
el l
à¥ĩ) .
................ ................
Ġà¤Ĭ à¤°
ig ht
Ġhav e
" .
m ent
o v
u e
à¤¨ à¤¬
à¤® à¤¬
Ġà¤® à¤ĺ
Ġà¤ª à¤ł
Ġà¤ª à¤°à¤ķ
à¥Ĥ -
à¤Ĺ à¤ķ
à¤Ĺ à¤µà¤¤
Ġà¤ħ à¤ķà¤°
à¤¦ à¤ª
Ġà¤² à¤·
Ġà¤Ĺ à¤ľ
à¤ł à¤ª
Ġà¤ıà¤ķ à¤¸
à¤Ĩ à¤ķ
à¤¢ à¤µà¤²
à¤ĺ à¤¡
Ġà¤ĩ à¤°
Ġà¤¸à¤° à¤¸
à¤ı à¤®
à¥§ à¥©
Ġà¤īà¤¦ à¤¯
Ġth is
or e
Ġà¤ķà¤³ à¤µ
al i
Ġm an
âĢ¦ âĢ¦
ic h
Ġn ot
iv e
k s
l a
n ow
Ġ U
à¤¾ ;
à¥ĩ âĢĿ
à¤¤ à¤Ĺ
à¤¤ à¤§à¤¨
à¤² à¤¡
à¤¯ à¤¯
à¤¯ à¤ħà¤¶
à¤ķ à¤·
à¤ķ à¤µà¤°
à¤¸ à¤Ńà¤°
Ġà¤ķ à¤¡à¤ķ
Ġà¤¤ à¤²
à¤¦ à¤¦
à¤ľ à¤³
Ġà¤¦ à¤¡
à¤¬ à¤§
à¤§ à¤¡
.. !
Ġà¤ķà¤° à¤¨
Ġà¤ĺ à¤¡à¤£
à¤Ń à¤¨
à¤Ī à¤µ
à¤Ŀ à¤¨
à¤Ĭ à¤¯
Ġà¤§ à¤®
Ġà¤§ à¤°à¤¤
à¤¸à¤² à¤®
Ġà¤¥ à¤°
à¤°à¤µ à¤ł
à¤ıà¤ķ à¤Ł
Ġà¤Ĩà¤ªà¤£ à¤ļ
ar e
Ġs e
Ġà¤ľà¤Ĺ à¤Ńà¤°
Ġà¤Ńà¤° à¤Ńà¤°
ou s
Ġp r
à¤¹à¤¨ à¤¤
<< <
ab le
âĹıâĹıâĹıâĹı âĹıâĹıâĹıâĹı
I n
T he
r y
Ġ 4
Ġ >>>
à¤¤ à¤¡
à¤¤ à¤Ń
à¤¯ à¤Ń
à¤¯ à¤Ńà¤°
à¤¨ à¤Ł
à¤¹ à¤ļ
Ġà¤ķ à¤³à¤£
à¤ª à¤®à¤§
à¤ª à¤Łà¤²
à¤Ĺ à¤°à¤®
Ġà¤µ à¤°à¤¤
Ġà¤µ à¤Ĺà¤³
à¤ľ à¤¬à¤°
Ġà¤¦ à¤¬
Ġà¤¦ à¤¶à¤ķ
à¤· à¤¸
Ġà¤Ĺ à¤®à¤¤
.. '
Ġà¤° à¤ľ
Ġà¤ļ à¤Łà¤ķà¤¨
Ġà¤ı à¤¡
Ġà¤ī à¤·
Ġà¤Ŀ à¤ª
Ġà¤ĸ à¤³
à¤Ŀ à¤ķ
à¤ħ à¤§
à¤Ĭ à¤¦
-- -
à¤Łà¤¤ à¤¯
Ġ" .
à¤Ĺà¤£ à¤¨
à¤¸à¤® à¤ľ
ĠâĢĺ âĢĺ
à¤ĵ à¤ķ
Ġw e
Ġà¤ķà¤³ à¤µà¤²
Ġà¤¸à¤°à¤ķ à¤²
as h
à¤¬à¤Ī à¤ļ
re at
Ġà¤ħà¤ķ à¤¬à¤°
om e
Ġà¤īà¤® à¤Łà¤²
Ġà¤¤à¤ª à¤¶
Ġà¤¬à¤¡ à¤¬à¤¡
. '
1 0
u d
Ġ J
à¤¯ à¤°à¤¤
à¤ķ à¤ľà¤£
Ġà¤® à¤³
Ġà¤¤ à¤¹
à¤¡ à¤®à¤§
à¤¡ à¤ķà¤°
à¤³ à¤¶
à¤¶ à¤ª
à¤ĸ à¤¡
Ġà¤° à¤¡à¤£
Ġà¤° à¤ļà¤¨
à¤ł à¤ļ
Ġà¤ıà¤ķ à¤¤à¤°
à¤Ń à¤¯
Ġà¤« à¤¸
Ġà¤« à¤Ł
à¤Ĩ à¤µ
Ġà¤ĩ à¤Ł
à¥Ī ,
à¤ı à¤°à¤µ
à¤ĩ à¤¤
à¤ĩ à¤®
à¤·à¤£ à¤Ńà¤°
à¤ī à¤Ł
à¤Ĥ, "
in e
an t
Ġà¥§ à¥ª
Ġà¤²à¤Ĺ à¤¬à¤Ĺ
Ġà¤ħà¤ª à¤®
à¤¯à¤® à¤µà¤°
à¥¨ à¥¦à¥¦
Ġth ere
Ġà¤ľà¤® à¤£
Ġà¥« à¥¦
ĠC h
ath i
g e
u re
Ġ or
à¥ Ħ
à¥ĩ :
à¤° à¤ªà¤°
à¤² à¤Ĺà¤£à¤¨
à¤ķ à¤¬
à¤£ à¤£
Ġà¤ķ à¤ļà¤°
à¤® à¤ĸ
Ġà¤® à¤®
à¤Ł à¤°à¤²
à¤¡ à¤ĺ
Ġà¤¨ à¤Ĺ
à¤¶ à¤¶
Ġà¤¦ à¤¡à¤²
à¤· à¤ļ
Ġà¤¯ à¤ľ
Ġà¤ķà¤° à¤µ
à¤ł à¤£
à¤ł à¤µà¤¤
Ġà¤ļ à¤Łà¤ķ
à¤¥ à¤ª
Ġà¤ī à¤¡à¤¤
à¤¢ à¤¦
à¤¢ à¤µà¤£
à¤¤à¤° à¤°
à¤¤à¤° à¤²
à¤ĺ à¤¡à¤²
Ġà¤ĩ à¤ľ
à¤Łà¤² à¤®à¤§
à¤¯à¤ķ à¤¤
Ġà¤ĵ à¤Ŀ
à¤°à¤¸ à¤®à¤ľ
à¤ī à¤¸
Ġà¤ĳ à¤¨
Ġs o
........ .
à¥« à¥¦
Ġà¤Ĩà¤ª à¤ķ
Ġh e
..... "
Ġ: -
à¥Ģ) .
Ġà¤§à¤¡ à¤ªà¤¡
un d
- '
? âĢĿâĢľ
a he
h ar
q u
º à¤¯
Â ºà¤¯
â ĺ
Ġ *
Ġ X
Ġ at
à¤° à¤®à¤§
à¤¤ à¤®à¤¸
à¤¯ à¤µà¤°
à¤¨ à¤£
à¤¨ à¤®à¤¸
à¤¨ à¤Ĺà¤¡
à¤Ĥ âĢĻ
à¥ĭ âĢĻ
à¤£ à¤®
Ġà¤¹ à¤²à¤µ
à¤Ĺ à¤µà¤°
à¤Ł à¤°à¤µ
à¤¡ à¤µà¤²
à¤¡ à¤«
Ġà¤¨ à¤³
à¤¶ à¤¹à¤°
à¤¬ à¤ľ
à¤¬ à¤¬
Ġà¤² à¤¤
Ġà¤² à¤²
Ġà¤Ĺ à¤¹
Ġà¤¯ à¤ķ
Ġà¤° à¤¦
à¤ł à¤®
Ġà¤ļ à¤¢à¤£
à¤¥ à¤¤
Ġà¤ĺ à¤Łà¤¸
Ġà¤Ń à¤ľ
Ġà¤Ŀ à¤Łà¤ķ
à¤Ĩ à¤¦
à¤ħ à¤¡
à¤Ĭ à¤°
à¤Łà¤² à¤ļ
Ġà¥ ¤
Ġà¤Ĩà¤ľ à¤ķ
âĢĻ âĢĺ
à¤ī à¤²
à¤Ĺà¤£ à¤ªà¤¤
Ġà¤¬à¤¸ à¤®à¤§
Ġà¤ķà¤® à¤°
an s
Ġà¥§ à¥Ń
Ġà¤¬à¤¦à¤² à¤£
ĠĠ Ġ
or t
en ce
ou ld
à¤ľà¤µà¤³ à¤ª
Ġm y
Ġp ro
Ġd e
>>>> >>
Ġà¤Ĩà¤Ĺ à¤®à¤¨
ĠM ar
Ġk now
Ġà¤ĵà¤° à¤¡à¤¤
Ġà¥® à¥¦
nd ia
âĺ º
. ?
_ /\
n a
Ġ @
Ġ |
à¤¯ à¤°à¤ļ
à¥ĭ "
à¤ª à¤ª
à¤ª à¤Ĺ
Ġà¤ª à¤§
Ġà¤¸ à¤£
Ġà¤¸ à¤«à¤°
à¤Ĺ à¤ľ
Ġà¤ħ à¤ªà¤¨
à¤¦ à¤Ĺ
Ġà¤µ à¤ļà¤¨
à¤ľ à¤¶
à¤¬ à¤µà¤¤
Ġà¤ľ à¤¬à¤°
Ġà¤² à¤µ
.. !!
Ġà¤ķà¤° à¤®à¤£
à¤ł à¤¯
Ġà¤ı à¤ļ
Ġà¤ĸ à¤ľ
Ġà¤ĸ à¤±
Ġà¤ħà¤¨ à¤ª
à¤ķà¤° à¤ļ
Ġà¤¸à¤° à¤ª
à¤°à¤ļ à¤²
Ġà¤ªà¤° à¤¸
à¤µà¤³ à¤£
Ġà¤Ľ à¤¡
Ġà¤Ĩà¤ľ à¤ªà¤°
à¤ıà¤ķ à¤®
à¥§ à¥¦à¥¦
Ġà¤Ĳ à¤¤
Ġà¤¸à¤¹ à¤µ
Ġà¥§ à¥¬
Ġà¥§ à¥®
Ġà¤ĳ à¤¸
à¤Ĩà¤ľ à¤ķ
on e
Ġà¤Ĩà¤° à¤¡
or d
Ġà¤ħà¤® à¤°
al a
ou g
?? ??
à¤¤à¤³ à¤µà¤²à¤ķà¤°
Ġà¤īà¤ł à¤¤
à¥§à¥§ à¥§
Ġà¤Ĩà¤¢ à¤³
Ġà¤°à¤¤à¤¨ à¤²
Ġwh o
Ġ19 4
à¤²à¤µà¤ķà¤° à¤ļ
. !
h il
h ag
l o
p e
p r
u st
¸ ı
ï ¸ı
à¤ Ķ
à¥ĩ /
à¤¤ à¤£
à¥Ģ âĢĮ
à¤² à¤¥
à¤¨ à¤«
à¤¨ à¤Ľ
à¤¨ à¤Ĺà¤°
à¤¿ :
à¤ķ à¤ķ
à¤ķ à¤ł
à¤£ à¤ĸ
à¤® à¤ł
Ġà¤® à¤£
Ġà¤¤ à¤¥
Ġà¤¸ à¤¤à¤°
Ġà¤ħ à¤¯
à¤Ł à¤°à¤¸
à¤¡ à¤¹
à¤¡ à¤µà¤£
à¤ľ à¤µà¤¤
Ġà¤ħà¤¸ à¤ļ
Ġà¤¯ à¤¥
Ġà¤° à¤ĸ
Ġà¤¶ à¤¨
à¤ł à¤°à¤²
Ġà¤ı à¤ª
Ġà¤ī à¤°à¤ķ
Ġà¤ĸ à¤ļ
à¤Ī à¤¶
à¤Ĩ à¤Īà¤¨
à¤¤à¤° à¤¤
Ġà¤ł à¤°à¤£
à¤Ĭà¤¨ à¤ļ
Ġà¤Ĩà¤µ à¤¡à¤£
à¤ĩ à¤¸à¤®
ĠâĢ Ŀ
Ġà¤¤à¤¸ à¤ļ
Ġà¤ªà¤°à¤¤ à¤²
Ġà¥§ à¥©
at e
Ġà¥¨ à¥§
on g
Ġà¤Ĳà¤ķ à¤µà¤²
Ġà¤ĩà¤¤à¤° à¤¹
Ġa m
Ġa ahe
al ly
Ġm e
Ġà¤īà¤¤à¤° à¤£
el f
Ġà¤īà¤ł à¤µ
ad e
Ġà¤į à¤ķ
Ġà¤¬à¤¬ à¤¨à¤ļ
âĺº ï¸ı
' ,
' s
* ~
: -
i p
u ch
Ġ O
à¥į ,
à¤° à¤·
à¤ļ à¤®
à¤Ĥ "
à¤¸ à¤³à¤¤
à¥ĭ )
à¥ĭ ;
à¤® à¤Ń
Ġà¤Ĩ à¤¬
Ġà¤Ĩ à¤¯à¤²
Ġà¤Ĩ à¤°à¤ķ
Ġà¤Ĩ à¤¸à¤¨
à¤ª à¤±
Ġà¤¸ à¤¦à¤°
Ġà¤¸ à¤²à¤Ĺ
à¤Ł à¤µà¤¸
Ġà¤µ à¤³à¤¤
à¤ľ à¤¦
à¤¬ à¤µà¤°
à¤¬ à¤Īà¤²
Ġà¤² à¤Łà¤ķ
Ġà¤ļ à¤®à¤ļ
Ġà¤ı à¤«
Ġà¤Ń à¤¡
Ġà¤ĸ à¤¤
Ġà¤¤à¤° à¤ļ
à¤Ī à¤ľ
à¤Ī à¤«
à¤Ĩ à¤µà¤¡
à¥Ī !
Ġà¤Ł à¤ļ
à¤« à¤³
à¤°à¤£ à¤ªà¤£
Ġà¤¡ à¤¬à¤²
à¤¸à¤² à¤¨
à¤Ĭà¤¨ à¤¹
Ġà¤¥ à¤°à¤¥
.... "
à¤¦à¤² à¤¹
à¤°à¤¸ à¤°à¤£
à¥§ à¥¬
Ġà¤Ĳ à¤¸
Ġà¤Ĩà¤Ī à¤¬
Ġà¤ĳ à¤°
Ġà¤ĳ à¤¨à¤²
à¥¨ à¥«
at a
Ġa b
à¤¸à¤¨ à¤²
it t
à¤¸à¤¹ à¤ľ
Ġc an
Ġà¤Ī à¤¶
Ġp art
à¥¬ à¥¦
à¤°à¤¥ à¤®à¤ļ
Ġà¥© à¥¦
ic e
Ġl i
à¤ªà¤¡ à¤ªà¤Ł
Ġn o
Ġg r
Ġà¤ĭ à¤¨
Ġà¥§à¥¯ à¥¯
Ġà¥§à¥¯ à¥Ń
Ġà¥ŀ à¤ķ
Ġà¤²à¤ª à¤µ
us e
Ġon e
à¤ĭ à¤¨
Ġà¤¹à¤® à¤ĸ
XX X
Ġà¤ļà¤® à¤ķà¤¤
a j
c ri
e x
p p
Ġ 8
Ġ Y
à¥ Ł
à¥ĩ ""
à¤² à¤®à¤¤
à¤¨ à¤Ĭ
à¤ļ à¤ªà¤°
à¤ļ à¤ķà¤²
à¤Ĥ '
à¤µ à¤¡à¤£
à¥ĭ à¥¤
à¤® à¤ĺ
à¤ª à¤¬
Ġà¤ª à¤¬
Ġà¤¹ à¤¨
Ġà¤¹ à¤°à¤µ
à¤Ĺ à¤ł
à¤¦ à¤°à¤²
à¤Ł à¤¦
à¤Ł à¤¬
Ġà¤¨ à¤ľ
à¤³ à¤µà¤¤
Ġà¤¬ à¤¤
Ġà¤¦ à¤²
Ġà¤¦ à¤¶
à¤· à¤¨
à¤· à¤ª
à¤ĸ à¤ªà¤£
.. )
Ġà¤° à¤¥
Ġà¤ķà¤° à¤®à¤¬
à¤ł à¤°
à¤¥ à¤¸
Ġà¤ıà¤ķ à¤Łà¤ķ
Ġà¤ī à¤ķ
à¤Ĩ à¤Ń
à¤Ĭ à¤ļ
à¤Ĭ à¤ľ
Ġà¤¨à¤µ à¤¨à¤µ
Ġà¤¥ à¤ķ
Ġà¤ªà¤° à¤«
Ġà¤ĵ à¤Ł
Ġà¤ĵ à¤¢à¤¤
à¤¶à¤¨ à¤®à¤§
in k
in t
Ġà¤Ĩà¤Ī à¤¸
Ġà¤ħà¤ª à¤µ
à¤¯à¤¨ à¤²
******** ****
ar y
à¤ĵ à¤³à¤ĸ
al l
Ġà¤Ī à¤®
Ġà¤īà¤¤à¤° à¤µà¤²
ss s
à¥§à¥§ à¥§à¥§
Ġà¤§à¤¡ à¤ªà¤¡à¤¤
Ġà¤°à¤¤à¤¨ à¤¨
à¤¸à¤³ à¤ª
im p
Ġà¥Ń à¥¦
Ġwh ich
++ ++
Ġ20 20
à¤¬à¤§ à¤¬
. ''
1 2
1 5
3 0
? "
M A
b b
b er
e y
e at
k ar
o ther
r om
t e
Ġ 9
à¤¾ (
à¤¾ à¥¤
à¤° à¤ĺ
à¤¤ à¤µà¤£
à¥Ģ (
à¤¯ à¤Ŀ
à¤¨ à¤ľ
à¤¨ à¤§
à¤¨ à¤¤à¤³
à¤ķ à¤¸à¤¤
à¤µ à¤ĺ
à¤¸ à¤Ĺ
à¤¸ à¤³à¤£
Ġà¤ķ à¤µà¤Ł
Ġà¤Ĩ à¤°à¤¤
Ġà¤ª à¤³à¤µ
à¥Ĥ '
Ġà¤¸ à¤°à¤²
à¤¦ à¤ľ
Ġà¤¨ à¤Ł
à¤³ à¤®
à¤¶ à¤¹
Ġà¤¬ à¤¦à¤¨
Ġà¤¦ à¤ļà¤ķ
Ġà¤¦ à¤ĸà¤²
Ġà¤° à¤¡à¤²
Ġà¤ĺ à¤¶
Ġà¤Ń à¤¡à¤ķ
Ġà¤ıà¤ķ à¤°
à¤Ń à¤¤
Ġà¤ī à¤®à¤°
Ġà¤Ŀ à¤Ł
Ġà¤Ŀ à¤³
à¤Ĩ à¤Ĺ
à¤ĺ à¤°à¤ļ
Ġà¤ĩ à¤Ĺ
à¤« à¤¤
Ġà¤¡ à¤°
à¤°à¤ļ à¤¨
Ġà¤ĺà¤° à¤Ĺ
à¤ī à¤°à¤²
à¥§ à¥®
à¤Ĩà¤ľ à¤µà¤°
à¥¨ à¥®
Ġà¥¨ à¥¬
à¤Łà¤¨ à¤°
Ġa he
en d
Ġà¤ķà¤¡ à¤µà¤Ł
ou nd
Ġà¤īà¤ĺ à¤¡à¤¤
Ġà¤ªà¤¦ à¤µ
âĢĺ âĢĺ
Ġà¤Ī à¤¤à¤ķ
Ġà¤īà¤¤à¤° à¤µ
à¤µà¤ª à¤³
Ġà¤®à¤ľ à¤ķ
Ġà¤®à¤ľ à¤¬
Ġh ist
Ġd o
Ġà¤īà¤Ĺ à¤µà¤²
Ġ1 00
Ġà¤ªà¤¸ à¤°à¤¤
à¤¾) .
Ġà¤µà¤³ à¤µà¤²
Ġà¤ħà¤µà¤ĺ à¤¡à¤²
Ġà¤Ĩà¤¢ à¤³à¤²
od e
Ġà¤²à¤ª à¤µà¤²
ak e
Ġà¤ħà¤« à¤²
ah i
Ġà¤¤à¤¡ à¤ľ
Ġà¤¢à¤ķà¤² à¤²
oo k
, .
? âĢĿ
S S
a ct
c a
h at
h up
i es
o ck
p l
Ġ >>>>
Ġ are
à¥į /
à¥į âĢĮ
à¤° à¤¹à¤£
à¤² à¤«
à¤¯ à¤¤à¤°
à¤ļ à¤¡
à¤ķ à¤®à¤§
à¤µ à¤®
Ġà¤ķ à¤¤
Ġà¤¤ à¤Ĺ
Ġà¤¤ à¤²à¤µ
à¤ª à¤¡à¤£
à¤Ĺ à¤Ń
à¤Ĺ à¤µà¤£
Ġà¤µ à¤ľ
Ġà¤¨ à¤Ĺà¤°
à¤¶ à¤®à¤§
Ġà¤¦ à¤¸
Ġà¤¦ à¤£
Ġà¤² à¤Ł
Ġà¤² à¤¢à¤£
Ġà¤° à¤£
Ġà¤° à¤®à¤¤
Ġà¤Ń à¤°à¤µ
à¤Ń à¤³
à¤Ń à¤°à¤ª
Ġà¤ī à¤°à¤¤
Ġà¤Ŀ à¤²à¤ķ
Ġà¤ĸ à¤£
à¤Ĩ à¤³
Ġà¤ĩ à¤µ
Ġà¤Ł à¤ªà¤°
à¤¾, "
à¤°à¤£ à¤¨
Ġà¤¡ à¤¡à¤²
à¤°à¤ķ à¤Ł
Ġà¤ķà¤°à¤¤ à¤ļ
à¤¸à¤° à¤³
à¤¸à¤° à¤¶
à¤°à¤® à¤¨
à¤¦à¤° à¤µ
Ġà¤Ľ à¤³
Ġà¤ĵ à¤ķ
à¤ī à¤Ń
Ġà¤Ĳ à¤¨
à¤µà¤¨ à¤°
Ġà¤ķà¤® à¤¤à¤°à¤¤
Ġà¤ªà¤°à¤¤ à¤£
à¤ŀ à¤¤
à¥¨ à¥§
at ed
Ġà¥¨ à¥¨
Ġà¥¨ à¥ª
Ġà¤ħà¤µ à¤ķ
à¤ĵ à¤°à¤¡
======== ====
it e
Ġb hag
Ġt r
Ġt im
Ġà¤Ī à¤¥
Ġà¤īà¤ł à¤µà¤²
Ġ1 2
Ġin ter
Ġà¤ĺà¤¡ à¤µà¤²
Ġg reat
Ġà¤ĭ à¤ļ
Ġà¤ĭ à¤Ĺ
Ġà¥§à¥¯ à¥®
Ġà¤Ĩà¤µà¤° à¤¤
Ġà¤ħà¤¹ à¤µ
Ġà¥¨à¥¦à¥§ à¥¨
Ġà¥¨à¥¦à¥§ à¥¬
Ġyou r
Ġà¥¬ à¥¦
à¤¬à¤ĺ à¤¤
ap p
est ing
Ġà¤īà¤²à¤Ĺ à¤¡
Ġà¤µà¤Ĺà¤³ à¤¤
ĠMar athi
, "
1 4
2 9
b l
e p
i ther
l ow
m a
n er
o s
à¤ į
à¥į -
à¤² à¤¶
à¤¯ à¤ªà¤£
à¤¯ à¤±
à¤¯ Âºà¤¯
à¤µ à¤¤à¤°
à¤¸ à¤®à¤¸
à¥ģ -
Ġà¤Ĩ à¤¦à¤²
Ġà¤Ĩ à¤¸à¤®
Ġà¤Ĩ à¤Ĭà¤Ł
Ġà¤® à¤ļ
Ġà¤¤ à¤¸à¤²
Ġà¤ª à¤ļà¤µ
à¥Ĥ "
Ġà¤¹ à¤¯
Ġà¤ħ à¤łà¤°
à¤Ł à¤Ńà¤°
à¤³ à¤Ī
à¤ľ à¤®à¤²
à¤ľ à¤Ĺà¤£
à¤¶ à¤¤
Ġà¤¬ à¤Ł
Ġà¤¦ à¤®à¤²
à¤¬ à¤¶
à¤¬ à¤ķà¤²
à¤¬ à¤¬à¤¨
Ġà¤ľ à¤µ
Ġà¤ľ à¤Ĺà¤²
à¤§ à¤ļ
à¤§ à¤ª
à¤· à¤Łà¤ķ
.. ?
Ġà¤¶ à¤¶
Ġà¤ļ à¤¤
Ġà¤ı à¤ľ
à¤Ń à¤£
Ġà¤ī à¤£
Ġà¤ī à¤¡à¤µ
Ġà¤Ŀ à¤°
Ġà¤ĸ à¤¡à¤ķ
âĢ Ķ
à¤¯à¤ļ à¤¯
à¤ķà¤¡ à¤²
Ġà¤ł à¤³à¤ķ
Ġà¤¸à¤® à¤¨
Ġà¥ ²
à¤¤à¤ķ à¤²
à¤°à¤® à¤¸
Ġà¤¸à¤° à¤¦
à¤ı à¤ª
à¤µà¤³ à¤¤
à¤ĩ à¤¡
à¤ĩ à¤ľ
à¥Į .
Ġà¤ĵ à¤ªà¤¨
à¤ī à¤®
... !!!
à¥§ à¥Ń
Ġà¤Ĳ à¤¶
à¤Łà¤ķ à¤Ł
Ġà¤ķà¤¸ à¤¬
th ing
Ġà¤¬à¤¸ à¤µà¤¤
à¤µà¤Ł à¤ªà¤°
Ġà¤ĳ à¤²
Ġà¤īà¤ª à¤¦
Ġà¤ħà¤ª à¤¡
Ġth ing
Ġà¥¨ à¥©
........ ..
........ ....
à¤ħà¤¨ à¤¨
à¤Īà¤¨ à¤µà¤°
à¤ĵ à¤²
en s
à¥© à¥¨
it a
Ġb ut
Ġà¤Ī à¤¤à¤°
Ġp l
re e
Ġà¤ħà¤¡ à¤¥à¤³
Ġf rom
Ġd is
Ġà¤īà¤¡ à¤µà¤£
Ġ1 0
Ġà¤īà¤ļà¤² à¤£
Ġà¤ĺà¤¡ à¤µà¤£
Ġà¤¸à¤¹à¤ľ à¤ªà¤£
Ġà¥« à¥¦à¥¦
Ġà¤ĭ à¤£
________ ____
Ġà¤Ĺà¤¡ à¤¦
Ġe v
ation s
ir st
Ġà¤¬à¤¡ à¤¬à¤¡à¤¤
à¤½à¤½ à¤·
à¤°à¤« à¤Łà¤ķ
-------------------------------- --------------------------------
******************************** ********************************
Ġà¤Ĩà¤³ à¤¸
Ġcom p
Ġà¤ħà¤µà¤¯à¤µ à¤¦
ov e
Ġà¤¦à¤¡ à¤ªà¤£
Ġà¤«à¤¸ à¤µà¤£
_/\ _
*~ *~
ca use
. ""
1 1
M ast
h y
i z
i an
i re
p er
t o
ð Ł
Ġ 7
Ġ --
Ġ un
Ġ up
à¥ Ĭ
à¤¯ à¤®à¤¸
à¤Ĥ ""
à¤µ à¤Ī
à¤¸ à¤Łà¤²
à¤¸ à¤®à¤§à¤²
Ġà¤ķ à¤¯
à¤® à¤®
à¤® à¤ªà¤£
Ġà¤Ĩ à¤ķà¤²à¤¨
Ġà¤¤ à¤µ
Ġà¤ª à¤Łà¤ķ
Ġà¤¹ à¤°à¤£
Ġà¤¹ à¤®à¤¸
Ġà¤¸ à¤¸
à¤Ĺ à¤°à¤£
à¤Ĺ à¤ķà¤°
à¤Ł à¤ķà¤°
Ġà¤µ à¤§
Ġà¤µ à¤¸à¤²
Ġà¤µ à¤³à¤µ
à¤¡ à¤¸à¤°
à¤¡ à¤°à¤ļ
Ġà¤¨ à¤¥
Ġà¤¬ à¤§
Ġà¤¬ à¤°à¤ļ
Ġà¤¬ à¤Łà¤¨
Ġà¤² à¤ĸ
Ġà¤¶ à¤ªà¤¥
à¤ł à¤ķ
Ġà¤ı à¤Ł
Ġà¤ĺ à¤¸
à¤Ń à¤°à¤¤
Ġà¤« à¤²à¤ķ
à¤Ĩ à¤¸à¤ķ
à¤¢ à¤µà¤¤
à¤¢ à¤¤à¤ļ
à¤ĺ à¤³
à¤ħ à¤°à¤ļ
Ġà¤ĩ à¤ķ
à¥Ī ?
à¤« à¤¸à¤«
Ġà¤§ à¤¡à¤ķ
Ġà¤§ à¤¬à¤§à¤¬
Ġà¥ ¦
Ġà¤Ĩà¤¤ à¤®à¤§
à¤Ĺà¤¤ à¤ļ
Ġà¤®à¤¨ à¤®
à¤µà¤³ à¤²
à¤ıà¤ķ à¤¤à¤°
à¤Ĺà¤¦ à¤ªà¤¤
âĢĻ .
à¥§ à¥ª
__ _
Ġà¤¬à¤¸ à¤¨
Ġà¤ķà¤® à¤ķ
in s
Ġà¤Ĩà¤Ī à¤ķà¤¡
Ġà¤ĳ à¤ª
Ġà¤ĳ à¤Ł
er y
Ġà¤īà¤ª à¤Ń
à¥¨ à¥¬
Ġs ome
Ġà¤ħà¤µ à¤ļ
Ġà¤ľà¤® à¤µ
à¤¦à¤¨ à¤¶
à¥« à¥¦à¥¦
à¤ĵ à¤ļ
Ġà¤¦à¤° à¤µà¤°
à¤¨à¤µ à¤ľ
Ġà¤ķà¤³ à¤µà¤¤
ou n
it ing
Ġà¤¹à¤³ à¤¦
as s
Ġo ther
à¤¬à¤Ī à¤ķà¤°
Ġà¤ªà¤ķà¤¡ à¤¤
Ġà¤¯à¤¶ à¤µ
Ġà¥« à¥¨
Ġg en
Ġg ood
Ġy ear
à¤Ĳ à¤ķ
Ġà¤Ĩà¤µà¤° à¤²
ĠâĢ¦ .
ag e
Ġbe cause
Ġà¤Ĩà¤ļ à¤°à¤£
ik e
à¤Īà¤Ī à¤Īà¤Ī
! "
1 8
I ndia
a in
a ck
f er
g r
i ous
l ish
n ode
o c
o ver
p an
p ect
r ed
u th
u al
Ġ ;
Ġ el
Ġ âĺºï¸ı
Ġà¤ ·
à¤¾ à¤¾
à¥ĩ (
à¤° à¤Ŀ
à¤° à¤¬à¤³
à¥Ģ âĢ¦
à¤¨ à¤Ń
à¤¨ à¤§à¤¨
à¤¿ !
à¤ļ à¤®à¤§
à¤ķ à¤°à¤²
à¤ķ à¤ħà¤ª
à¤¹ à¤¬
à¤¹ à¤¸à¤¤
à¤¸ à¤Ń
à¤¸ à¤ķà¤°
à¤£ à¤Ń
Ġà¤ķ à¤ķ
Ġà¤Ĩ à¤Ĺà¤³
à¤ª à¤µà¤¤
à¤ª à¤µà¤£
Ġà¤ª à¤µà¤¨
Ġà¤¸ à¤°à¤¤
Ġà¤¸ à¤¬à¤ķ
à¤Ĺ à¤°à¤²
Ġà¤ħ à¤·
Ġà¤ħ à¤¡à¤µ
à¤Ł à¤¯
à¤Ł à¤®à¤¨
à¤¡ à¤ľ
à¤³ à¤¬
à¤³ à¤Ĺà¤£
à¤¶ à¤ªà¤£
Ġà¤¦ à¤ļà¤ķà¤²
Ġà¤ľ à¤³
Ġà¤ľ à¤ªà¤²
Ġà¤ľ à¤³à¤¤
Ġà¤² à¤ĺ
Ġà¤ħà¤¸ à¤¶
à¤· à¤Ń
à¤· à¤®à¤¸
.. !!!
Ġà¤° à¤®à¤²
Ġà¤° à¤ļà¤²
à¤ł à¤Ń
Ġà¤ĺ à¤¨à¤¶
Ġà¤Ń à¤ľà¤¨
Ġà¤ī à¤«
Ġà¤ī à¤ķà¤°
Ġà¤ī à¤§à¤³
Ġà¤« à¤¸à¤²
à¤Ī à¤ĺ
à¤Ĩ à¤¬
à¤Ĩ à¤ªà¤ļ
à¤Ŀ à¤®
à¤ĺ à¤¨
à¤¯à¤² à¤Ł
à¤µà¤¤ à¤ļ
à¤« à¤¡
à¤°à¤£ à¤ļ
à¤ªà¤° à¤ļ
à¤¸à¤° à¤ļ
à¤¸à¤° à¤¸
à¤°à¤® à¤ķ
Ġà¤¸à¤° à¤¬à¤¤
Ġà¤¥ à¤¬à¤ķà¤²
à¤ķà¤² à¤ļ
Ġ( ?
à¤®à¤² à¤¬à¤ľ
à¤ī à¤ľà¤µ
__ /\
à¤°à¤¶ à¤¸
à¤¸à¤® à¤Ł
Ġà¤ĳ à¤¡
à¤¬à¤² à¤¡
Ġà¤īà¤ª à¤®
Ġà¤īà¤ª à¤ķà¤°à¤£
at i
Ġs a
Ġà¤ħà¤µ à¤§
or g
is s
Ġà¤¦à¤° à¤¬
Ġw ill
Ġà¤łà¤° à¤µà¤£
à¤ļà¤ķ à¤Ł
?? ???
à¤ķà¤Ł à¤ļ
à¥¤ à¥¤
Ġh is
ic al
Ġà¤īà¤¡ à¤µà¤¤
Ġl e
ion s
Ġà¤īà¤ļà¤² à¤¤
Ġà¤ļà¤¢ à¤µà¤²
ay s
ĠM an
ĠS w
ĠI n
Ġà¤Ĭ à¤¨
Ġà¤ĵà¤° à¤¡à¤£
iv er
à¤Ŀà¤° à¤¬
à¤¼ à¥į
Ġà¥§à¥¦à¥¦ à¥¦
à¤ĭ à¤Ĺ
`` ``
Ġà¤īà¤ªà¤¨ à¤Ĺà¤°
Ġà¤ļà¤® à¤ķà¤²
ssss s
Ġà¤ĸà¤¬à¤° à¤¦
ie w
Th is
' t
2 6
= -'
A n
l ine
m an
m itt
n or
o b
p ort
r u
u c
w a
w e
Â ©
Ġ z
Ġ qu
à¤° à¤ķà¤¡
à¤¤ à¤¨à¤ļ
à¥Ģ ""
à¤¯ à¤¡
à¤¯ à¤°à¤¸
à¤¯ à¤Ĺà¤°
à¤¨ à¤¤à¤°
à¤¨ à¤¸à¤²
à¤ļ à¤°à¤²
à¤ļ à¤ķà¤°
à¤ķ à¤ĸ
à¤ķ à¤³à¤²
à¤¹ à¤²à¤¯
à¤¹ à¤Ĺà¤¡
à¤µ à¤ĸ
à¤¸ à¤Ł
à¤¸ à¤¶
à¤¸ à¤¤à¤°
à¤¸ à¤ķà¤¡
à¤¸ à¤¨à¤ļ
à¥ĭ âĢĿ
à¤£ à¤ª
à¤£ à¤¬à¤¤
à¤® à¤¡
à¤® à¤ķà¤¤
à¤® à¤·à¤Łà¤ķ
Ġà¤Ĩ à¤īà¤Ł
Ġà¤¹ à¤¦
Ġà¤¸ à¤¶à¤ķ
à¤Ł à¤¨à¤ļ
Ġà¤µ à¤Łà¤µ
à¤¡ à¤¦
à¤¾à¤Ĥ !
à¤ľ à¤®à¤¤
à¤¶ à¤ľ
à¤§ à¤µà¤°
Ġà¤² à¤³
Ġà¤² à¤Ī
Ġà¤² à¤ªà¤²
Ġà¤Ĺ à¤¨
Ġà¤Ĺ à¤µ
Ġà¤Ĺ à¤³à¤¤
à¤ĸ à¤¸
à¤ĸ à¤Ł
Ġà¤¯ à¤¹
.. ''
Ġà¤° à¤®à¤£
Ġà¤¶ à¤ª
Ġà¤¶ à¤°à¤£
Ġà¤ļ à¤°à¤£
à¤¥ à¤ªà¤£
à¤Ń à¤Ĺà¤µ
Ġà¤ĸ à¤²à¤¨
à¤Ī à¤¡à¤¨
à¤Ĩ à¤¸
à¤Ĩ à¤µà¤°
à¤Ĩ à¤łà¤µà¤£
à¤ĺ à¤®
à¤ĺ à¤¡à¤¤
à¤ĺ à¤¡à¤£
à¤ħ à¤¦
à¤ħ à¤«
à¤ħ à¤¸à¤¤
à¤¤à¤² à¤¯
à¥Ī "
à¤« à¤°à¤¨
Ġà¤ł à¤¸
à¥ĩ, "
à¤°à¤ķ à¤¨
Ġà¤§ à¤ª
Ġà¤¨à¤µ à¤µ
à¤µà¤¸ à¤¨
Ġà¤¸à¤® à¤Ŀ
à¤¸à¤¤ à¤¯
Ġà¤¥ à¤Ł
à¤ı à¤²
à¤ı à¤¡
à¤ı à¤«
à¤ĩ à¤°
à¤ĩ à¤«
Ġà¤ĵ à¤¬
... ""
Ġà¤Ĳ à¤¨à¤µ
à¤Ĺà¤£ à¤ķ
Ġà¤ħà¤° à¤¬
Ġà¤ħà¤ľ à¤¯
Ġà¤ħà¤ľ à¤¸
à¤¸à¤® à¤¨
à¤°à¤ľ à¤ļ
Ġà¤¬à¤¸ à¤ļ
Ġà¤®à¤Ĺ à¤ļ
an k
an ce
à¤¬à¤² à¤µà¤°
Ġà¤īà¤ª à¤µ
Ġà¤īà¤ª à¤Ĺ
!! !!!
à¤Ĩà¤ľ à¤¹
à¤Ĩà¤ľ à¤®
Ġà¤ħà¤ª à¤¯à¤¶
à¥¨ à¥ª
à¥¨ à¥Ń
Ġà¤¬à¤¨ à¤£
Ġs ame
-------- ----
Ġa pp
Ġà¤Ĩà¤¶ à¤¯
à¤Īà¤Ł à¤ļ
à¤Īà¤Ł à¤µà¤°
Ġà¤¦à¤° à¤°
Ġw r
Ġà¤ķà¤³ à¤¸
Ġà¤ķà¤³ à¤¤à¤ļ
à¥© à¥§
à¥© à¥©
al k
Ġà¤īà¤ĺ à¤¡à¤£
it ion
Ġà¤ĳà¤« à¤°
as e
à¤³à¤ľ à¤³
à¥® à¥¦
ic s
el y
Ġl ike
Ġà¤īà¤ł à¤£
Ġ1 4
**************** ****
---------------- ----
Ġà¤ħà¤² à¤Ĺà¤¦
Ġn ame
il e
<< <<
Ġà¤ļà¤¢ à¤µ
Ġà¤ĭ à¤¤
Ġà¤§à¤¡ à¤§à¤¡
Ġà¥ª à¥¦
ow n
à¤²à¤® à¤¬à¤°
ut e
à¤½à¤½ à¤½
Ġv ery
Ġwh at
Ġà¤ħà¤« à¤Ĺ
Ġan y
um an
ĠG ita
if e
à¥¦à¥¦à¥¦à¥¦ à¥¦à¥¦à¥¦à¥¦
Ġà¤Ńà¤¡ à¤ķà¤²
Ġhist or
âĢĶ âĢĶ
Ġyear s
mitt ed
. >>
. >>>
T han
a i
d ay
f ul
i i
o y
o int
r ish
y e
y as
Ġ `
Ġ i
Ġ ar
Ġ XXX
à¤° à¤¹à¤°
à¤¤ à¤®à¤§
à¤¯ à¤¬à¤°
à¤¨ à¤ĸ
à¤ļ à¤®à¤¨
à¤Ĥ âĢ¦
à¤ķ à¤±
à¤¹ à¤¦
à¤¹ à¤µà¤²
à¤¹ à¤°à¤²
à¤µ à¤®à¤Ĺ
à¤µ à¤¡à¤ķ
à¤¸ à¤µà¤²
à¤£ à¤¦
à¤£ à¤µà¤£
Ġà¤ķ à¤Łà¤ķà¤Ł
à¥ģ !
Ġà¤Ĩ à¤°à¤£
Ġà¤Ĩ à¤¯à¤¤
Ġà¤Ĩ à¤ĸà¤²
Ġà¤® à¤¯
Ġà¤® à¤Ĭ
Ġà¤¤ à¤¨
Ġà¤¤ à¤¸à¤¤
Ġà¤¹ à¤¸à¤°
Ġà¤¹ à¤°à¤ĸ
Ġà¤¹ à¤Łà¤ķ
Ġà¤¸ à¤¯
Ġà¤¸ à¤¡
Ġà¤¸ à¤¦à¤¨
Ġà¤¸ à¤¶à¤¸
Ġà¤ħ à¤¥
Ġà¤ħ à¤Łà¤ķ
à¤¦ à¤Ĺà¤¡
Ġà¤µ à¤¨à¤µ
Ġà¤µ à¤¨à¤¸
à¤¡ à¤¯
à¤³ à¤¹
à¤³ à¤Ĺà¤¤
à¤ľ à¤§
à¤ľ à¤µà¤£
à¤ľ à¤®à¤¹
à¤¶ à¤Ńà¤ķ
Ġà¤¬ à¤¯
Ġà¤¬ à¤¹à¤°
Ġà¤ľ à¤ªà¤£
Ġà¤ľ à¤ªà¤¤
Ġà¤ľ à¤³à¤ľà¤³
Ġà¤² à¤¡
Ġà¤Ĺ à¤µà¤¸
à¤ĸ à¤¹
à¤µà¤° à¤ķà¤°
Ġà¤° à¤ĸà¤®
Ġà¤¶ à¤®
Ġà¤ļ à¤·
Ġà¤ļ à¤ªà¤°
Ġà¤ı à¤°à¤µ
Ġà¤ı à¤ħà¤°
Ġà¤ıà¤ķ à¤ľà¤£
à¤Ń à¤°à¤£
Ġà¤ī à¤ĸ
Ġà¤ĸ à¤ª
Ġà¤ĸ à¤ļà¤²
Ġà¤¤à¤° à¤¤
Ġà¤¤à¤° à¤²
Ġà¤« à¤°à¤¶
à¤Ĩ à¤ļ
à¤¤à¤° à¤£
à¤ĺ à¤²
à¤°à¤¤ à¤ļ
à¤µà¤² à¤¯
Ġà¤Ł à¤¨
Ġà¤ł à¤£à¤ķ
Ġà¤ªà¤£ à¤ľ
Ġà¤¡ à¤®
à¤ķà¤° à¤®
à¤¬à¤° à¤µà¤°
à¤Ĭà¤¨ à¤²
à¤¸à¤¤ à¤ļ
à¤¤à¤ķ à¤ļ
à¤ķà¤² à¤²
Ġà¤ªà¤° à¤Ĺ
à¤¦à¤° à¤µà¤°
à¤ĩ à¤ķ
à¤ĩ à¤Ŀ
Ġà¤Ľ à¤ª
Ġ' '
à¤ī à¤°
à¤ī à¤ªà¤¨
à¤Łà¤° à¤®à¤§
th e
à¤ħà¤° à¤¨
in a
Ġà¤ıà¤ķà¤¦ à¤®à¤ļ
Ġà¤ĳ à¤¬
à¤ľà¤¨ à¤ķ
à¤¨à¤ķ à¤ļ
Ġà¤°à¤¸ à¤Ĺ
à¥¨ à¥©
Ġà¤¬à¤¹ à¤°à¤²
Ġà¤ħà¤§ à¤°
Ġà¤Ĳà¤ķ à¤µ
Ġà¤¬à¤¨ à¤ķà¤°
Ġs er
Ġs elf
à¤ĸà¤° à¤¤à¤°
Ġa c
Ġa d
Ġa ct
or ld
Ġà¤ķà¤ª à¤Ł
à¤ĵ à¤¨
à¤ĵ à¤¸
à¤ĵ à¤¢
à¥¯ à¥¦
Ġà¤Ĺà¤°à¤ľ à¤ļ
ou p
Ġà¤°à¤¹ à¤¸
es h
Ġt e
Ġt y
à¤ĸà¤¨ à¤¨
Ġm ore
?? "
Ġà¤īà¤¤à¤° à¤µà¤£
à¥ª à¥¦
Ġh as
Ġà¥© à¥§
ic k
Ġf ind
Ġà¤īà¤¡ à¤µà¤²
à¤¾' ,
>>>> +
>>>> >>>>
Ġà¤ĺà¤¡ à¤µà¤¤
Ġg o
Ġà¤Ķ à¤¦
Ġà¤Ĺà¤¡ à¤ķà¤°
Ġà¤Ĩà¤¦ à¤°à¤£
Ġà¤µà¤°à¤ļ à¤¢
ĠI ndia
à¥ĩ" .
Ġà¤īà¤® à¤Ĺà¤²
Ġk a
à¥ĩ' .
à¤ĳ à¤¸
Ġà¥¨à¥¦à¥§ à¥©
ig n
Ġit s
Ġre ad
à¤ĭ à¤·
Ġ19 3
ĠG T
Ġr es
Ġà¤į à¤¡à¤®
Ġà¥¯ à¥¦
Ġà¤¢à¤ķà¤² à¤¤
ath a
à¤ħà¤ķ à¤¬à¤°
ĠK rish
Ġà¤īà¤§ à¤³à¤²
Ġà¤īà¤§ à¤³à¤£
Ġal l
Ġà¤ļà¤ª à¤ĸà¤²
ub mitted
Ġà¤ĸà¤Ł à¤ķà¤²
ang er
âĹıâĹıâĹıâĹıâĹıâĹıâĹıâĹı âĹıâĹıâĹıâĹıâĹıâĹıâĹıâĹı
Ġab out
Ġli hil
cri pt
Ġinter esting
ĠKrish na
0 7
1 6
3 1
4 0
I t
S ubmitted
a il
b e
b ut
c el
f ore
h i
j un
l ic
l ue
m on
n i
s o
u g
u j
u ct
x x
Ġ &
Ġ us
Ġ our
Ġ imp
à¥ Ŀ
à¤° à¤¤à¤°
à¤° à¤¬à¤²
à¤¤ à¤ĸ
à¤¤ à¤µà¤°
à¤² à¤Ŀ
à¤¨ à¤Ī
à¤¨ à¤µà¤£
à¤¨ à¤ľà¤°
à¤¨ à¤²à¤ļ
à¤¿ à¤ĥ
à¤ļ à¤¢
à¤ķ à¤Łà¤²
à¤ķ à¤ķà¤²
à¤ķ à¤Łà¤¤
à¤¹ à¤¹
à¤¹ à¤²à¤ķ
à¤µ à¤¡à¤¤
à¤¸ à¤ĺ
à¤¸ à¤¦à¤°
à¥ĭ ""
Ġà¤ķ à¤¢
Ġà¤ķ à¥ľ
à¤® à¤¯à¤ļ
à¥ģ ?
Ġà¤® à¤°à¤¤
Ġà¤¤ à¤ľà¤µ
Ġà¤ª à¤¥
Ġà¤ª à¤³à¤£
Ġà¤ª à¤Łà¤£
Ġà¤¹ à¤¬
Ġà¤¹ à¤²à¤¤
Ġà¤¸ à¤³
à¤Ĺ à¤°à¤ľ
Ġà¤ħ à¤µà¤°
Ġà¤ħ à¤¦à¤²
Ġà¤ħ à¤¹à¤®
à¤¦ à¤µà¤²
à¤Ł à¤¡
à¤Ł à¤µà¤²
à¤Ł à¤µà¤°à¤ļ
à¤Ł à¤ļà¤°
Ġà¤µ à¤²à¤¯
à¤¡ à¤¸à¤ļ
Ġà¤¨ à¤²
à¤³ à¤°
à¤ľ à¤¡
à¤¶ à¤£
à¤¶ à¤ķà¤¡
à¤¶ à¤µà¤£
à¤¬ à¤®
à¤¬ à¤µà¤£
Ġà¤ľ à¤¡à¤²
Ġà¤ľ à¤¡à¤£
à¤§ à¤³à¤²
Ġà¤² à¤¸
à¤· à¤¹
à¤· à¤µ
à¤· à¤¯à¤ķ
Ġà¤Ĺ à¤µà¤°
Ġà¤Ĺ à¤Ĺà¤¨
Ġà¤¯ à¤®
.. (
.. âĢĿ
à¤µà¤° à¤ľ
Ġà¤° à¤¬à¤°
à¤ł à¤¤
Ġà¤ļ à¤ªà¤³
à¤¥ à¤ļ
Ġà¤ı à¤°
Ġà¤ı à¤¨à¤°
Ġà¤ĺ à¤¨
Ġà¤ĺ à¤³
Ġà¤ī à¤¬
Ġà¤ī à¤°à¤£
Ġà¤ī à¤¦à¤°
Ġà¤« à¤¡à¤ķ
à¤Ī à¤¦
à¤Ĩ à¤łà¤µ
à¤Ĩ à¤īà¤Ł
à¤¢ à¤³
Ġà¤Ĩà¤² à¤Ł
Ġà¤ĩ à¤¬
Ġà¤ĩ à¤·
à¤µà¤² à¤Ĺ
à¤µà¤¤ à¤¯
à¤« à¤ļ
à¤« à¤Ł
à¤¾, âĢĻ
à¤°à¤£ à¤²
à¥ĩ, âĢĿ
Ġà¤µà¤° à¤µà¤°
Ġà¤¨à¤µ à¤¸
à¥ĥ à¤Ĥ
à¤ķà¤° à¤¬
à¤Łà¤² à¤°
Ġà¤¸à¤® à¤¦
à¤ªà¤° à¤¸
à¤ªà¤° à¤®
à¤¯à¤ķ à¤¥
.... .."
à¤ı à¤¶à¤¨
à¤°à¤ĸ à¤°
à¤Łà¤¤ à¤ļ
Ġà¤ĵ à¤¤
Ġà¤Ĩà¤ľ à¤ª
à¤ĥ )
à¤·à¤£ à¤¹
à¤ī à¤ļ
à¤ī à¤£
à¤ī à¤ł
à¤¶à¤¨ à¤°
... '
Ġà¤Ĩà¤® à¤¦
à¤Łà¤° à¤ķà¤¡
à¤ħà¤° à¤Ł
à¤ħà¤° à¤µà¤°
Ġà¤¬à¤¸ à¤µà¤£
à¤¹à¤° à¤¨
Ġà¤ķà¤® à¤µ
an a
Ġà¤ªà¤°à¤¤ à¤¤
Ġà¤Ĩà¤¯ à¤Ł
Ġà¤ķà¤² à¤¹
Ġth oug
at er
à¤²à¤¯ à¤¸
ar a
Ġs up
Ġs pe
........ ...
........ .....
à¤°à¤¹ à¤°à¤£
Ġà¤ĩà¤¤à¤° à¤¤
or m
or ry
Ġw ar
Ġà¤ķà¤³ à¤µà¤³
à¥© à¥Ń
Ġà¤ķà¤¡ à¤µ
al c
Ġthe m
Ġb ro
Ġb ook
Ġb ack
Ġt w
Ġt ak
Ġc han
Ġc ould
à¤ĸà¤¨ à¤¶
Ġp h
Ġp an
Ġp ers
Ġp la
à¤¬à¤Ī à¤¤à¤²
Ġh ow
Ġà¤īà¤² à¤Łà¤²
à¤ķà¤¸ à¤Ń
Ġà¤ĩà¤¤ à¤ªà¤¤
Ġà¥© à¥¬
and a
el g
Ġ1 5
Ġà¤Ĺà¤£ à¤¨
à¤ľà¤¸ à¤ľà¤¸
Ġin to
Ġà¤ıà¤¸ à¤Ł
Ġà¤ĩà¤ķà¤¡ à¤ļ
Ġe m
Ġe ver
Ġà¤ªà¤°à¤µ à¤¡à¤£
ce pt
à¤ĳ à¤ª
Ġà¤¹à¤¤ à¤¬à¤²
Ġà¥¨à¥¦à¥§ à¥¯
Ġà¤ħà¤Ł à¤³
ig h
ĠA r
Ġv ach
Ġbe fore
ĠP r
ul ner
id e
ĠT r
ĠT he
à¥¨à¥¦ à¥§à¥©
um p
Ġ20 19
Ġà¤Ĺà¤Ł à¤Ĺ
ish ad
Ġà¤¬à¤¬à¤¨ à¤ķà¤¡
Ġà¤¬à¤¬à¤¨ à¤®à¤§
Ġà¤ħà¤¡à¤ķ à¤µà¤²
Ġà¤¬à¤¬ à¤¨à¤²
Ġne w
Ġne ed
================================ ================================
Ġex ist
Ġà¤ĸà¤³ à¤¬à¤³
und er
à¤¬à¤¬ à¤¨à¤ļ
Ġpro b
à¤Ķ à¤°
Ġà¤ķà¤¡à¤µà¤Ł à¤ªà¤£
Ġà¤²à¤Ł à¤ķà¤¤
============ ==
Ġev en
__/\ __
Ġà¤Ĺà¤µà¤¸ à¤²
) )
1 00
7 0
A R
B C
C han
D o
D op
E S
H A
K hup
O N
O n
S t
a z
c on
e b
e e
g lish
h it
h ash
i x
i al
l at
m l
n al
o k
o se
p elg
r am
v e
v iew
w n
Ġ >
Ġ u
Ġ ent
Ġ out
Ġ ---
à¤ Ļ
à¥ Ĩ
à¤° à¤ł
à¤° à¤Ĺà¤²
à¤° à¤®à¤ļ
à¤° à¤Ĺà¤¡
à¤¤ à¤¥
à¤¤ à¤µà¤²
à¤¤ à¤¸à¤°
à¤¤ à¤¬à¤¦
à¤¤ à¤¸à¤ļ
à¤² à¤¬à¤°
à¤² à¤Ĺà¤¤
à¤¯ à¤µà¤¤
à¤¯ à¤Łà¤ķ
à¤¯ à¤¬à¤²
à¤¯ à¤Łà¤¨
à¤¯ à¤ªà¤¦
à¤¨ à¤ķà¤°
à¤¨ à¤ªà¤°
à¤¨ à¤¯à¤¨
à¤¨ à¤®à¤°
à¤¿ )
à¤¿ -
à¤¿ ?
à¤ļ à¤ķà¤¤
à¤ķ à¤«
à¤ķ à¥ľ
à¤¹ à¤¡
à¤¹ à¤¶
à¤¹ à¤ļà¤¤
à¤µ à¤ł
à¤¸ à¤ľ
à¤¸ à¤·
à¤£ à¤ĺ
Ġà¤ķ à¤Ń
Ġà¤ķ à¤µà¤ļ
à¤® à¤¯à¤²
à¤® à¤ķà¤¡
à¤® à¤Ńà¤°
à¤® à¤ľà¤²
Ġà¤Ĩ à¤«
Ġà¤Ĩ à¤ªà¤¨
Ġà¤® à¤¤à¤²
Ġà¤¤ à¤£
Ġà¤¤ à¤¦
Ġà¤¤ à¤Łà¤¸
à¥Ĥ âĢĻ
Ġà¤¹ à¤°à¤²
Ġà¤¹ à¤¡à¤ª
Ġà¤¸ à¤ľà¤Ĺ
Ġà¤¸ à¤«à¤²
à¤Ĺ à¤ªà¤¤
à¤Ĺ à¤µà¤¡
Ġà¤ħ à¤³
Ġà¤ħ à¤®à¤²
Ġà¤ħ à¤Ĺà¤°
à¤¦ à¤Ń
à¤Ł à¤Ń
à¤Ł à¤ķà¤¡
à¤Ł à¤¬à¤°
à¤Ł à¤°à¤®
Ġà¤µ à¤ª
Ġà¤µ à¤¡à¤²
à¤¾à¤Ĥ .
à¤³ à¤¸à¤°
à¤³ à¤ªà¤Ł
à¤¶ à¤Ń
à¤¶ à¤¤à¤µ
Ġà¤¬ à¤°à¤ķ
Ġà¤¬ à¥ľ
Ġà¤¦ à¤³à¤£
à¤¬ à¤²à¤ķ
Ġà¤ľ à¤¯à¤¦
Ġà¤² à¤ĸà¤²
Ġà¤Ĺ à¤¢
Ġà¤Ĺ à¤ľà¤¬
à¤ĸ à¤Ĺ
à¤ĸ à¤°à¤ª
à¤ĸ à¤³à¤²
.. :)
à¤µà¤° à¤¦
Ġà¤° à¤¡à¤ķ
Ġà¤° à¤ľà¤¨
Ġà¤ķà¤° à¤®
Ġà¤ķà¤° à¤µà¤¤
Ġà¤¶ à¤°à¤®
Ġà¤¶ à¤°à¤¦
Ġà¤ļ à¤ķà¤µ
à¤¥ à¤µà¤°
Ġà¤ı à¤¶
Ġà¤ĺ à¤®à¤ĺ
Ġà¤Ń à¤Ĺ
Ġà¤Ń à¤°à¤ķ
Ġà¤Ń à¤Ĺà¤¤
Ġà¤Ń à¤Ĺà¤¦
à¤¹à¤£ à¤¨
Ġà¤ī à¤¬à¤¦
Ġà¤ī à¤¸à¤³
Ġà¤ī à¤°à¤ķà¤²
Ġà¤ĸ à¤¨
Ġà¤ĸ à¤®
Ġà¤ĸ à¤¦
Ġà¤¤à¤° à¤¬
à¤Ī à¤µà¤°
à¤Ī à¤¥
à¤Ī à¤Ŀ
à¤Ī à¤¨à¤ļ
à¤Ĩ à¤¡
à¤Ĩ à¤°à¤ª
à¤Ĩ à¤Ĭà¤Ł
à¤Ŀ à¤²à¤¨
à¤¢ à¤°à¤ª
à¤¤à¤° à¤¨
à¤ĺ à¤Ł
Ġà¤Ĩà¤² à¤¯
à¤µà¤² à¤¨
à¤°à¤£ à¤¹
Ġà¤§ à¤ľ
Ġà¤ħà¤¨ à¤Ń
à¤ķà¤° à¤µ
à¤µà¤¸ à¤°
à¤ªà¤° à¤¦
à¤®à¤ļ à¤°
à¤°à¤® à¤ª
à¤ı à¤ļ
Ġà¤ªà¤° à¤°
Ġà¤ªà¤° à¤µà¤¡
Ġà¤®à¤¨ à¤ª
à¤°à¤µ à¤³
Ġà¤¬à¤ĺ à¤¤à¤ļ
à¤ĩ à¤ª
à¤ĩ à¤Ĺ
Ġ" "
à¤Īà¤² à¤µà¤°
Ġà¤Ľ à¤³à¤¤
Ġà¤ĵ à¤¢à¤£
Ġà¤ĵ à¤¸à¤°à¤²
ĠâĢ Ķ
Ġà¤Ĩà¤ľ à¤®
Ġà¤Ĩà¤ľ à¤µà¤°à¤ļ
à¤ıà¤ķ à¤ļ
à¤ī à¤ª
à¤ī à¤¶
à¤¶à¤¨ à¤¶
... âĢĿ
Ġà¤Ĩà¤® à¤Ł
Ġà¤ħà¤ľ à¤¬
Ġà¤¸à¤¹ à¤²
Ġà¤ĸà¤° à¤¤à¤°
à¤¹à¤° à¤¹
à¤µà¤¨ à¤µ
âĢĿ ,
in i
an i
à¤¬à¤² à¤ļà¤ķ
Ġà¤ķà¤¥ à¤¨
er ta
à¤²à¤² à¤¯
à¤Ĩà¤ľ à¤ª
à¤Ĩà¤ľ à¤ªà¤°
Ġà¤ħà¤ª à¤¹à¤°à¤£
à¥¨ à¥¯
Ġth an
Ġth ink
at or
at ic
Ġà¥¨ à¥Ń
Ġs y
Ġs ir
........ ......
Ġà¤ħà¤µ à¤¤à¤°à¤²
à¤Īà¤¨ à¤®
Ġa g
à¤¤à¤¸ à¤¹
is e
à¤ĵ à¤µ
à¤°à¤¦ à¤ķ
à¤¨à¤µ à¤±
Ġw ww
Ġw ere
en c
en ed
en se
Ġà¤ķà¤³ à¤ª
al ay
à¤°à¤ªà¤Ł à¤¸
à¤¯à¤¬ à¤³
it ies
Ġb et
Ġà¤Ĩà¤ª à¤Ł
Ġà¤¹à¤³ à¤µ
Ġc all
Ġm ent
Ġm uch
Ġp oint
à¥ª à¥¨
Ġh app
Ġh uman
à¤°à¤Ń à¤¦
Ġà¤Ĩà¤łà¤µà¤¤ à¤¯
Ġf irst
Ġd ay
Ġà¤¦à¤¹ à¤¶à¤¤
Ġl ove
Ġà¤īà¤Ĺ à¤®
**************** ************
à¤ħà¤ª à¤ĺ
Ġin d
Ġn at
Ġn ahi
am p
Ġà¤ªà¤ķà¤¡ à¤£
à¤¾" .
Ġà¤ľà¤¸ à¤ľà¤¸
Ġ) ,
Ġ) .
Ġà¤¹à¤² à¤µà¤²
à¤¨à¤Ĺ à¤°à¤ļ
Ġà¤Ĩà¤¦ à¤®
Ġà¤Ĩà¤¦ à¤³à¤²
ĠM ah
================ ====
Ġà¤Ĩà¤¸ à¤µ
Ġà¤īà¤® à¤Ł
Ġà¤īà¤® à¤Łà¤¤
Ġà¤¤à¤³ à¤®à¤³
Ġà¤ĸà¤¡ à¤¤à¤°
Ġà¤ĸà¤¡ à¤¬à¤¡
Ġà¤Ĭ à¤¸
od uct
ĠB r
Ġà¤¬à¤³ à¤ķà¤Ł
Ġà¥¨à¥¦à¥§ à¥®
ir d
ol d
à¤½à¤½ à¤½à¤½
Ġà¤ķà¤¨ à¤¸à¤²
ul t
Ġà¤īà¤ľ à¤³à¤£
Ġfor m
ur u
Ġ20 10
Ġst ory
ear l
Ġà¤¤à¤¡ à¤«
Ġà¤¢à¤ķà¤² à¤£
à¤¤à¤¬ à¤Ĺ
Ġà¤ªà¤¸à¤° à¤Ł
ci ent
ĠN at
op le
Ġà¤īà¤²à¤Ĺ à¤¡à¤¤
ub lic
________________ _
Ġ5 0
................................ ................................
ment s
ĠU S
ĠCh ina
Ġat t
à¤¬à¤¬ à¤¨à¤¨
Ġ194 7
Ġ194 8
Ġà¤¥à¤°à¤¥ à¤°à¤¤
++++ ++++
bb bb
Ġà¤ĸà¤£ à¤ĸà¤£
Ġà¤ªà¤Łà¤ķ à¤¥
Ġgen er
ĠSw am
Ġà¤¤à¤¸à¤¤ à¤¸
Ġlihil ay
Ġà¤¸à¤³ à¤¸à¤³
Ġà¤ħà¤¹à¤® à¤¦
Ġà¤ľà¤¡à¤£ à¤ĺà¤¡à¤£
Ġbro ther
Ġpla ce
Dop pelg
Ġà¤®à¤¤à¤² à¤¬
Doppelg anger
! )
) !
, ,
. (
. )
. âĢĻ
1 3
3 5
4 8
8 6
A L
H E
L E
O M
P S
S h
T o
V E
Y ou
b ol
c l
c ess
h Ã¢
i b
k ha
m m
n y
n ot
o ss
o ci
r un
s on
s elf
u le
u ation
u ly
w ard
w ays
y out
Ã ©
Ġ ``
Ġ if
à¥ Ľ
à¤¾ à¥ĩ
à¥į !
à¥į ?
à¤° à¤¯à¤¸
à¤° à¤³à¤ķ
à¥Ģ _
à¤² à¤¦à¤°
à¤² à¤¤à¤ļ
à¤² à¤¯à¤¤
à¤¯ à¤«
à¤¯ à¤°à¤²
à¤¯ à¤ªà¤°
à¤¯ à¤ľà¤¨
à¤¨ à¤ķà¤¡
à¤¨ à¤®à¤§à¤²
à¤ļ à¤µà¤°
à¤ļ à¤Ń
à¤ļ à¤µà¤Ł
à¤ļ à¤ľà¤£
à¤Ĥ )
à¤¹ à¤ª
à¤µ à¤µà¤¤
à¤µ à¤¦à¤°
à¤µ à¤¨à¤ļ
à¤µ à¤ļà¤¨
à¤¸ à¤¡
à¤¸ à¤°à¤£
à¤¸ à¤µà¤£
à¥ĭ âĢ¦
à¥ĭ ).
à¤£ à¤¹
Ġà¤ķ à¤®à¤²
Ġà¤ķ à¤µà¤¡
à¤® à¤Ŀ
à¤® à¤¯à¤¨
Ġà¤Ĩ à¤¸à¤°
Ġà¤Ĩ à¤ĸà¤£
Ġà¤® à¤Ĺà¤²
Ġà¤® à¤¸à¤²
Ġà¤¤ à¤«
Ġà¤¤ à¤±
Ġà¤¤ à¤³à¤£
à¤ª à¤¤à¤°
à¤ª à¤ķà¤¨
à¥Ĥ à¤Ĥ.
à¥Ĥ à¤ģ
Ġà¤¹ à¤ª
Ġà¤¹ à¤²à¤£
Ġà¤¸ à¤Ł
Ġà¤¸ à¤Ī
Ġà¤¸ à¤°à¤®
Ġà¤¸ à¤ķà¤¤
Ġà¤¸ à¤ľà¤²
Ġà¤¸ à¤³à¤¸
à¤Ĺ à¤Ĺ
Ġà¤ħ à¤¤à¤°
Ġà¤ħ à¤ªà¤²
Ġà¤ħ à¤Ŀà¤°à¤¬
à¤¦ à¤¬
à¤Ł à¤¶
Ġà¤µ à¤¦
Ġà¤µ à¤°à¤£
à¤¡ à¤ĸ
à¤¡ à¤¸à¤®
à¤¡ à¤®à¤¨
Ġà¤¨ à¤ĸ
Ġà¤¨ à¤Łà¤²
à¤³ à¤¨
à¤³ à¤Ń
à¤³ à¤ªà¤°
à¤³ à¤Īà¤ļ
à¤ľ à¤ķà¤¡
à¤¶ à¤¦à¤°
Ġà¤¬ à¤²à¤°
Ġà¤¦ à¤ª
Ġà¤¦ à¤¸à¤°
Ġà¤¦ à¤®à¤¦
Ġà¤¦ à¤¡à¤ª
Ġà¤¦ à¤£à¤ķ
à¤¬ à¤¡à¤²
Ġà¤² à¤Ĺà¤¤
Ġà¤² à¤¢à¤¤
Ġà¤² à¤ļà¤ķ
Ġà¤² à¤«à¤¡
Ġà¤Ĺ à¤ľà¤°
Ġà¤Ĺ à¤¹à¤¨
à¤ĸ à¤Ń
à¤ĸ à¤Ľ
Ġà¤¯ à¤ķà¤Ł
.. ,
.. >>
à¤µà¤° à¤¨
Ġà¤° à¤Ĺ
Ġà¤° à¤Ł
Ġà¤° à¤ļà¤£
Ġà¤ķà¤° à¤¶
Ġà¤ķà¤° à¤ķà¤°
à¤ł à¤Ńà¤°
à¤ł à¤¬à¤³
Ġà¤ļ à¤²à¤¨
à¤¥ à¤¶
à¤¥ à¤ªà¤°
Ġà¤ĺ à¤¸à¤°
Ġà¤ĺ à¤¸à¤°à¤¤
Ġà¤ıà¤ķ à¤ľ
à¤¹à¤£ à¤µ
à¤¹à¤£ à¤¶
à¤Ń à¤°à¤²
à¤Ń à¤°à¤ļ
Ġà¤ī à¤¡à¤£
Ġà¤Ŀ à¤Łà¤ķà¤¨
Ġà¤ĸ à¤³à¤ĸ
âĢ ĵ
Ġà¤¤à¤° à¤¤à¤°
Ġà¤« à¤¤
à¤Ĩ à¤ĸ
à¤Ĩ à¤¤à¤²
à¤Ĩ à¤¦à¤²
à¤Ĩ à¤Īà¤²
à¤¤à¤° à¤ľà¤®
à¤°à¤¤ à¤µ
à¤°à¤¤ à¤¨à¤ļ
à¤ħ à¤°à¤²
à¤ħ à¤ķà¤°
à¤Ĭ à¤¤
à¤Ĭ à¤£
à¤Ĭ à¤¬
à¤Ĭ à¤¥
Ġà¤ĩ à¤µà¤²
à¤µà¤² à¤¤
à¤¯à¤² à¤ļ
Ġà¤Ł à¤ªà¤²
à¤ķà¤¡ à¤ķ
à¤¹à¤¤ à¤ļ
à¤¾, âĢĿ
à¤°à¤£ à¤¤
Ġà¤ªà¤£ à¤¤
Ġà¤¡ à¤ķà¤µ
à¤Ĺà¤³ à¤¸
à¤°à¤ķ à¤¸
Ġà¤ħà¤¨ à¤ĺ
à¤µà¤¸ à¤ļ
à¤µà¤¸ à¤®
Ġà¤¸à¤® à¤¯
à¤ªà¤° à¤¹
Ġà¥ Ľ
Ġà¤Ĩà¤¤ à¤ļ
à¤°à¤® à¤µà¤°
Ġà¤¸à¤° à¤¨
Ġà¤¸à¤° à¤¸à¤ķà¤Ł
Ġà¤¥ à¤µ
Ġà¤¥ à¤°à¤ķ
Ġà¤¥ à¤ķà¤µ
à¤ı à¤ľ
Ġà¤¸à¤Ĺà¤³ à¤¯
>> +
à¤ĩ à¤ļ
à¤ĩ à¤µ
à¤ĩ à¤ªà¤²
à¤Īà¤² à¤®à¤§
Ġà¤Ľ à¤Ł
Ġà¤ĵ à¤¤à¤²
Ġà¤ĵ à¤¤à¤ª
Ġà¤Ĩà¤ľ à¤¤
à¤ıà¤ķ à¤ª
âĢĻ ,
à¤·à¤£ à¤ªà¤¦
à¤ī à¤®à¤°
à¤¶à¤¨ à¤¨
... (
... !!
à¤Ĩà¤¤ à¤®à¤§
Ġà¤Ĳ à¤¤à¤°
à¤®à¤¸ à¤¨
à¤®à¤¸ à¤Ń
à¤¸à¤® à¤¯
Ġà¤¸à¤®à¤ľ à¤µ
Ġà¤¸à¤¹ à¤ľà¤ļ
à¤ħà¤° à¤¬
à¤°à¤ľ à¤²
à¤°à¤ľ à¤¨
à¤°à¤ľ à¤£
à¤¹à¤° à¤¯
à¤¹à¤° à¤µà¤°
à¤²à¤ķ à¤®
à¤²à¤ķ à¤Ł
in ation
an c
à¤§à¤¨ à¤ķ
Ġà¤ĳ à¤ĩà¤²
Ġà¤ĳ à¥ŀ
Ġà¤Ĩà¤¯ à¤°
Ġà¤ķà¤² à¤°à¤ļ
à¤¨à¤ķ à¤³à¤¤
à¤ªà¤¤ à¤Ń
à¤¯à¤¨ à¤°
at t
at ch
at ist
à¤ħà¤¸ à¤ļ
Ġs ay
Ġs ub
Ġs uch
à¤®à¤ķ à¤°à¤£
à¤ħà¤¨ à¤ĺ
à¥« à¥§
à¤¸à¤¨ à¤¤
à¤¸à¤¨ à¤¨
or n
à¤ĵ à¤¤
à¤ĵ à¤ª
à¤ĵ à¤Ł
Ġw ay
Ġw ind
à¥© à¥¬
à¥¯ à¥¬
Ġà¤ķà¤¡ à¤ķà¤¡
al e
al th
al ity
Ġb r
Ġà¤Ĩà¤ª à¤Łà¤²
à¤ľà¤µà¤³ à¤ľà¤µà¤³
Ġc ol
Ġm il
Ġm ay
Ġm ast
Ġm ust
Ġm ade
à¤µà¤ľ à¤¯
à¤ļà¤ķ à¤³
Ġà¤Ī à¤ļ
ed ia
Ġp e
?? ""
Ġà¤®à¤¤ à¤¦
à¤µà¤ķ à¤±
à¥ª à¥¦à¥¦
ing s
à¤Ĩà¤ªà¤£ à¤ļ
Ġà¤ħà¤¡ à¤µà¤¤
Ġà¤ļà¤° à¤«
à¤ħà¤ľ à¤¯
Ġà¥© à¥«
ic ation
Ġf e
Ġd on
Ġà¤¦à¤¹ à¤¶à¤¤à¤µ
Ġl a
Ġl av
Ġl iv
à¥Ń à¥¦
Ġà¤īà¤Ĺ à¤µà¤¤
Ġ1 12
à¤Ĩà¤Ī à¤¬
Ġà¤Ĺà¤£ à¤²
>>>> >>>
à¥ĩ) ,
Ġà¤īà¤ĺà¤¡ à¤ªà¤£
à¥Ģ' .
à¤¯à¤ķà¤² à¤µà¤°
Ġà¤ªà¤³ à¤µà¤²
Ġà¥« à¥«
Ġà¤§à¤¡ à¤§
Ġà¤§à¤¡ à¤ķà¤²
Ġà¤Ĺà¤¡ à¤ª
Ġà¤¹à¤² à¤µà¤¤
Ġà¤¹à¤° à¤µà¤¤
he t
Ġà¥§à¥¯ à¥ª
Ġy et
à¤°à¤¥à¤® à¤¦à¤°
Ġà¤īà¤® à¤ľ
Ġk hup
av a
et y
Ġà¤Ĭ à¤ł
ation al
Ġà¤¸à¤ª à¤¶
Ġà¤²à¤ª à¤µà¤£
Ġà¤ħà¤¦ à¤¬
à¤ħà¤µ à¤¯à¤µ
Ġà¥¨à¥¦à¥§ à¥«
Ġà¥¨à¥¦à¥§ à¥ª
Ġon ly
ab har
ĠA BC
Ġà¥Ń à¥«
Ġv at
ĠP ar
ist er
ul ar
id s
Ġan other
Ġan cient
à¤ĭ à¤¤
-------------------------------- --------------------
Ġà¤Ĩà¤³ à¤¶
ĠD e
Ġà¤į à¤¡
Ġst ill
Ġà¥¯ à¥¯
à¥§à¥¯ à¥¬
oo s
à¤®à¤°à¤£ à¤¶à¤ķ
à¤Īà¤® à¤ª
!!!! !!!!!
Ġà¥¨à¥¦à¥¦ à¥«
Ġà¥¨à¥¦à¥¦ à¥®
Ġ3 0
Ġà¥§à¥« à¥¦à¥¦
em ent
Ġsh ould
ĠV ed
Ġà¤¬à¤¬ à¤¨à¤¨
Ġà¤¦à¤® à¤Ľ
??? "
ĠĠĠĠ ĠĠĠĠ
Ġne ither
Ġ6 0
Ġà¤ļà¤®à¤ķ à¤¦
à¥§à¥¨ à¥«
ang ol
ell ing
âĢ¦âĢ¦ âĢ¦âĢ¦
ĠU pan
Ġà¤µà¤Ĺà¤³ à¤²
ud h
ĠJ uly
à¤Ĩà¤µ à¤¡à¤¤
à¤ħà¤¡ à¤ļà¤£
à¤ĩà¤¸à¤® à¤¨
ĠâĢĿ âĢľ
Ġà¤¥à¤°à¤¥ à¤°
ex t
Ġà¤¤à¤Ĺ à¤®à¤Ĺ
Ġtim e
Ġtim es
ðŁ ĳ
Ġà¤ħà¤µà¤ļ à¤Ł
oun t
Ġà¤· à¤Łà¤ķ
we en
Than ks
yas a
ĠGT G
jun a
Ġtak a
Ġph ot
Ġpers on
ĠAr juna
ulner able
ĠTr ans
Ġà¤ĺà¤®à¤ĺ à¤®
Ġbet ween
Ġcall ed
ĠMah abhar
Ġà¤¸à¤³à¤¸ à¤³à¤¤
ĠABC D
ĠUpan ishad
ĠMahabhar ata
! ""
' m
) "
) âĢľ
. ,
. :
. âĢĿ
. ??
0 3
0 8
0 9
1 7
5 4
6 4
9 2
? ""
A W
A nd
B ut
C h
E N
I f
L A
M eat
N o
P angol
R O
W e
a ce
a ther
b ar
c re
d p
e f
e ep
f f
f ic
f orm
g le
h er
h or
h ad
h ay
h ere
i ed
l l
l ated
m y
m un
m ber
o ol
o sh
p h
p ar
p ost
r on
r it
r ap
s am
t r
u k
u ck
v ed
v el
x t
| |
Ã Ĥ
Ġ %
Ġ [
Ġ ----
Ġ ro
à¥ ¥
à¥ ²
à¥ĩ à¤ģ
à¥ĩ ''
à¤° à¤Ľ
à¤° à¤³à¤ļ
à¤° à¤®à¤§à¤²
à¤¤ à¤Ľ
à¤¤ à¤®à¤¨
à¤¤ à¤ľà¤¯
à¥Ģ âĢ¦.
à¤² à¤Ī
à¤² à¤¢
à¤² à¤ķà¤¡
à¤² à¤Ĺà¤²
à¤² à¤Ľ
à¤² à¤¬à¤¦
à¤¯ à¤Ľ
à¤¯ à¤¡à¤£
à¤¯ à¤ªà¤ķ
à¤¨ à¤³
à¤¨ à¤²à¤²
à¤¨ à¤ªà¤Ł
à¤¨ à¤ªà¤¦
à¤¿ '
à¤ļ à¤Ĺ
à¤ļ à¤ªà¤£
à¤ļ à¤¤à¤ļ
à¤ļ à¤®à¤¤
à¤Ĥ âĢĮ
à¤ķ à¤¯
à¤ķ à¤Ĺ
à¤ķ à¤ªà¤°
à¤ķ à¤«à¤°
à¤¹ à¤µà¤¤
à¤¹ à¤«
à¤¹ à¤°à¤ļ
à¤¹ à¤¨à¤ļ
à¤¹ à¤³à¤¤
à¤¹ à¤ļà¤£
à¤µ à¤µà¤°
à¤µ à¤Ĺà¤¤
à¤µ à¤¯à¤®
à¤¸ à¤Ī
à¤¸ à¤ªà¤°
à¤¸ à¤¶à¤²
à¤¸ à¤ħà¤ª
à¤¸ à¤¬à¤¨
à¤£ à¤Ŀ
à¤£ à¤¤à¤°
à¤£ à¤ķà¤°
à¤£ à¤ķà¤¨
à¤® à¤®à¤¤
à¤® à¤¦à¤¤
Ġà¤Ĩ à¤ı
Ġà¤Ĩ à¤°à¤¸
Ġà¤Ĩ à¤°à¤¶
Ġà¤® à¤ĸ
Ġà¤® à¤®à¤¤
Ġà¤ª à¤ļà¤¨
Ġà¤ª à¤ļà¤µà¤¤
Ġà¤¹ à¤²à¤²
Ġà¤¹ à¤¬à¤ķ
Ġà¤¸ à¤¤à¤²
Ġà¤¸ à¤µà¤¤
Ġà¤¸ à¤¡à¤ª
Ġà¤¸ à¤¨à¤®
à¤Ĺ à¤§
à¤Ĺ à¤¢
à¤Ĺ à¤¤à¤°
à¤Ĺ à¤«
à¤Ĺ à¤¡à¤²
à¤Ĺ à¤±
à¤Ĺ à¤¨à¤ļ
à¤Ĺ à¤°à¤¸
à¤Ĺ à¤Ńà¤°
à¤Ĺ à¤µà¤°à¤ļ
Ġà¤ħ à¤°à¤£
Ġà¤ħ à¤¡à¤²
Ġà¤ħ à¤°à¤®
Ġà¤ħ à¤ªà¤¤
Ġà¤ħ à¤®à¤ķ
à¤¦ à¤ªà¤£
à¤¦ à¤°à¤¤
à¤¦ à¤®à¤§
à¤Ł à¤Ł
à¤Ł à¤ĸ
à¤Ł à¤Ľ
à¤Ł à¤ľà¤µà¤³
à¤Ł à¤ªà¤Ł
à¤Ł à¤ħà¤ª
à¤Ł à¤®à¤§à¤²
Ġà¤µ à¤¨à¤°
Ġà¤µ à¤£à¤µ
à¤¡ à¤§
à¤¡ à¤ªà¤£
à¤¡ à¤¡à¤²
à¤¡ à¤Ńà¤°
à¤¡ à¥Ł
Ġà¤¨ à¤Ī
Ġà¤¨ à¤°à¤¸
Ġà¤¨ à¤Ĺà¤£
Ġà¤¨ à¤®à¤¨
à¤¾à¤Ĥ ,
à¤¾à¤Ĥ ?
à¤¾à¤Ĥ à¤Ĥ
à¤³ à¤¯
à¤³ à¤ªà¤£
à¤³ à¤ķà¤¡
à¤³ à¤Ĺà¤²
à¤ľ à¤ĸ
à¤ľ à¤Ń
à¤ľ à¤ªà¤£
à¤ľ à¤Ĺà¤¤
à¤ľ à¤¨à¤ļ
à¤ľ à¤ĺà¤°
à¤¶ à¤Ńà¤°
Ġà¤¬ à¤®
Ġà¤¬ à¤²à¤¸
Ġà¤¦ à¤Ĺà¤¦
à¤¬ à¤®à¤§
à¤¬ à¤¸à¤²
à¤¬ à¤²à¤¤
Ġà¤ľ à¤¤
Ġà¤ľ à¤¯à¤¤
Ġà¤ľ à¤¤à¤¨
Ġà¤ľ à¤¬à¤¡
Ġà¤ľ à¤ĸà¤¡
à¤§ à¤¹
à¤§ à¤¸
Ġà¤² à¤°
Ġà¤² à¤µà¤¤
Ġà¤² à¤¹à¤°
Ġà¤² à¤ªà¤¤
Ġà¤² à¤¢à¤²
Ġà¤² à¤µà¤ļ
Ġà¤ħà¤¸ à¤®à¤°
à¤· à¤ķà¤°
à¤· à¤ªà¤¦
à¤ĸ à¤¨à¤¸
Ġà¤¯ à¤¤
Ġà¤¯ à¤²
.. :
.. âĢĻ
Ġà¤° à¤ļ
Ġà¤° à¤¯à¤¤
Ġà¤° à¤¡à¤µ
Ġà¤° à¤ĸà¤¨
Ġà¤ķà¤° à¤ª
Ġà¤¶ à¤²
Ġà¤ļ à¤ªà¤²
Ġà¤ļ à¤²à¤¤
Ġà¤ļ à¤ķà¤£
à¤¥ à¤¹
à¤¥ à¤Ł
à¤¥ à¤¡
à¤¥ à¤°à¤²
Ġà¤ı à¤Ĺ
Ġà¤ĺ à¤®
Ġà¤ĺ à¤¸à¤°à¤²
Ġà¤Ń à¤µà¤¤
Ġà¤ıà¤ķ à¤µà¤Ł
à¤Ń à¤Ĺ
à¤Ń à¤µà¤£
Ġà¤ī à¤¹
Ġà¤ī à¤¸à¤¨
Ġà¤ī à¤¸à¤ķ
Ġà¤Ŀ à¤Ĺ
Ġà¤Ŀ à¤¡à¤ª
Ġà¤ĸ à¤²
Ġà¤ĸ à¤Łà¤²
Ġà¤¤à¤° à¤³
Ġà¤« à¤µ
Ġà¤« à¤¡
Ġà¤« à¤¸à¤µ
Ġà¤« à¤Ŀà¤²
Ġà¤« à¤¡à¤«
à¤Ī à¤¡à¤²
à¤Ī à¤ķà¤°
à¤Ĩ à¤¯à¤²
à¤Ĩ à¤¯à¤ª
à¤Ŀ à¤µ
à¤Ŀ à¤²à¤ļ
à¤¢ à¤Ĺ
à¤¢ à¤±
à¤ĺ à¤µ
à¤¯à¤ļ à¤³à¤µà¤³
à¤ħ à¤¥
à¤ħ à¤µà¤²
à¤ħ à¤Ĺà¤¤
à¤ħ à¤®à¤²
Ġà¤ĩ à¤Łà¤²
Ġà¤ĩ à¤®à¤°
à¥ī ,
Ġà¤Ł à¤®
Ġà¤Ł à¤³
Ġà¤Ł à¤µà¤ķ
à¤« à¤¨
à¤« à¤Łà¤ķ
à¤Ĺà¤² à¤ļ
à¥ĩ, '
à¤Ĺà¤³ à¤¤
Ġà¤µà¤° à¤ĸ
Ġà¤¨à¤µ à¤µà¤°
à¤¬à¤° à¤°
à¤¬à¤° à¤®à¤§
Ġà¤¸à¤® à¤ķ
à¤ªà¤° à¤Ĺ
Ġà¥ ł
à¤¯à¤ķ à¤²à¤ļ
à¤¤à¤ķ à¤®
à¤¤à¤ķ à¤¥
.... !
à¤ı à¤£
à¤ı à¤¬
Ġà¤®à¤¨ à¤Ĺà¤Ł
à¤°à¤ĸ à¤¨
à¤°à¤µ à¤Ł
à¤°à¤µ à¤¡
à¤µà¤³ à¤Ł
à¤ĩ à¤ªà¤°
à¤ĩ à¤¤à¤ªà¤¤
Ġà¤¬à¤° à¤¸
Ġà¤ĵ à¤¹
Ġà¤ĵ à¤¶
Ġà¤ĵ à¤¸à¤°
Ġ, '
à¤ĥ -
âĢĻ !
à¤ī à¤ĺà¤¡
à¤¶à¤¨ à¤¹
... !
à¥§ à¥¦à¥¦à¥¦
à¤Ĺà¤£ à¤ļ
__ _/\
à¤Łà¤° à¤ª
à¤¸à¤® à¤°
Ġà¤¸à¤¹ à¤ľà¤¤
Ġà¤¬à¤¸ à¤¸
Ġà¤®à¤Ĺ à¤°
à¤µà¤¨ à¤®
à¤µà¤¨ à¤ªà¤¦
à¤²à¤ķ à¤°à¤²
Ġà¤ķà¤® à¤ľ
à¤µà¤Ł à¤µ
in al
in ed
an y
Ġà¤Ĩà¤Ī à¤¶
Ġà¤ĳ à¤²à¤°
à¤¬à¤² à¤ļ
à¤Ńà¤° à¤¹
Ġà¤ħà¤Ń à¤¯
Ġà¤īà¤ª à¤ľ
à¤ľà¤¨ à¤¤
à¤ľà¤¨ à¤°à¤²
!! >>
à¤®à¤¨ à¤¸
Ġà¤ķà¤² à¤°
à¤Ĺà¤° à¤°
à¤¯à¤® à¤°
Ġth r
Ġth en
Ġth irst
Ġà¥¨ à¥®
ar v
ar athi
Ġs p
Ġs ect
-------- --
à¤°à¤¹ à¤¦
Ġà¤ľà¤¨ à¤°
Ġà¤ľà¤® à¤µà¤²
Ġa ss
Ġa uth
or s
or th
à¤¤à¤¨ à¤²
is m
à¤ĵ à¤ªà¤¨
à¤ĵ à¤®à¤ª
Ġà¤Ńà¤° à¤µà¤²
Ġà¤Ńà¤° à¤µà¤¤
Ġw he
Ġw alk
Ġà¤µà¤¸ à¤Ī
Ġà¤ķà¤³ à¤ķà¤³
à¥© à¥®
Ġà¤¸à¤°à¤ķ à¤µ
Ġthe y
Ġthe ir
ou b
Ġà¤ĳà¤« à¤²
Ġà¤Ĩà¤ª à¤Łà¤¤
Ġà¤Ĩà¤ª à¤Ĩà¤ªà¤²
à¤¯à¤¸ à¤Ń
Ġt um
Ġm on
Ġm ost
Ġà¤Ī à¤¸
Ġà¤Ī à¤ľ
Ġp er
Ġp ar
Ġp re
Ġp ost
Ġà¤®à¤¤ à¤Ń
à¤ķà¤Ł à¤µ
âĢ¦ âĢĿ
>>> +
à¤¬à¤Ī à¤®à¤§
Ġà¤¢ à¤µà¤³
re ad
Ġh ad
Ġh ot
Ġà¤īà¤² à¤¥
ss à¤°
ss à¤¯
Ġà¤ħà¤¡ à¤µà¤²
à¥® à¥«
Ġà¥© à¥©
Ġà¥© à¥ª
Ġà¥© à¥¦à¥¦à¥¦
ic t
ic ity
Ġf am
Ġf act
Ġd r
Ġd es
Ġd est
Ġd if
à¤¹à¤² à¤ª
à¤¹à¤² à¤ªà¤®
à¤¤à¤³ à¤Ł
Ġl ong
Ġl ink
Ġl ock
Ġl ife
à¤¾' .
à¤²à¤ķà¤° à¤¨
Ġin s
Ġn ow
Ġà¤ļà¤ķ à¤ļà¤ķ
à¥Ģ' ,
ad n
il a
il d
il y
à¤¾" ,
à¥Ģ) ,
à¤¬à¤¸ à¤®à¤§
Ġg et
Ġà¥¨à¥¦ à¥§à¥§
Ġà¤Ķ à¤ªà¤ļ
Ġà¤Ĺà¤¡ à¤¬à¤¡à¤²
Ġà¥ª à¥¦à¥¦
Ġà¥ª à¥¨
Ġà¥ª à¥Ń
Ġà¤µà¤³ à¤¸
Ġà¤µà¤³ à¤µà¤£
à¤¨à¤Ĺ à¤°à¤ª
ht ml
le ase
à¥Ģ" .
Ġà¤²à¤¢ à¤µ
Ġto day
Ġà¤°à¤ķ à¤®
à¤¨à¤ªà¤£ à¤ļ
Ġà¤¦à¤°à¤µ à¤³
Ġ2 5
Ġà¤°à¤¤à¤¨ à¤¦
Ġà¤ķà¤ł à¤¡
Ġà¤īà¤® à¤Ĺà¤¤
Ġà¤ļà¤² à¤¬
à¤Ĳ à¤¤
Ġk m
Ġà¤¤à¤ª à¤¸
et ail
ce mber
à¤ĳ à¤²
à¤£à¤µ à¤ł
Ġà¤«à¤³ à¤Ŀ
ĠB od
à¤ħà¤µ à¤ĺà¤¡
Ġà¥¨à¥¦à¥§ à¥¦
à¤µà¤§ à¤ªà¤£
ĠA b
ĠA s
ol og
Ġà¤īà¤¸ à¤³à¤¤
Ġà¤īà¤¸ à¤³à¤²
Ġà¤ĩà¤¸ à¤®à¤ļ
Ġà¤Ńà¤°à¤¤ à¤ķ
Ġre c
Ġre m
à¤¼ à¤¾
Ġà¤ĵà¤³ à¤®
id ent
Ġan i
Ġan n
-------------------------------- ------------
um b
ur r
Ġr iver
Ġà¤µà¤ľà¤¨ à¤¦
20 13
ear ch
Ġà¤ĵà¤ĺ à¤µà¤¤
Ġà¥¨à¥¦à¥¦ à¥Ń
Ġà¥§à¥« à¥¦
em ber
Ġà¤ħà¤¡à¤ķ à¤µ
Ġsh ak
our nal
Ġcom mon
Ã¢ na
Ġà¤¨à¤µà¤² à¤ļ
Ġne xt
Ġ6 7
Ġex c
à¤¦à¤¶ à¤¹
Ġà¤īà¤²à¤Ĺ à¤¡à¤²
Ġch i
Ġch ar
Ġà¤Ńà¤Ł à¤ľ
________________ __
Ġà¤ıà¤ķà¤µ à¤Łà¤²
Ġà¤¸à¤« à¤°à¤ļ
ight s
ali z
..! "
Ġà¤°à¤ľ à¤¤à¤ļ
Ġà¤®à¤³ à¤Ń
und ar
Ġà¥¤ à¥¤
Ġà¥§à¥¬ à¥©à¥¦
ord er
oug ule
pr ess
Ġà¤°à¤ĸ à¤°à¤ĸ
Ġà¥§à¥¯à¥¯ à¥§
Ġ8 0
************ ***
imp le
te gr
Ġhist ory
bl og
à¤ľà¤Ĺà¤£ à¤¤
Ġthing s
Ġother s
ati able
ĠMan oos
An other
wa iting
Ġhistor ical
Ġ193 8
à¤°à¤¬à¤² à¤¨
Ġsup port
Ġever y
Ġà¤¦à¤³à¤£ à¤µà¤³à¤£
Ġà¤²à¤ĸà¤² à¤ĸ
Ġà¤Ĺà¤ľà¤¬ à¤ľà¤²
Ġà¤ķà¤°à¤® à¤°à¤ķà¤°
Ġà¤Ńà¤°à¤ķ à¤Łà¤²
Ġà¤ĸà¤¦ à¤ĸà¤¦
Ġment ion
ĠNat ya
run ali
yout u
Ġà¤¸à¤Ł à¤ķà¤²
atist ics
Ġwind ow
Ġà¤§à¤¡à¤§ à¤¡à¤¤
à¤ħà¤µà¤¯à¤µ à¤¦
Pangol in
Ġà¤¦à¤Ĺà¤¦ à¤Ĺ
Ġauth or
Ġhot a
olog y
! '
' (
( )
, âĢĿ
. -
. @
0 2
2 7
5 6
6 0
9 0
9 7
? ..
A S
A T
B Q
C om
E BQ
I S
I T
K E
M a
M arathi
N am
O R
O S
P ick
R ed
S orry
U S
W A
a w
a ut
c es
c ent
c ot
d er
e v
e w
e ap
f i
f l
f ter
f ect
g ory
i er
k d
k ul
l ed
l ass
m in
m it
m ast
n ey
n glish
o ce
o ast
p art
r d
r ow
t c
t on
t en
v a
v ad
w ar
w ay
w ik
w hy
w here
{ {
} }
ï ģ
Ġ en
Ġ im
Ġ ir
Ġ art
Ġ _/\_
Ġ under
Ġà¤ İ
à¤¾ +
à¤¾ à¥į
à¤¾ âĢĿâĢľ
à¥į "
à¥į :
à¥ĩ >>
à¤° à¤¡à¤²
à¤° à¤¬à¤°
à¤° à¤§à¤¨
à¤° à¤ıà¤£
à¤¤ à¤ĺ
à¤¤ à¤µà¤¤
à¤¤ à¤ªà¤°
à¤¤ à¤Ĺà¤¤
à¤¤ à¤®à¤²
à¤¤ à¤ľà¤®
à¤¤ à¤¥à¤°
à¥Ģ >>
à¤² à¤¸à¤°
à¤² à¤°à¤ļ
à¤² à¤ĩà¤¨
à¤¯ à¤¨à¤ļ
à¤¯ à¤Łà¤°
à¤¯ à¤°à¤ª
à¤¯ à¤®à¤¨
à¤¯ à¤Ŀà¤°
à¤¯ à¤«à¤²
à¤¨ à¤µà¤²
à¤¨ à¤µà¤¤
à¤¨ à¤¬à¤°
à¤¨ à¤µà¤¸
à¤¨ à¤¦à¤²
à¤¨ à¤ªà¤¨
à¤¨ à¤µà¤°à¤ļ
à¤¨ à¤¨à¤²
à¤¨ à¤µà¤¨à¤µ
à¤ļ à¤®à¤ļ
à¤ļ à¤°à¤ļ
à¤ļ à¤µà¤¡
à¤ļ à¤ªà¤¦
à¤ļ à¤ªà¤¡à¤¤
à¤Ĥ :
à¤Ĥ âĢĿ
à¤Ĥ ).
à¤ķ à¤µà¤ļ
à¤ķ à¤ªà¤¡
à¤¹ à¤°à¤ķ
à¤¹ à¤®à¤§
à¤¹ à¤Īà¤¨
à¤µ à¤Łà¤²
à¤µ à¤Ľ
à¤µ à¤®à¤¤
à¤µ à¤¹à¤¸
à¤¸ à¤Ĩà¤īà¤Ł
à¥ĭ :
à¤£ à¤°
à¤£ à¤ľ
à¤£ à¤§
à¤£ à¤ªà¤°
à¤£ à¤§à¤°
Ġà¤ķ à¤¹à¤°
à¤® à¤°à¤¤
à¤® à¤µà¤°à¤ļ
à¥ģ '
à¥ģ à¤¼
Ġà¤Ĩ à¤¸à¤¤
Ġà¤Ĩ à¤ªà¤¤
Ġà¤Ĩ à¤ļà¤ķ
Ġà¤Ĩ à¤µà¤°à¤£
Ġà¤Ĩ à¤ĸà¤¤
Ġà¤Ĩ à¤Ŀà¤®
Ġà¤® à¤Łà¤£
Ġà¤¤ à¤Ł
Ġà¤¤ à¤Łà¤¬
à¤ª à¤ķà¤¡
à¤ª à¤°à¤ķ
à¤ª à¤ķà¤°
à¤ª à¤¦à¤°
à¤ª à¤¤à¤ļ
à¤ª à¤Łà¤ķà¤¨
Ġà¤ª à¤®
Ġà¤ª à¤Ľ
à¥Ĥ à¤Ĥ!
Ġà¤¹ à¤Ĺ
Ġà¤¹ à¤£à¤®
Ġà¤¸ à¤Ĺ
Ġà¤¸ à¤¶
Ġà¤¸ à¤°à¤£
Ġà¤¸ à¤²à¤¤
Ġà¤¸ à¤¬à¤¨
à¤Ĺ à¤¬à¤°
à¤Ĺ à¤°à¤ļ
à¤Ĺ à¤Ŀà¤²
Ġà¤ħ à¤¢
Ġà¤ħ à¤ķà¤²
Ġà¤ħ à¤Ĺà¤£
à¤¦ à¤µà¤¤
à¤¦ à¤°à¤ķ
à¤¦ à¤¡à¤¤
à¤¦ à¤®à¤¸
à¤¦ à¤¯à¤¸
à¤¦ à¤®à¤¯
à¤Ł à¤Ĺ
à¤Ł à¤ľ
à¤Ł à¤¸à¤°
à¤Ł à¤µà¤£
à¤Ł à¤¬à¤¦
à¤Ł à¤ļà¤ķ
à¤Ł ss
Ġà¤µ à¤²
Ġà¤µ à¤±
Ġà¤µ à¤°à¤ķà¤°à¤£
à¤¡ à¤ķà¤¡
à¤¡ à¤µà¤°à¤ļ
à¤¡ à¤¨à¤²
à¤¡ à¤ľà¤¸
à¤¡ à¤®à¤§à¤²
à¤¡ à¤¨à¤®à¤§
Ġà¤¨ à¤ļ
Ġà¤¨ à¤£
Ġà¤¨ à¤«
Ġà¤¨ à¤ķà¤²
Ġà¤¨ à¤Łà¤µ
Ġà¤¨ à¤¤à¤®à¤¸
à¤³ à¤Ŀ
à¤ľ à¤¯à¤ļ
à¤ľ à¤°à¤ļ
à¤ľ à¤µà¤¡
à¤ľ à¤ĸà¤®
à¤¶ à¤µà¤°
à¤¶ à¤ªà¤°
à¤¶ à¤ķà¤¤
à¤¶ à¤®à¤¨
à¤¶ à¤¸à¤®à¤§
Ġà¤¬ à¤¶
Ġà¤¬ à¤ļà¤¤
Ġà¤¬ à¤ļà¤ķ
Ġà¤¬ à¤³à¤ľ
Ġà¤¦ à¤¡à¤µ
Ġà¤¦ à¤³à¤µ
Ġà¤¦ à¤¬à¤ķ
Ġà¤¦ à¤®à¤Ł
à¤¬ à¤®à¤ļ
Ġà¤ľ à¤¨à¤ķ
Ġà¤ľ à¤¯à¤ª
Ġà¤ľ à¤³à¤ķ
Ġà¤ľ à¤²à¤¦
Ġà¤ľ à¤²à¤ª
à¤§ à¤¦
à¤§ à¤ľ
à¤§ à¤°à¤¤
à¤§ à¤¨à¤ļ
à¤§ à¤¬à¤§à¤¬
à¤§ à¤µà¤¸à¤°
à¤§ à¤°à¤µà¤¡
Ġà¤² à¤¡à¤ķ
à¤· à¤ªà¤£
Ġà¤Ĺ à¤¬
Ġà¤Ĺ à¤ł
Ġà¤Ĺ à¤¨à¤«
à¤ĸ à¤ª
Ġà¤¯ à¤®à¤¸
.. âĢĿâĢľ
à¤µà¤° à¤µ
à¤µà¤° à¤¸
Ġà¤° à¤ļà¤¤
Ġà¤° à¤ľà¤¤
Ġà¤° à¤£à¤Ĺ
Ġà¤ķà¤° à¤¡
à¤ł à¤¡
Ġà¤ļ à¤£
Ġà¤ļ à¤Łà¤£
Ġà¤ļ à¤Łà¤ļ
à¤¥ à¤¯
Ġà¤ı à¤¬
Ġà¤ĺ à¤°à¤ķ
Ġà¤Ń à¤Łà¤ļ
Ġà¤ıà¤ķ à¤²
Ġà¤ıà¤ķ à¤¨
Ġà¤ıà¤ķ à¤®à¤¤
à¤Ń à¤¸
à¤Ń à¤¡
à¤Ń à¤Łà¤ķ
à¤Ń à¤µà¤¨
Ġà¤ī à¤ķà¤²
Ġà¤Ŀ à¤¬
Ġà¤ĸ à¤¯
Ġà¤ĸ à¤Łà¤ķ
Ġà¤ĸ à¤®à¤ķ
Ġà¤ĸ à¤¤à¤ª
Ġà¤ĸ à¤¤à¤°à¤¨
Ġà¤¤à¤° à¤£
Ġà¤« à¤ľ
Ġà¤« à¤£à¤¸
Ġà¤« à¤¡à¤£
Ġà¤« à¤Łà¤«
à¤Ī à¤°
à¤Ī à¤¯
à¤Ī à¤ķà¤¡
à¤Ī à¤¤à¤ķ
à¤Ī à¤ªà¤ļ
à¤Ĩ à¤Ŀ
à¤Ĩ à¤¦à¤°
à¤Ĩ à¤¯à¤¤
à¤Ĩ à¤¸à¤ª
à¤Ŀ à¤ª
à¤¤à¤° à¤ľ
à¤ªà¤£ à¤¨
à¤ĺ à¤³à¤²
à¤ĺ à¤¨à¤¶
à¤°à¤¤ à¤¨
à¤°à¤¤ à¤¨à¤¦
à¤ħ à¤¯
à¤ħ à¤£
à¤ħ à¤·
à¤ħ à¤¤à¤°
à¤ħ à¤µà¤ļ
à¤ħ à¤®à¤°
à¤¤à¤² à¤¸
à¤Ĭ à¤¸à¤ļ
Ġà¤ĩ à¤«
Ġà¤ĩ à¤¡à¤²
Ġà¤ĩ à¤¯à¤¤
à¥Ī à¥¤
à¤¯à¤² à¤¨
à¤¯à¤² à¤¢
à¤¯à¤² à¤®à¤§
Ġà¤Ł à¤µ
à¤« à¤¸
à¤Ĺà¤² à¤²
à¤°à¤£ à¤¯
à¤°à¤£ à¤µ
à¤¡à¤² à¤¯
à¥ĩ, .
à¤Ĺà¤³ à¤¯
à¤Ĺà¤³ à¤ļ
à¤°à¤ķ à¤ļ
Ġà¤§ à¤¸
Ġà¤§ à¤¸à¤ķ
Ġà¤¨à¤µ à¤ĸ
à¤ķà¤° à¤¶
à¤ķà¤° à¤Ńà¤°à¤¤
à¤¬à¤° à¤¨
à¤¬à¤° à¤¹
à¤¬à¤° à¤µà¤£
à¤µà¤¸ à¤Ń
Ġà¤¸à¤® à¤µ
Ġà¤¸à¤® à¤Ĺ
Ġà¤¸à¤® à¤°à¤¸
à¤ªà¤° à¤«
Ġà¥ ¥
à¤Ĭà¤¨ à¤¸
à¤¯à¤ķ à¤µ
à¤¸à¤° à¤¯
à¤¸à¤° à¤¬
à¤°à¤® à¤°
à¤°à¤® à¤¹
à¤°à¤® à¤µ
à¤°à¤® à¤Ĺ
.... ?
Ġà¤Ĩà¤µ à¤³
Ġà¤Ĩà¤µ à¤Ī
à¤ķà¤² à¤®
Ġà¤ªà¤° à¤ª
Ġà¤ªà¤° à¤¶
Ġà¤ªà¤° à¤µà¤¡à¤²
Ġà¤ªà¤° à¤Ńà¤£
à¤ķà¤¤ à¤ļ
à¤°à¤ĸ à¤ļ
à¤°à¤µ à¤¯
à¤°à¤µ à¤ļà¤¨
Ġà¤ĺà¤° à¤¹
Ġà¤ĺà¤° à¤¦
Ġà¤ĺà¤° à¤Ńà¤°
== =-'
à¤ĩ à¤¬
à¤ĩ à¤¨à¤ļ
à¥Į ,
à¤Ľ à¤¨
Ġà¤Ľ à¤¬
Ġà¤¬à¤° à¤¬
Ġà¤ĵ à¤®
Ġà¤ĵ à¤¤à¤¤
Ġ, ,
Ġ( !
Ġà¤Ĩà¤ľ à¤¸
Ġà¤®à¤¹ à¤°
à¤ī à¤ļà¤²
à¤¶à¤¨ à¤¸
... ,
... ?
... ''
... :)
---- --
Ġà¤¤à¤¸ à¤¦
Ġà¤¤à¤¸ à¤¬
à¤²à¤¤ à¤Ń
à¤Łà¤° à¤¹
à¤Łà¤° à¤Ł
à¤Łà¤° à¤¶
à¤Łà¤° à¤µà¤°à¤ļ
à¤¸à¤® à¤¦
à¤¸à¤® à¤Īà¤ļ
Ġà¤ªà¤¹ à¤²
Ġà¤ĸà¤° à¤¬
à¤Łà¤ķ à¤¸à¤°
Ġà¤ķà¤¸ à¤°à¤¤
th an
Ġà¤¬à¤¸ à¤ķà¤°
à¤µà¤¨ à¤°à¤ļà¤¨
âĢĿ "
âĢĿ .
à¤¯à¤µ à¤ļà¤¨
Ġà¤ķà¤® à¤³
an anda
Ġà¤ĩà¤¥ à¤µà¤°
à¥ĭ, âĢĿ
Ġà¤Ĩà¤Ī à¤ª
à¤¡à¤ķ à¤³
Ġà¤ªà¤°à¤¤ à¤«
Ġà¥§ à¥§à¥§à¥§à¥§
à¤łà¤² à¤°
Ġà¤ĩà¤¤à¤ķ à¤ļ
Ġà¤ĳ à¤ķà¤²
Ġà¤²à¤ķ à¤¬
Ġà¤Ĩà¤¯ à¤Łà¤®
à¤¬à¤² à¤²
à¤¬à¤² à¤ª
Ġà¤īà¤ª à¤µà¤¸
à¤ľà¤¨ à¤²
!! "
à¤µà¤¶ à¤ķ
Ġà¤ķà¤² à¤®
à¤¨à¤ķ à¤¦
à¤¨à¤ķ à¤ªà¤£
à¤Ĺà¤° à¤¹
à¥¨ à¥¨
Ġth ose
at s
Ġà¤¬à¤¹ à¤°à¤¤
Ġà¤®à¤° à¤Ĺà¤³
à¤Ńà¤µ à¤ļ
à¤Ńà¤µ à¤¹
Ġà¤Ĩà¤¨ à¤²
Ġà¤Ĩà¤¨ à¤¨
Ġà¥¨ à¥¯
Ġà¥¨ à¥¦à¥¦à¥¦
Ġs k
Ġs on
Ġs al
Ġs it
Ġs he
Ġs ol
Ġs ite
Ġs ign
Ġs cript
Ġs ense
à¤µà¤¡ à¤°
Ġà¤ħà¤µ à¤ĸà¤³
à¤¦à¤¨ à¤ħà¤Ń
à¤ħà¤¨ à¤²
à¤ļà¤¨ à¤²
à¤ļà¤¨ à¤®à¤§
à¥« à¥¨
à¥« à¥®
à¥« à¥Ń
Ġa fter
à¤¤à¤¨ à¤¨
à¤ĵ à¤®
à¤ĵ à¤ľ
à¤ĵ à¤¥
Ġà¤Ńà¤° à¤µà¤¸
Ġà¤Ńà¤° à¤µà¤£
Ġà¤Ńà¤° à¤Ĺà¤ļ
Ġà¤ĵà¤³à¤ĸ à¤£
à¤°à¤¦ à¤¸
à¤Īà¤Ł à¤ªà¤£
Ġà¤¦à¤° à¤¡
à¤¨à¤µ à¤µ
Ġw ell
Ġw ant
Ġw ould
Ġw orld
à¤µà¤ļ à¤³à¤²
en g
à¥© à¥¯
à¥¯ à¥©
al y
Ġà¤Ĺà¤°à¤ľ à¤¹
à¤Ĺà¤¡ à¤¬à¤¡
Ġà¤īà¤ĺ à¤¡à¤ķ
Ġà¤°à¤¹ à¤¦
à¤Ĩà¤® à¤¦
it s
it er
it ive
à¤¤à¤¹ à¤¸
à¤¶à¤ķ à¤¹
es e
Ġb l
Ġb el
Ġb ha
Ġb lue
Ġb att
à¤¸à¤¹ à¤¸
Ġt ry
Ġt ake
Ġc he
Ġc ell
Ġc alc
Ġc erta
Ġc ount
Ġm ad
Ġm other
Ġm ake
à¤ļà¤ķ à¤¨
Ġà¤Ī à¤°
Ġà¤Ī à¤¤
Ġà¤Ī à¤¡
Ġp at
Ġp os
Ġp ublic
as ed
Ġà¤®à¤¤ à¤ª
à¤µà¤ª à¤¦
Ġo ver
Ġo ld
>>> ++
à¥ª à¥«
à¥ª à¥©
Ġà¤¢ à¤¸
à¥¬ à¥ª
re ed
Ġh a
Ġh er
Ġh im
Ġh ere
Ġh igh
Ġà¤ħà¤¡ à¤Ĺà¤³
Ġà¤ħà¤¡ à¤ķà¤¤
Ġà¤ħà¤¡ à¤ĸà¤³
Ġà¤ħà¤¡ à¤ĸà¤³à¤²
à¥® à¥¬
Ġà¥© à¥¦à¥¦
Ġà¥© à¥¯
Ġof f
ic o
ic le
Ġf ri
Ġf our
Ġd iv
Ġd ata
Ġd ance
Ġd own
Ġd oub
à¤¨à¤¨ à¤¨
el p
Ġl et
Ġl im
Ġl ast
Ġl ight
Ġl oss
Ġ1 3
Ġ1 8
**************** ********
à¤ªà¤¡ à¤¦
>>>> >>>>>
à¤īà¤¨ à¤®à¤§
à¤ħà¤ª à¤µ
Ġà¤ªà¤Ł à¤µà¤°
Ġà¤ªà¤Ł à¤µà¤²
Ġà¤ķà¤¦ à¤®
Ġn a
Ġn am
Ġà¤¬à¤¦ à¤¡
am b
am m
ad un
il ity
ch in
Ġ: ))
Ġà¤ªà¤³ à¤µà¤¤
Ġà¤ªà¤³ à¤µà¤£
Ġà¤ªà¤³ à¤¤à¤ļ
<< >>
à¤¡à¤° à¤®à¤§
Ġà¥« à¥§à¥¨à¥«
à¥§à¥§ à¥©
ay la
Ġà¥¨à¥¦ à¥¨à¥¦
Ġ/ /
Ġà¤¹à¤² à¤µà¤£
Ġà¥ª à¥«
Ġà¥ª à¥¦à¥¦à¥¦
à¤ķà¤¥ à¤¨
Ġà¤Ĩà¤¦ à¤³
Ġà¤Ĩà¤¦ à¤³à¤¤
ĠM r
ĠM ade
ĠS t
ĠS oci
à¥Ģ" ,
ĠI D
ĠI Q
Ġto o
Ġà¤ħà¤µà¤ĺ à¤¡à¤ļ
ent s
à¤°à¤Ĺ à¤Ł
Ġà¤¦à¤°à¤µ à¤³à¤¤
à¥ĩ" ,
Ġà¤ıà¤¸ à¤¡
st em
à¤²à¤® à¤¡
Ġe ither
Ġe tc
Ġà¤°à¤¤à¤¨ à¤ķà¤¡
................ ....
à¤Ĳ à¤ķà¤²
Ġk on
Ġk ar
Ġk eep
av ar
av en
à¤Łà¤® à¤³à¤¤
ce ments
ĠC han
à¤ĳ à¤°
à¤ĳ à¤¨
à¤ĳ à¤¡
à¤£à¤µ à¤§
à¤¸à¤³ à¤§
à¤Ĩà¤¯ à¤Ł
à¤Ĩà¤¯ à¤¡
Ġà¤²à¤ª à¤µà¤¤
im il
ĠB hash
iv id
iv ers
iv ities
ag es
à¤µà¤§ à¤Ĺ
ab ard
ab kha
ĠA ut
ak s
ak as
ir us
Ġà¥® à¥¦à¥¦
Ġà¥® à¥«
ol low
à¥ĢâĢĻ .
Ġv is
Ġv iew
Ġv ulnerable
Ġà¥¬ à¥¦à¥¦
Ġà¤ĵà¤¢ à¤µà¤²
Ġà¤ĵà¤¢ à¤¤à¤ļ
Ġbe en
Ġre al
Ġre ally
ĠP ro
à¤²à¤¬ à¤ļ
à¤²à¤¬ à¤®à¤§
à¤¬à¤ĺ à¤£
id ge
à¥¨à¥¦ à¥§à¥¦
à¥¨à¥¦ à¥§à¥Ń
à¤ĩà¤¤à¤° à¤¹
Ġfor ward
um ni
ĠG ood
ĠG PS
ur ity
******************************** ****************************
ĠD is
Ġà¥§à¥¨ à¥©
à¥ĩâĢĻ .
Ġst r
20 15
ach a
ĠR am
à¥§à¥¯ à¥Ń
à¥§à¥¯ à¥¯à¥¦
Ġà¤¸à¤¬ à¤®
Ġà¤¸à¤¬ à¤ĸ
oo ks
Ġà¤ļà¤µ à¤¦
!!!! !!
Ġj o
Ġj am
Ġj ust
Ġà¥§à¥§ à¥¦
Ġwith in
ĠW ar
Ġsh ad
Ġsh ow
our ce
Ġcom ment
ĠE x
ĠE MA
ĠE nglish
ĠV ish
ĠV yasa
Ġà¤ķà¤ļ à¤°à¤²
à¤³à¤¸ à¤ªà¤£
à¥§à¥« à¥¦
.!! ''
Ġà¤Ńà¤Łà¤ķ à¤£
Ġhav es
Ġà¤²à¤¯ à¤¬à¤¦
Ġex p
Ġà¤ķà¤£ à¤ĸà¤°
Ġà¤Ńà¤Ĺà¤µ à¤¦
Ġà¤īà¤²à¤Ĺ à¤¡à¤£
à¤§à¤¶ à¤¤à¤ķ
Ġcon f
Ġcon ta
________________ ___
ra ct
Th ere
Ġse e
Ġse x
ous in
In cre
Ġ4 0
Ġà¤¦à¤¬ à¤ķà¤¤
Ġà¤°à¤ľ à¤¤à¤²
ud e
à¥¨à¥¦à¥¦ à¥¨
ĠCh ougule
Ġat om
Ġknow n
oug h
Ġwho le
.! "
lo ck
à¤Ķ à¤·à¤§
Ġà¤ħà¤¯ à¤¶à¤¸
Ġam ong
:- )
Ġgr oup
Ġà¥§à¥¯à¥Ń à¥¦
Ġà¥§à¥¯à¥Ń à¥§
Ġà¤¦à¤¶ à¤°à¤¥
************ **
Ġà¤Ŀà¤Ł à¤ķà¤²
hat s
Ġà¤¦à¤£ à¤¦à¤£
Ġà¤°à¤£ à¤ľ
Ġà¤Ńà¤°à¤µ à¤¶
Ġtr ans
app y
ens ory
Ġdis c
____________ __
Ġcomp le
*~*~ *~*~
ire ct
Ġ7 0
Ġà¤ĺà¤¸ à¤°à¤£
oun cements
gr ound
oc al
Ġel se
Ġsa id
ĠIn tegr
iver se
port s
Ġz alay
Ġqu est
******************** *
Ġwhat s
âĢĶâĢĶ âĢĶâĢĶ
Ġser ious
Ġac c
Ġact ivities
Ġty p
cel and
Ġà¤īà¤¦à¤° à¤Ńà¤°à¤£
Ġthoug h
Ġthoug ht
ump ed
Ġneed ful
Ġprob able
Ġag ain
Ġhapp ened
Ġind ivid
ĠBr ah
ĠSwam ini
Ġà¤¨à¤ĸ à¤¶
Ġà¤ĸà¤³à¤ĸ à¤³
Ġà¥Ľ à¤°
Ġà¤ļà¤°à¤« à¤¡à¤¤
Ġfe el
Ġlav kar
ĠDe cember
ðŁĳ į
Ġphot o
ĠTrans lated
hay ana
mun ication
sam ad
Ġà¤Ŀà¤Ĺ à¤®à¤Ĺ
Ġwhe ther
Ġtum hi
adn ya
ĠBod hayana
Ġann ouncements
oce an
ïģ ¹
Ġà¤¬à¤³à¤ľ à¤¬à¤°
Ġà¤¯à¤®à¤¸ à¤¦à¤¨
Ġà¤ļà¤Łà¤ļ à¤Ł
à¤ħà¤µà¤ļ à¤Ł
Ġsit uation
Ġscript ure
Ġbatt le
Ġcalc ul
Ġcerta in
Ġcount ry
Ġdoub t
ĠBhash ya
abard ast
Incre ase
Ġindivid ual
" âĢľ
' "
) :
, âĢĿâĢľ
- .
. âĢ¦
. !!!
. ???
0 1
0 4
2 2
2 5
5 8
5 9
6 6
6 29
7 86
9 35
A C
A D
A N
A V
A d
A g
A ut
A MA
B e
C iv
D i
D han
E MA
H e
H ow
I C
I I
L L
M ala
N ext
O k
O VE
P U
P r
R I
R ich
S o
S ome
S oup
S undar
T H
T r
U n
W h
W ow
W hat
a ir
a iting
b a
b ed
b hag
b lo
c c
d e
d ha
d uc
d ition
d own
e a
e g
e h
e in
g a
g er
h oo
i o
i us
i ence
j ee
j ournal
k a
k h
k i
k ey
k bar
l i
l s
l ar
m i
m o
m am
m iss
n s
n ar
n ess
n ment
n Ã¢na
o I
o al
p re
p ock
p lease
r v
r en
r as
r ation
s l
s w
s he
s un
s et
s ol
s ite
t i
t w
t ing
t ent
t ell
u y
u es
u ce
u ally
v ement
w ood
w orld
y es
y ana
~ *~*~*~*~
¿ ¼
ï ĥ
ï ¿¼
Ġ Q
Ġ Z
Ġ es
Ġ <<
Ġ est
Ġ >>>>>>
Ġ end
Ġ ÃĤ
Ġ ************************
Ġ ïĥ
à¥ ĳ
à¥ ł
Ġà¤ ±
à¤¾ @
à¤¾ _
à¤¾ à¤ĥ
à¥į (
à¥į ;
à¥ĩ >>>
à¥ĩ âĢ¦.
à¤° à¤Ĺà¤³
à¤° à¤¡à¤¤
à¤° à¤¡à¤£
à¤¤ à¤Ł
à¤¤ à¤§
à¤¤ à¤¤à¤°
à¤¤ à¤®à¤ļ
à¤¤ à¤ªà¤ķ
à¤¤ à¤ħà¤ª
à¥Ģ *
à¥Ģ `
à¥Ģ ''
à¥Ģ âĢĿâĢľ
à¤² à¤Łà¤²
à¤² à¤¹à¤°
à¤² à¤Ńà¤°
à¤² à¤µà¤¯
à¤² à¤ªà¤Ł
à¤² à¤°à¤¨
à¤² à¤ĸà¤²
à¤² à¤®à¤§à¤²
à¤² à¤ªà¤°à¤¤
à¤¯ à¤§
à¤¯ à¤¸à¤²
à¤¯ à¤¯à¤ķ
à¤¯ à¤¦à¤²
à¤¯ à¤¸à¤®
à¤¯ à¤¸à¤ļ
à¤¯ à¤īà¤¤
à¤¯ à¤Łà¤°à¤µà¤°
à¤¨ à¤¥
à¤¨ à¤¯à¤ļ
à¤¨ à¤¬à¤¦
à¤¨ à¤¸à¤®
à¤¨ à¤®à¤¨
à¤¿ "
à¤ļ à¤°à¤£
à¤ļ à¤¨à¤ļ
à¤ļ à¤Ńà¤°
à¤ļ à¤¨à¤ķ
à¤ļ à¤ªà¤¤
à¤ļ à¤¸à¤¹
à¤ļ à¤³à¤µà¤³
à¤Ĥ ",
à¤ķ à¤ľ
à¤ķ à¤Ń
à¤ķ à¤³à¤¤
à¤ķ à¤®à¤²
à¤ķ à¤£à¤¸
à¤ķ à¤¸à¤ļ
à¤ķ à¤®à¤°
à¤¹ à¤Ł
à¤¹ à¤µà¤°
à¤¹ à¤¯à¤ļ
à¤¹ à¤¬à¤°
à¤¹ à¤°à¤®
à¤¹ à¤°à¤ľ
à¤¹ à¤²à¤ļ
à¤¹ à¤¢à¤ļ
à¤¹ à¤°à¤ķà¤¤
à¤¹ à¤Łà¤ķà¤°
à¤µ à¤¬
à¤µ à¤ªà¤£
à¤µ à¤¤à¤²
à¤µ à¤ªà¤°
à¤µ à¤ķà¤²
à¤µ à¤§à¤¨
à¤µ à¤Ńà¤°
à¤µ à¤ĸà¤°
à¤µ à¤ĺà¤°
à¤¸ à¤¯
à¤¸ à¤ªà¤£
à¤¸ à¤¤à¤²
à¤¸ à¤¡à¤²
à¤¸ à¤¬à¤¦
à¤¸ à¤¬à¤²
à¤¸ à¤µà¤°à¤ļ
à¤¸ à¤µà¤¯
à¤¸ à¤ªà¤Ł
à¤¸ à¤ľà¤®
à¤¸ à¤¶à¤¸
à¥ĭ /
à¤£ à¤¶
à¤£ à¤ªà¤¤
à¤£ à¤īà¤¤
Ġà¤ķ à¤¬à¤°
Ġà¤ķ à¤¦à¤°
Ġà¤ķ à¤Łà¤ķ
à¤® à¤¯à¤ķ
à¤® à¤¸à¤¤
à¤® à¤¦à¤°
à¤® à¤¨à¤ļ
à¤® à¤°à¤¸
à¤® à¤¯à¤¤
à¥ģ "
à¥ģ à¥ģ
Ġà¤Ĩ à¤Ĺà¤¤
Ġà¤Ĩ à¤ĩ
Ġà¤Ĩ à¤ī
Ġà¤Ĩ à¤°à¤ª
Ġà¤Ĩ à¤¡à¤®
Ġà¤Ĩ à¤Łà¤ª
Ġà¤® à¤ķ
Ġà¤® à¤µ
Ġà¤® à¤ł
Ġà¤® à¤Ŀ
Ġà¤® à¤¯à¤¤
Ġà¤® à¤Łà¤¨
Ġà¤® à¤Łà¤ķà¤¨
Ġà¤® à¤Ĭà¤¸
à¤ª à¤¬à¤°
à¤ª à¤¸à¤²
à¤ª à¤Łà¤¤
à¤ª à¤³à¤¤
à¤ª à¤Ĺà¤°
à¤ª à¤µà¤¯
à¤ª à¤ķà¤ļ
Ġà¤ª à¤ĸ
Ġà¤ª à¤±
Ġà¤ª à¤ŀ
Ġà¤ª à¥ľ
Ġà¤ª à¤ļà¤µà¤£
à¥Ĥ )
à¥Ĥ ;
à¥Ĥ à¥į
Ġà¤¹ à¤¶
Ġà¤¹ à¤°à¤¤
Ġà¤¹ à¤°à¤ª
Ġà¤¸ à¤¨à¤¸
Ġà¤¸ à¤ľà¤£
Ġà¤¸ à¤Łà¤µ
Ġà¤¸ à¤¢à¤³
à¤Ĺ à¤¯
à¤Ĺ à¤¬
à¤Ĺ à¤°à¤¤
à¤Ĺ à¤°à¤ķ
à¤Ĺ à¤¸à¤¤
à¤Ĺ à¤¤à¤ķ
à¤Ĺ à¤¡à¤¤
à¤Ĺ à¤®à¤¨
à¤Ĺ à¤ľà¤²
à¤Ĺ à¤®à¤°
à¤Ĺ à¤¬à¤¦à¤²
Ġà¤ħ à¤ĺ
Ġà¤ħ à¤¦à¤°
Ġà¤ħ à¤¡à¤¤
Ġà¤ħ à¤¬à¤²
Ġà¤ħ à¤²à¤µ
Ġà¤ħ à¤¥à¤ķ
Ġà¤ħ à¤¢à¤³
à¤¦ à¤ĸ
à¤¦ à¤¸à¤°
à¤¦ à¤³à¤¤
à¤¦ à¤®à¤²
à¤¦ à¤¯à¤µ
à¤¦ à¤³à¤£
à¤¦ à¤®à¤°
à¤¦ à¤ķà¤¨
à¤Ł à¤³
à¤Ł à¤µà¤¤
à¤Ł à¤«à¤°
Ġà¤µ à¤¶
Ġà¤µ à¤¯à¤¸
Ġà¤µ à¤£à¤µà¤£
à¤¡ à¤°à¤²
à¤¡ à¤®à¤¸
à¤¡ à¤ªà¤¤
à¤¡ à¤ªà¤Ł
à¤¡ ssss
à¤¡ à¤ĵà¤³à¤ĸ
Ġà¤¨ à¤¤
Ġà¤¨ à¤Ń
Ġà¤¨ à¤°à¤ķ
Ġà¤¨ à¤Łà¤°
Ġà¤¨ à¤ĸà¤°
Ġà¤¨ à¤°à¤¡
Ġà¤¨ à¤¤à¤¦
à¤¾à¤Ĥ "
à¤ľ à¤ľ
à¤ľ à¤Ľ
à¤ľ à¤±
à¤ľ à¤ªà¤¤
à¤ľ à¤¸à¤¨
à¤¶ à¤µà¤²
à¤¶ à¤µà¤¤
à¤¶ à¤«
à¤¶ à¤¤à¤ķ
à¤¶ à¤¬à¤¦
Ġà¤¬ à¤ĸ
Ġà¤¬ à¤¢
Ġà¤¬ à¤Ĺà¤²
Ġà¤¬ à¤Ĺà¤³
Ġà¤¬ à¤Łà¤°
Ġà¤¬ à¤²à¤¦
Ġà¤¦ à¤¬à¤¦
Ġà¤¦ à¤µà¤¡
Ġà¤¦ à¤¶à¤®
Ġà¤¦ à¤ļà¤ķà¤¤
à¤¬ à¤ķà¤¤
à¤¬ à¤¸à¤ļ
à¤¬ à¥ľ
Ġà¤ľ à¤Ł
Ġà¤ľ à¤Ĺà¤¦
Ġà¤ľ à¤¯à¤¥
Ġà¤ľ à¤³à¤Ĺ
Ġà¤ľ à¤¬à¤²à¤ª
à¤§ à¤Ń
à¤§ à¤ªà¤£
à¤§ à¤°à¤£
à¤§ à¤¡à¤ķ
à¤§ à¤¡à¤ª
Ġà¤² à¤Ĺà¤¤à¤ļ
Ġà¤ħà¤¸ à¤¨
Ġà¤ħà¤¸ à¤®
Ġà¤Ĺ à¤²à¤¤
Ġà¤Ĺ à¤£à¤¸
Ġà¤Ĺ à¤¢à¤²
Ġà¤Ĺ à¤®à¤µ
Ġà¤Ĺ à¤®à¤ľ
à¤ĸ à¤¡à¤¤
à¤ĸ à¤±
à¤ĸ à¤¡à¤ķ
à¤ĸ à¤¤à¤°à¤¨
Ġà¤¯ à¤ļ
Ġà¤¯ à¤¸
Ġà¤¯ à¤¡
Ġà¤¯ à¤³
Ġà¤¯ à¤·
Ġà¤¯ à¤µà¤¤
Ġà¤¯ à¤®à¤ķ
.. +
.. -
.. <
.. >
à¤µà¤° à¤®
à¤µà¤° à¤«
Ġà¤° à¤¨à¤°
Ġà¤° à¤ĸà¤µ
Ġà¤° à¤¸à¤°à¤¶
Ġà¤ķà¤° à¤ķ
Ġà¤ķà¤° à¤®à¤¤
Ġà¤ķà¤° à¤ķà¤ļ
Ġà¤¶ à¤¬à¤°
Ġà¤¶ à¤¤à¤ª
à¤ł à¤¨
à¤ł à¥Ł
Ġà¤ļ à¤Ł
Ġà¤ļ à¤ķà¤²
Ġà¤ļ à¤ĺà¤³
Ġà¤ļ à¥Ŀ
Ġà¤ĺ à¤Łà¤²
Ġà¤ĺ à¤°à¤®
Ġà¤Ń à¤°à¤ļ
Ġà¤Ń à¤°à¤ľ
Ġà¤Ń à¤°à¤®à¤¸
Ġà¤ıà¤ķ à¤¶
à¤Ń à¤ļ
à¤Ń à¤¦
à¤Ń à¤²à¤¤
à¤Ń à¤¡à¤ķ
Ġà¤ī à¤¡à¤²
Ġà¤ī à¤¨à¤ķ
Ġà¤ī à¤¨à¤¸
Ġà¤ī à¤¥à¤³
Ġà¤ī à¤°à¤ķà¤¤
Ġà¤ī à¤ķà¤¡à¤²
Ġà¤Ŀ à¤¡à¤¤
Ġà¤Ŀ à¤³à¤ķ
Ġà¤ĸ à¤Ĺ
Ġà¤ĸ à¤£à¤£
Ġà¤ĸ à¤µà¤³à¤²
Ġà¤« à¤°à¤¸
Ġà¤« à¤Ŀà¤²à¤ļ
à¤Ī à¤¬
à¤Ī à¤¤à¤°
à¤Ī à¤¤à¤²
à¤Ī à¤Łà¤²
à¤Ī à¤¬à¤¦
à¤Ī à¤Łà¤¨
à¤Ī à¤ľà¤ļ
à¤Ĩ à¤Ĩ
à¤Ĩ à¤°à¤¤
à¤Ĩ à¤°à¤¶
à¤Ĩ à¤µà¤¶
à¤Ĩ à¤¸à¤¨
à¤Ĩ à¤¶à¤¯
à¤Ĩ à¤ªà¤ķ
à¤Ĩ à¤ªà¤¸
à¤Ŀ à¤¹
à¤Ŀ à¤Ĺ
à¤Ŀ à¤°à¤¤
à¤Ŀ à¤°à¤²
à¤Ŀ à¤²à¤²
à¤¢ à¤¯
à¤ĺ à¤ķ
à¤ĺ à¤¹
à¤ĺ à¤¶
à¤ĺ à¤µà¤¤
à¤ĺ à¤°à¤®
à¤ĺ à¤¨à¤¦
à¤°à¤¤ à¤ķ
à¤°à¤¤ à¤¡à¤¤
à¤°à¤¤ à¤¨à¤²
à¤ħ à¤Ł
à¤ħ à¤°à¤µ
à¤ħ à¤µà¤¨
à¤ħ à¤¥à¤µ
à¤¤à¤² à¤¤
à¤Ĭ à¤®
à¤Ĭ à¤¸à¤¹
à¤ªà¤² à¤¬
Ġà¤ĩ à¤¤à¤¨
Ġà¤ĩ à¤¯à¤°
à¤µà¤² à¤²
Ġà¤Ł à¤³à¤²
à¤µà¤¤ à¤ªà¤£
à¤« à¤µà¤°
à¤« à¤°à¤ķ
à¤« à¤²à¤°
à¤« à¤¡à¤ķà¤°
à¤Ĺà¤² à¤¯
à¤Ĺà¤² à¤µà¤°
à¤¹à¤¤ à¤ªà¤£
à¤¾, âĢĺ
Ġà¤ł à¤£
à¤°à¤£ à¤ª
à¤°à¤£ à¤Ĺ
à¥ĩ, âĢĻ
à¥ĩ, âĢĺâĢĺ
à¥ħ !
à¥ħ .
Ġà¤¡ à¤ķà¤µà¤²
à¤Ĺà¤³ à¤µ
à¤°à¤ķ à¤µ
à¤°à¤ķ à¤£
à¤°à¤ķ à¤µà¤°
à¤°à¤ķ à¤®à¤§
Ġà¤µà¤° à¤¦
Ġà¤µà¤° à¤ªà¤°
Ġà¤µà¤° à¤µà¤°à¤ļ
à¥Ģ, '
à¥Ģ, âĢĻ
à¥Ģ, âĢľ
Ġà¤¨à¤µ à¤¶
Ġà¤ħà¤¨ à¤®
à¤ķà¤° à¤¨
à¤ķà¤° à¤®à¤¬
à¤Łà¤² à¤²
à¤Łà¤² à¤¬
à¤¬à¤° à¤ł
Ġà¤¸à¤® à¤²
Ġà¤¸à¤® à¤°à¤ķ
Ġà¤®à¤² à¤®
Ġà¤®à¤² à¤ª
à¤ªà¤° à¤ª
à¤¸à¤² à¤²
à¤¯à¤ķ à¤®
à¤¯à¤ķ à¤²à¤²
Ġà¤Ĩà¤¤ à¤¡
à¤¤à¤ķ à¤°à¤£
à¤°à¤® à¤¯
Ġà¤¸à¤° à¤¬à¤°
à¤ı à¤¤
à¤ı à¤¶
à¤ı à¤ķà¤²
à¤ı à¤®à¤¸
à¤ı à¤¸à¤¸
à¤ķà¤² à¤°à¤ļ
Ġà¤ªà¤° à¤ĸà¤¡
à¤ķà¤¤ à¤®
à¤ķà¤¤ à¤ªà¤£
Ġà¤®à¤¨ à¤¹
à¤¦à¤° à¤¸
à¥¦ à¥«
à¥¦ à¥©
à¤°à¤ĸ à¤°à¤¤
Ġà¤ĺà¤° à¤ª
== =
Ġà¤¬à¤ĺ à¤µà¤¤
>> ++
à¤ĩ à¤£
à¤ĩ à¤¶
à¤ĩ à¤µà¤°
à¤ĩ à¤²à¤ļ
Ġ" ,
à¤Īà¤² à¤¨
à¤Īà¤² à¤¸
à¤Ľ à¤°
à¤Ľ à¤Ł
à¤Ľ à¤¬
Ġà¤Ľ à¤¨
Ġà¤Ľ à¤ķ
Ġà¤Ľ à¤¦
Ġà¤¬à¤° à¤³à¤¤
Ġà¤ĵ à¤¯
Ġà¤ĵ à¤ª
Ġà¤ĵ à¤¬à¤¡
Ġà¤ĵ à¤®à¤ª
Ġ' .
à¤ıà¤ķ à¤¹
à¤ıà¤ķ à¤µ
à¤ĥ .
à¤ļà¤² à¤®
à¤·à¤£ à¤µ
**** *
à¤ī à¤¡
à¤ī à¤³
à¤ī à¤·
à¤ī à¤«
à¤ī à¤¨à¤¹
à¤ī à¤¨à¤²
à¤ī à¤ªà¤¸
à¤ī à¤ªà¤²à¤¬
à¥§ à¥¦à¥¦à¥¦à¥¦
Ġà¤Ĳ à¤°
Ġà¤Ĳ à¤ªà¤¤
Ġà¤ľà¤° à¤¬
à¤Ĺà¤£ à¤¤
Ġà¤Ĩà¤ł à¤²
Ġà¤ħà¤ľ à¤¨
à¤®à¤¸ à¤°à¤ķ
à¤¸à¤® à¤µ
à¤¸à¤® à¤ľà¤²
Ġà¤¸à¤¹ à¤ļà¤°
Ġà¤ĸà¤° à¤¯
à¤Łà¤ķ à¤³à¤¤
Ġà¤ķà¤¸ à¤¨
à¤ħà¤° à¤¹
à¤ħà¤° à¤®à¤§
à¤°à¤ľ à¤¬
à¤Ĥ, '
à¤µà¤¨ à¤¹
à¤µà¤¨ à¤¶
à¤µà¤¨ à¤¸à¤¤
à¤²à¤ķ à¤ļ
Ġà¤ķà¤® à¤µà¤£
Ġà¤¹à¤µ à¤¯
in ish
in ter
in ess
an j
Ġà¤ĩà¤¥ à¤ª
Ġà¤ĩà¤¥ à¤ªà¤°
à¤°à¤ª à¤ķ
à¤°à¤ª à¤¡
à¤°à¤ª à¤łà¤£
à¤¬à¤¤ à¤¹
Ġà¤Ĩà¤Ī à¤ªà¤£
Ġà¤Ĩà¤Ī à¤¬à¤¦
Ġà¤Ĩà¤Ī à¤µà¤¡à¤²
à¤§à¤¨ à¤¸
Ġà¤¶à¤ķ à¤¶
Ġà¤Ĩà¤¯ à¤ª
Ġà¤īà¤¦ à¤¯à¤¨
à¤¬à¤² à¤¨
er ic
er day
Ġà¤ħà¤Ń à¤¦
Ġà¤īà¤ª à¤¹
Ġà¤īà¤ª à¤Ł
Ġà¤īà¤ª à¤¸à¤£
à¤ľà¤¨ à¤¸
à¤ľà¤¨ à¤¶
à¤ľà¤¨ à¤Ĺà¤¡
à¤®à¤¨ à¤®
Ġà¤ķà¤² à¤ķà¤¤
à¤Ĺà¤° à¤¨
à¤Ĺà¤° à¤¬à¤°
à¤¯à¤® à¤®à¤§
à¤¯à¤® à¤µà¤¯
Ġà¤°à¤¸ à¤¦
Ġth ous
Ġth ank
à¤¯à¤¨ à¤Ĺà¤°
at is
at es
at il
at ure
at ely
à¤Ńà¤µ à¤ķà¤¥à¤¨
à¤¤à¤® à¤ľ
à¤¤à¤® à¤ªà¤²
on a
on ally
on nor
à¤ģ !
à¤ģ ?
******** **
ar i
ar k
ar ly
Ġà¤Ĳà¤ķ à¤µà¤¤
Ġs m
Ġs ci
Ġs ure
Ġs orry
Ġs ister
à¤®à¤ķ à¤¹
-------- -
Ġà¤ľà¤Ĺ à¤¨
........ ."
à¤°à¤¹ à¤¸
à¤°à¤¹ à¤Ĺ
Ġà¤ħà¤µ à¤¹
Ġà¤ħà¤µ à¤ľ
Ġà¤ħà¤µ à¤Ĺà¤¤
Ġà¤ªà¤¤ à¤ª
à¤ĸà¤° à¤¨
à¤ĸà¤° à¤ķà¤¡
Ġà¤ľà¤¨ à¤®
à¤Łà¤¨ à¤ª
Ġà¤ľà¤® à¤µà¤¤
Ġà¤¸à¤¤ à¤¤à¤ļ
à¤¦à¤¨ à¤µà¤¨
à¥« à¥ª
Ġa al
Ġa ap
Ġa ani
Ġa war
____ _
____ /\
or k
à¤ĵ à¤°
à¤ĵ à¤Ĺ
à¤ĵ à¤ĺà¤µà¤¤
Ġà¤ħà¤® à¤¦
âĢįà¥ħ à¤Ĥ
Ġw on
Ġw ord
Ġw ater
à¤µà¤ļ à¤³
à¤µà¤ļ à¤·à¤ķ
Ġà¤ªà¤¡ à¤¸
à¤ļà¤° à¤Ł
à¤ļà¤° à¤®à¤§
à¤¸à¤ķ à¤¨
Ġà¤µà¤¸ à¤µà¤²
Ġà¤ķà¤³ à¤µà¤£
à¥© à¥¦à¥¦
à¥© à¥«
à¥¯ à¥«
à¥¯ à¥¯
à¥¯ à¥®
Ġà¤ķà¤¡ à¤¬
à¤ĺà¤° à¤Ł
Ġà¤¸à¤°à¤ķ à¤µà¤²
al ico
à¤Ĺà¤¡ à¤ļ
à¤°à¤ªà¤Ł à¤Ĺ
à¤°à¤ªà¤Ł à¤Ńà¤°
ou th
ou se
Ġà¤ıà¤µà¤¢ à¤ļ
à¤¯à¤¬ à¤ļ
à¤Ĺà¤ļ à¤Ł
Ġà¤°à¤¹ à¤¨
it an
it ed
Ġà¤§à¤¨ à¤¦
es ent
es ident
Ġb o
Ġb re
Ġb ag
Ġb est
Ġb orn
Ġà¤¹à¤³ à¤¹à¤³
à¤¸à¤¹ à¤®à¤¤
à¤¯à¤¸ à¤ªà¤°
Ġt om
Ġt reat
Ġt end
Ġt alk
Ġc ap
Ġc are
Ġc over
Ġc urr
Ġc lass
Ġm et
Ġm us
Ġm one
Ġm iss
Ġm edia
Ġm runali
à¤¸à¤Ĺà¤³ à¤ļ
à¤¯à¤¦ à¤ķ
à¤¯à¤¦ à¤µ
Ġà¤Ī à¤²
Ġà¤Ī à¤¨
Ġà¤Ī à¤¡à¤¨
à¤·à¤ķ à¤µà¤°
Ġp n
Ġp et
Ġp ath
Ġp earl
as es
à¤ĩà¤¤à¤ķ à¤ļ
Ġà¤īà¤¤à¤° à¤µà¤¤
Ġo pt
Ġo wn
à¥ª à¥ª
à¥ª à¥®
à¤¬à¤Ī à¤¹
Ġà¤¢ à¤³à¤²
à¥¬ à¥¦à¥¦
à¤ķà¤¦ à¤®
à¤Łà¤£ à¤ķà¤°
Ġh o
Ġh and
Ġh ard
Ġh ell
Ġh und
Ġh elp
à¤®à¤£ à¤°
Ġà¤ħà¤¡ à¤ĸ
Ġà¤ħà¤¡ à¤«à¤¡à¤ķà¤°
à¥® à¥§
à¥® à¥®
à¥® à¥Ń
à¤ľà¤¤ à¤Ĺ
Ġà¤ħà¤ķ à¤¸
à¤ķà¤¸ à¤¬
Ġà¤Ĺà¤ª à¤Ĺ
Ġà¥© à¥§à¥©
Ġà¤Ĩà¤łà¤µà¤¤ à¤ļ
Ġà¤Ĩà¤łà¤µà¤¤ à¤¹
Ġof ten
ic ally
Ġf ree
Ġf ix
Ġf ollow
Ġf inish
Ġà¤łà¤°à¤² à¤¯
Ġd el
Ġd am
Ġd ial
Ġd anc
Ġd etail
Ġà¤īà¤¡ à¤¯
and al
and line
el d
el e
el an
Ġà¤¹à¤¸ à¤µà¤£
Ġl ow
Ġl ag
Ġl ook
Ġà¤īà¤Ĺ à¤µà¤£
Ġ1 1
**************** ***
---------------- ------------
Ġ+ ++
à¤ªà¤¡ à¤¬
à¤³à¤ļ à¤Ł
à¤Ĩà¤Ī à¤Īà¤Īà¤Īà¤Ī
Ġà¤ªà¤¸ à¤°à¤£
Ġà¤ħà¤² à¤®
à¤ķà¤°à¤£ à¤¹
Ġin fer
à¤Īà¤ķ à¤µà¤°
Ġà¤¹à¤ľ à¤°à¤ľà¤¬
à¥Ģ' !
Ġà¤¹à¤¸à¤¤ à¤ļ
Ġà¤¸à¤¹à¤ľ à¤Ĺà¤¤
ch an
à¤¾" !
à¤¬à¤¸ à¤µ
à¤½ à¤¨
à¤¡à¤° à¤µà¤°
Ġà¥« à¥¦à¥¦à¥¦
ay bol
Ġg ap
Ġg old
à¤ľà¤¯ à¤¹
Ġà¤§à¤¡ à¤ķà¤¤
________ _
Ġà¤Ķ à¤°à¤ļ
Ġà¤¹à¤° à¤ªà¤²
Ġà¤µà¤³ à¤µà¤¤
Ġà¤µà¤³ à¤µà¤³à¤¤
Ġà¤ĩà¤¨ à¤ª
he alth
ow th
le m
ĠS h
ĠS and
ĠS han
ĠS ource
ĠS ensory
ĠI nd
Ġà¤²à¤¢ à¤¯
Ġà¤²à¤¢ à¤µà¤¯
Ġto p
Ġà¥§à¥¯ à¥¬à¥¦
Ġà¥§à¥¯ à¥©à¥¯
Ġy a
Ġy es
Ġà¤¸à¤² à¤®
================ ============
================ ==============
Ġà¤Ĩà¤¢ à¤³à¤£
Ġ2 1
Ġ2 2
st er
st and
st ant
un e
à¤²à¤® à¤ľ
Ġe p
Ġà¤īà¤® à¤¦
à¤ıà¤µà¤¢ à¤¯
ww ww
................ .
à¤Ĳ à¤¨
à¤Ĳ à¤¶
à¤Ĳ à¤ķà¤£
Ġk ay
Ġk ind
Ġk ey
Ġk atha
Ġk ara
Ġà¤ħà¤ĸ à¤¤
av e
et e
et ii
Ġà¤Ĭ à¤¤
Ġà¤ĵà¤° à¤¬
ĠC er
à¤ĳ à¤ªà¤°
ot ein
od i
ut y
ut ta
Ġà¤ħà¤Ĺ à¤®
à¤ľà¤Ĺ à¤Ńà¤°
à¤ľà¤Ĺ à¤Ńà¤°à¤ļ
à¤¬à¤ķ à¤¬
à¤¬à¤ķ à¤³à¤¤
Ġà¤¸à¤¹à¤¨ à¤¶à¤ķ
im al
im es
ĠB M
ĠB est
ĠB lue
ĠB EBQ
Ġà¤¸à¤µ à¤¯à¤ļ
Ġà¤ħà¤¦ à¤Ń
à¤¢à¤° à¤Ł
à¤ħà¤µ à¤§
à¤ħà¤µ à¤ĺ
Ġà¥¨à¥¦à¥§ à¥Ń
ag ement
ag onally
ly wood
Ġon site
ab y
ab lish
ab ility
ig ence
ig ade
ĠA nd
ir ed
Ġà¥® à¥¨
Ġà¥Ń à¥¨
ol a
à¤Ĺà¤® à¤Ĺà¤£
Ġà¤¸à¤ľ à¤¦
Ġà¤¸à¤ľ à¤µà¤²
Ġà¥¬ à¥ª
Ġwh y
Ġwh en
Ġwh ere
Ġwh ate
Ġwh ile
Ġbe g
Ġbe com
com e
Ġre g
Ġre l
Ġre ach
Ġre pr
Ġre aliz
ĠP ur
ĠP ers
ĠP lat
ĠP earl
à¤°à¤« à¤Ł
à¤°à¤« à¤³
à¤°à¤« à¤Łà¤²
ro p
ro vement
à¤¾: !
id ence
à¤¢à¤µ à¤ªà¤£
ĠT V
ĠT eap
à¤ĭ à¤ļ
Ġà¤°à¤¤ à¤¨à¤¹
Ġ>> >>>
Ġà¤®à¤¦ à¤¤à¤¨
à¥¨à¥¦ à¥§à¥¨
à¤®à¤³ à¤¨
Ġà¤īà¤ľ à¤³
Ġà¤īà¤ľ à¤³à¤²
Ġfor e
um ber
ĠG od
à¤ªà¤³ à¤¸
ur p
ur al
ur es
up id
ĠD em
à¥ĩâĢĻ ,
ind u
ind ex
ach e
ri ed
ri but
ĠR o
ĠR ed
ĠR oy
à¥§à¥¯ à¥¬à¥¦
ver y
à¤²à¤Ń à¤¤
à¤²à¤Ń à¤¡à¤ķ
Ġà¤¤à¤¡ à¤«à¤¡
Ġà¤ĵà¤ĺ à¤³
oo gle
!!!! !!!
!!!! !!!!
Ġà¥¨à¥¦à¥¦ à¥©
Ġà¥¨à¥¦à¥¦ à¥ª
Ġà¥¨à¥¦à¥¦ à¥¬
Ġj h
Ġj umped
Ġà¤ľà¤¯ à¤ĺ
Ġà¤Ĺà¤² à¤¬à¤¤
Ġà¥§à¥« à¥«à¥§
ĠK atha
ĠK uru
à¥ŀ à¤ķ
if ul
Ġà¤¦à¤µ à¤¡à¤¤
ci es
Ġà¤ķà¤ļ à¤±
à¤¦à¤® à¤¯à¤ķ
og ic
og ue
og rap
Ġà¤¦à¤® à¤¡
Ġà¤ľà¤² à¤§
ĠĠĠĠ Ġ
ĠĠĠĠ ĠĠ
Ã¢ n
ĠF az
à¤ıà¤¨ à¤ıà¤¨
Ġal low
Ġal so
Ġal ways
Ġal umni
Ġex per
Ġex cept
à¥ĭ' ,
à¥ĢâĢĿ .
Ġà¤Ńà¤Ł à¤ķà¤¤
sh ip
à¤¾âĢ¦ âĢĻâĢĻ
Ġà¤°à¤® à¤®
Ġà¤ĸà¤Ł à¤ªà¤Ł
Ġà¤ĩà¤¸à¤® à¤¨
Ġcon cept
à¥Ģà¥¤ "
Ġà¤¨à¤Ĭ à¤µ
ang u
Ġà¤Ĩà¤¡ à¤¦
à¤Ĩà¤ł à¤µà¤¤
ue blo
Ġà¤ªà¤ł à¤£
Ġà¤ªà¤ł à¤¡
ks het
la ck
Ġà¤¦à¤¡ à¤ªà¤²
..! '
Ġse at
Ġpr im
ash ion
ĠJ osh
Ġà¤¤à¤¹ à¤¹à¤¯
Ġà¤«à¤¸ à¤µà¤²
à¥¨à¥¦à¥¦ à¥ª
à¥¨à¥¦à¥¦ à¥®
à¥ĩ: -
Ġ:- ).
à¤¡à¤µà¤² à¤¶
Ġà¥§à¥Ń à¥¦
Ġmy self
ĠMar ch
Ġknow led
.? ..
Ġ| |
à¤¯à¤°à¤ļ à¤¨
pr oduct
à¤¨à¤« à¤Ł
à¤¨à¤Ľ à¤ª
à¤¨à¤Ĺà¤° à¤ķà¤¡
Ġme an
ĠO N
Ġà¤²à¤Łà¤ķ à¤µà¤²
Ġà¤¥à¤°à¤¥ à¤°à¤²
itt en
Ġli hit
Ġgr owth
Ġà¥§à¥¯à¥¯ à¥¦
Ġà¥§à¥¯à¥¯ à¥®
Ġà¥§à¥¯à¥Ń à¥¨
cri bed
ĠY our
à¤¨à¤Ĭ à¤µ
Ġà¤¦à¤² à¤¦à¤²
int y
sss à¤°
Ġà¥Ńà¥¦ à¥¨
Ġà¥Ńà¥¦ à¥©
12 5
15 0
te w
Ġà¤Ŀà¤³ à¤ķà¤²
act er
pl z
Ġà¤²à¤Ł à¤ķà¤²
Ġà¤°à¤£ à¤°à¤£à¤¤
Ġtr ad
Ġtr uth
Ġ12 26
Ġ12 629
Ġà¥§à¥¯à¥® à¥§
ma il
à¤į à¤²
à¥©à¥¨ à¥©
Ġpl s
Ġpl z
Ġdis at
____________ ___
---------------------------------------------------------------- --------------------------------------------
**************************************************************** **************
Mast ch
iz e
Ġ-- '
Ġup on
ins atiable
Ġsome one
Ġsome thing
ass ing
Ġgen ius
à¤Īà¤Īà¤Īà¤Ī à¤Īà¤Ī
18 4
fer ence
over nment
pect ion
Ġel ect
à¤°à¤Ŀ à¤µ
Ġsa cri
Ġle vel
à¤¯à¤°à¤¸ à¤ļ
ank er
Ġwr itten
<<<< <<
à¥¦à¥¦à¥¦à¥¦à¥¦à¥¦à¥¦à¥¦ à¥¦à¥¦à¥¦à¥¦à¥¦à¥¦à¥¦à¥¦
Than k
Ġar my
Ġà¤ıà¤ħà¤° à¤ª
Ġà¤īà¤ĸ à¤¡à¤²
à¤ķà¤°à¤® à¤°à¤ķà¤°
Ġser ies
Ġact ually
Ġte ch
Ġty pe
Ġread y
Ġà¤ķà¤¢ à¤Ī
Ġà¤ķà¥ľ à¤ķ
Ġà¤Ĺà¤Ĺà¤¨ à¤Ń
Ġsup er
alc utta
Ġback ground
Ġtw o
ĠPr otein
Ġexist s
Ġexist ence
Ġprob lem
ES OM
con om
Ġent ire
à¤Łà¤Ń à¤Ł
erta inty
enc y
Ġnat aks
Ġà¤¤à¤¡à¤« à¤¦
Ġatt ribut
++++++++ ++++++++
bbbb bbbb
Ġgener al
ĠSwam i
bol lywood
Ġà¤°à¤Ĺ à¥ľ
Ġpe ople
Ġliv ing
Ġyet ey
ĠUpanishad s
Ch han
No thing
uk t
Ġà¤®à¤ĸ à¤®à¤²
à¤Ĺà¤« à¤£
Ġà¤Łà¤³ à¤Łà¤³
___/\ ___
Ġwalk ing
Ġper fect
Ġdes cribed
Ġlock er
Ġins pection
Ġchar acter
Ġevery thing
Red uce
aut iful
cot t
wik i
Ġunder stand
à¤ļà¤ªà¤¦ à¤¸
Ġà¤«à¤Łà¤« à¤Ł
Ġsk ill
Ġbel ie
Ġcell s
Ġfri end
Ġfour th
Ġdiv a
Ġlim it
amm elan
chin ese
ĠSt atistics
Ġkon i
ĠPro cess
ĠDis order
Ġjo in
Ġshad ow
Ġcomment ary
ĠVish wa
Ġsex y
Ġcomple te
ĠIntegr ation
Ġquest ion
ïģ¹ ïģ¹
Ad min
hoo p
journal ist
mam ta
sw am
tell igence
Ġest ablish
Ġïĥ ł
Ġà¤ªà¥ľ à¤¤
Ġà¤¦à¤¬à¤¦ à¤¬
Ġà¤ľà¤¯à¤¥ à¤¡
Ġà¤Ńà¤°à¤ľ à¤°
Ġthous and
Ġmus ic
Ġmone y
Ġhund red
Ġdam n
Ġdanc ed
à¤Ĩà¤Īà¤Īà¤Īà¤Īà¤Ī à¤Īà¤Īà¤Īà¤Īà¤Īà¤Ī
aybol i
Ġgold en
ĠShan kar
ĠInd ian
etii ii
Ġwhate ver
ĠPers ian
ĠTeap oy
ĠDem oc
ĠRoy al
ĠKuru kshet
ograp hy
ĠFaz l
Ġallow ed
ĠJosh i
Ġknowled ge
ESOM E
bollywood journalist
ĠKurukshet ra
! >>
! ...
! âĢĿ
! >>>
! ----------------------------------------------------------------
" !
" '
" )
" >>>
" ).
" ************************************************************
' re
( !
( ?
) *
) *********************
, (
, âĢĺ
. !!!!
. :)
. <<<
. >>>>>>
. _/\_
/ %
1 19
1 30
3 3
3 6
3 7
3 8
4 16
5 0
5 1
5 7
5 15
7 2
7 416
8 5
9 5
: (
; )
? âĢĻ
A P
A b
A l
A s
A re
A pp
B E
B r
B est
B ri
B ear
B har
C an
C ha
D r
D à¤ļ
D HA
E O
E R
E AL
F I
F ru
F ashion
G H
G u
G od
G oal
H a
H appy
I ON
I celand
I GH
J abardast
J nÃ¢na
L Y
L ik
L ost
L ord
M G
M e
M à¤²
N ow
N ice
O A
O T
O p
P K
P e
P ad
P lease
P ueblo
R Y
R es
R ather
S A
S I
S T
S w
S imple
S rd
S ea
S outh
T e
T w
T II
V ah
V yasa
W ESOME
Y S
^ ^
a x
a ids
a ff
b o
b and
b le
b ook
b ack
b ird
b ination
b reed
c o
c le
c ade
c ale
c ular
c urity
c ousin
c ertainty
d f
d o
d s
d on
d etail
e k
e ed
e et
f o
f t
f or
f ood
f are
f ort
f act
f eh
g o
g u
g ed
g ic
g uj
g ency
h n
h av
h ul
h ala
h uman
h Dà¤ļ
i at
i ot
i ans
i atic
i ety
j a
j ect
j ali
j abardast
k r
k in
k es
k ent
k han
k art
k ich
k har
k hil
k ananda
l es
l and
l ay
l ip
m e
m p
m and
m ith
m aj
m ile
m anda
m odi
n g
n ing
n ch
n et
n ect
n ational
n ew
o à¤®
o le
o ist
o em
o ids
p I
p s
p x
p in
p or
p ie
p udh
q ue
r g
r al
r es
r ad
r ut
r ak
r ore
r ome
r ata
r anc
s a
s i
s p
s ar
s id
s ome
s cript
s ava
s ister
s mile
t l
t ed
t am
t tp
t ya
t iss
t ics
u z
u ed
u ss
u est
u han
u ia
u ge
u fact
v at
v en
v ic
v am
v est
v ance
v ulnerable
w he
w ow
w ord
w ater
x iety
y ing
y og
y cl
y stem
y tics
z Ã©
¡ r
¹ ðŁ
Â °
Â ¿
Ã Ń
Ã ¡r
Ġ #
Ġ $
Ġ <
Ġ Âł
Ġ ur
Ġ ill
Ġ ***
Ġ <<<
Ġ und
Ġ use
Ġ __/\__
Ġ enc
Ġ 03
Į ¹ðŁ
ı »
ı ðŁ
Ļ ıðŁ
à¤ º
à¥ ĺ
à¥ ļ
à¤¾ #
à¤¾ >>
à¤¾ âĢĺ
à¤¾ >>>
à¤¾ à¤¼
à¥į à¥ĥ
à¥į '.
à¥ĩ à¥į
à¥ĩ à¥ĩ
à¤° à¤ªà¤²
à¤° à¤°à¤ķ
à¤° à¤µà¤¸
à¤° à¤¸à¤¤
à¤° à¤³à¤²
à¤° à¤¡à¤ķ
à¤° à¤Ĺà¤°
à¤° à¤§à¤°
à¤¤ à¤ħ
à¤¤ à¤ķà¤¡
à¤¤ à¤Ĩà¤£
à¤¤ à¤µà¤¨
à¤¤ à¤³à¤²
à¤¤ à¤«à¤°
à¤¤ à¤ĭà¤¤
à¥Ģ >>>
à¥Ģ à¤¼
à¤² à¤§
à¤² à¤·
à¤² à¤ĺ
à¤² à¤ªà¤°
à¤² à¤°à¤µ
à¤² à¤®à¤¨
à¤² à¤µà¤°à¤ļ
à¤² à¤¯à¤®
à¤² à¤®à¤°
à¤² à¤§à¤°
à¤² à¤Īà¤ļ
à¤² à¤īà¤¤
à¤² à¤Ĩà¤īà¤Ł
à¤¯ à¤¤à¤²
à¤¯ à¤¦à¤°
à¤¯ à¤ªà¤¨
à¤¯ à¤¯à¤¨
à¤¯ à¤°à¤¹
à¤¯ à¤¶à¤ķ
à¤¯ à¤£à¤¨
à¤¯ à¤¶à¤µ
à¤¯ à¤ľà¤®
à¤¯ à¤ĺà¤Łà¤¨
à¤¯ à¤«à¤³
à¤¨ à¤Ŀ
à¤¨ à¤¯à¤ķ
à¤¨ à¤¸à¤¤
à¤¨ à¤¸à¤°
à¤¨ à¤°à¤ļ
à¤¨ à¤ķà¤¤
à¤¨ à¤Īà¤²
à¤¨ à¤¨à¤ļ
à¤¨ à¤°à¤¸
à¤¨ à¤ī
à¤¨ à¤Łà¤°
à¤¨ à¤°à¤¶
à¤¨ à¤ľà¤¨
à¤¨ à¤¸à¤¨
à¤¨ à¤®à¤¯
à¤¨ à¤ĺà¤¨
à¤¨ à¤µà¤¸à¤¨
à¤¿ (
à¤¿ à¥ĩ
à¤¿ à¤Ĥ.
à¤¿ à¤¼
à¤ļ à¤¬
à¤ļ à¤ĸ
à¤ļ à¤°à¤¤
à¤ļ à¤ªà¤²
à¤ļ à¤ķà¤¡
à¤ļ à¤±
à¤ļ à¤¸à¤®
à¤ļ à¤®à¤¦
à¤ļ à¤ķà¤°à¤ļ
à¤Ĥ /
à¤Ĥ ''
à¤Ĥ >>>
à¤Ĥ '.
à¤Ĥ âĢ¦.
à¤ķ à¤Ŀ
à¤ķ à¤Ĭ
à¤ķ à¤¬à¤¦
à¤ķ à¤¶à¤¨
à¤ķ à¤Ĺà¤£
à¤ķ à¤Łà¤°
à¤ķ à¤®à¤¤
à¤ķ à¤®à¤¨
à¤ķ à¤µà¤°à¤ļ
à¤ķ à¤¸à¤ķ
à¤ķ à¤¶à¤ķ
à¤ķ à¤ªà¤Ł
à¤ķ à¤®à¤¹
à¤ķ à¤¬à¤Ĺ
à¤ķ à¤ĵà¤µ
à¤¹ à¤Ĺ
à¤¹ à¤¯à¤²
à¤¹ à¤¸à¤°
à¤¹ à¤ķà¤¤
à¤¹ à¤°à¤¸
à¤¹ à¤Łà¤ķ
à¤¹ à¤³à¤£
à¤¹ à¤¨à¤¹
à¤¹ à¤¨à¤²
à¤¹ à¤²à¤µ
à¤¹ à¤ķà¤¸
à¤¹ à¤¡à¤¸à¤°
à¤µ à¤¯à¤ļ
à¤µ à¤®à¤§
à¤µ à¤ļà¤²
à¤µ à¤¯à¤¨
à¤µ à¤¹à¤¨
à¤µ à¤¹à¤°à¤£
à¤¸ à¤Ĩ
à¤¸ à¤ħ
à¤¸ à¤µà¤¤
à¤¸ à¤®à¤ļ
à¤¸ à¤Łà¤¤
à¤¸ à¤®à¤²
à¤¸ à¤¨à¤ķ
à¤¸ à¤Łà¤¸
à¤¸ à¤¬à¤ķ
à¤¸ à¤ħà¤¹
à¤¸ à¤µà¤°à¤¹
à¤¸ à¤į
à¥ĭ (
à¥ĭ âĢľ
à¥ĭ ''
à¥ĭ à¤¼
à¥ĭ ",
à¥ĭ '.
à¥ĭ ".
à¤£ à¤¡
à¤£ à¤µà¤°
à¤£ à¤¦à¤°
à¤£ à¤®à¤Ĺ
à¤£ à¤¨à¤¹
à¤£ à¤ĸà¤¤
à¤£ à¤·à¤Łà¤ķ
Ġà¤ķ à¤µà¤°
Ġà¤ķ à¤Ī
Ġà¤ķ à¤Ŀ
Ġà¤ķ à¤¸à¤°
Ġà¤ķ à¤¸à¤®
Ġà¤ķ à¤¨à¤µ
Ġà¤ķ à¤ļà¤ķ
Ġà¤ķ à¤¹à¤¨
Ġà¤ķ à¤£à¤ķ
à¤® à¤¤à¤°
à¤® à¤°à¤ķ
à¤® à¤ķà¤°
à¤® à¤µà¤¸
à¤® à¤°à¤ļ
à¤® à¤¹à¤°
à¤® à¤³à¤£
à¤® à¤¯à¤®
à¤® à¤Łà¤£
à¤® à¤ľà¤¬
à¤® à¤¯à¤¸à¤Ń
Ġà¤Ĩ à¤Ĭ
Ġà¤Ĩ à¤¸à¤²
Ġà¤Ĩ à¤¯à¤ķ
Ġà¤Ĩ à¤¡à¤ķ
Ġà¤Ĩ à¤ĵ
Ġà¤Ĩ à¤¸à¤ķ
Ġà¤Ĩ à¤¡à¤¨
Ġà¤Ĩ SS
Ġà¤Ĩ à¤Ŀà¤°à¤¬
Ġà¤Ĩ à¤ļà¤°à¤Ł
Ġà¤® à¤¡
Ġà¤® à¤¢
Ġà¤® à¤Łà¤ķ
Ġà¤® à¤³à¤²
Ġà¤® à¤ĸà¤°
Ġà¤® à¤³à¤ķ
Ġà¤® à¤¯à¤¸à¤Ń
Ġà¤® à¤«à¤²à¤°
Ġà¤¤ à¤¬à¤²
Ġà¤¤ à¤£à¤¤
Ġà¤¤ à¤®à¤ķ
Ġà¤¤ à¤Ĺà¤¡
Ġà¤¤ à¤¹à¤¨
à¤ª à¤ľ
à¤ª à¤Ń
à¤ª à¤Ŀ
à¤ª à¤ªà¤£
à¤ª à¤¸à¤°
à¤ª à¤ķà¤²
à¤ª à¤Ľ
à¤ª à¤µà¤¨
à¤ª à¤ľà¤²
à¤ª à¤¸à¤£
à¤ª à¤ķà¤Ł
à¤ª à¤³à¤µ
à¤ª à¤®à¤§à¤²
Ġà¤ª à¤ļ
Ġà¤ª à¤¢
Ġà¤ª à¤°à¤²
Ġà¤ª à¤°à¤ļ
Ġà¤ª à¤µà¤³
Ġà¤ª à¤Ĺà¤¡
Ġà¤ª à¤ļà¤µà¤²
Ġà¤ª à¤ļà¤ķà¤²
à¥Ĥ /
à¥Ĥ âĢĿ
à¥Ĥ ""
à¥Ĥ ",
Ġà¤¹ à¤®à¤²
Ġà¤¹ à¤®à¤¨
Ġà¤¹ à¤®à¤ķ
Ġà¤¹ à¤¸à¤¨
Ġà¤¹ à¤Łà¤£
Ġà¤¹ à¤¬à¤ķà¤²
Ġà¤¸ à¤ķà¤°
Ġà¤¸ à¤Łà¤°
Ġà¤¸ à¤Łà¤ķ
Ġà¤¸ à¤£à¤¸
Ġà¤¸ à¤µà¤¡
Ġà¤¸ à¤²à¤µ
Ġà¤¸ à¤ªà¤ķ
Ġà¤¸ à¤¬à¤¸
Ġà¤¸ à¤¨à¤¦
Ġà¤¸ à¤£à¤µ
Ġà¤¸ à¤£à¤ķ
Ġà¤¸ à¤µà¤°à¤²
Ġà¤¸ à¤µà¤²à¤¤
à¤Ĺ à¤·
à¤Ĺ à¤ªà¤£
à¤Ĺ à¤°à¤µ
à¤Ĺ à¤¸à¤®
à¤Ĺ à¤ľà¤°
à¤Ĺ à¤ªà¤ļ
à¤Ĺ à¤ķà¤£
à¤Ĺ à¤ľà¤¬
à¤Ĺ à¤µà¤³à¤£
Ġà¤ħ à¤ł
Ġà¤ħ à¤µà¤¨
Ġà¤ħ à¤²à¤ķ
Ġà¤ħ à¤§à¤¨
Ġà¤ħ à¤²à¤Ĺ
Ġà¤ħ à¤µà¤¡
Ġà¤ħ à¥ŀ
Ġà¤ħ à¤¥à¤ª
à¤¦ à¤¡
à¤¦ à¤§
à¤¦ à¤ķà¤¡
à¤¦ à¤«
à¤¦ à¤ªà¤°
à¤¦ à¤µà¤£
à¤¦ à¤¬à¤¦
à¤¦ à¤ķà¤³
à¤¦ à¤ĸà¤²
à¤¦ à¤®à¤§à¤²
à¤¦ à¤£à¤ķ
à¤Ł à¤ħ
à¤Ł à¤°à¤ķ
à¤Ł à¤ªà¤°
à¤Ł à¤®à¤¸
à¤Ł à¤¸à¤®
à¤Ł à¤¸à¤¹
à¤Ł à¤µà¤ķ
Ġà¤µ à¤ļ
Ġà¤µ à¤µ
Ġà¤µ à¤Ł
Ġà¤µ à¤Ĺà¤°
Ġà¤µ à¤¤à¤¨
Ġà¤µ à¤ļà¤ķ
à¤¡ à¤Ŀ
à¤¡ à¤ªà¤²
à¤¡ à¤¬à¤°
à¤¡ à¤ªà¤°
à¤¡ à¤®à¤ļ
à¤¡ à¤Ĺà¤¤
à¤¡ à¤¨à¤ļ
à¤¡ à¤®à¤²
à¤¡ à¤µà¤¨
à¤¡ à¤¬à¤²
à¤¡ à¤¸à¤¨
à¤¡ à¤°à¤¨
à¤¡ à¤ĳ
à¤¡ à¤ĳà¤«
Ġà¤¨ à¤¨
Ġà¤¨ à¤¬
Ġà¤¨ à¤¡à¤²
Ġà¤¨ à¤°à¤®
Ġà¤¨ à¤¡à¤¤
à¤³ à¤¦
à¤³ à¤§
à¤³ à¤ķà¤¤
à¤³ à¤¤à¤ļ
à¤³ à¤²à¤¤
à¤³ à¤Ĺà¤¡
à¤³ à¤ķà¤¨
à¤³ à¤¸à¤µ
à¤ľ à¤«
à¤ľ à¤ķà¤°
à¤ľ à¤ªà¤°
à¤ľ à¤¯à¤ķ
à¤ľ à¤®à¤ļ
à¤ľ à¤¤à¤ļ
à¤ľ à¤°à¤¸
à¤ľ à¤¸à¤®
à¤ľ à¤¯à¤µ
à¤ľ à¤ªà¤ļ
à¤ľ à¤ľà¤µà¤³
à¤ľ à¤ķà¤¨
à¤ľ à¤®à¤§à¤²
à¤ľ à¤³à¤ķ
à¤ľ à¤³à¤Ĺ
à¤ľ à¤°à¤ļà¤¨
à¤¶ à¤Ł
à¤¶ à¤°à¤£
à¤¶ à¤ķà¤°
à¤¶ à¤°à¤®
à¤¶ à¤²à¤¤
à¤¶ à¤²à¤ļ
à¤¶ à¤¸à¤ļ
Ġà¤¬ à¤°à¤£
Ġà¤¬ à¤Ĺà¤¤
Ġà¤¬ à¤°à¤ĸ
Ġà¤¬ à¤§à¤¤
Ġà¤¬ à¤Łà¤£
Ġà¤¬ à¤³à¤µ
Ġà¤¦ à¤«
Ġà¤¦ à¤°à¤ķ
Ġà¤¦ à¤¬à¤²
Ġà¤¦ à¤³à¤Ń
à¤¬ à¤°à¤£
à¤¬ à¤¸à¤¤
à¤¬ à¤¬à¤²
à¤¬ à¤Łà¤¨
à¤¬ à¤¸à¤¨
à¤¬ à¤¨à¤µ
à¤¬ à¤ļà¤ķ
à¤¬ à¤ķà¤µ
à¤¬ à¤¹à¤²
Ġà¤ľ à¤ĸ
Ġà¤ľ à¤¡à¤¤
Ġà¤ľ à¤²à¤ķ
Ġà¤ľ à¤¨à¤¹
Ġà¤ľ à¤²à¤µ
Ġà¤ľ à¤¡à¤ļ
Ġà¤ľ à¤²à¤¸
Ġà¤ľ à¤¯à¤ķà¤°
à¤§ à¤Ł
à¤§ à¤ĸ
à¤§ à¤ķà¤¡
à¤§ à¤°à¤²
à¤§ à¤¤à¤ļ
à¤§ à¤ªà¤ļ
à¤§ à¤Łà¤ļ
à¤§ à¤ķà¤µ
à¤§ à¤µà¤Łà¤ļ
Ġà¤² à¤ľ
Ġà¤² à¤¬
Ġà¤² à¤ł
Ġà¤² à¤ªà¤£
Ġà¤² à¤µà¤²
Ġà¤² à¤µà¤£
Ġà¤² à¤Łà¤ª
Ġà¤ħà¤¸ à¤°
Ġà¤ħà¤¸ à¤¸
Ġà¤ħà¤¸ à¤¹à¤¨
Ġà¤ħà¤¸ à¤«à¤²
à¤· à¤²
à¤· à¤ľ
à¤· à¤¶
à¤· à¤¸à¤²
à¤· à¤¤à¤ķ
Ġà¤Ĺ à¤¸
Ġà¤Ĺ à¤§
Ġà¤Ĺ à¤Ī
Ġà¤Ĺ à¤®à¤ļ
Ġà¤Ĺ à¤¬à¤¦
Ġà¤Ĺ à¤²à¤ķ
Ġà¤Ĺ à¤ªà¤ļ
Ġà¤Ĺ à¤Łà¤£
Ġà¤Ĺ à¤²à¤¬
Ġà¤Ĺ à¤¢à¤µ
Ġà¤Ĺ à¤Ĺà¤¨à¤ļ
à¤ĸ à¤¯
à¤ĸ à¤§
à¤ĸ à¤°à¤¤
à¤ĸ à¤ķà¤°
à¤ĸ à¤µà¤¸
à¤ĸ à¤®à¤¸
à¤ĸ à¤¸à¤®
à¤ĸ à¤µà¤Ł
à¤ĸ à¤¨à¤ķ
Ġà¤¯ à¤¯
Ġà¤¯ à¤¨
Ġà¤¯ à¤¦
Ġà¤¯ à¤µà¤¢
Ġà¤¯ à¤ľà¤®
.. âĢľ
à¤µà¤° à¤Ł
à¤µà¤° à¤µà¤°
à¤µà¤° à¤ªà¤°
à¤µà¤° à¤Ńà¤ķ
Ġà¤° à¤¹à¤¤
Ġà¤° à¤£à¤¬
Ġà¤ķà¤° à¤²
Ġà¤¶ à¤¯
Ġà¤¶ à¤µ
Ġà¤¶ à¤·
Ġà¤¶ à¤¯à¤¨
Ġà¤¶ à¤®à¤µ
à¤ł à¤¶
à¤ł à¤µà¤°
à¤ł à¤ªà¤£
à¤ł à¤ªà¤°
à¤ł à¤°à¤µ
à¤ł à¤£à¤ļ
à¤ł à¤°à¤µà¤²
à¤ł à¤£à¤²
Ġà¤ļ à¤¦
Ġà¤ļ à¤¡
Ġà¤ļ à¤¶
Ġà¤ļ à¤µà¤¤
Ġà¤ļ à¤ķà¤°
Ġà¤ļ à¤µà¤³
Ġà¤ļ à¤²à¤²
Ġà¤ļ à¤®à¤¨
Ġà¤ļ à¤·à¤ķ
Ġà¤ļ à¤ªà¤Ł
Ġà¤ļ à¤°à¤ķà¤²
Ġà¤ļ à¤Łà¤ªà¤Ł
Ġà¤ļ à¤ĺà¤³à¤²
Ġà¤Ĩà¤£ à¤µà¤²
à¤¥ à¤Ĺ
à¤¥ à¤°à¤ķ
à¤¥ à¤ķà¤²
à¤¥ à¤²à¤ķ
à¤¥ à¤°à¤¥
Ġà¤ı à¤£
Ġà¤ı à¤µà¤¡
Ġà¤ı à¤¯à¤°
Ġà¤ı à¤¡à¤µà¤°
Ġà¤ı à¤ħà¤°à¤²
Ġà¤ı à¤¯à¤°à¤ª
Ġà¤ĺ à¤°à¤²
Ġà¤ĺ à¤Łà¤¤
Ġà¤ĺ à¤Łà¤ª
Ġà¤Ń à¤¦
Ġà¤Ń à¤·
Ġà¤Ń à¤µà¤¨
Ġà¤Ń à¤Łà¤¨
Ġà¤Ń à¤¡à¤µ
Ġà¤Ń à¤³à¤Ń
Ġà¤Ń à¤ĵà¤Ĺ
Ġà¤ıà¤ķ à¤ª
Ġà¤ıà¤ķ à¤ıà¤ķ
Ġà¤ıà¤ķ à¤ªà¤¤
à¤¹à¤£ à¤µà¤²
à¤¹à¤£ à¤µà¤¤
à¤Ń à¤Ł
à¤Ń à¤¶
à¤Ń à¤Ī
à¤Ń à¤¡à¤µ
Ġà¤ī à¤µ
Ġà¤ī à¤ķà¤¡
Ġà¤ī à¤ªà¤°
Ġà¤ī à¤®à¤²
Ġà¤ī à¤Ĺà¤ļ
Ġà¤ī à¤Ĺà¤µ
Ġà¤ī à¤ķà¤³
Ġà¤ī à¤¬à¤³
Ġà¤ī à¤¬à¤Ĺ
Ġà¤Ŀ à¤°à¤¤
Ġà¤Ŀ à¤¡à¤²
Ġà¤Ŀ à¤Łà¤¤
Ġà¤Ŀ à¤¬à¤²
Ġà¤Ŀ à¤Ĺà¤¡
Ġà¤ĸ à¤¸
Ġà¤ĸ à¤ªà¤²
Ġà¤ĸ à¤°à¤µ
Ġà¤ĸ à¤ªà¤¤
Ġà¤ĸ à¤³à¤Ĺ
Ġà¤ĸ à¤ªà¤µà¤²
Ġà¤ĸ à¤£à¤²
Ġà¤ĸ à¤°à¤ķà¤Ł
Ġà¤ĸ à¤ªà¤µà¤£
Ġà¤ĸ à¤°à¤®à¤°
âĢ ķ
Ġà¤¤à¤° à¤¹
Ġà¤¤à¤° à¤¸
Ġà¤¤à¤° à¤³à¤¤
Ġà¤¤à¤° à¤³à¤²
Ġà¤« à¤¨
Ġà¤« à¤£
Ġà¤« à¤¸à¤¤
Ġà¤« à¤ľà¤²
Ġà¤« à¤Łà¤ķà¤¨
à¤Ī à¤Ĩ
à¤Ī à¤ªà¤£
à¤Ī à¤¦à¤°
à¤Ī à¤¤à¤ļ
à¤Ī à¤¡à¤¸
à¤Ī à¤ķà¤ļ
à¤Ī à¤¡à¤ļ
à¤Ī à¤¤à¤ķà¤ļ
à¤Ī à¤Ĺà¤¡à¤¬à¤¡
à¤Ĩ à¤ĺ
à¤Ĩ à¤¯à¤ļ
à¤Ĩ à¤ķà¤¡
à¤Ĩ à¤«
à¤Ĩ à¤°à¤£
à¤Ĩ à¤°à¤ķ
à¤Ĩ à¤ķà¤°
à¤Ĩ à¤°à¤¸
à¤Ĩ à¤¸à¤®
à¤Ĩ à¤ĵ
à¤Ĩ à¤¡à¤µ
à¤Ĩ à¤¯à¤¬
à¤Ĩ sssss
à¤Ŀ à¤¤
à¤Ŀ à¤¯
à¤Ŀ à¤¸
à¤Ŀ à¤µà¤²
à¤Ŀ à¤µà¤£
à¤Ŀ à¤¡à¤£
à¤Ŀ à¤Łà¤ªà¤Ł
à¤¢ à¤¸
à¤¢ à¤ª
à¤¤à¤° à¤®
à¤¤à¤° à¤¦
à¤¤à¤° à¤ķà¤¥
à¤ĺ à¤ķà¤¥
à¤¯à¤ļ à¤ļ
à¤¯à¤ļ à¤ķ
à¤°à¤¤ à¤²
à¤°à¤¤ à¤¯
à¤°à¤¤ à¤¸
à¤°à¤¤ à¤ľ
à¤°à¤¤ à¤µà¤°
à¤°à¤¤ à¤Ń
à¤ħ à¤ªà¤°
à¤ħ à¤¨à¤ļ
à¤ħ à¤°à¤¸
à¤ħ à¤ªà¤¨
à¤ħ à¤µà¤¶
à¤ħ à¤Ĺà¤°
à¤ħ à¤ĵ
à¤ħ à¤µà¤ľ
à¤ħ à¤«à¤²
à¤ħ à¤łà¤°
à¤¤à¤² à¤ļ
à¤¤à¤² à¤µ
à¤¤à¤² à¤ĸ
à¤Ĭ à¤ªà¤£
à¤Ĭ à¤¦à¤²
à¤Ĭ à¤ľà¤°
à¤Ĭ à¤¸à¤®à¤§
à¤Ĭ à¤Ŀà¤°
à¤ªà¤² à¤ª
Ġà¤Ĩà¤² à¤¬
Ġà¤ĩ à¤¡
Ġà¤ĩ à¤Ŀ
Ġà¤ĩ à¤ħà¤°
Ġà¤ĩ à¤¨à¤ķ
Ġà¤ĩ à¤¸à¤¨
Ġà¤ĩ à¤¤à¤¸
Ġà¤ĩ à¤¸à¤ķ
Ġà¤ĩ à¤¹à¤²
Ġà¤ĩ à¤ľà¤¯
Ġà¤ĩ à¤°à¤«
Ġà¤ĩ à¤¯à¤°à¤ļ
à¥Ī '
à¥Ī |
à¥Ī à¤Ĥ.
à¤µà¤² à¤ļ
à¤¯à¤² à¤°
à¤¯à¤² à¤Łà¤²
à¤¯à¤² à¤Łà¤¨
Ġà¤ħà¤¸à¤¤ à¤ļ
Ġà¤Ł à¤£
Ġà¤Ł à¤¬
Ġà¤Ł à¤ķà¤²
Ġà¤Ł à¤£à¤ķ
Ġà¤Ł à¤°à¤ķà¤²
Ġà¤Ł à¤°à¤¬
à¤ķà¤¡ à¤¯
à¤« à¤Ĺ
à¤« à¤ĸ
à¤« à¤°à¤£
à¤« à¤°à¤²
à¤« à¤°à¤¸
à¤« à¤Łà¤°
à¤« à¤¨à¤¨
à¤« à¤Łà¤ª
à¤« à¤¸à¤¬
à¤« à¤¸à¤µà¤£
à¤Ĺà¤² à¤¬
à¤Ĺà¤² à¤®à¤§
à¤Ĺà¤² à¤®à¤¯
à¤¹à¤¤ à¤µ
à¤¾, (
à¤¾, .
Ġà¤ł à¤ª
Ġà¤ł à¤¸à¤ķ
Ġà¤ł à¤ªà¤ķ
à¤°à¤£ à¤ľ
à¤°à¤£ à¤°à¤£à¤¤
à¤¡à¤² à¤ķà¤°
à¥ĩ, âĢľ
à¥ĩ, ``
à¥ħ ,
à¥ħ à¤¾
Ġà¤¡ à¤ķ
Ġà¤¡ à¤¹
Ġà¤¡ à¤¸à¤²
Ġà¤¡ à¤¬à¤¡
Ġà¤¡ à¤µà¤°à¤²
Ġà¤¡ à¤Ŀà¤¨
Ġà¤¡ à¤Ĺà¤®à¤Ĺà¤£
à¤Ĺà¤³ à¤®
à¤°à¤ķ à¤³
à¤°à¤ķ à¤°à¤ļ
Ġà¤µà¤° à¤¹
Ġà¤µà¤° à¤®
à¥Ģ, .
à¥Ģ, âĢĿ
Ġà¤§ à¤¤
Ġà¤§ à¤Ĺ
Ġà¤§ à¥ľ
Ġà¤§ à¤Ĺà¤§
Ġà¤¨à¤µ à¤¯
Ġà¤¨à¤µ à¤ľ
Ġà¤¨à¤µ à¤ĺà¤°
Ġà¤¨à¤µ à¤µà¤§
à¤°à¤² à¤²
à¤°à¤² à¤¯
à¤°à¤² à¤ļ
Ġà¤ħà¤¨ à¤°
Ġà¤ħà¤¨ à¤²
Ġà¤ħà¤¨ à¤ķ
Ġà¤ħà¤¨ à¤¬
Ġà¤ħà¤¨ à¤¸à¤°
à¤®à¤§ à¤°
à¤®à¤§ à¤¡
Ġà¤ķà¤°à¤¤ à¤¨
à¤ķà¤° à¤°
à¤ķà¤° à¤¹
à¤ķà¤° à¤ª
à¤ķà¤° à¤µà¤°
à¤ķà¤° à¤®à¤§
à¤Łà¤² à¤®
à¤Łà¤² à¤°à¤¨
à¤¬à¤° à¤µ
à¤¬à¤° à¤¸
à¤¬à¤° à¤®
à¤¬à¤° à¤Ĺ
à¤¬à¤° à¤¡
à¤¬à¤° à¤µà¤²
à¤µà¤¸ à¤¹
à¤µà¤¸ à¤Ī
Ġà¤¸à¤® à¤¹
Ġà¤¸à¤® à¤µà¤¨
Ġà¤®à¤² à¤¬
à¤ªà¤° à¤¨
à¤ªà¤° à¤Ł
à¤ªà¤° à¤¶
à¤ªà¤° à¤®à¤§
Ġà¥ Ļ
à¤¸à¤² à¤°
à¤¯à¤ķ à¤ķ
Ġà¤Ĩà¤¤ à¤¤
Ġà¤Ĩà¤¤ à¤µà¤°
à¤¸à¤¤ à¤¤à¤ļ
à¤¤à¤ķ à¤¹
à¤¸à¤° à¤¨
à¤¸à¤° à¤®
à¤¸à¤° à¤¦
Ġà¤¸à¤° à¤ļ
Ġà¤¸à¤° à¤ĸ
Ġà¤¸à¤° à¤ªà¤Ł
Ġà¤¸à¤° à¤ªà¤Łà¤²
à¤°à¤ļ à¤ķ
Ġà¤¥ à¤ª
Ġà¤¥ à¤¬à¤ķ
Ġà¤¥ à¤ķà¤µà¤£
.... '
.... ""
.... ''
.... !!!
.... :)
.... ?????
à¤ı à¤Ĺ
à¤ı à¤ł
à¤ı à¤Ī
à¤ı à¤ķà¤¤
à¤ı à¤Łà¤°
à¤ı à¤ħà¤°
à¤ı à¤²à¤ļ
à¤ı à¤²à¤¸
à¤ı à¤²à¤ľ
à¤ı à¤ļà¤¡
Ġà¤Ĩà¤µ à¤ķ
à¤µà¤£ à¤¸
à¤µà¤£ à¤ķà¤°
à¤Ĺà¤¤ à¤¯
à¤Ĺà¤¤ à¤ªà¤°
à¤ķà¤² à¤¤
Ġà¤ªà¤° à¤³
Ġà¤ªà¤° à¤¸à¤¬
Ġà¤®à¤¨ à¤µà¤²
à¤¦à¤° à¤°
à¤¦à¤° à¤ª
à¤¦à¤° à¤¬
à¤¦à¤° à¤ĸ
Ġà¤®à¤§ à¤®à¤¦
à¥¦ à¥§
à¤°à¤ĸ à¤¤
à¤°à¤ĸ à¤¡
à¤°à¤µ à¤Ĺ
Ġà¤ĺà¤° à¤ĺà¤°
Ġà¤ĺà¤° à¤Ĺà¤¡
Ġà¤¬à¤ĺ à¤¯
Ġà¤¬à¤ĺ à¤ļ
à¤µà¤³ à¤ķà¤°
à¤µà¤³ à¤¸à¤°
>> (
>> .
à¤ĩ à¤¯
à¤ĩ à¤¦
à¤ĩ à¤¯à¤¤
à¤ĩ à¤¯à¤®
à¤ĩ à¤¨à¤²
à¤ĩ à¤Łà¤µà¤°
à¥Ģà¤Ĥ !
à¥Ģà¤Ĥ ,
à¥Į !
à¥Į "
à¤Īà¤² à¤²
à¤Ľ à¤ª
à¤Ľ à¤¡
à¤Ľ à¤ªà¤£
Ġà¤Ľ à¤³à¤²
Ġà¤Ľ à¤³à¤µ
à¤¤à¤ļ à¤¤
à¤¤à¤ļ à¤ĸ
Ġà¤ĵ à¤¨
Ġà¤ĵ à¤µà¤°
Ġà¤ĵ à¤«
Ġà¤ĵ à¤ľà¤¸
Ġà¤ĵ à¤¤à¤£
Ġà¤ĵ à¥Ŀ
Ġà¤ĵ à¤°à¤ĸà¤¡
Ġ' "
Ġ' ,
Ġ, "
à¤¨à¤ļ à¤°
Ġ( =
ĠâĢ ķ
à¤°à¤¸ à¤®
à¤°à¤¸ à¤ª
à¤°à¤¸ à¤®à¤£
à¤³à¤¤ à¤¯
Ġà¤Ĩà¤ľ à¤°
Ġà¤Ĩà¤ľ à¤¨
Ġà¤Ĩà¤ľ à¤Ĺ
Ġà¤Ĩà¤ľ à¤¤à¤ķ
Ġà¤Ĩà¤ľ à¤ĺà¤¡
à¤ıà¤ķ à¤ķ
à¤ıà¤ķ à¤¶
à¤ıà¤ķ à¤µà¤°
à¤Ĩà¤£ à¤¤
à¤ĥ :
à¤ļà¤² à¤°
à¤¬à¤¦ à¤¨
à¤·à¤£ à¤ļ
à¤·à¤£ à¤Ńà¤°à¤ļ
à¤·à¤£ à¤ķà¤µà¤ļ
**** **
**** ***
Ġà¤®à¤¹ à¤¸
Ġà¤®à¤¹ à¤®à¤¦
à¤ī à¤¤à¤°
à¤ī à¤ªà¤ļ
à¤ī à¤²à¤µ
à¤ī à¤ªà¤¹
à¤ī à¤ªà¤µ
à¤ī à¤łà¤£
à¤ī à¤¤à¤°à¤²
à¤ī à¤ĺà¤¡à¤²
à¤¶à¤¨ à¤®
à¤¶à¤¨ à¤ª
à¤¶à¤¨ à¤¸à¤°
à¤¶à¤¨ à¤ľà¤µà¤³
à¤¶à¤¨ à¤ľà¤µà¤³à¤ļ
... )
à¤¯à¤¤ à¤¤
Ġà¤Ĩà¤® à¤¨
Ġà¤Ĩà¤® à¤¸à¤Ń
---- ---
à¥§ à¥¦à¥¦à¥¦à¥¦à¥¦à¥¦à¥¦à¥¦à¥¦à¥¦à¥¦à¥¦à¥¦à¥¦à¥¦à¥¦
à¤²à¤¤ à¤¯
Ġà¤Ĳ à¤¹
Ġà¤Ĳ à¤Ł
Ġà¤Ĳ à¤¸à¤ª
à¤Ĺà¤£ à¤®à¤§
Ġà¤ħà¤ľ à¤°
Ġà¤ħà¤ľ à¤¯à¤²
à¤°à¤¶ à¤ķ
à¤¸à¤® à¤¤
à¤¸à¤® à¤°à¤ķ
Ġà¤¸à¤®à¤ľ à¤µà¤²
Ġà¤¸à¤®à¤ľ à¤¤à¤ļ
à¤ªà¤¨ à¤¸
à¤ªà¤¨ à¤²à¤¹à¤°
à¤®à¤Ĺ à¤°
Ġà¤¸à¤¹ à¤°
Ġà¤¸à¤¹ à¤¦
Ġà¤¸à¤¹ à¤ķà¤°
Ġà¤¸à¤¹ à¤¨à¤¶
Ġà¤ĸà¤° à¤ª
à¤Łà¤ķ à¤³
Ġà¤ķà¤¸ à¤¬à¤¸
à¤®à¤¤ à¤¤
th is
th en
à¤°à¤ľ à¤¸
à¤°à¤ľ à¤µà¤³
à¤°à¤ľ à¤¨à¤¨
à¤°à¤ľ à¤¬à¤°à¤¦à¤¸
Ġà¤¬à¤¸ à¤¶
à¤Ĥ, âĢĿ
à¤¹à¤° à¤°
à¤¹à¤° à¤¥
à¤¹à¤° à¤µà¤°à¤ļ
à¤µà¤¨ à¤ķà¤¡
à¤µà¤¨ à¤ªà¤°
à¤µà¤¨ à¤°à¤¸
âĢĿ âĢĺ
à¤¯à¤µ à¤§
à¤²à¤ķ à¤µ
à¤²à¤ķ à¤°à¤£
Ġà¤ķà¤® à¤µà¤²
à¤µà¤Ł à¤¹
Ġ- "
Ġ- '
Ġ- .
in er
in ing
in ce
in em
in ks
in ary
in ator
in ates
an u
an ta
an ie
an ner
an akas
Ġà¤ªà¤¡à¤² à¤¯
à¤³à¤² à¤²
Ġà¤Ĩà¤Ī à¤¯
Ġà¤Ĩà¤Ī à¤¹
Ġà¤Ĩà¤Ī à¤¨à¤¸
à¤§à¤¨ à¤®
Ġà¤ĳ à¤ķà¤°
Ġà¤ĳ à¤®à¤²
Ġà¤ĳ à¤°à¤Ĺ
Ġà¤ĳ à¤Ĺà¤·
Ġà¤Ĩà¤¯ à¤¸
Ġà¤īà¤¦ à¤Ĺ
Ġà¤īà¤¦ à¤¯à¤ļ
Ġà¤īà¤¦ à¤¯à¤ª
à¤¬à¤² à¤ķà¤¡
à¤Ńà¤° à¤¦
er ation
er ely
er gency
Ġà¤īà¤ª à¤ª
Ġà¤īà¤ª à¤ĸ
Ġà¤īà¤ª à¤Łà¤²
Ġà¤īà¤ª à¤ľà¤¤
à¤ľà¤¨ à¤¨
à¤ľà¤¨ à¤ª
à¤ľà¤¨ à¤ªà¤¦
!! (
!! @
!! ..
!! âĢĻ
à¤µà¤¶ à¤¤
à¤®à¤¨ à¤Ĺà¤°
à¤ªà¤¤ à¤¸
à¤ªà¤¤ à¤Ĺà¤¡
à¤Ĺà¤° à¤¦
à¤Ĺà¤° à¤¬
à¤Ĺà¤° à¤Ĺà¤Ł
à¤Ĩà¤ľ à¤¸
à¤Ĩà¤ľ à¤µà¤°à¤ļ
Ġà¤ħà¤ª à¤ª
Ġà¤ħà¤ª à¤Ń
à¤¯à¤® à¤¯
à¤¯à¤® à¤®
Ġà¤°à¤¸ à¤ª
à¤ŀ à¤¯
à¤£à¤¤ à¤¹
Ġth ree
Ġth ird
at o
at ul
at ter
at ik
Ġà¤¬à¤¹ à¤²
Ġà¤¬à¤¹ à¤®à¤¨
à¤ľà¤² à¤¯
à¤¨à¤¹ à¤¸
à¤ħà¤¸ à¤¹
Ġà¤¨à¤¸ à¤¶
Ġà¥¨ à¥¨à¥¦à¥¦
on s
à¤²à¤¯ à¤ľ
à¤²à¤¯ à¤®à¤¸
ar b
ar n
ar th
ar as
ar ind
ar ya
ar ge
ar any
à¤¹à¤® à¤¯
Ġs s
Ġs ing
Ġs el
Ġs il
Ġs et
Ġs us
Ġs ap
Ġs oo
Ġs now
Ġs imp
Ġs low
Ġs arv
Ġs imil
à¤®à¤ķ à¤¶
Ġà¤ľà¤Ĺ à¤ª
Ġà¤ľà¤Ĺ à¤ľ
........ "
........ .......
........ ...."
à¤°à¤¹ à¤ľà¤°
Ġà¤ħà¤µ à¤¤à¤°à¤¤
Ġà¤ħà¤µ à¤ľà¤¡
Ġà¤ªà¤¤ à¤¸
à¤ĸà¤° à¤¬
Ġà¤ľà¤¨ à¤¸
Ġà¤ľà¤¨ à¤ľ
à¤Łà¤¨ à¤¨
à¤¸à¤ļ à¤¦
Ġà¤ľà¤® à¤¶
Ġà¤ľà¤® à¤µà¤£
Ġà¤ľà¤® à¤¤à¤ļ
à¤ħà¤¨ à¤®
à¤ħà¤¨ à¤Ŀ
à¤Īà¤¨ à¤¨
à¤Īà¤¨ à¤¸
à¤Īà¤¨ à¤®à¤§
à¤ļà¤¨ à¤®
à¥« à¥¬
à¥« à¥§à¥¨à¥«
à¤²à¤¨ à¤ª
à¤²à¤¨ à¤ķà¤°
à¤ħà¤¶ à¤ķ
Ġa j
Ġa v
Ġa pan
Ġa jun
Ġa vad
or r
or re
or iz
or ward
Ġà¤ķà¤ª à¤¬à¤¶
is k
is ed
is ing
is ion
Ġà¤Ńà¤° à¤¦
Ġà¤Ńà¤° à¤¡
Ġà¤Ńà¤° à¤§
Ġà¤Ńà¤° à¤Ńà¤ķ
Ġà¤ĵà¤³à¤ĸ à¤ļ
Ġà¤ĵà¤³à¤ĸ à¤¶
à¤°à¤¦ à¤¯à¤¸
à¤Īà¤Ł à¤¸
à¤µà¤ķà¤° à¤ļ
à¤¨à¤µ à¤ľà¤¨
Ġw om
Ġw ish
Ġw orth
Ġw ild
Ġw aiting
Ġw inter
Ġw ork
Ġw anker
en a
en e
en om
en ch
en ess
Ġà¤ªà¤¡ à¤¨
Ġà¤ªà¤¡ à¤µ
Ġà¤µà¤¸ à¤µ
Ġà¤µà¤¸ à¤Īà¤ļ
à¥© à¥ª
à¥¯ à¥¨
Ġà¤ķà¤¡ à¤ļ
Ġà¤ķà¤¡ à¤§
Ġà¤¸à¤°à¤ķ à¤£
Ġà¤¸à¤°à¤ķ à¤µà¤£
al f
al as
al ing
al gic
à¤¯à¤° à¤¨
à¤¯à¤° à¤¨à¤ļ
Ġthe se
Ġthe ory
à¤°à¤ªà¤Ł à¤ļ
Ġà¤¸à¤ķ à¤¸
Ġà¤¸à¤ķ à¤Ł
à¤¡à¤¸ à¤¹
à¤¡à¤¸ à¤µ
======== =-'
Ġà¤Ĩà¤ķ à¤³à¤²
it in
it ation
it ual
it ude
Ġà¤§à¤¨ à¤²
Ġà¤§à¤¨ à¤¸
Ġà¤§à¤¨ à¤§
Ġà¤§à¤¨ à¤µà¤¨
Ġà¤ªà¤¦ à¤§à¤¤
Ġb ad
Ġb od
Ġb us
Ġb ig
Ġb old
Ġb ased
Ġb aby
Ġb anner
à¤¨à¤¸ à¤£
à¤¨à¤¸ à¤¶
Ġà¤Ĩà¤ª à¤¦
à¤ľà¤µà¤³ à¤Ĺ
à¤¸à¤¹ à¤¨
à¤¸à¤¹ à¤ķ
Ġà¤¨à¤ľà¤° à¤¹
Ġà¤Ĩà¤µà¤¡à¤¤ à¤ļ
Ġt ar
Ġt it
Ġt re
Ġt ag
Ġt ab
Ġt ra
Ġt ax
Ġc a
Ġc el
Ġc op
Ġc ra
Ġc reat
Ġc lo
Ġc ru
Ġc amp
Ġc rit
Ġc inem
à¤ĸà¤¨ à¤ķà¤²
Ġm i
Ġm in
Ġm ed
Ġm ak
Ġm ul
Ġm ur
Ġm ind
Ġm ach
Ġm ight
Ġm ov
Ġm ode
Ġm ob
Ġm orn
Ġm aids
à¤µà¤ľ à¤µ
à¤µà¤ľ à¤¯à¤¨
à¤²à¤µ à¤Łà¤²
à¤§à¤¤ à¤¶
à¤ļà¤ķ à¤¹
à¤ļà¤ķ à¤µ
à¤ļà¤ķ à¤µà¤°
à¤ļà¤ķ à¤ªà¤£
à¤¸à¤£ à¤µ
Ġà¤Ī à¤ķ
Ġà¤Ī à¤Ĺà¤²
Ġà¤Ī à¤¯à¤°
à¤·à¤ķ à¤¹
ed y
ed ic
ed ha
à¤ķà¤³ à¤ļ
à¤ķà¤³ à¤¶
Ġp ut
Ġp us
Ġp ah
Ġp hil
Ġp ust
Ġp pl
Ġp ati
Ġp ara
Ġp udh
Ġp ict
Ġp ract
as im
as px
as then
as ons
Ġà¤Ĺà¤° à¤Ĺà¤°
à¤ªà¤Ł à¤ª
Ġà¤Ĩà¤µà¤¡ à¤¨
Ġà¤Ĩà¤µà¤¡ à¤¹
à¤¹à¤¨ à¤°
à¤¹à¤¨ à¤¦
Ġo b
Ġo bl
Ġo per
Ġo pin
à¤ķà¤¨ à¤ªà¤°
à¤ķà¤¨ à¤¸à¤²
âĢ¦ !
âĢ¦ âĢĻ
âĢ¦ âĢĻâĢĻ
âĢ¦ âĢ¦.
à¥ª à¥¯
à¥ª à¥«à¥¦
à¤¬à¤Ī à¤ª
à¤¬à¤Ī à¤¬
à¤¬à¤Ī à¤ķà¤¡
Ġà¤¢ à¤³
à¥¬ à¥§
à¥¬ à¥®
à¥¬ à¥Ń
à¤Ĩà¤ªà¤£ à¤¹
à¤ķà¤¦ à¤ļ
à¤Łà¤£ à¤®
re w
re ci
re lat
Ġh us
Ġh ear
Ġh ttp
à¤¶à¤² à¤¸
Ġà¤īà¤² à¤¥à¤µ
ss à¤¤
à¤®à¤£ à¤¶
à¤°à¤¥ à¤¨
Ġà¤ļà¤° à¤¬
à¤¹à¤³ à¤¦
om atic
om ise
om ba
à¥Ģ- "
à¤ļà¤µ à¤¦
à¤£à¤¯ à¤ľ
Ġà¤ĩà¤¤ à¤ªà¤¤à¤ļ
Ġà¥© à¥¨
Ġà¥© à¥®
Ġà¥© à¥Ń
Ġà¥© à¥«à¥¦
Ġà¥© à¥¬à¥¦
Ġà¥© à¥©à¥¨
Ġà¥© à¥§à¥§à¥©
ic ha
Ġf i
Ġf an
Ġf ar
Ġf av
Ġf ly
Ġf ul
Ġf ur
Ġf ear
Ġf ood
Ġf ight
Ġf ive
Ġf eat
Ġf ound
Ġf low
Ġf ire
à¤ľà¤£ à¤µ
Ġd in
Ġd ad
Ġd il
Ġd im
Ġd id
Ġd one
Ġd ays
Ġd ied
Ġd irect
Ġd uty
Ġd enom
Ġà¤īà¤¡ à¤ª
and e
and el
..... (
..... ""
à¤¤à¤³ à¤Ń
à¤¬à¤¡ à¤µà¤°
el a
el i
el ig
el ock
el come
Ġà¤¹à¤¸ à¤¬à¤¨
Ġl ot
Ġl ab
Ġl ist
Ġl if
Ġl itt
Ġl uck
Ġl iter
Ġl andline
Ġl ogic
à¥Ń à¥¦à¥¦
à¥Ń à¥®à¥¬
Ġà¤īà¤ł à¤µà¤¤
Ġ1 7
Ġ+ +
à¤ªà¤¡ à¤ļ
à¤Ĩà¤Ī à¤Ĺ
à¤Ĩà¤Ī à¤¶
à¤Ĩà¤Ī à¤ķà¤¡
Ġà¤Ĺà¤£ à¤µ
à¤¾' (
à¤īà¤¨ à¤®
Ġà¤ħà¤² à¤µà¤°
Ġà¤īà¤ļà¤² à¤¤à¤ļ
à¤ªà¤¦ à¤µ
Ġin st
Ġin her
Ġin telligence
Ġin breed
Ġà¤ķà¤³à¤¤ à¤¹
à¥ĩ) !
Ġn ak
Ġn ear
Ġn ost
Ġn ight
Ġn ice
Ġn orth
à¤¨à¤° à¤¬à¤³
Ġà¤īà¤ĺà¤¡ à¤ļ
Ġà¤īà¤ĺà¤¡ à¤Ŀ
Ġà¤¬à¤¦ à¤ķ
am s
am ing
am ine
am az
am rut
am arind
Ġà¤Ĩà¤Ĺ à¤ª
à¤°à¤¡ à¤¯
ad i
ad s
ad uation
à¤°à¤¯ à¤·
Ġà¤¹à¤¸à¤¤ à¤®
il i
il ed
.." .
Ġà¤¸à¤¹à¤ľ à¤ª
à¤¾) ,
à¤¾) ?
à¤Łà¤¸ à¤ħ
ch a
ch id
ch Ã¢
à¤¾" ?
Ġà¤ªà¤³ à¤Ńà¤°
à¤¬à¤¨ à¤ªà¤°
à¤¬à¤¨ à¤Ĺà¤°
Ġà¤¯à¤¶ à¤¹
à¤µà¤Ń à¤ķ
à¤½ à¤¹
à¤½ à¤¹à¤®
à¤¡à¤° à¤¬à¤°
Ġà¤ľà¤®à¤² à¤¯
Ġà¤ļà¤¢ à¤µà¤¤
Ġà¤ļà¤¢ à¤īà¤¤
Ġà¤Ńà¤°à¤² à¤¯
à¥§à¥§ à¥§à¥§à¥§
ay a
ay an
ay sh
ay acha
Ġg f
Ġg ot
Ġg ir
Ġg ive
Ġg het
Ġg uy
Ġg overnment
Ġà¤ĭ à¤¯
à¤ľà¤¯ à¤ª
à¤ľà¤¯ à¤¶
à¤ĸà¤£ à¤ķ
à¤ĸà¤£ à¤ĸà¤£
Ġà¤§à¤¡ à¤ªà¤¡à¤²
________ __/\
Ġà¤Ķ à¤Ĺà¤¸
Ġà¤Ĺà¤¡ à¤Ĺà¤¡à¤²
Ġà¤¨à¤µà¤° à¤¯
Ġà¤Ńà¤¯ à¤ªà¤Ł
Ġà¥ª à¥¬
Ġà¥ª à¥®
Ġà¥ª à¥©à¥¨
Ġà¥ª à¥ªà¥¦à¥¦
Ġà¤µà¤³ à¤ļà¤£
Ġà¤µà¤³ à¤µà¤³à¤£
Ġà¤ĩà¤¨ à¤Ł
Ġà¤ĩà¤¨ à¤¬
ow er
à¤¨à¤Ĺ à¤°à¤²
ht er
Ġà¤¸à¤®à¤ľà¤¤ à¤¯
le ge
le gory
ĠM I
ĠM a
ĠM ad
ĠM ot
ĠM og
ĠM EN
ĠM inal
ĠM OVE
ĠM eg
ĠM andal
ĠM urp
ĠM ukt
ĠS C
ĠS e
ĠS at
ĠS har
ĠS ex
ĠS oup
ĠS OR
ĠS abkha
ĠS ports
ĠS pock
ĠS tew
ĠS ammelan
ĠS ystem
ĠS zÃ©
à¥Ģ" !
ĠI E
ĠI t
ĠI celand
ĠI SI
Ġà¤²à¤¢ à¤µà¤²
Ġà¤²à¤¢ à¤µà¤£
Ġà¤Ĳà¤ķà¤¤ à¤ļ
Ġto ld
Ġà¤¸à¤°à¤³ à¤¸
Ġà¤¸à¤°à¤³ à¤¸à¤°à¤³
Ġà¥§à¥¯ à¥¦à¥¦
Ġà¥§à¥¯ à¥§à¥§
Ġà¥§à¥¯ à¥¨à¥¦
Ġà¥§à¥¯ à¥«à¥¦
Ġà¥§à¥¯ à¥©à¥¨
Ġà¥§à¥¯ à¥©à¥§
Ġà¥§à¥¯ à¥©à¥©
Ġà¥§à¥¯ à¥ªà¥¦
ent er
Ġy e
à¤¾âĢĻ .
à¤¾âĢĻ ?
à¤²à¤¹ à¤µ
Ġà¤ĩà¤ķà¤¡ à¤²
Ġà¥ŀ à¤³
Ġà¥ŀ à¤°à¤ķ
Ġ2 4
Ġ2 6
à¤§à¤ķ à¤¹
st it
un g
un ch
un ny
à¤²à¤® à¤¡à¤²
Ġe k
Ġe qu
Ġe yes
Ġe mail
Ġe conom
Ġà¤°à¤¤à¤¨ à¤¸à¤®
Ġà¤ķà¤ł à¤ª
Ġà¤īà¤® à¤°à¤ĸ
Ġà¤īà¤® à¤ľà¤¤
................ ...
................ .....
................ ......
à¤Ĳ à¤ķà¤¤
à¤Ĳ ssà¤¯
Ġà¤¦à¤Ĺà¤¡ à¤§
Ġà¤¦à¤Ĺà¤¡ à¤«
Ġà¤ľà¤ª à¤ľ
Ġk ing
Ġk ad
Ġk uth
à¤®à¤¶ à¤¹
Ġà¤ªà¤°à¤µ à¤¡à¤¤
à¤³à¤ķ à¤°à¤²
à¥ĩ' ,
Ġà¤¤à¤³ à¤¹
Ġà¤¤à¤³ à¤®à¤ľà¤²
à¤¡à¤¨ à¤®à¤§à¤²
Ġà¤Łà¤ķ à¤Łà¤ķ
av d
av ing
av ad
Ġà¤Ĭ à¤¦
Ġà¤Ĭ à¤¬
Ġà¤Ĭ à¤Ń
Ġà¤Ĭ à¤¸à¤¤
ct s
ct ions
à¤Łà¤® à¤³
à¤Łà¤® à¤³à¤£
ce iv
ĠC C
ĠC o
ĠC ar
ĠC ol
ĠC ha
ĠC uc
ĠC LA
ĠC PU
ĠC onnor
ĠC alico
ĠC alcutta
ĠC rore
à¤ĩà¤¨ à¤®
à¤ĳ à¤ķ
à¤ĳ à¤Ł
à¤ĳ à¤¬
à¤ĳ à¤ķà¤²
à¤ĳ à¤¨à¤²
à¤ĳ à¤«à¤ķ
od ay
ut ras
à¤¹à¤¸ à¤Ĺ
à¤°à¤ķà¤°à¤£ à¤ļ
Ġà¤°à¤¡ à¤Ĺ
à¤Ĭà¤² à¤ĸ
à¤ľà¤® à¤ľ
ĠâĢ¦ !
ĠâĢ¦ âĢ¦
ĠâĢ¦ >>>>>
im a
im s
im ita
ĠB B
ĠB l
ĠB ig
ĠB HA
ĠB ird
ĠB hÃ¢
ĠB eng
ĠB lock
à¤ħà¤µ à¤ĺà¤¡à¤²
à¤¨à¤¯ à¤¶
à¤¨à¤¯ à¤Ń
iv ious
à¤¾à¤ģ .
à¤£à¤µà¤¤ à¤¯
à¤ħà¤Ĺ à¤®
à¤ĩà¤² à¤µà¤°
ag al
us ion
Ġon es
Ġon line
Ġà¤¸à¤¦ à¤Ĺ
ab eb
ig inal
ĠA l
ĠA ss
ĠA sh
ĠA ry
ĠA nal
ĠA kbar
ĠA SA
ĠA WESOME
Ġyou ng
ak a
ak h
ak i
ak es
ir t
ir y
ir any
Ġà¤¬à¤¡ à¤¦
Ġà¤¬à¤¡ à¤ľ
Ġà¤¬à¤¡ à¤µà¤¤
Ġà¥® à¥ª
ol ate
à¥ĢâĢĻ ,
à¤Ĺà¤® à¤Ĺà¤¤
à¤·à¤° à¤ĵà¤³à¤ĸ
Ġà¤īà¤¸ à¤¸
Ġà¤īà¤¸ à¤µà¤¤
à¤½à¤½ à¤¯
à¤½à¤½ à¤½à¤½à¤½
Ġv o
Ġv ol
Ġv irus
à¤¯à¤£ à¤²
Ġà¤¸à¤ľ à¤Ĺà¤¤
Ġà¥¬ à¥«
Ġà¥¬ à¥©
Ġà¥¬ à¥¯
Ġà¥¬ à¥®
Ġà¤ĵà¤¢ à¤µ
Ġà¤Ńà¤°à¤¤ à¤ļ
Ġwh ite
Ġbe ar
Ġbe ing
Ġbe autiful
Ġà¤Łà¤ª à¤ķà¤²
com ment
com munication
Ġre f
Ġre qu
Ġre ceiv
ĠP ost
ĠP AR
ĠP RO
à¤¼ à¥ĩ
à¤¼ à¥Ģ
à¤²à¤¬ à¤Ĺ
à¤¬à¤ĺ à¤µà¤¤
ist ic
ist ory
à¤ĸà¤¤ à¤¯
Ġà¤ĸà¤°à¤ļ à¤Łà¤²
Ġà¥§à¥¦à¥¦ à¥¦à¥¦à¥¦à¥¦
ro ying
à¤¾: "
à¤¾: '
à¤¾: ,
à¤¾: -
à¤ªà¤¡à¤¤ à¤ļ
ap h
ap ter
id o
Ġà¤ħà¤« à¤°
Ġà¤ħà¤« à¤µ
Ġà¤ħà¤« à¤¸à¤°
est erday
han un
ĠT O
ĠT han
ĠT ash
ĠT HE
ĠT abeb
Ġan us
à¤ĭ à¤¯
Ġà¤®à¤¦ à¤¦
à¥¨à¥¦ à¥§à¥§
à¥¨à¥¦ à¥¨à¥¦
à¥¨à¥¦ à¥§à¥«
-------------------------------- ---------
-------------------------------- ----------------------------
à¤®à¤³ à¤ªà¤£
Ġà¤īà¤ľ à¤µà¤²
à¤ĩà¤¤à¤° à¤µ
Ġfor k
Ġ19 9
Ġ19 54
Ġ19 64
Ġ19 90
Ġ19 66
um e
um inates
ĠG ree
Ġà¤¹à¤® à¤¦à¤°
...... !
ur l
ur ing
Ġà¤ıà¤® à¤ª
******************************** ******
up er
up ta
Ġ20 00
Ġ20 18
Ġr an
Ġr ed
Ġr un
Ġr ight
Ġr ice
Ġr ound
Ġr ide
ĠD r
ĠD ay
ĠD SS
ĠD ION
à¤¸à¤¬ à¤®
ith eat
Ġà¥§à¥¨ à¥«
Ġà¤į à¤²
Ġà¤į à¤¨
Ġà¤į à¤¸
à¤¦à¤°à¤® à¤¸
à¤¦à¤°à¤® à¤ľà¤²
ind ia
ind ian
ind set
Ġst ar
Ġst art
Ġst op
Ġst ock
Ġst ated
Ġst ep
Ġst upid
Ġst aff
20 16
20 92
ach arya
ĠL G
ĠL I
ĠL on
ĠL and
ĠL ol
ĠL ight
ĠL ib
ĠL ocal
ĠL AV
Ġà¤¸à¤¨ à¤¬à¤°
ah it
ĠR e
ĠR Ã¢
ĠR ep
ĠR AW
ĠR AMA
ĠR elig
Ġà¤¹à¤Ł à¤µà¤¤
à¤¬à¤¦à¤² à¤¤
à¤¬à¤¦à¤² à¤²
Ġà¤īà¤ªà¤¨ à¤¦
Ġà¥¯ à¥¨
Ġà¥¯ à¥©
Ġà¥¯ à¥¬
à¥§à¥¯ à¥ªà¥¨
à¥§à¥¯ à¥®à¥«
à¥§à¥¯ à¥¯à¥©
ver t
ver al
ĠH e
ĠH ow
ĠH ind
ĠH arv
ĠH appy
ĠH irany
ĠH istory
Ġà¤ĵà¤ĺ à¤³à¤²
à¥Ģ; âĢľ
Ġà¤¸à¤¬ à¤¬
Ġx xx
Ġà¥¨à¥¦à¥¦ à¥¨
Ġà¥¨à¥¦à¥¦ à¥¯
Ġà¥¨à¥« à¥¦à¥¦
00 0
Ġj an
Ġj ast
Ġj pr
Ġj ournal
Ġj aysh
Ġà¤ľà¤¯ à¤ľà¤¯à¤ķ
art s
art up
art icle
Ġ3 1
Ġ3 5
Ġ3 30
à¤¤à¤¬ à¤¤à¤ķ
à¤Ĥ- "
à¤¬à¤Ł à¤¶
Ġà¤Ĺà¤² à¤¬à¤²
Ġà¥§à¥§ à¥¨
Ġà¥§à¥§ à¥®à¥¦
Ġwith out
ĠK B
ĠK ing
ĠK ir
ĠW e
ĠW orld
ĠW elling
ĠW hats
ĠW uhan
Ġà¤ªà¤¸à¤° à¤µà¤£
if ied
Ġà¤ıà¤¨ à¤ľ
à¥Īà¤Ĥ '
Ġsh ar
Ġsh it
Ġsh ort
Ġsh all
our ces
our ney
Ġcom e
Ġcom es
Ġcom ments
Ġcom munication
Ġcom bination
ci al
ci ally
ci pl
ci ety
ĠE d
ĠE ither
ĠE very
ĠE arth
ĠN J
ĠN Y
ĠN e
ĠN o
ĠV s
ĠV ir
ĠV ive
ĠV irus
à¤¯à¤ľ à¤ķà¤°
à¤³à¤¸ à¤Ł
à¥§à¥« à¥ª
og a
og n
og s
Ġhav elock
ill a
ter national
Ã¢ d
Ã¢ yana
à¥§à¥¦ à¥§
Ġal read
Ġal legory
ssss ss
ssss sssss
Ġne ver
================================ ================
ta in
à¤¬à¤°à¤¤ à¤ļ
Ġà¤ľà¤¨à¤°à¤² à¤²
:) )
à¤¹à¤¯ à¤·
Ġà¤ķà¤£ à¤Ńà¤°
Ġà¤ķà¤£ à¤Ńà¤°à¤¹
à¤³à¤ķà¤° à¤¹
à¤³à¤ķà¤° à¤ªà¤£
Ġà¤ļà¤®à¤ķ à¤£
ard s
Ġch al
Ġch han
Ġch arts
à¤¾âĢĿ !
Ġà¤Ńà¤Ł à¤ķà¤²
à¤ĩà¤¸ à¤®à¤²
à¥§à¥¨ à¥©
ess ages
19 30
19 29
ost er
sh i
sh ya
à¥ĩâĢ¦ âĢĻâĢĻ
Ġà¤Ĩà¤ĸ à¤¡à¤¤
Ġà¤¨à¤¯à¤¨ à¤°à¤®
Ġà¤ĸà¤Ł à¤ķà¤¤
Ġà¤ĩà¤¸à¤® à¤ķà¤¡
Ġcon cl
Ġcon dition
Ġcon nect
________________ "
ie f
ra j
ra cott
Ġà¤¦à¤°à¤® à¤¹
Ġà¤¦à¤°à¤® à¤ľà¤²
Th at
pt y
Ġà¤°à¤Ŀ à¤µ
à¤ıà¤¸ à¤Ł
Ġas el
................................ ....
à¤ıà¤® à¤ıà¤¸
Ġman y
Ġman ufact
âĢ¦âĢ¦ âĢ¦.
Ġnot e
la ined
ĠU n
ĠU ren
à¥ĩâĢĿ ,
à¥ĩâĢĿ .
Ġse em
Ġse con
Ġse veral
Ġpr ay
Ġpr one
Ġpr oduct
Ġpr atis
Ġpr omise
à¤¯à¤Ń à¤Ł
Ġà¤ıà¤¡ à¤ľà¤¸
Ġwe ather
ash ak
ash ree
ud ed
ud ent
ud hil
ĠJ une
Ġà¤®à¤³ à¤µà¤Ł
Ġà¤®à¤³ à¤ķà¤Ł
Ġà¤®à¤³ à¤®à¤³
Ġà¤«à¤¸ à¤µà¤¤
Ġà¥§à¥ª à¥¦à¥¦
à¥¨à¥¦à¥¦ à¥«
à¥¨à¥¦à¥¦ à¥©
à¥¨à¥¦à¥¦ à¥¯
à¥¨à¥¦à¥¦ à¥¬
ure kh
Ġor chid
Ġor iginal
Ġà¤¨à¤Ĺ à¤°à¤¸
Ġà¤¨à¤Ĺ à¤°à¤ķà¤°
Ġà¤īà¤¡à¤¤ à¤ļ
Ġhe aven
ahe b
har ach
qu ent
ĠX à¤°
Ġat m
à¥ĭâĢĻ .
à¤¬à¤¬ à¤¨à¤°
Ġà¥§à¥Ń à¥¨à¥®
ort ant
Ġpro per
Ġpro ve
Ġpro ved
Ġde vel
Ġde press
..!! !!!
Ġà¥§à¥® à¥¦à¥¦
ord ing
oug ht
???? ??
Ġ194 6
lo ad
pe ople
pe cially
pr atik
ust om
à¤Ķ à¤ķ
à¤¨à¤« à¤¡
à¤®à¤ł à¤®à¤§
Ġà¤°à¤ĸ à¤¡à¤²
Ġà¤īà¤°à¤ķ à¤£
Ġà¥§à¥© à¥¦à¥¦
ate gory
Ġam ph
Ġaahe t
Ġme et
âĺºï¸ı âĺºï¸ı
ĠO n
ĠO ut
Ġà¤Ĩà¤¸à¤¨ à¤¸
à¤Īà¤« à¤¸
à¤«à¤³ à¤Ń
Ġà¤¡à¤¬à¤² à¤¡
Ġab le
Ġab ove
Ġab sol
Ġli ber
Ġgr ound
Ġgr aduation
Ġgr aph
Ġà¥§à¥¯à¥¯ à¥¨
Ġà¥§à¥¯à¥¯ à¥¬
Ġà¥§à¥¯à¥Ń à¥¬
aj a
ex c
pp er
à¤ĵà¤³à¤ĸ à¤¤
à¤ĵà¤³à¤ĸ à¤²
all ow
à¥§à¥§à¥§à¥§ à¥§à¥§
kar ni
Ġ9 0
Ġ9 9
à¤°à¤ĺ à¤³
Ġà¤īà¤®à¤° à¤Ĺ
Ġà¤Ŀà¤Ł à¤ķà¤¤
Ġà¤Ŀà¤³ à¤ķà¤¤
Ġahe t
end ra
Ġ100 0
SS à¤°
pl ug
à¥įâĢĮ .
à¤µà¤® à¤¦à¤¤
Ġà¤¦à¤£ à¤ķà¤Ł
Ġà¤°à¤£ à¤¶
Ġà¤īà¤°à¤¤ à¤ļ
Ġtr ue
Ġ12 14
Ġinter view
Ġgreat er
Ġà¥§à¥¯à¥® à¥¨
Ġà¥§à¥¯à¥® à¥«
Ġà¥§à¥¯à¥® à¥¯
Ġà¥§à¥¯à¥® à¥®
Ġà¥¨à¥¦à¥§à¥¬ à¥§à¥¬
29 2092
bl ue
bl ued
os ed
os op
à¤į à¤ķ
à¤į à¤¸
Ġà¤Ĩà¤Ĭà¤Ł à¤¡
Ġà¤łà¤³à¤ķ à¤ªà¤£
Ġà¥² à¤²
Ġà¥² à¤¨
Ġà¥² à¤¡
ens ions
Ġpl an
Ġpl ug
____________ _
Ġev ent
Ġev idence
**************************************************************** ****************************************************************
Ġcomp ens
Ġcomp iled
Ġcomp osed
11 11
iz ed
Ġ7 5
Ġun ivers
Ġun iverse
Ġun certainty
à¤µà¤Ī à¤¬
Ġà¤Ĩà¤ķà¤²à¤¨ à¤¶à¤ķ
Ġà¤¬à¤°à¤ļ à¤¸
Ġà¤ĺà¤¸ à¤ĺà¤¶
Ġà¥¦ à¥§
Ġà¥¦ à¥¯à¥®
___ "
fer ent
oc olate
over y
pect ive
Ġel ev
Ġâĺºï¸ı âĺºï¸ıâĺºï¸ı
Ġà¤· à¤Ļ
à¥ĢâĢ¦ âĢĻ
à¥ĢâĢ¦ âĢĻâĢĻ
à¤¹à¤¸à¤¤ à¤ĸ
à¤£à¤Ń à¤ľ
Ġà¤ľà¤³ à¤«à¤³
Ġsa f
iss ue
????? "
????? ......
à¥¤à¥¤ à¥¤
Ġle khan
ĠSw elling
ĠSw allow
ĠIn c
ĠIn ternational
An y
man than
ob son
we alth
Ġqu ite
Ġqu ench
à¤®à¤·à¤Łà¤ķ à¤®
..'' ''
à¤Ńà¤Ĺà¤µ à¤¦
à¤ħà¤« à¤Ĺ
Ġà¤łà¤¸ à¤µà¤£
Ġà¤¸à¤®à¤Ŀ à¤¤
à¤ıà¤« à¤µ
ank adun
Ġapp ear
Ġwr ong
Ġwr iting
Ġwr iter
à¥©à¥© à¥©
******************** ***
-------------------- -
-------------------- ---
Ġany one
Ġhistor ic
Ġhistor icity
Ġar ound
Ġar ose
à¤¯à¤¬à¤° à¤¬
à¤¸à¤µà¤² à¤¤
Ġà¤¤à¤¸à¤¤ à¤¶
à¤Ĩà¤ļ à¤°à¤£
à¤īà¤ªà¤¨ à¤Ĺà¤°
Ġad vert
Ġact ing
Ġte ach
ick ed
Ġgo ing
Ġits elf
Ġread ing
Ġ193 5
Ġ193 9
Ġres pect
Ġres ult
Ġres earch
âĹıâĹıâĹıâĹıâĹıâĹıâĹıâĹıâĹıâĹıâĹıâĹıâĹıâĹıâĹıâĹı âĹıâĹıâĹıâĹı
âĹıâĹıâĹıâĹıâĹıâĹıâĹıâĹıâĹıâĹıâĹıâĹıâĹıâĹıâĹıâĹı âĹıâĹıâĹıâĹıâĹıâĹıâĹıâĹıâĹıâĹıâĹıâĹıâĹıâĹıâĹıâĹı
31 7416
ni que
ug hter
uj a
Ġimp rovement
Ġimp oster
Ġimp ortant
à¤¹à¤¹ à¤Ĺà¤²
Ġà¤°à¤¬à¤° à¤¬
Ġà¤ĺà¤¨ à¤ĺ
Ġspe ed
Ġspe ak
Ġwar ning
Ġtw ist
Ġtw ice
Ġchan ge
Ġph one
Ġpers pective
Ġà¥©à¥¬ à¥«
Ġem p
Ġem ergency
Ġem pty
Ġvach un
Ġvach ayla
ĠPr esident
ulner ability
ĠTr ump
================================================================ ================================================================
============== -'
Khup ach
On e
On ce
St artup
St udent
eb r
Ġent ry
à¤¨à¤¯à¤¨ à¤°à¤®
Ġà¤²à¤ĸà¤² à¤ĸà¤¤
Ġà¤Ĺà¤ľà¤¬ à¤ľ
Ġà¤Ńà¤°à¤ķ à¤Łà¤µ
à¤Ĩà¤Ĭà¤Ł à¤¡
Ġthink ing
Ġsy stem
Ġag ree
Ġhuman ity
Ġhuman oids
Ġnat ural
Ġnahi ye
==================== ===-'
Ġà¤īà¤®à¤Ł à¤µà¤¤
Ġà¤¬à¤³à¤ķà¤Ł à¤ªà¤£
Ġform s
Ġà¤¤à¤¡à¤« à¤¡à¤¤
Ġà¤¤à¤¡à¤« à¤¡à¤£
_________________ "
................................................................ ................................................................
Ġatt ach
,, ,
48 5
LE AS
PS C
Sh rad
mm mm
Ã© rv
à¤°à¤³à¤ķ à¤ªà¤£
Ġà¤ķà¤µà¤¡ à¤¸
Ġà¤®à¤¸à¤² à¤¤
à¤Ĺà¤Ĺ à¤¨à¤Ĺ
Ġà¤µà¤°à¤£ à¤Ń
Ġà¤¦à¤¡à¤ª à¤¶
Ġà¤ĺà¤¸à¤° à¤¡
Ġà¤ĸà¤³à¤ĸ à¤³à¤£
atch ed
Ġbr ing
Ġbr idge
Ġbr igade
Ġla wn
Ġliv es
ĠPar ishad
---------------------------------------------------- -
---------------------------------------------------- --
à¥§à¥¯à¥¬ à¥«
ĠVed a
ĠĠĠĠĠĠĠĠ ĠĠĠĠĠĠĠĠ
ðŁĳ Į
Ġperson al
Ġperson ality
Meat Rich
dp atil
fic ult
had arany
had ashak
ron s
ron icity
rit us
Ġ---- ---
Ġro ck
à¥² à¤ķ
à¥² à¤®
Ġà¤ļà¤ªà¤² à¤ĸ
Ġà¤«à¤¡à¤« à¤¡
Ġà¤«à¤¡à¤« à¤¡à¤µà¤²
Ġà¤Łà¤® à¤Łà¤®
Ġà¥ł à¤·
___/\ ____
Ġthr ill
Ġthr ough
Ġsp ace
Ġass oci
Ġmon th
Ġpar cel
Ġpre ach
Ġpre etiiii
ict able
Ġfam ous
Ġfam ily
Ġfact s
Ġdest ination
Ġdest roying
Ġdif ferent
Ġdif ficult
Ġins atiable
ĠAs iatic
Ġrec ycl
Ġrem ember
-------------------------------------------- -
umb ers
umb ai
Ġshak at
Ġshak el
Ġcommon s
Ġexc iting
__________________ "
aliz ation
Ġà¤°à¤ĸà¤°à¤ĸ à¤¤
Ġà¤ķà¤°à¤®à¤°à¤ķà¤° à¤¬
Ġmention ed
Ġauthor ship
56 2
97 8
Com p
WA KE
fi eld
kd am
kul karni
mast ach
{{ {
}} }
Ġim ag
Ġir r
Ġart icle
Ġà¤İ à¤ķà¤¤
à¤¶à¤®à¤¨ à¤¦à¤²
Ġà¤¦à¤®à¤Ł à¤ªà¤£
à¤§à¤ľ à¤°à¤¤
Ġà¤°à¤ľà¤¤ à¤¶
Ġà¤ļà¤£ à¤ļà¤£
Ġà¤«à¤¡à¤£ à¤µ
à¤īà¤ļà¤² à¤£
than ks
Ġsal ute
Ġsol ids
Ġsign ature
Ġbl ood
Ġbha ag
Ġche ck
Ġpos itive
Ġnam es
ĠMr s
ĠSoci al
ĠSoci ety
ivers ity
ĠAut o
ĠAut omatic
Ġvis ions
ĠRam ayan
à¥§à¥¯à¥Ń à¥§
Ġjam lay
ĠWar fare
Ġconf use
Ġconta cts
Ġatom s
Ġdisc uss
Ġdisc overy
Ġ70 57
Ġacc ount
Ġtyp ing
ĠBrah ma
ĠBrah man
ðŁĳį ðŁĳį
Ġcalcul ator
Ġindividual istic
935 317416
AC H
Civ et
Di agonally
Dhan y
Tr ump
Wh en
mo hor
miss ion
tw ist
Ġes pecially
ĠÃĤ ll
à¥ł à¤·
à¤²à¤ĸà¤² à¤ĸà¤¤
Ġà¤Ĩà¤ī à¤Łà¤²
Ġà¤ªà¤ĸ à¤°à¤£
à¤Ĺà¤¤à¤ķ à¤ķ
à¤Ĺà¤®à¤° à¤µà¤°
à¤¡ssss sss
à¤§à¤¡à¤ķ à¤ªà¤£
à¤§à¤¡à¤ª à¤¡à¤¤
Ġà¤¯à¤µà¤¤ à¤®
Ġà¤¶à¤¤à¤ª à¤¥
Ġà¤ļà¥Ŀ à¤£
à¤Ĩà¤¶à¤¯ à¤Ĺ
Ġà¤łà¤£ à¤łà¤£
Ġà¤ĵà¤¬à¤¡ à¤§
à¥§à¥¦à¥¦à¥¦à¥¦ à¥¦à¥¦
Ġawar eness
____/\ _____
itan ya
Ġbre ath
Ġtom ato
Ġcap tain
Ġcurr ent
Ġmet ro
Ġmiss ing
Ġopt ion
Ġà¤ħà¤¡à¤ĸ à¤³à¤¤
Ġdel ete
Ġdial ogue
ĠSand racott
ĠCer ny
ĠBM W
Ġbeg ins
Ġbecom es
Ġreg ards
Ġrel ate
Ġrepr esent
Ġrealiz e
ĠPur Ã¢na
ĠPlat o
Ġjh ali
angu age
Ġ1226 4
Ġelect rons
Ġsacri fic
Ġtech nique
Ġentire ly
Ġattribut es
Ġlocker à¤®à¤§
Ġskill s
Ġbelie ve
swam ini
ĠShankar acharya
ĠDemoc ritus
130 562
Bri hadarany
Bhar i
FI LE
Fru it
Lik es
Op en
Pad ma
detail s
fort able
feh Ã©rv
kes fehÃ©rv
maj ja
nch ronicity
ranc is
tiss ues
vam edha
word press
Ġur ge
Ġill uminates
Ġund ef
Ġenc our
ĻıðŁ ı»
à¤¯à¤¶à¤ķ à¤Ł
à¤¸à¤Ĩ à¤¦à¤¤
Ġà¤ķà¤ļà¤ķ à¤ļ
Ġà¤¤à¤£à¤¤ à¤£à¤¤
Ġà¤¸à¤Łà¤° à¤«à¤Łà¤°
Ġà¤¸à¤£à¤¸ à¤£
Ġà¤µà¤¤à¤¨ à¤¦
à¤¡à¤ĳ à¤ĩà¤²à¤ļ
Ġà¤¦à¤³à¤Ń à¤¦
Ġà¤Ĺà¤²à¤¬ à¤²à¤¤
à¤¥à¤°à¤¥ à¤°à¤¤
Ġà¤īà¤®à¤² à¤¤
Ġà¤ĸà¤°à¤µ à¤¡à¤¤
à¤ħà¤Ĺà¤° à¤¬à¤¤
à¤ħà¤µà¤ľ à¤¡
à¤«à¤Łà¤ª à¤¸
Ġà¤§à¤Ĺà¤§ à¤Ĺà¤¤
atul dpatil
Ġsel ect
Ġsil ent
Ġsarv ankadun
orre ct
oriz on
Ġwish es
Ġbus y
Ġtra ck
Ġcel ebr
Ġcrit ic
Ġmak ing
Ġmach ine
Ġmob ile
Ġmorn ing
Ġpus at
Ġphil osop
Ġpict ure
asim ove
asthen es
Ġobl ivious
Ġopin ion
relat ive
Ġhus band
Ġhear t
Ġhttp s
Ġfur ther
Ġfeat ures
Ġdim ensions
Ġdenom inator
Ġlitt le
Ġinst ru
Ġinher ent
Ġinbreed ing
Ġnak ki
Ġnost algic
amrut manthan
Ġgir l
__________/\ ____________
ĠMog ul
ĠMeg asthenes
ĠMurp hy
ĠMukt ananda
ĠShar k
ĠSex ual
ĠSOR RY
ĠSzÃ© kesfehÃ©rv
Ġequ ations
ĠCLA SS
ĠBHA G
ĠBeng al
ĠAsh vamedha
ĠAry anakas
ĠAnal ytics
Ġreceiv ed
ĠPRO FILE
ĠTash kent
ĠTabeb uia
ĠGree ks
ĠDSS C
ĠDION YS
itheat er
Ġstep s
ĠLib ido
ĠLAV K
ĠRep ublic
ĠHarv ard
Ġjpr adnya
Ġjaysh ree
ĠWelling ton
cipl ine
ĠVive kananda
Ġalread y
Ġmanufact uring
ĠUren us
Ġsecon d
Ġdevel op
Ġamph itheater
Ġ1214 8
blued ot
Ġplug in
Ġunivers al
Ġà¤·à¤Ļ à¤°
ĠSwelling Increase
================================================================================================================================ ============================
LEAS E
Ġrecycl ed
Ġ7057 292092
ĠSandracott us
Brihadarany aka
ĠSzÃ©kesfehÃ©rv Ã¡r
