#version: 0.2
à ¤
à ¥
Ġ à¤
à¤ ¾
à¥ į
à¤ °
à¥ ĩ
à¥ Ģ
à¤ ¤
à¤ ¯
à¤ ²
à¤ ¿
à¤ ¨
à¤ Ĥ
à¤ ķ
à¤ µ
à¤ ļ
à¤ ¸
à¤ ¹
à¤ £
à¥ ĭ
Ġà¤ ķ
à¤ ®
Ġà¤ Ĩ
à¥ ģ
Ġà¤ ¸
Ġà¤ ª
Ġà¤ ®
à¤ ª
à¤¾ à¤Ĥ
Ġà¤ ¤
à¤ ¦
à¥ Ĥ
Ġà¤ ħ
à¤ Ĺ
Ġà¤ µ
à¤ Ł
à¤ ľ
à¤ ¡
Ġà¤ ¹
Ġà¤ ¯
à¤ §
Ġà¤ ¨
à¤ ¶
à¤ ³
Ġà¤ ¦
à¥ĩ .
à¤ ·
Ġà¤Ĩ à¤¹
Ġà¤ ľ
à¤ ¬
Ġà¤ °
Ġà¤ ¬
Ġà¤ķ à¤°
Ġà¤ ¶
Ġà¤ħ à¤¸
à¤ ł
Ġà¤ Ĺ
Ġà¤ ²
à¤ ¥
à¤ ĸ
à¤µ à¤°
Ġà¤Ĩ à¤£
à¤ Ń
Ġà¤ ļ
Ġà¤ Ń
Ġà¤ ī
Ġ à¥
Ġà¤ ĺ
Ġà¤ ı
à¥Ģ .
à¤¾ .
Ġà¤ Ŀ
à¥ĩ à¤Ĥ
à¤° à¤ķ
Ġà¤ ĸ
Ġà¤ı à¤ķ
à¤¤ à¤°
à¤ Ī
Ġà¤ķà¤° à¤£
Ġà¤ «
à¤¿ à¤Ĥ
à¤° à¤¤
à¤® à¤§
à¤ ¢
à¤ķ à¤°
Ġà¤Ĩ à¤²
à¥ ī
à¥ĩ ,
à¥ ĥ
Ġà¤® à¤¹
à¤¹ à¤£
Ġà¤ª à¤°
Ġà¤ Ł
à¤° à¤£
à¤¯ à¤ķ
Ġà¤¤ à¤°
à¥ Ī
Ġà¤ ĩ
à¤ ĺ
à¤° à¤®
à¥Ģ ,
Ġà¤Ĩ à¤ª
à¥Ģ à¤Ĥ
Ġà¤ ł
à¤ Ĭ
à¥ ħ
à¤µ à¤¸
à¤ «
Ġà¤¸ à¤°
Ġ (
Ġà¤ ¡
à¤ķ à¤¡
Ġà¤ħà¤¸ à¤²
à¤° à¤µ
Ġà¤¸ à¤®
à¤ª à¤°
à¤¤ à¤²
Ġà¤ §
à¥ ¦
Ġà¤ħ à¤¨
Ġà¤µ à¤°
à¤¾ ,
à¤ ¼
à¥ģ à¤Ĥ
Ġà¤ħà¤¸ à¤¤
Ġ '
à¤µ à¤²
Ġà¤ķà¤° à¤¤
à¤¼ à¥į
Ġà¤Ĩà¤ª à¤²
Ġà¤ħ à¤¶
Ġà¤ī à¤ª
à¤° à¤¸
Ġà¤¶ à¤ķ
à¤µ à¤¤
Ġà¥ §
Ġà¤ħ à¤§
à¤¸ à¤°
à¤µ à¤£
à¤Ĺ à¤²
à¤ Ŀ
à¥ Į
> <
< /
à¤° à¤ļ
à¤¯ à¤®
à¤¦ à¤°
à¤ ħ
Ġà¤Ĩ à¤¤
à¤· à¤£
à¤Ĺ à¤¤
à¤ľ à¤¨
à¤µ à¤¡
à¤ ı
à¤¬ à¤°
à¤® à¤ļ
Ġà¥ ¨
à¤¯ à¤¤
à¤ ĥ
à¤Ĺ à¤°
à¥ĭ .
Ġà¤Ĩ à¤°
à¤¡ à¤²
à¤° à¤²
Ġà¤¨ à¤µ
Ġà¥§ à¥
à¤Ĭ à¤¨
Ġ -
à¤ Ĩ
à¤¶ à¤¨
à¤ª à¤¨
Ġ 1
à¤¬ à¤¤
à¤ ģ
Ġà¤ī à¤¤
à¤¹ à¤¤
Ġà¤ª à¤£
à¤Ł à¤²
Ġà¤Ĩ à¤ľ
à¤° à¤ª
Ġ </
à¤² à¤¯
Ġ 2
Ġà¤¶à¤ķ à¤¤
à¤µ à¤³
Ġà¤® à¤§
à¤Ł à¤°
à¤° à¤¶
à¤Ĺ à¤£
à¤Ł à¤¨
à¤Ī à¤²
à¤¸ à¤²
Ġ :
à¤¹ à¤°
Ġà¤¤ à¤¸
à¤ ĩ
à¤ķ à¤²
Ġà¤¸ à¤¹
Ġà¤Ĩ à¤®
à¥ §
Ġà¤¸ à¤°à¤ķ
à¤¸ à¤¨
à¤¤ à¤ķ
à¥ĭ à¤Ĥ
Ġà¤ħ à¤°
à¤ª à¤£
à¤² à¤ķ
Ġà¤ ¥
à¤¯ à¤ļ
Ġà¤Ĩ à¤¯
à¤¦ à¤²
à¤Ł à¤ķ
Ġà¤ķ à¤®
Ġà¤ ĳ
à¤¯ à¤²
à¤Ĺ à¤³
à¤® à¤¤
Ġ "
à¤Ĥ .
Ġà¤ī à¤¦
à¤¸ à¤¤
à¥ ¨
Ġà¤Ĩ à¤µ
Ġà¤® à¤¨
à¤® à¤¨
Ġà¤ħ à¤Ń
Ġà¤ĸ à¤°
à¤° à¤¦
à¤¨ à¤ļ
Ġà¤ĺ à¤°
à¤µ à¤¨
Ġà¤ ĵ
à¤ª à¤¯
Ġà¤ª à¤¦
à¤ª à¤¤
à¤¬ à¤Ī
a r
Ġà¤Ĩà¤ª à¤£
i n
a n
a t
à¤¹à¤£ à¤ľ
à¤ ŀ
à¤° à¤ĸ
à¤¸ à¤¹
à¤£ à¤¤
à¤° à¤ľ
Ġà¤¹ à¤ľ
à¤² à¤¨
à¤³ à¤¤
Ġà¤ª à¤¹
Ġà¤¦ à¤°
à¤¦ à¤¨
Ġà¤ħ à¤ª
à¤· à¤ķ
Ġà¤² à¤ķ
Ġà¤ª à¤¤
à¤ĸ à¤²
à¥ «
Ġà¤® à¤°
à¤¡ à¤£
Ġà¤® à¤²
à¤ľ à¤ª
Ġà¤ª à¤ķ
Ġà¥ ©
à¤¨ à¤²
à¤¤ à¤®
à¤¬ à¤¦
Ġà¤ħ à¤¤
o n
Ġà¤® à¤¤
à¤ Ľ
Ġà¤Ĩ à¤§
à¤¸ à¤ļ
à¤¯ à¤¦
Ġà¥¨ à¥¦
Ġà¤ľ à¤¨
Ġà¤ķ à¤²
Ġà¤¸ à¤¤
e r
à¤¯ à¤¨
à¤ħ à¤°
Ġà¤¤ à¤¯
Ġà¤ħ à¤®
Ġ2 0
à¤ľ à¤ķ
Ġà¤¶ à¤¹à¤°
Ġà¤ Ľ
à¤¹ à¤¨
à¤ľ à¤°
Ġà¤Ĩ à¤¦
à¤¤ à¤ļ
à¤µà¤¡ à¤£
à¤® à¤ķ
Ġ .
à¤² à¤¤
à¤¾ à¤ģ
à¤ľ à¤¯
à¤§ à¤¨
à¤³ à¤£
à¤¯ à¤µà¤¸
à¤¦ à¤¤
à¤ļ à¤¨
e s
à¤ ±
à¥ ª
à¤· à¤¯
Ġà¥ ¤
à¥ ¯
à¤° à¤¨
Ġà¤¬ à¤°
à¤µ à¤¯
à¤ ĵ
à¤¨ à¤µ
à¥ ©
à¤ķ à¤¤
Ġà¤ľ à¤°
à¤°à¤ķ à¤°à¤£
Ġ M
à¤ķà¤° à¤£
à¤¨ à¤¸
à¤ķ à¤¸
à¤£ à¤¯
à¤¤ à¤µ
à¤¡ à¤¤
à¥Ĥ à¤Ĥ
Ġà¤ļ à¤°
Ġà¤° à¤¸
à¤¤ à¤ķà¤°
à¥ ®
à¤° à¤Ń
Ġà¤¨ à¤ķ
Ġà¤®à¤¹ à¤¤
Ġà¤ĩ à¤¤à¤°
Ġà¥ «
à¤° à¤¯à¤¤
Ġà¤ķ à¤¸
Ġ S
Ġà¤ĺ à¤Łà¤¨
à¥ Ń
à¥ ¬
à¤° à¤¹
à¤ļ à¤²
à¤§ à¤µ
à¤¡ à¤ķ
. .
à¤µ à¤ļ
Ġà¥ ª
a l
Ġà¤¸ à¤ķ
à¤°à¤ª à¤Ł
à¤ ī
à¤² à¤¬
Ġà¤¹ à¤µ
Ġà¤¬ à¤¦à¤²
Ġà¤Ł à¤ķ
à¤¯ à¤µ
à¤¢ à¤²
à¤ª à¤²
à¤Ń à¤°
Ġà¤ħ à¤ľ
à¤² à¤ļ
o r
Ġà¤ľ à¤®
Ġà¤īà¤ª à¤¸
à¤Ĺ à¤¦
Ġà¤µ à¤¸
Ġà¤¤ à¤ª
à¤³ à¤²
Ġ 3
à¤¸ à¤®
Ġà¤¸ à¤§
e n
à¤¡ à¤³
Ġà¤® à¤¦à¤¤
Ġà¤Ĩà¤µ à¤¶
à¤µ à¤ķ
Ġà¤Ĩ à¤ł
Ġ t
à¤ª à¤¦
à¤Ł à¤¤
Ġà¤ª à¤¡à¤²
Ġà¤ª à¤µ
à¥ĭ ,
à¤¹ à¤®
Ġà¤¦ à¤°à¤®
à¤§ à¤¤
à¤¡ à¤ļ
à¤¬ à¤²
à¤¹ à¤Łà¤²
à¤¦ à¤µ
Ġ !
à¤¢ à¤¤
Ġà¤Ĩ à¤®à¤ļ
à¥ī .
Ġà¤¬ à¤¹
à¤¸ à¤ķ
à¤² à¤Ĺ
Ġà¤Ĩ à¤¶
Ġà¤¨ à¤¸à¤²
e w
Ġà¤¬ à¤¸
Ġ P
à¤µ à¤¶
Ġà¤ħà¤¸ à¤£
à¤Ł à¤ļ
à¤¤ à¤¨
i t
à¤§ à¤ķ
Ġà¤¸ à¤¦
à¤³ à¤µ
Ġà¤¸à¤® à¤ľ
Ġà¤° à¤ķ
Ġà¤ī à¤Ń
Ġà¤ Ĳ
Ġà¤ħ à¤²
à¤Ĺ à¤µ
ew s
à¤® à¤Ĺ
à¤¾ -
Ġà¤ Ķ
Ġà¤Ĩ à¤ķ
Ġà¤ī à¤®
Ġà¤ľ à¤Ĺ
à¤¶ à¤²
Ġ N
Ġà¤² à¤Ĺ
à¥¦ à¥¦
à¤ª à¤ķ
à¤ķ à¤£
Ġà¤¶ à¤°
à¤° à¤§
à¤¤ à¤ª
à¤Ĺ à¤¡
Ġà¤ķ à¤§
i c
Ġà¤§ à¤°
à¤² à¤µ
Ġ A
Ġ 5
Ġà¤Ĺ à¤°à¤ľ
Ġ ?
à¤¨ à¤¹
à¤¹à¤£ à¤¤
Ġà¤ħ à¤µ
à¤Ń à¤µ
h i
Ġà¤¸ à¤Ń
Ġà¤Ĩà¤® à¤¦
à¤¯ à¤¸
0 0
Ġà¤Ĺ à¤°
Ġà¥ ¬
à¤· à¤¦
Ġà¤¸ à¤Ĺà¤³
a s
Ġà¤®à¤¤ à¤¦
à¤¨ à¤°
Ġà¤Ĩ à¤¢
à¤ª à¤·
Ġà¤ľ à¤µà¤³
Ġà¤¯ à¤¶
Ġà¤ª à¤°à¤¤
à¤² à¤²
Ġà¤« à¤ķ
à¤¡ à¤µ
à¤¯ à¤°
Ġà¤Ĩ à¤¨
à¤Ī à¤¨
à¤ļ à¤°
à¤¨ à¤ķ
Ġ 4
h e
Ġ )
Ġà¤ĩ à¤¤à¤ķ
à¤® à¤¸
à¤µ à¤¢
Ġà¥ Ń
Ġà¤ħ à¤ķ
Ġà¤īà¤ª à¤²à¤¬
i s
à¥Ģ -
à¤¸ à¤¦
Ġà¤® à¤Ĺ
à¤¾ ?
à¤¥ à¤®
Ġà¤¦ à¤¹
Ġà¤ľ à¤£
à¤µ à¤ķà¤°
à¤ĸ à¤°
à¤ı à¤¸
à¤¤ à¤³
Ġ T
à¤ª à¤Ł
à¤¾ '
à¤ķ à¤¶
Ġ I
Ġà¥§à¥ ¯
à¤¸ à¤£
Ġà¤¬ à¤¨
Ġà¤Ĩ à¤Ĺ
Ġà¤ĵ à¤³
à¤¤ à¤¹
à¤¶ à¤ķ
à¤¯ à¤ª
Ġ C
à¤¢ à¤£
à¤ľ à¤²
à¤¶ à¤¯
l e
à¤ł à¤ķ
Ġà¤¨ à¤¯
à¤® à¤°
Ġà¤ī à¤²
Ġà¤Ĺ à¤£
Ġà¥ ®
à¤ķ à¤Ł
Ġà¤¶ à¤¬
à¤¿ .
à¤ł à¤²
Ġà¤ķ à¤ª
Ġà¤Ń à¤°
à¤§ à¤°
à¤² à¤£
Ġ ,
à¤ĺ à¤Łà¤¨
Ġà¤° à¤µ
an d
a d
Ġà¤ Ī
Ġà¤ĳ à¤«
à¥Ģ '
à¤µà¤° à¤£
Ġà¤Ĺ à¤Ł
Ġà¤¸ à¤²
Ġà¤ī à¤ļ
à¤£ à¤¸
e d
Ġà¤ĩ à¤¤
Ġ G
à¤® à¤µ
à¤¬ à¤¸
) ,
à¤¤ à¤¤
Ġà¤ıà¤ķ à¤¦
Ġà¤¤ à¤ķ
à¤Ĥ ,
a m
à¤°à¤ķ à¤²
à¤¨ à¤Ĺà¤°
à¤µ à¤ª
à¤µ à¤Ł
à¥ĩ. \
Ġà¤ħ à¤¦
à¤® à¤²
o m
Ġà¤ı à¤¸
à¤® à¤£
Ġà¤ı à¤ĸ
Ġ s
Ġà¤īà¤ª à¤ļ
Ġà¥ ¯
à¥ĩà¤Ĥ .
u r
Ġà¤² à¤¹
Ġà¤¸à¤¦ à¤¸
Ġà¥¨à¥¦ à¥§
à¤ķ à¤¨
à¤¬ à¤³
o l
à¤Ĩ à¤¯
à¤ķ à¤®
à¤¸ à¤µ
à¤Ł à¤£
Ġà¤ī à¤ĺ
ĠN ews
à¤µ à¤ľ
Ġà¤ĺ à¤¡à¤²
Ġà¤ĩ à¤¨
Ġ c
à¤® à¤¦
Ġà¤¤ à¤¤
à¤ķ à¤¦
Ġà¥§ à¥¦
Ġ20 2
Ġ B
Ġà¤² à¤¸
à¤¹ à¤ķ
Ġà¤ħ à¤ĸ
Ġà¤¨ à¤Ĺà¤°
i on
Ġà¤¨ à¤¸à¤¤
Ġà¤¬ à¤ĺ
à¤¯ à¤ķà¤°
à¤ľ à¤¤
Ġà¤ħ à¤¹
à¤® à¤ª
à¤ł à¤µ
à¤ķ à¤ļ
à¤¨ à¤Ĺ
Ġ R
à¤¥ à¤ķ
à¥Ģ )
à¤¥ à¤³
à¤ĩ à¤¨
Ġà¤¹ à¤²
in g
Ġ f
Ġà¤Ĩà¤£ à¤ĸ
Ġ n
Ġà¤² à¤µà¤ķà¤°
à¤µ à¤§
Ġà¤¨ à¤¸
Ġà¤Ĩ à¤ĺ
Ġà¤ĩ à¤ļ
Ġà¤ķ à¤¶
Ġ D
Ġà¤¬ à¤¸à¤²
Ġ 6
à¤¨ à¤¨
Ġà¤Ĩà¤ľ à¤ļ
Ġà¤° à¤¹
à¤° à¤¯
Ġà¤¸à¤® à¤¸
Ġà¤ľ à¤¬
à¤µ à¤Ń
à¤ļ à¤£
Ġà¤¸ à¤¨
Ġà¤Ĩ à¤Ī
à¤Ĺ à¤ļ
Ġà¤¸à¤¹ à¤ķ
Ġà¤¨ à¤°
Ġà¤ľà¤¨ à¤¤
à¤Ĺ à¤ª
à¤¡ à¤°
r a
à¤ª à¤ļ
à¤ľ à¤µà¤³
Ġ20 1
à¤ĺ à¤°
Ġà¤ª à¤¡
Ġà¤ħ à¤Ĺà¤¦
Ġà¤ħ à¤Łà¤ķ
à¤® à¤¹
Ġ 9
Ġà¤ł à¤°à¤²
à¤µà¤° à¤ļ
Ġà¤ ¢
à¤² à¤°
Ġà¤ıà¤ķ à¤¤
à¤Ł à¤®à¤§
à¤Ĺ à¤¸
à¤ļ à¤µ
Ġà¤µ à¤¡
à¤ľ à¤µ
Ġà¥§à¥ «
Ġà¤Ĩ à¤µà¤¡
Ġà¤ªà¤° à¤µ
Ġà¤ı à¤®
à¤¬à¤¤ à¤ļ
Ġ 7
Ġà¤ħ à¤Ĺ
Ġà¤ª à¤¡à¤¤
Ġ in
à¤³ à¤ľ
à¤ķ à¤³
en t
Ġ and
Ġà¤® à¤ľ
Ġ L
Ġà¤¸à¤¹ à¤Ń
à¤¨ à¤®à¤§
à¥Ģà¤Ĥ .
Ġà¥§à¥ ¨
Ġà¤īà¤ª à¤¯
à¤ı à¤®
e t
Ġà¤ĩ à¤¥
Ġà¤ª à¤Ł
u n
Ġà¤ĩ à¤®
à¥ĩ ?
h a
Ġà¤¸ à¤ļ
à¤· à¤§
à¤Ĩ à¤°
Ġà¥ ¥
Ġà¤ħ à¤¡
Ġt he
à¤°à¤µ à¤ł
Ġ 8
Ġà¤µ à¤ķ
à¤ĸ à¤µ
ĠM ar
Ġà¤¸ à¤ª
à¤° à¤¥à¤®
Ġà¤ł à¤°à¤µ
à¤Ī à¤Ł
à¤¡ à¤¸
Ġà¤ı à¤µà¤¢
à¤§ à¤²
à¤¾ à¥ĩ
à¤· à¤¤
u s
. \
à¤ľ à¤Ĺ
Ġà¤µ à¤¯
à¤¥ à¤µ
Ġà¤¹ à¤¸
Ġà¤ĵà¤³ à¤ĸ
Ġ w
à¤Ī à¤ķ
r e
Ġà¤ī à¤¡
à¤Ĭ à¤¸
à¤ĩ à¤Ł
Ġ p
Ġà¤Ķ à¤·à¤§
à¤¤ à¤µà¤£
à¤¦ à¤ķ
Ġ1 0
à¤¨à¤¸ à¤Ń
Ġà¤¨ à¤¦
Ġà¤ª à¤¶
Ġà¤ĺ à¤¡
à¤¦ à¤°à¤®
à¤¬à¤Ī à¤¤
à¤ľà¤ª à¤ļ
à¤¹ à¤²
at hi
Ġ o
à¤¡à¤£ à¤µ
à¤°à¤ķ à¤°
à¤Ł à¤ª
i d
à¤¢ à¤µ
h ar
à¤¸ à¤ª
i l
à¤¸ à¤®à¤§
Ġà¤¹ à¤°
à¤¡ à¤¨
Ġà¤ļ à¤µ
à¥ĩ ;
Ġ b
r o
Ġà¤Ń à¤µ
à¤¤ à¤¸
Ġà¤ĳ à¤ķ
Ġà¤¹ à¤¤
à¤ķ à¤µ
à¤ķ à¤ª
à¤ķ à¤®à¤¤
v e
Ġà¥¨à¥¦ à¥¨
à¤ľ à¤¸
Ġà¤Ĩà¤ł à¤µà¤¡
Ġà¤µ à¤¨
Ġà¤« à¤¡à¤£à¤µ
Ġà¤ķ à¤µ
à¤¡ à¤ª
Ġà¤ı à¤ª
Ġà¤ĳ à¤¨à¤²
à¤³ à¤Ĺ
à¤¶ à¤µ
à¤¤ à¤¦
à¤¨ à¤¦
Ġ on
Ġ1 9
Ġà¤¨ à¤®
à¤ĸ à¤®
Ġ E
à¤¡ à¤ķà¤°
ĠMar athi
à¤ľ à¤£
Ġà¥§à¥ ®
à¤¡à¤ļ à¤£
Ġà¤ıà¤ķ à¤®
à¤° à¤®à¤§
à¤ľ à¤ļ
Ġ m
Ġà¤ħà¤ª à¤ĺ
Ġà¤ Ĭ
à¤¹ à¤³
à¤° à¤Ĺ
à¤² à¤¦
à¤³ à¤ķ
Ġà¤Ĩà¤£ à¤²
Ġà¤ķ à¤¡
Ġà¥§à¥ §
Ġà¤ħ à¤¡à¤ļà¤£
Ġà¤ı à¤¨
Ġà¤§ à¤¨
Ġà¤ł à¤°
à¤ı à¤²
à¤Ĺ à¤¨
Ġà¤¸ à¤µ
Ġà¤ķ à¤ł
à¤Ī à¤ļ
Ġà¤§ à¤ķ
es t
a y
1 8
à¤§ à¤£
à¤Ĺ à¤¦à¤°
Ġà¤ħà¤¹ à¤µ
à¥ ¤
à¤¡ à¤Ĺ
à¤ļ à¤¤
à¤¹ à¤¸
Ġà¤Ł à¤ª
Ġà¤ľ à¤¯
à¤° à¤¦à¤°
à¤² à¤¸
Ġ a
Ġà¤¦ à¤²
Ġà¤¨ à¤Ĺ
à¥Ĥ ,
Ġà¤¦ à¤ķ
à¤¸ à¤Ĺ
Ġà¤² à¤¢
à¤ļ à¤ķ
Ġà¤ī à¤°
à¤Ł à¤«
à¤Ł à¤µà¤°
Ġà¤¸à¤® à¤°
à¤¹ à¤°à¤£
Ġà¤ķ à¤¨
à¤¶ à¤®
à¥ĩà¤Ĥ ,
Ġà¤¤ à¤¥
à¤ľ à¤®
à¥ĩ -
Ġà¤ī à¤¤à¤°
à¤ĸ à¤£
à¥ĩ '
Ġn ews
à¤¨ à¤¤
à¤¯à¤µ à¤¹
Ġà¤¶ à¤¨
à¤¬ à¤µ
à¤¹à¤£ à¤£
Ġ d
à¤« à¤¤
à¤Ł à¤®
Ġà¤ľ à¤ĸà¤®
Ġà¤« à¤²
Ġà¤¶ à¤°à¤¦
Ġà¤ķ à¤¦
Ġà¤¶ à¤¹
n d
à¤Ł à¤¸
à¤¾ )
Ġà¤ļ à¤ķ
à¤° à¤¬
Ġà¤¬ à¤³
à¤· à¤®à¤¤
Ġà¤ħ à¤ļ
Ġà¤Ĩà¤£ à¤£
h t
à¤¦ à¤¯
Ġà¤ª à¤¥à¤ķ
a k
à¤¥ à¤¨
Ġà¥© à¥¦
Ġà¤¤ à¤¬
Ġ l
Ġà¤īà¤ª à¤ķ
à¤°à¤ª à¤¤
à¤ªà¤° à¤²
Ġà¤ª à¤¸
Ġà¤Ń à¤°à¤¤
Ġà¥¨ à¥«
à¤Ĩ à¤§
Ġà¤īà¤ĺ à¤¡
à¤¸ à¤¬
Ġà¤ĺ à¤Łà¤ķ
Ġà¤ľ à¤ª
Ġ F
2 0
à¤ı à¤ķ
à¤Ĺà¤³ à¤µ
à¤£ à¤µ
Ġà¤Ĳ à¤ķ
Ġà¤ķ à¤¥
Ġà¤ķ à¤³
à¤ª à¤¸
à¤Ĭ à¤¤
à¤° à¤µà¤°
e l
Ġ1 5
c t
à¤¯ à¤¯
at ion
Ġà¤ľ à¤¸
à¤² à¤®à¤§
c h
Ġo f
à¤ķà¤®à¤¤ à¤µà¤°
à¤· à¤®
Ġà¤¯à¤¶ à¤¸
à¤¯ à¤°à¤²
u t
à¤¡ à¤®à¤§
Ġà¥§à¥ ª
à¥Ģà¤Ĥ ,
à¤µ à¤ľà¤¨
à¤® à¤¯
à¤³ à¤ļ
à¤¤à¤° à¤°
à¤¤ à¤ªà¤£
à¥ģ à¤ĥ
Ġ1 2
t er
à¤£ à¤ªà¤£
à¤ĩ à¤²
u l
Ġà¤§ à¤°à¤£
Â º
Ġà¤« à¤³
Ġà¤Ĩ à¤°à¤ķ
à¤¨ à¤ª
à¤¿ ,
Ġà¤²à¤µà¤ķà¤° à¤ļ
Ġà¥§à¥ ¬
i r
à¤¦ à¤£
Ġà¤ĩ à¤¶
à¤¯ à¤£
à¤® à¤µà¤°
Ġà¥« à¥¦
à¤ķà¤¸ à¤Ń
Ġà¤ıà¤ķ à¤¨
Ġà¤¹ à¤³
Ġà¤¨à¤Ĺ à¤°à¤¸
Ġà¤ľà¤µà¤³ à¤ª
Ġà¤¬ à¤¨à¤µ
i a
à¤° à¤¡
Ġà¥§à¥ Ń
à¤¤à¤° à¤£
à¤ª à¤®
Ġà¤¬ à¤ľ
Âº à¤¯
u m
à¤° à¤¥
Ġà¤Ń à¤ķ
à¤Ł à¤µ
à¤® à¤¹à¤¤
à¤¾ à¤ĥ
à¤° à¤³
Ġ H
Ġà¤µ à¤¤
à¤¸à¤° à¤²
Ġà¤® à¤¸
à¤ Ĳ
Ġà¤Ĺ à¤¤
à¤ĸ à¤¤
Ġà¤ħ à¤¥à¤µ
Ġà¥§à¥ ©
Ġà¤ī à¤¨
Ġà¤Ľ à¤¤
à¤ĸ à¤¨
Ġà¤¬ à¤¨à¤²
Ġ K
à¤Ĺ à¤®
Ġà¤¹ à¤ķ
m ent
à¤¬ à¤°à¤ļ
Ġà¤Ń à¤°à¤²
Ġà¤Ĩà¤¢ à¤³
à¥ģ ,
Ġà¤¶à¤ķ à¤²
à¤°à¤® à¤£
Ġà¤¬ à¤²
Ġà¤ł à¤°à¤¤
à¤³ à¤µà¤²
Ġà¤ ĭ
r i
à¥ĩ )
à¥Ģ ?
Ġà¤ĩ à¤¸
o t
Ġà¤ħ à¤¬
p p
à¤Ŀ à¤°
Ġà¤ħ à¤µà¤²
Ġà¤Ĩ à¤ķà¤¡
à¤¯ à¤Ł
à¤ı à¤¨
Ġà¤¤ à¤¶
à¤¨ à¤®
à¤³ à¤µà¤£
a in
à¤² à¤®
Ġà¤¸à¤¤ à¤¤
à¤¾ !
Ġà¤ ·
à¤µ à¤Łà¤ļ
à¤¶à¤¨ à¤ļ
Ġt o
à¥¨ à¥¦
à¤£ à¤¨
Ġà¤¸à¤¹ à¤ľ
Ġ 0
.. .
i ve
Ġà¤° à¤¦
Ġà¤ĳ à¤Ĺà¤¸
o s
Ġà¤° à¤¶
Ġà¤« à¤°
à¤ª à¤¡
a g
à¤² à¤ķà¤°
à¤ª à¤¡à¤²
Ġà¤¤ à¤³
Ġ J
Ġà¤ī à¤ļà¤²
Ġà¤ĳ à¤¸
Ġà¤¸ à¤¦à¤°
Ġà¤Ķ à¤°
Ġà¤ª à¤ķà¤¡
Ġà¤ª à¤¡à¤£
Ġà¤® à¤¶
Ġà¤¤ à¤ľ
à¤¼ à¤¾
Ġà¤µ à¤ľà¤¨
Ġà¤ħà¤µ à¤ĺ
Ġà¥¨à¥¦ à¥¦
à¥Ĥ .
Ġà¤ķ à¤Ł
Ġà¤¶ à¤¤à¤ķ
à¤¾ ;
Ġà¤Ĩ à¤¦à¤°
à¤¸ à¤µà¤°
Ġ W
à¤ª à¤µ
Ġà¤ħà¤ª à¤¡
à¤¤ à¤¡
Ġ1 1
à¤°à¤µ à¤£
à¤² à¤ª
Ġ /
à¤ļ à¤ª
à¤°à¤ª à¤£
à¤£ à¤µà¤¤
Ġà¤¦à¤¹ à¤¶
à¥Ģ ;
es s
à¤¸ à¤¸
à¤¯à¤ķ à¤¤
à¤¨ à¤¶
a i
à¤µà¤° à¤¹
à¤¸ à¤³
Ġà¤µ à¤Ĺ
Ġà¤ħ à¤µà¤¸
Ġà¤ĸ à¤¡
Ġà¤Ĩà¤¯ à¤ª
Ġà¤®à¤¨ à¤¸
à¥Ī à¤Ĥ
Ġà¤Ĺ à¤¡
Ġà¤ĩ à¤²
ĠP ol
Ġà¤¬ à¤ļ
à¤Ĳ à¤µà¤ľ
Ġà¥¨ à¥ª
Ġ1 8
Ġà¤Ĩà¤µà¤¡ à¤¤
à¤£ à¤ķ
Ġà¤ķà¤ª à¤¡
Ġà¤Ń à¤°à¤£
Ġ3 0
à¤¬ à¤¡
à¤£ à¤§
à¤ı à¤«
à¤¬ à¤¨
à¤Ľ à¤¤
à¤¦ à¤³
à¤ħ à¤²
Ġà¤¤ à¤²
à¤¨ à¤¯
à¤² à¤Ń
Ġ O
à¤¥ à¤²
Ġà¤ıà¤ķ à¤ļ
à¤¯ à¤¶
Ġà¤¶ à¤¸
Ġà¤Ĩà¤¢ à¤³à¤²
o w
an t
à¤® à¤¶
Ġà¤¸ à¤ľ
o b
Ġà¤Ĩ à¤¸
Ġà¤ı à¤²
à¤ħ à¤¸
à¤ĩ à¤µ
à¥Į à¤Ĥ
Ġ20 0
à¤° à¤Ĺà¤¤
à¤°à¤ķ à¤¡
Ġà¤ħ à¤«
à¤Łà¤° à¤¨
à¥Ģ. \
Ġà¤Ĺ à¤³
à¤Ł à¤°à¤ļ
Ġ2 5
à¤¢ à¤ļ
Ġà¤« à¤°à¤ķ
ĠM a
Ġà¤ª à¤²
Ġà¤ªà¤¦ à¤µ
Ġà¤¦ à¤¤
Ġà¤Ĩ à¤ķà¤°
Ġà¥¨ à¥§
it ic
à¤¾. \
à¤³ à¤ķà¤°
Ġà¤Ń à¤°à¤ª
à¤ĸ à¤ķ
Ġà¤ĵà¤³ à¤ĸà¤²
à¤¬à¤° à¤¦
' ,
Ġà¤īà¤² à¤Ł
Ġ V
à¤ ĳ
à¤¶à¤¨ à¤²
à¤ł à¤µà¤²
ĠG o
Ġf or
Ġà¤Ń à¤Ĺà¤µ
Ġà¤· à¤Łà¤ķ
Ġà¤¦à¤° à¤°
à¤£ à¤ļ
à¤¯ à¤¬
Ġà¤ªà¤° à¤®
Ġ1 4
à¤¤à¤° à¤ļ
Ġà¤ħà¤® à¤°
Ġà¤° à¤®
Ġà¥§ à¥¦à¥¦
à¤ĸ à¤µà¤²
Ġà¤Ĭ à¤°
o d
Ġ1 3
Ġà¤ľ à¤µ
as ht
Ġà¤¦ à¤Ĺà¤¡
à¥§ à¥¯
à¤¦ à¤ļ
Ġà¤« à¤Łà¤ķ
Ġà¤ľ à¤Ĺà¤¤
Ġà¤īà¤ª à¤®
Ġà¤¸à¤®à¤ľ à¤²
Ġà¤ĺ à¤Ł
Ġà¤¦à¤¹à¤¶ à¤¤à¤µ
à¤® à¤®à¤§
Ġà¤Ĩ à¤Ń
Ġà¤¸à¤®à¤ľ à¤¤
ĠR e
Ġà¥¨ à¥¨
Ġà¤ĵ à¤²
à¥ģ .
c e
asht ra
Ġà¤ªà¤° à¤¦
ĠPol itic
à¤¢ à¤°
Ġ h
à¤ª à¤¹
à¤« à¤°
ĠI n
Ġà¤ħ à¤Ł
à¥ħ à¤Ĥ
à¤ª à¤°à¤£
v er
à¤ı à¤ļ
Ġà¤ľà¤Ĺ à¤Ńà¤°
à¤µ à¤¦
har ashtra
à¤ħ à¤¨
u p
i g
Ġ5 0
Ġà¤² à¤·
à¤¦ à¤¶
Ġà¤ī à¤¶
à¤ħ à¤ª
Ġà¤° à¤ļà¤¨
à¤ļ à¤¬à¤°
Ġà¤ª à¤³
or t
à¤ª à¤°à¤¤
i k
Ġà¤¦ à¤°à¤µ
à¤¶ à¤Ńà¤°
Ġà¥ª à¥¦
à¤ķ à¤®à¤§
à¤µ à¤µ
Ġà¤Ĩà¤ľ à¤¹
Ġà¤Ĩà¤ł à¤µà¤£
à¤¥ à¤°
à¥ī à¤Ĥ
à¤§ à¤³
Ġ g
Ġà¤ķà¤² à¤®
Ġ U
à¤¯ à¤µà¤°
Ġ1 6
à¤²à¤¬ à¤ľ
h an
o c
à¥Ģ !
Ġà¤ľ à¤²
Ġà¤¨ à¤ľà¤°
à¤Ĺ à¤µà¤¡
Ġà¤ħ à¤¹à¤®
à¤° à¤«
à¥ĩ à¤ĥ
Ġà¤° à¤¤
Ġà¤¬ à¤¦
Ġà¤® à¤¦
à¤³ à¤µà¤³
à¤¯à¤ķ à¤µ
Ġà¤¸à¤° à¤ª
r ic
Ġ202 2
à¤Ĭ à¤²
à¤¾ à¥ħ
à¤· à¤°
Ġà¤§ à¤®à¤ķ
at est
Ġà¥ ¦
à¥ĩ !
à¤® à¤²à¤¬à¤ľ
à¤¯ à¤¥
Ġà¤« à¤¸
a b
Ġà¤ĵ à¤µ
à¤¨ à¤µà¤°
Ġ202 1
Ġà¤ į
Ġà¤Ń à¤¯
r om
à¤Ł à¤ķà¤°
n à¤®
à¤²à¤ķ à¤®
Ġà¤Ĩ à¤ļ
Ġà¤ĸ à¤³
Ġà¤¹ à¤¦
à¤Ĩ à¤ªà¤²
à¤Ł à¤¬
à¤¡ à¤®
a v
à¤Ī à¤¤
o ur
à¤ł à¤µà¤£
Ġà¤ļ à¤³à¤µà¤³
Ġà¥¨ à¥©
Ġà¤¨ à¤Ĭ
Ġ v
à¤¸ à¤±
Ġà¤ª à¤¸à¤°à¤²
i m
à¤² à¤ĸ
s t
à¤¯ à¤°à¤¤
à¤¢ à¤µà¤£
à¤ª à¤³
à¤ĸ à¤¡
à¤¬à¤Ī à¤ļ
Ġà¤¤ à¤°à¤¤
Ġà¤° à¤£
Ġà¤¬à¤¦à¤² à¤²
à¤¯ à¤°à¤¸
00 0
Ġà¤®à¤¹ à¤¸
à¤¶ à¤ļ
à¤¯ à¤Łà¤¨
à¤° à¤°
à¤Ī à¤¸
Ġ2 4
Ġà¤¹ à¤®
à¤¥ à¤¸
Ġà¥¨ à¥®
à¤¡ à¤µà¤°
Ġà¤ļ à¤¹
Ġà¥¨ à¥¬
Ġà¤¤ à¤¹à¤¸
Ġà¤¨ à¤µà¤°
à¤Ĩ à¤¤
à¤Ń à¤ķ
u b
un e
Ġà¤Ī à¤¶
um b
Ġ1 7
à¤¯à¤ķ à¤²
Ġà¤² à¤¢à¤¤
Ġà¤µ à¤¨à¤¸
Ġà¤ī à¤¸
Ġà¤ĺ à¤¡à¤¤
à¤¤à¤° à¤¹
à¤ľ à¤¦
Ġà¤ķ à¤¬
Ġà¤ħ à¤£
Ġà¤§ à¤¡
Ġà¤ķ à¤ļà¤°
n à¤¸
Ġà¤ł à¤°à¤£
à¤¨ à¤¡
Ġà¤ľ à¤³à¤Ĺ
à¤° à¤·
) .
à¤ļ à¤µà¤¡
Ġà¤¦ à¤ĸà¤²
ĠS t
Ġà¤ī à¤·
Ġà¤®à¤ľ à¤¬
Ġà¤Ĺ à¤®
Ġà¤Ĩà¤¢ à¤³à¤¤
à¤¡ à¤µà¤²
ĠL ive
Ġà¤¸à¤¹ à¤¨
à¤¬à¤° à¤²
Ġà¤ļ à¤¢
Ġà¤ī à¤ľ
Ġà¤¬à¤ĺ à¤¤
k ar
ĠI nd
i le
Ġà¥¨ à¥Ń
Ġà¤§ à¤°à¤²
Ġà¤ıà¤¸ à¤Ł
à¤Ł à¤¯
à¥Ģ à¤ĥ
Ġà¥© à¥§
in d
Ġà¤Ĩ à¤«
Ġ e
Ġf rom
h at
Ġà¤¶ à¤¤
à¤³ à¤¸
Ġ2 2
à¤² à¤®à¤¤
Ġà¤ķ à¤³à¤¤
à¤¨à¤Ĺà¤° à¤ª
Ġà¤łà¤°à¤µ à¤²
à¤¬ à¤¹
Ġà¤ķà¤¦ à¤®
Ġà¤¦à¤° à¤µà¤°
à¤ľ à¤®à¤§
Ġà¤µ à¤Ĺà¤³
o p
ĠMa harashtra
à¤¯ à¤¡
Ġà¤«à¤¸ à¤µà¤£
er s
à¤¦ à¤Ĺ
Ġà¤ľà¤µà¤³ à¤ļ
Ġ [
à¤Ī à¤¡
Ġà¤¬à¤¸ à¤µ
à¤° à¤Ł
Ġà¥© à¥«
y a
- -
à¤ļ à¤¸
à¤ļ à¤ļ
à¤¦à¤¨ à¤Ĺà¤°
Ġà¤¸ à¤£
à¤µ à¤¹
Ġà¤ª à¤Ĺ
Ġà¤ĸà¤³ à¤¬à¤³
à¤Ĺ à¤Ł
à¤Ĺà¤¦ à¤ªà¤¤
Ġà¤¬ à¤¡
ĠGo a
Ġ202 0
Ġà¤ıà¤ķ à¤¹
n à¤ª
à¤ī à¤¤
Ġ2 1
umb ai
à¤· à¤ªà¤¦
Ġà¤¦ à¤¬
à¤ľ à¤ªà¤¨
à¤¯ à¤Ĺ
à¤¦ à¤®
Ġà¤¬à¤¸ à¤£
a p
Ġà¤ī à¤ł
Ġà¤¥ à¤°
Ġà¤¸ à¤¬à¤¸
à¤Ĩ à¤£
Ġà¤ħ à¤¯
à¤ħ à¤Ń
à¤¯ à¤Łà¤ķ
Ġà¤¬à¤¦à¤² à¤¤
Ġà¤¬à¤¨ à¤µà¤£
à¤· à¤¨
at e
à¥Ĥ -
Ġà¤Ĺà¤£ à¤ªà¤¤
Ġ: -
i f
à¤¨ à¤¤à¤³
Ġà¤Ĺ à¤ª
Ġà¤¡ à¤¬
à¤² à¤µà¤£
à¤¤à¤ķ à¤±
Ġà¤ķ à¤¡à¤ķ
Ġà¤ķ à¤ļ
Ġà¤¥ à¤ķ
Ġà¤¹ à¤¨
à¤Ń à¤µà¤¤
Ġà¤Ĺ à¤ľ
à¤¶ à¤°
Ġ1 00
à¤µà¤¸ à¤Ńà¤°
Ġà¤¨ à¤·
Ġà¤¬à¤¨ à¤µà¤²
Ġà¤ķ à¤ķ
à¤¸ à¤³à¤²
ĠS p
ĠA nd
à¤¶ à¤ª
Ġà¤¬ à¤¸à¤¤
Ġà¤¤ à¤£
Ġà¤¸à¤¹ à¤¸
c k
à¤® à¤ľ
Ġà¤ı à¤«
à¤ļ à¤¯
à¤°à¤® à¤ķ
à¤°à¤µ à¤²
Ġà¤¹à¤ľ à¤°
en d
Ġà¤¶à¤ķ à¤£
à¤Ĩ à¤ľ
1 9
Ġà¤īà¤ª à¤µ
Ġà¤® à¤ľà¤²
Ġà¤ħ à¤ªà¤°
Ġà¤§ à¤¡à¤ķ
ob ile
Ġà¤¦ à¤¶
Ġà¤¦ à¤¶à¤ķ
Ġà¤Ĺ à¤µ
à¤Ĺ à¤®à¤§
Ġà¤Ĳ à¤¤
Ġà¤µà¤° à¤ļ
à¤¬à¤°à¤¦ à¤¸
n à¤ķ
o g
Ġà¤ıà¤ķ à¤Ł
Ġà¥¨à¥¦à¥¨ à¥§
Ġà¤ª à¤Łà¤ķ
à¤£ à¤Ĺ
Ġà¥¤ à¥¤
à¤ĺ à¤¨
à¤¯à¤® à¤ļ
Ġà¤īà¤¤à¤° à¤²
à¤ªà¤¯ à¤¶
Ġà¥¬ à¥¦
t h
à¤¯ à¤ľ
à¤¡ à¤¬
à¤£ à¤ªà¤¤
Ġà¤ı à¤ļ
Ġà¤ľ à¤¬à¤°à¤¦à¤¸
Ġà¤¬à¤¦à¤² à¤£
Ġà¤ħà¤¡ à¤¥à¤³
Ġà¤Ĺ à¤°à¤®
à¤· à¤Ńà¤°
à¤¸ à¤°à¤£
ĠM obile
Ġà¤ī à¤Ĺ
à¤® à¤°à¤£
Ġ k
à¤· à¤¯à¤ķ
à¤°à¤ķ à¤¤
Ġà¤¸ à¤²à¤Ĺ
à¤¢ à¤¦
ĠE n
Ġà¤ĩ à¤°
Ġà¤ĺ à¤¡à¤µ
Ġà¤ªà¤° à¤¸
ĠG et
Ġ4 0
Ġà¤¨à¤Ĺà¤° à¤ª
o v
e m
à¤¤ à¤ªà¤¤
Ġà¤ĵ à¤¢
Ġà¥¨ à¥¯
à¤ī à¤¦
is t
à¤µ à¤Ĺ
Ġà¤ħ à¤ªà¤¯à¤¶
à¤Ĩ à¤®
à¤¯ à¤Ńà¤°
à¤Łà¤° à¤µà¤°
Ġà¤Ī à¤¡
à¤ĸ à¤³
à¤¾ "
Ġà¤¤ à¤¡
n à¤¯
Ġ â
à¤ķ à¤µà¤°
Ġà¤¸ à¤ĸ
à¤ª à¤¥
à¤Ĺ à¤ľ
à¤¯ à¤Ń
. "
Ġà¤ı à¤¡
al l
à¤¤ à¤¬
à¤¹ à¤µ
Ġà¤ª à¤ł
Ġà¤ıà¤ķ à¤°
Ġ at
Ġà¤ľ à¤¹
Ġà¤®à¤¨ à¤ª
Ġ is
Ġà¤Ķ à¤¦
à¤¡ à¤¯
ĠInd ia
i v
à¤Ŀ à¤¨
à¤°à¤ļ à¤¨
Ġà¤¤à¤ª à¤¶
Ġà¤¬ à¤ķ
à¤ħ à¤®
Ġà¤ķ à¤³à¤²
ĠS a
à¤ĩ à¤¡
Ġ y
Ġ201 9
à¥Ģ "
à¤µà¤¸ à¤¨
Ġà¥ª à¥«
à¤ī à¤¨
o k
à¤³ à¤ª
Ġà¥¨à¥¦à¥¨ à¥¦
n à¤¤
à¤¤à¤° à¤¤
à¤ Ļ
.. ..
i es
à¤¸à¤² à¤®
Ġà¥§à¥¯ à¥¯
Ġà¤ĺ à¤°à¤ļ
Ġà¤īà¤ª à¤¨
à¤§ à¤ļ
Ġà¤ľ à¤Ĺà¤£
Ġà¤¸à¤® à¤¨
à¤ľ à¤§
Ġ2 3
à¤ĩ à¤¸
Ġà¤ĳ à¤ªà¤°
à¤ĩ à¤¬
e c
à¤¬ à¤£
Ġà¤ĸ à¤Łà¤²
ĠRe ad
Ġà¤ī à¤§
à¤¬ à¤Ł
Ġà¤ĵ à¤¬
Ġà¤ħà¤¡ à¤ķà¤²
o u
Ġà¤¸ à¤µà¤¯
à¤¬ à¤ķ
Ġà¤Ĩà¤ª à¤¤
Ġ re
à¤¯ à¤Ĺà¤¡
Ġà¤ĳ à¤°
à¤ķ à¤µà¤£
Ġà¤ĭ à¤·
à¤ļ à¤µà¤£
à¤Ī à¤®
à¥ĩ "
à¤ĩ à¤®
O S
à¤° à¤¹à¤£
Ġà¤¸ à¤«
à¤¯ à¤ªà¤¦
à¤¦ à¤µà¤²
Ġà¥¨à¥¦à¥§ à¥¯
à¤ª à¤®à¤§
Ġà¤ª à¤¨
ro id
Ġà¤ĸ à¤¤
à¤® à¤Ł
à¤· à¤ª
à¤² à¤µà¤°
e p
Ġà¤ľà¤¨ à¤ľ
à¥ĭ -
Ġà¤īà¤¦ à¤¯
Ġb y
à¤ħ à¤¶
ĠAnd roid
Ġà¤° à¤ľ
à¤Ī à¤ªà¤°
à¤°à¤Ń à¤°
à¤ķ à¤¹
à¤ķ à¤ľ
à¤² à¤¹
à¤ľà¤ª à¤²
à¤¾ \
à¤® à¤³
à¤· à¤¸
à¤Ĺ à¤¶
à¤³ à¤¶
à¤¬ à¤ļ
Ġà¥¨à¥¦à¥¨ à¥¨
Ġà¤¸à¤² à¤®
à¤¿ à¤ĥ
Ġà¤¬ à¤ļà¤¤
Ġà¤¤ à¤®
à¤§ à¤¶
ĠPolitic s
Ġà¤Ĳ à¤ķà¤²
Ġà¤Ĩ à¤µà¤°
à¤Ł à¤¦
à¤Ń à¤²
à¤µà¤² à¤¤
à¤° à¤ªà¤°
Ġà¤ľ à¤¡
Ġs t
id e
Ġà¤ĸ à¤¡à¤¸
Ġà¤īà¤ª à¤ķà¤°à¤£
à¤ł à¤¯
Ġà¤ī à¤°à¤²
Ġ2 6
Ġà¤ªà¤°à¤¤ à¤²
à¤Ł à¤ªà¤£
Ġà¤ļ à¤²
à¤ħ à¤§
Ġà¤Ĩà¤¯ à¤¸
Ġà¤ĳà¤« à¤°
a j
à¤Ĥ ?
Ġà¤ı à¤ľ
à¥¦à¥¦ à¥¦
à¤Ī à¤µ
Ġà¤ĳ à¤²
is h
Ġà¥® à¥¦
à¤ĸ à¤µà¤¤
Ġà¤Ł à¤¨
Ġà¤ħà¤¶ à¤ķ
Ġà¤ķ à¤·
Ġà¤Ĺ à¤²
à¤Ĺ à¤µà¤¤
ct ion
ĠSa am
ur e
Ġà¤Ĩà¤Ī à¤ļ
Ġà¤¨ à¤¶
à¥« à¥¦
l o
Ġà¤ªà¤ķà¤¡ à¤²
à¥Ģ \
ĠM umbai
à¤µà¤ļ à¤·à¤ķ
à¤Łà¤° à¤®à¤§
at es
Ġà¤® à¤°à¤£
il l
Ġà¤ķ à¤¸à¤²
i p
à¤ĸ à¤µà¤£
à¤Ł à¤ªà¤Ł
à¤ľ à¤¬
à¤² à¤Ł
Ġà¤² à¤µ
Ġà¤¹ à¤²à¤ķ
5 0
t ain
à¤¯ à¤¬à¤°
à¤³ à¤ĸ
Ġà¥Ń à¥¦
it y
Ġà¤ı à¤ħà¤°
Ġà¤¨à¤µ à¤¨
Ġà¤² à¤ĺ
a w
Ġà¤¬à¤¨ à¤¤
Ġà¤ªà¤¡ à¤¦
Ġà¤¸ à¤¬
à¤ľà¤¨ à¤ķ
à¤Ĺà¤£ à¤ķ
à¤³ à¤¨
Ġà¤īà¤ĺ à¤¡à¤ķ
Ġà¤Ĭ à¤¸
à¤®à¤§ à¤²
à¥§ à¥¦
Ġ2 7
Ġà¤¹ à¤°à¤ķà¤¤
Ġà¤ı à¤Ł
à¤¤ à¤ľ
Ġà¤¸à¤° à¤¦
Ġà¤¸à¤° à¤³
Ġà¤ıà¤ķà¤¦ à¤®
Ġ Y
à¤ł à¤¡
à¤ıà¤¸ à¤Ł
Ġà¤Ĩà¤£ à¤¤
Ġà¤¨ à¤«
à¤² à¤µà¤¤
à¤¹à¤¨ à¤¤
ort s
Ġà¤ķ à¤³à¤µ
Ġ r
à¥§ à¥®
Ġà¤Ĩà¤µà¤¡ à¤²
Ġà¤ħà¤µà¤ĺ à¤¡
ĠP une
ar t
Ġl atest
Ġà¤īà¤ļà¤² à¤²
Ġà¤Ĺ à¤¡à¤ķà¤°
Ġà¤ļ à¤¤
Ġà¤ĭ à¤¤
Ġ202 3
Ġà¥© à¥¨
à¥© à¥¦
à¤ĩ à¤ķ
Ġ2 8
à¤ľ à¤µà¤°
Ġà¤µ à¤ļà¤¨
an g
à¤¶ à¤¦
Ġà¤ħ à¤ľà¤¯
ĠI OS
à¤µ à¤¹à¤¨
à¥ĭ '
Ġà¤¸ à¤µà¤²à¤¤
Ġà¤ľ à¤²à¤¸
à¤² à¤µà¤²
ul t
à¤² à¤¡
Ġa pp
Ġà¤¹ à¤Ł
Ġà¤°à¤ķ à¤®
à¤¹ à¤ľ
Ġà¤ĩ à¤ķ
à¤ĩ à¤¤à¤ķ
l y
Ġà¥« à¥¦à¥¦
Ġà¤ħà¤« à¤Ĺ
Ġc on
n à¤¹
à¤¨ à¤Ń
Ġ3 1
à¤« à¤³
à¤¶à¤¨ à¤®à¤§
à¤°à¤¸ à¤¨
Ġà¤ħ à¤µà¤ķ
à¤¦ à¤ª
Ġà¤Ĩ à¤Ł
Ġà¤µ à¤³à¤£
u c
Ġà¥© à¥Ń
ĠSp orts
à¤µ à¤®
à¤¨ à¤Ī
à¤¡ à¤ĸ
à¤µà¤¡ à¤²
à¤¦à¤² à¤ļ
u g
à¤¥ à¤Ĺ
tain ment
Ġà¤ī à¤ľà¤µ
i al
Ġà¥¨à¥¦à¥§ à¥®
à¤ª à¤°à¤ķà¤°
à¤ķà¤¡ à¤ļ
ic e
à¤ľ à¤¬à¤³
Ġà¤Ĺ à¤¹
ĠEn ter
m e
à¤¦ à¤¹
Ġà¤īà¤ĺ à¤¡à¤²
ĠPolitic al
Ġà¤ħà¤¹à¤® à¤¦
à¤ķà¤² à¤¨
Ġc om
Ġà¤ĵ à¤®
Ġà¤ļ à¤®à¤ļ
> '
Ġà¤² à¤¢à¤£
Ġà¤Ń à¤Ł
u d
Ġà¤ľà¤µà¤³ à¤ľà¤µà¤³
m a
ĠEnter tainment
Ġà¤¤à¤° à¤ļ
Ġà¤ľà¤¨ à¤°à¤²
à¤ł à¤£
à¤ķ à¤ªà¤£
Ġà¤Ĩ à¤³
Ġà¤ħ à¤ķà¤°
à¤¹ à¤ļà¤²
Ġà¤® à¤ľà¤ķ
à¤« à¤²
à¥ĭ. \
à¤¯à¤¨ à¤°
à¤ı à¤®à¤¸
Ġà¤ıà¤® à¤Ĩà¤¯
Ġà¥© à¥¬
à¤¨ à¤ªà¤£
) \
Ġà¤īà¤ª à¤ľ
Ġ up
Ġà¤Ĩ à¤ĸ
Ġà¤Ĩà¤ł à¤µà¤²
à¤ł à¤®
à¤¯ à¤¸à¤¨
à¤Ĺ à¤®à¤¨
Ġà¤ļ à¤®à¤ķ
Ġ6 0
Ġà¤µ à¤§
Ġà¤¸à¤° à¤¸
à¥ĩ. "
at h
à¤¬ à¤¦à¤²
à¤Ĩ à¤ªà¤£
Ġà¤µà¤Ĺà¤³ à¤¤
à¤ķ à¤·
à¤¢ à¤°à¤ª
in e
Ġà¤Ĩà¤ľ à¤ªà¤°
à¤¶ à¤¹
à¤¬ à¤µà¤£
Ġà¥¯ à¥¦
à¤ł à¤ª
à¤¯ à¤¹
à¤¬ à¤§
à¤ĸ à¤¦
Ġà¤¦ à¤®à¤¦
) </
Ġà¤Ĩ à¤¸à¤ª
Ġà¤ĺà¤° à¤Ĺ
ow n
Ġ2 9
Ġà¤¦ à¤¯
Ġà¤ľ à¤²à¤¦
à¤ļ à¤¶
à¤ħ à¤°à¤ļ
Ġ j
Ġà¤® à¤ķ
à¤Ĭà¤¨ à¤ļ
Ġà¤ķ à¤£
it h
Ġà¤ħà¤ª à¤®
à¤¬ à¤µà¤²
ĠT V
ak ing
à¤¸à¤³ à¤§
Ġ an
à¤µà¤° à¤ķà¤°
Ġà¤ķà¤® à¤¤à¤°à¤¤
Ġà¤¢ à¤ķà¤²
Ġà¤ī à¤ķ
ar e
Ġà¥© à¥ª
Ġà¤ħà¤ª à¤µ
à¥§ à¥Ń
à¥¯ à¥¯
à¤ĺ à¤¤
à¤ķ à¤ľà¤£
ĠS har
à¤¤ à¤¶
Ġà¤®à¤¨ à¤®
à¤¹ à¤ļ
Ġà¤ĩ à¤ķà¤¡
à¤¹ à¤¯
Ġà¤ĩà¤¥ à¤²
à¤¨ à¤ķà¤°
d ates
à¤¤ à¤®à¤§
à¤Łà¤² à¤®à¤§
Ġà¤ĳ à¤Ł
Ġà¥¨à¥¦à¥§ à¥Ń
à¤ķ à¤°à¤¤
Ġà¤Ĳ à¤µà¤ľ
Ġà¤Ŀ à¤Łà¤ķ
Ġà¤ķà¤° à¤µ
à¤ı à¤Ł
Ġà¤Ĳ à¤ķà¤¤
as t
Ġà¥Ń à¥«
a c
à¤¸ à¤Ń
Ġà¤¦ à¤µ
Ġà¤Ń à¤²
à¤¦à¤¨ à¤¶
Ġà¤Ŀ à¤ª
à¥Į .
à¤ĺ à¤ķ
à¤ĵ à¤®à¤§
3 0
hi s
à¤Ĩ à¤¯à¤ļ
Ġà¤¯à¤¶ à¤µ
Ġb e
à¤® à¤®
à¤ª à¤µà¤¯
es h
à¤¨ à¤µà¤£
à¤£ à¤²
Ġà¥© à¥©
à¥§ à¥¨
à¥§ à¥«
à¤°à¤¥ à¤®à¤ļ
Ġà¤Ń à¤µà¤¨
ar d
Ġ201 8
Ġà¤µ à¤¹
Ġà¥¨à¥¦à¥§ à¥ª
à¤ľ à¤¶
à¤Ń à¤£
Ġà¤ĸ à¤¡à¤ķ
Ġà¤ħ à¤°à¤µ
om e
Ġà¤¦à¤¶ à¤²à¤ķ
Ġà¤Ŀ à¤³
Ġà¤ĸ à¤¬à¤°à¤¦
Ġà¤Ĺ à¤¦
Ġà¤¸ à¤¸
Ġà¤ĺ à¤¸à¤°à¤£
Ġà¤¶ à¤ªà¤¥
à¤Ĩ à¤¯à¤¨
1 0
n à¤µ
Ģ ¢
à¤Ĺ à¤Ń
à¤°à¤µ à¤ķ
i o
à¥ĩ \
à¤¨ à¤ĸ
à¤¸ à¤«
Ġà¤¹ à¤²à¤µ
Ġà¤Ł à¤°
Ġà¤ĵ à¤Ł
Ġà¤ħ à¤¡à¤ķ
Ġà¤ħà¤¹à¤® à¤¦à¤¨à¤Ĺà¤°
à¥ĭ ;
h o
un d
ha v
Ġ19 9
on e
à¤¯ à¤Ŀ
Ġà¤ħ à¤µà¤¶
Ġà¤īà¤ª à¤¨à¤Ĺà¤°
am a
re aking
à¤ł à¤Ń
or on
à¤¯à¤¸ à¤Ń
Ġà¤ľà¤® à¤²
ric e
Ġà¤° à¤ĸ
à¥ĩ' ,
Ġà¤¸ à¤¤à¤°
Ġà¤ĵ à¤°
e v
à¤ļ à¤¦
à¤ª à¤¶
Ġ3 5
à¤ı à¤¶à¤¨
Ġà¤Ĩà¤ł à¤µ
à¤¤ à¤µà¤²
à¤ł à¤°
à¤§à¤¨ à¤ķ
à¤® à¤Ń
Ġ. .
Ġà¤ī à¤łà¤²
à¤ ½
à¤µà¤° à¤¤
à¥¨ à¥¨
à¤¸ à¤ķà¤¡
à¥ĥ à¤Ĥ
ain ik
t ed
à¤¡ à¤µà¤£
i an
Ġà¤® à¤ļ
à¤ķ à¤§
Ġà¤ľ à¤¶
à¤ı à¤²à¤ļ
à¤ Ķ
Ġà¤ķ à¤¹
e f
m it
à¤¾. ..
Ġà¥¨à¥¦à¥§ à¥¬
Ġ8 0
à¤¨ à¤§
à¤¶ à¤¸
Ġà¤¬à¤ĺ à¤£
e b
à¤¨ à¤¬
Ġà¥§à¥¯ à¥®
Ġà¤ĩ à¤ľ
Ġà¤ħà¤¨ à¤§
à¥§ à¥§
ĠD ainik
à¤ª à¤µà¤°
à¤¨ à¤ªà¤¤
à¤Ĩ à¤ª
as e
à¤£ à¤®
Ġà¤¬ à¤Ł
à¤ķ à¤ķ
à¥ĭ ?
à¤¡ à¤¶
à¥ĭà¤Ĥ .
Ġ ]
à¤£ à¤ª
Ġà¤Ń à¤Łà¤ķ
Ġà¤ªà¤° à¤°
Ġà¤ħ à¤µà¤¯
à¥ĥ .
Ġà¤ľ à¤Ĺà¤¦
n e
Ġà¤® à¤¯
is m
à¤¢ à¤µà¤²
om ant
in ess
2 4
Ġà¤Ĩ à¤Ŀ
Ġà¤¯ à¤ľ
à¤ı à¤®à¤ª
Ġà¤ĸ à¤¨
à¤ª à¤¡à¤¤
Ġà¤ļ à¤²à¤¨
à¤°à¤£ à¤ªà¤£
Ġà¤ĳ à¤¡
omant ak
à¤³ à¤µà¤¤
à¥§ à¥¬
ĠG omantak
Ġà¤Ĺ à¤¡à¤ļ
1 2
à¤Ĭ à¤ķ
à¤² à¤ªà¤£
Ġà¤ħ à¤·
Ġà¤ħ à¤µà¤¤
Ġà¤¢ à¤Ĺ
Ġà¤¯ à¤¥
à¥¨ à¥§
Ġà¤ªà¤¦ à¤ķ
Ġà¥§à¥¯ à¥Ń
Ġà¤ı à¤°
ĠL atest
1 6
Ġà¤ª à¤Łà¤²
ĠP rice
i z
à¤¨ à¤£
à¤¶ à¤¬
à¤µà¤¤ à¤®
à¤¬à¤Ī à¤ķà¤°
Ġà¥© à¥®
Ġd o
à¤ļ à¤µà¤²
Ġà¤ķà¤® à¤²
à¤£ à¤§à¤°
Ġà¤µ à¤ľ
à¤°à¤µ à¤¤
Ġà¤īà¤ª à¤¦
Ġà¤®à¤§ à¤²
à¤ķ à¤µà¤²
à¤ľ à¤µà¤²
Ġà¤Ĩà¤¯ à¤Ł
Ġà¤® à¤£
Ġà¤° à¤ļà¤²
à¤Ĺ à¤ķ
Ġ #
f f
Ġà¤µ à¤¨à¤µ
Ġà¤¶ à¤¶
Ġà¤Ĩà¤Ĺ à¤®à¤¨
à¤¯à¤µ à¤§
à¤² à¤ĺà¤°
r ess
Ġà¤¸ à¤¯
à¤ħ à¤¹à¤®
à¥§ à¥ª
Ġà¥ª à¥®
1 5
à¤¸ à¤§
à¤Ł à¤¹
Ġà¤ªà¤° à¤¬
Ġà¤¸à¤® à¤¤
ag e
à¤¶ à¤®à¤¨
à¤² à¤ľ
Ġà¤ħ à¤Ĺà¤°
Ġà¤° à¤ĺ
Ġà¤ıà¤ķ à¤µ
à¤² à¤Ĺà¤¤
Ġà¤¦ à¤¸
à¤· à¤°à¤¶
Ġà¤² à¤ª
ĠA pp
à¤Ĩ à¤®à¤ļ
Ġà¥« à¥«
' s
Ġà¤ª à¤§
à¤Ĭ à¤¯
Ġà¤¬à¤¸ à¤¸
Ġà¤¸à¤®à¤ľ à¤£
Ġà¥§à¥¯ à¥¬
us iness
Ġup dates
Ġà¤ħà¤ª à¤ķ
ĠB reaking
n à¤ľ
Ġà¤« à¤µ
Ġà¤īà¤ĺ à¤¡à¤£
Ġà¤ļ à¤°à¤£
Ġà¤« à¤²à¤ķ
Ġà¤ľà¤¨ à¤¸
Ġ &
lo ad
" ,
Ġà¤ĺ à¤¡à¤£
at ch
n P
Ġ7 0
in k
Ġà¤® à¤®à¤¤
Ġà¤ħà¤Ń à¤¯
q u
à¤¤ à¤£
à¤¨ à¤§à¤¨
à¤¬ à¤Īà¤²
à¤ķà¤° à¤ļ
à¥Ģ ),
Ġà¤¹ à¤ª
Ġà¤¬ à¤¦à¤¨
à¤ĺ à¤®
à¤ħ à¤ķ
à¤Ĭà¤¨ à¤¹
an a
n à¤¦
Ġà¤ı à¤µ
à¤¬à¤° à¤ª
à¤ľà¤¨ à¤ļ
Ġà¤¬à¤¨ à¤µà¤¤
1 1
Ġà¤µà¤¨ à¤¡
Ġ +
Ġà¤¶ à¤®
ĠA g
à¤¨ à¤ªà¤°
à¤°à¤® à¤¨
2 2
b o
à¤¤à¤ķ Âºà¤¯
own load
Ġ4 5
à¤°à¤ª à¤¦
à¤ĵ à¤ļ
Ġ ;
Ġà¤ª à¤¨à¤µ
Ġà¤« à¤Ł
à¤ķ à¤ł
Ġà¤¦ à¤®
à¤¤ à¤Ń
Ġà¥¨à¥¦à¥§ à¥«
kar n
Ġà¤Ĩ à¤¬
à¤Ń à¤µà¤²
ar y
ĠD ownload
Ġà¤Ĩ à¤Īà¤²
à¤ª à¤¬
ĠS ar
Ġà¥ª à¥¨
Ġ201 7
Ġà¤¹à¤³ à¤¦
à¤· à¤µ
à¤Ī à¤ª
n à¤¬
à¤¥ à¤¤
à¤§à¤¶ à¤¤à¤ķ
à¤Ĺ à¤¹
Ġà¥ª à¥ª
Ġà¥¬ à¥«
Ġà¤¹ à¤¸à¤¤
à¤ĺ à¤Ł
Ġ >
à¤¸ à¤ħ
oc al
à¤Ł à¤°à¤¸
Ġà¤Ĩà¤ł à¤µà¤¤
er m
k et
Ġ *
Ġà¤Ń à¤Ĺà¤¤
Ġà¤°à¤£ à¤ľ
n à¤°
Ġà¤¸à¤° à¤ļ
as h
à¥Ģ' ,
à¥ĩ. ..
Ġà¤Ĩà¤¯ à¤¡
n à¤¶
or m
as s
à¤ĩà¤Ł à¤µà¤°
Ġà¤¨ à¤µà¤²
à¤Ĩà¤¯ à¤Ł
Ġà¤¤ à¤¹
Ġà¤Ĩà¤ľ à¤µà¤°
ĠS h
Ġà¤ľ à¤³
à¤ĸ à¤Ń
Ġà¤ħà¤µà¤¯ à¤µ
à¤ķ à¤ħà¤ª
à¤¸ à¤°à¤¤
à¤® à¤¬
à¤¦ à¤°à¤ļ
à¥¨ à¥«
Ġà¤®à¤¤ à¤Ń
à¥į .
Ġà¤® à¤³
l d
an k
n à¤¨
Ġà¤¹ à¤Łà¤µ
à¤Ĩ à¤¯à¤¸
ĠB usiness
Ġw ith
à¤¯ à¤«
Ġà¤Ľ à¤³
Ġà¥ª à¥¬
Ġà¥§à¥¯ à¥ª
à¤® à¤ĸ
Ġà¥ª à¥Ń
Ġà¤ª à¤°à¤ķ
Ġà¤ĵ à¤ªà¤¨
Ġà¤Ĩ à¤Īà¤¨
Ġà¤µ à¤³
à¤ł à¤¤
à¤°à¤ķ à¤Ł
I D
à¤ľà¤ª à¤®à¤§
Ġà¤¥à¤ķ à¤¬
à¤µ à¤¬
Ġà¤¯ à¤µà¤¤à¤®
à¥Ī .
ation al
ĠShar e
Ġà¤ħ à¤¡à¤µ
a il
Ġà¤Ń à¤Ĺ
Ġà¤°à¤ĸ à¤¡à¤²
r am
à¤ıà¤¸ à¤¸
Ġà¤ıà¤®à¤Ĩà¤¯ à¤¡
Ġà¤ļ à¤®à¤¤
Ġà¤ªà¤ķà¤¡ à¤£
Ġ ha
à¤ļ à¤®à¤§
Ġà¤ª à¤µà¤¨
Ġà¤¨ à¤³
à¤ľ à¤³à¤Ĺ
à¤¡ à¤°à¤ļ
à¥¨ à¥©
à¤¤ à¤Ĺ
à¤ļ à¤®
à¤¡ à¤«
à¤¯ à¤ªà¤£
Ġà¤ī à¤²à¤Ĺ
à¤¸à¤° à¤ļ
à¤¯à¤® à¤µà¤°
karn ama
Ġà¤° à¤¡
Ġà¤² à¤¢à¤µ
Ġt h
à¤¸ à¤ĸ
à¤¬à¤° à¤®à¤§
ĠT he
Ġà¤ĸ à¤²
à¤Ī à¤ľ
à¥ĩ, "
à¥§ à¥©
Ġà¤Ĩ à¤°à¤¤
Ġà¤§ à¤®
Ġà¤Ĩà¤° à¤Ł
Ġà¤ħà¤° à¤¬
à¤¹ à¤¨à¤ļ
ĠSar karnama
e ar
Ġà¤ī à¤¡à¤µ
à¥ĩà¤Ĥ ;
ver n
a h
à¤¾à¤Ĥ ,
à¤ħ à¤ĸ
Ġà¤ī à¤ªà¤°
2 7
à¥Ģ) </
Ġ201 4
à¤ħà¤¹à¤® à¤¦à¤¨à¤Ĺà¤°
Ġà¤² à¤ĸà¤¨
Ġcon t
Ġà¤¨ à¤ľ
Ġà¤ħà¤ª à¤¹à¤°à¤£
ha ck
à¤ĸ à¤°à¤ļ
Ġà¤¸à¤° à¤¨
à¤¯à¤® à¤¸
Ġà¤ı à¤¨à¤¸
à¤¥ à¤ļ
b er
u e
à¤£ à¤µà¤²
Ġà¤ıà¤ķ à¤¤à¤°
Ġà¥© à¥¯
à¤° à¤ĺ
à¤ª à¤Ĺ
Ġà¤¬ à¤±
or e
ĠA l
Ġ7 5
à¤ľ à¤¹
à¤¬à¤° à¤ªà¤°
à¤¥ à¤ª
à¥ĩ, '
Ġà¤ĵà¤³à¤ĸ à¤¤
à¥Ģ. ..
Ġà¤°à¤¹ à¤¸
à¤« à¤¨
os t
n à¤Ĺ
à¤¯ à¤¨à¤²
à¤· à¤²
Ġà¤łà¤°à¤µ à¤£
end ra
Ġà¤² à¤¤
Ġà¤² à¤²
à¤ļ à¤¹
Ġà¤¬à¤¨ à¤£
Ġ201 5
à¤¦ à¤®à¤§
Ġ) </
Ġà¤¬à¤³ à¤ķà¤Ł
hack er
u k
ĠT o
à¤¾' ,
Ġt hat
us t
, "
an s
2 1
Ġà¤° à¤¨
Ġà¤ĺ à¤Łà¤¸
Ġà¤ħà¤® à¤²
ĠC h
hacker ay
à¤¢ à¤µà¤¤
-- --
à¤¶ à¤¹à¤°
à¤¸à¤° à¤ª
aw ar
. '
Ġà¤Ĩ à¤µà¤³
à¤§ à¤®
Ġà¤Ĳ à¤¶
à¤Ĩ à¤¹
à¤Ĺà¤£ à¤µ
Ġ. ..
à¤¸à¤® à¤µ
Ġà¤Ĳ à¤ķà¤£
Ġà¤īà¤ļà¤² à¤£
Ġà¤ł à¤ª
à¤Ĭ à¤°
Ġà¤īà¤¤à¤° à¤¤
à¤Ĺ à¤µà¤²
à¤Ĺ à¤§
à¤Ł à¤°à¤²
Ġà¥© à¥¦à¥¦
Ġà¤¨à¤Ĺà¤° à¤ªà¤°
Ġà¤ıà¤ķ à¤¸
Ġà¤§ à¤°à¤¤
Ġ201 6
p er
à¤ª à¤µà¤²
à¤Ĭ à¤Ł
Ġà¤¸à¤¹ à¤®à¤¤
ĠP at
Ġà¤¹ à¤¸à¤¨
Ġà¤® à¤¤à¤®
à¤ıà¤² à¤®à¤§
Ġà¥ª à¥©
a ch
e ct
Ġà¤Ĺ à¤µà¤¤
vern ment
Ġ X
à¤² à¤°à¤ļ
Ġà¤Ĩ à¤·
Ġà¤ı à¤ľà¤¨
à¤ķà¤° à¤¨
Ġà¤¸à¤¹à¤ľ à¤ªà¤£
Ġà¤ª à¤¥
à¤ĺ à¤£
à¤µà¤¡ à¤¤
Ġà¤Ĩ à¤¡à¤µ
le ction
_ _
Ġà¤ľ à¤²à¤µ
Ġà¤ĺ à¤¸à¤°à¤²
à¤¼ à¤¾à¤Ĥ
Ġn ot
à¥Ĥ '
Ġà¤ĩ à¤µ
Ġà¤Ĩà¤¯ à¤°
Ġ5 00
Ġ3 7
Ġà¤¶ à¤°à¤£
Ġ3 2
ĠA s
r y
à¤Ķ à¤°
M a
Ġà¤ªà¤° à¤Ńà¤£
Ġà¥« à¥¨
Ġ3 6
à¤¯à¤°à¤¸ à¤ļ
à¤¾ ),
Ġà¤® à¤ķà¤°
e e
à¥ ¥
at ed
Ġà¤µ à¤¸à¤¤
Ġà¤¦ à¤¸à¤°
Ġà¤ĩ à¤¯à¤¤
à¤ķ à¤¬
Ġà¤ħà¤¨ à¤¨
Ġà¤« à¤¡à¤ķ
el l
à¤® à¤¡
Ġà¤¨ à¤¸à¤£
Ġà¤Ĩà¤µ à¤ķ
Ġ i
Ġà¤¦à¤° à¤¬
à¤µà¤¡ à¤°
à¤¶à¤¨ à¤µà¤°
Ġà¤Ĩà¤¯ à¤ķà¤°
he d
ĠE d
à¤¨ à¤ªà¤¦
à¤Īà¤² à¤ļ
o h
à¤ªà¤° à¤¸
Ġà¤Ĳ à¤¨
Ġy ou
à¤Ĩà¤° à¤¡
à¤Ł à¤µà¤¡
Ġà¤§ à¤¡à¤ª
Ġà¤¤ à¤¨
à¤§ à¤ª
Ġ19 8
à¤Ĥ !
à¤¦ à¤¸
Ġà¤¨ à¤¹
à¤ĺ à¤¡
en s
hi k
ĠH e
oron a
, '
ĠS ub
Ġ9 0
e x
p ur
Ġà¤Ĩ à¤¡
Ġà¤¤ à¤²à¤µ
Ġà¤¦ à¤£
o un
Ġ =
à¤Ĺ à¤µà¤£
Ġà¤¨ à¤®à¤¸
en ce
Ġà¤¯ à¤ķ
à¤¶ à¤®à¤§
Ġà¤¨à¤µ à¤¨à¤µ
r u
à¤® à¤ł
Ġà¤Ĺ à¤³à¤¤
à¤°à¤£ à¤¤
n à¤Ń
à¤ħ à¤Ĺ
Ġà¤ĵ à¤Ŀ
Ġw e
9 9
Ġà¤ĸ à¤ľ
à¤¬ à¤®à¤§
Ġà¤Ĩà¤ľ à¤ª
hi v
P L
Ġà¤¦ à¤¡
Ġà¤Ń à¤¤
am e
ri me
ĠU p
Ġà¤ª à¤¦à¤°
à¤Ń à¤®
à¤¦ à¤¯à¤µ
à¤°à¤µ à¤¡
ĠT hackeray
à¤¹ à¤¬
à¤®à¤£ à¤ľ
à¤Ĩ à¤°à¤ª
à¤ĵ à¤²
Ġà¤ļà¤° à¤¬
Ġp ro
à¤¤ à¤Ĺà¤¤
à¤¨ à¤ľ
Ġà¥« à¥¬
c om
à¤¿ -
à¤ķ à¤¥
à¤¬ à¤¡à¤¤
à¤Ń à¤¤
à¤£ à¤¹
à¤ª à¤µà¤£
Ġw atch
l i
ĠP awar
Ġà¥ª à¥¯
Ġ3 3
à¤µà¤ľ à¤£
Ġà¤īà¤¤à¤° à¤£
à¥Ģ. "
à¤ī à¤¨à¤²
Ġà¤¢ à¤µà¤³
à¤² à¤«
à¤³ à¤¯
ar m
à¤¶à¤¨ à¤°
oc k
y s
à¥Ģ /
à¤¦ à¤¦
Ġà¤° à¤¥
à¤µà¤° à¤²
à¤Ŀ à¤®
à¥ª à¥¦
mit ted
? "
Ġà¤Ń à¤°à¤Ńà¤°
à¤°à¤¸ à¤®à¤ľ
Ġà¤ħà¤µ à¤§
1 7
à¤¶ à¤¤
ult ure
à¤· à¤Ń
Ġà¤ı à¤ħ
ak e
ig ht
Ġà¤īà¤¦ à¤¯à¤¨à¤°
à¤µ à¤ĺ
à¤Ł à¤Ĺ
Ġà¤¨ à¤ĸ
Ġà¤ľ à¤¤
Ġà¤ĵ à¤ķ
Ġe x
à¤¬à¤¤ à¤¹
uc ation
à¤¯ à¤¬à¤³
Ġà¥« à¥®
or d
à¤Ī à¤¬
à¤¸ à¤ķà¤°
à¤¹ à¤°à¤²
à¤ľ à¤¦à¤°
Ġà¤īà¤ª à¤¸à¤°à¤ª
à¤ªà¤¦ à¤ķ
à¤ĳ à¤ķ
Ġ all
2 3
Ġà¤° à¤¬
Ġà¤ıà¤¨ à¤¡
Ġà¤ļà¤ķ à¤®à¤ķ
I nd
o od
Ġ Â
à¤Ī à¤«
Ġà¥§à¥« à¥¦
B I
Ġ he
Ġà¤Ĩ à¤¸à¤¨
Ġ) .
Ġ it
à¤·à¤£ à¤®
Ġà¤Ĺà¤³ à¤«
Ġà¤ª à¤ļà¤¨
à¤ı à¤¶à¤¨à¤ļ
Ġà¤ªà¤¸ à¤°à¤¤
à¤°à¤¸ à¤°à¤£
an c
à¤ī à¤²
g e
a x
n à¤ħ
à¤¸ à¤¸à¤¹
à¤Ĩ à¤¯à¤ª
à¤ľà¤ª à¤ķà¤¡
ed ia
à¤· à¤ļ
1 4
a ck
à¤¸ à¤ľ
Ġà¤µ à¤³à¤µ
à¤¾. .
on g
à¤Łà¤ķ à¤¨
Ġà¤ĳ à¤ª
â Ģ¢
ric ulture
w w
Ġà¤ī à¤¦à¤°
Ġà¤Ĩà¤¶ à¤¯
Ġà¥¨à¥¦à¥§ à¥©
à¤³ à¤®
à¤ĺ à¤¡à¤²
Ġ: </
à¤ªà¤¡ à¤ªà¤Ł
à¤¡ à¤¦
à¤ĵ à¤¨
à¤ī à¤Ł
Ġà¤¦à¤¹à¤¶ à¤¤
ĠIn ter
a z
Ġà¤® à¤Ĭ
à¤Ĺ à¤ł
à¤Ĺ à¤ªà¤¤
Ġà¤ĺ à¤°à¤ķ
à¤Ń à¤ª
Ġv s
f orm
à¤¨ à¤ķà¤¡
Ġà¥§à¥¯ à¥«
à¤¸ à¤°à¤ķ
Ġà¤ķ à¤¤
Ġà¤ı à¤¬
Ġà¤ķà¤® à¤ķ
1 3
à¤¯ à¤Ŀà¤°
à¤°à¤ļ à¤²
Ġà¤Ĩà¤¦ à¤®
h er
à¤ľ à¤µà¤£
à¤² à¤¶
Ġà¤Ĩ à¤ĸà¤²
à¥Ģà¤Ĥ ;
à¤°à¤¸ à¤¹
à¤¯à¤® à¤¨
Ġà¤Ĩà¤ľ à¤ķ
i b
à¤Ĺ à¤µà¤°
Ġà¥® à¥«
ub l
p s
Ġà¥ª à¥¦à¥¦
Ġha ve
Ġà¤¯ à¤ľà¤®
Ġà¤ĺ à¤Łà¤²
à¤¾. "
à¤Ĩ à¤¨
Ġp l
Ġà¥« à¥©
Ġà¤¦à¤°à¤® à¤¹
Ġà¤Ĺà¤£ à¤¨
ir us
à¤Ŀ à¤²
a ce
h ot
à¥ĩ. .
Ġà¤ħà¤« à¤µ
Ġà¥ª à¥§
Ġ3 4
2 5
à¤£ à¤ķà¤°
ol d
Ġà¥« à¥ª
P une
Ġà¤Ĩ à¤°à¤¸
Ġà¤Ĺ à¤Ĺà¤¨
à¤ĩ à¤«
an j
Ġà¤¬ à¤¸à¤ļ
à¥¨ à¥ª
à¤Ń à¤µà¤¨
Ġà¤ĵ à¤¸
à¤Ł à¤ħà¤ª
Ġà¤ł à¤¸
Ġà¥¬ à¥ª
à¤£ à¤¬
à¥ĭà¤Ĥ ,
à¥¨ à¥¬
Ġà¤¤ à¤¦
à¤ľ à¤µà¤Ł
Ġà¤Ĺ à¤®à¤µ
Ġà¤Ń à¤ľà¤¨
Ġà¥¨à¥¦à¥¨ à¥©
P S
Ġà¤µ à¤³à¤²
à¤ľ à¤ªà¤¤
er v
Ġo ur
Ġà¤² à¤ªà¤µ
Ġà¤ĺ à¤¨
re am
erm al
Ġà¤ľ à¤¯à¤¸
à¤µà¤¨ à¤ķ
Ġ as
à¤ħà¤° à¤®à¤§
Ġ4 8
p r
Ġà¤ľà¤Ĺ à¤¨
à¤ı à¤¡
ermal ink
o us
Ġà¤Ľ à¤Ĺà¤¨
ĠSub mitted
à¤Ĥ '
à¤µ à¤ł
Ġà¥« à¥Ń
Ġà¤¬à¤¸ à¤µà¤²
Ġl ive
à¤Ł à¤°à¤ª
Ġà¤ħà¤¸ à¤¹
Ġà¤ĩ à¤¸à¤®
ĠEd ucation
I C
d d
g a
Ġ am
à¤¹ à¤±
à¤« à¤°à¤¨
à¤¡ à¤ĺ
ĠO n
Ġ Z
Ġ le
à¤ļ à¤µà¤¤
Ġà¤Ŀ à¤³à¤ķ
Ġ us
Ġà¤ľ à¤¤à¤¨
à¤ħà¤° à¤µà¤°
Ġà¤ªà¤Ł à¤µ
à¤¦à¤° à¤²
Ġà¤ĵ à¤ł
Ġà¤ĵ à¤°à¤¡
ĠC om
Ġà¥¨à¥¦à¥§ à¥¨
Ġw ill
à¥į ,
à¤£ à¤ªà¤¦à¤ķ
Ġà¤ª à¤³à¤µ
Ġà¤¨ à¤²
à¤°à¤ªà¤Ł à¤¸
ĠL if
Ġà¤ľ à¤¯à¤ª
à¤µà¤¨ à¤¶
ĠP ro
Ġà¤ħà¤ª à¤²
à¥¨ à¥®
is s
ad e
? \
S T
y le
à¤¨ à¤Ł
Ġà¤¹ à¤°à¤µà¤²
à¤¶ à¤µà¤²
Ġà¤¨à¤µ à¤µ
à¤¶à¤¨ à¤¸
Ġà¤¬à¤¸ à¤µà¤£
ĠT our
Ġà¥§à¥¯ à¥©
I N
Ġ ad
à¥ĭ !
à¤¥ à¤¶
à¤Ĩ à¤¡
à¤ŀ à¤¤
Ġà¤ĩà¤¤à¤° à¤¹
Ġà¥¬ à¥Ń
ĠC han
Ġà¤ª à¤¬
à¥ĩ. '
à¤ķà¤° à¤°
à¤ľà¤¨ à¤¨
à¤ĵ à¤¤
à¤ıà¤¨ à¤ľ
à¤ķ à¤µà¤¤
Ġà¤Ĺ à¤µà¤³
à¤¤ à¤¯
à¤¡ à¤¹
Ġà¤ī à¤łà¤µ
à¤¤à¤° à¤ª
Ġà¤ł à¤³à¤ķ
ind e
4 0
à¤Ī à¤ĵ
Ġà¤ªà¤° à¤«
à¤¤à¤ķ à¤ļ
Ġà¤ĵ à¤ĺ
6 0
c c
Ġà¤µ à¤²
à¤Ń à¤¦
Ġà¤łà¤°à¤µ à¤¤
k s
Ġà¤§ à¤¨à¤Ĺà¤°
ar i
en a
I n
Ġ or
Ġà¤¬ à¤Łà¤£
Ġà¤ķà¤¸ à¤¬
Ġà¥¨à¥¦à¥§ à¥§
Ġà¤Ĺà¤¡ à¤¦
E D
à¤ ĭ
Ġà¤® à¤¯à¤¤
is e
à¤¶à¤¨ à¤¨
H ome
Ġà¤Ľ à¤ª
Ġà¤® à¤¦à¤¨
à¤· à¤¬
Ġà¤ĩ à¤Łà¤²
à¤Ŀ à¤µ
à¤¤à¤°à¤£ à¤ļ
ob s
à¤ł à¤µà¤¤
à¤Ń à¤§
à¤ĺ à¤µ
Ġà¤§ à¤µà¤¨
à¤¬à¤° à¤¨
Ġà¤µà¤¸ à¤Ī
Ġà¤Ĳ à¤¸
c l
Ġà¤ĸ à¤ļ
à¤µà¤³ à¤£
à¤µà¤¨ à¤¸à¤¤
à¤ĵ à¤µ
Ġs u
nP ermalink
à¥ĩ ),
on s
Ġà¥« à¥§
Ġà¤Ī à¤®
) ;
à¤£ à¤¦
Ġà¤Ń à¤°à¤µ
à¤Łà¤² à¤ļ
à¤£ à¤£
à¤² à¤¢
Ġà¤¸à¤¹ à¤µ
Ġà¥¬ à¥©
Ġà¤¯ à¤¤
à¤°à¤® à¤µ
ĠR es
Ġ9 9
Ġà¤ľà¤¯ à¤¶
à¤² à¤ªà¤°
! !
Ġ are
à¤¹ à¤¦
Ġà¤¸ à¤¦à¤¨
Ġà¤Ń à¤¡
à¤§à¤µ à¤Ł
Ġà¥¬ à¥®
ab le
J P
or ld
à¤ļ à¤²à¤¨
Ġà¤¶ à¤²
Ġà¤ī à¤£
à¤Ĩ à¤ķ
Ġà¥® à¥ª
Ġà¤Ĺà¤¤ à¤µà¤°
Ġà¤° à¤ļ
à¤ħ à¤¤
in es
Ġg o
Ġà¤ª à¤ª
Ġà¤ħ à¤Łà¤²
à¤Ń à¤¯
Ġà¤¤à¤¡ à¤ľ
à¤¨ à¤µà¤¤
Ġà¥¬ à¥¬
ro w
E O
Ġ un
à¤ļ à¤ªà¤¤
Ġà¤ĩ à¤·
à¤Ĭ à¤ļ
Ġt his
Ġà¥¯ à¥«
à¤¸ à¤³à¤¤
à¤³ à¤Ĺà¤£
Ġà¤ķà¤° à¤®
ĠE x
Ġà¥Ń à¥¨
ĠTour ism
' .
n el
à¤ĸ à¤ļ
à¤¯à¤¨ à¤¶
Ġl ocal
à¤« à¤ķ
Ġà¥« à¥¯
Ġ3 8
à¤¯ à¤¨à¤ļ
à¤Łà¤¨ à¤ļ
Ġ6 5
Ġ201 0
us h
od i
Ma harashtra
A T
a ut
à¤¯ à¤¡à¤°
à¤¬ à¤µà¤¤
Ġà¤¸à¤¹ à¤²
à¤¬à¤Ī à¤®à¤§
ar athi
ide o
Ġà¤° à¤£à¤¨
à¤ł à¤ļ
à¤ķà¤° à¤²
à¤ī à¤¸
it le
à¥ģ -
Ġ- -
Ġà¤ĵ à¤¡
" .
t s
à¤¸ à¤Ł
à¤¦ à¤µà¤£
à¤ħ à¤°à¤®à¤¨
à¥ª à¥«
Ġà¥Ń à¥Ń
ĠD iv
est yle
Ġà¤¯ à¤®
ĠP M
ct or
ri g
à¤µ à¤®à¤§
à¤ī à¤ª
ht t
à¤¹ à¤ª
Ġà¤ĸ à¤Ł
à¤²à¤ķ à¤¤
à¤¦à¤¶ à¤¹
P O
à¤¸ à¤³à¤£
à¤¶ à¤Ńà¤ķ
Ġà¤° à¤£à¤µ
Ġà¤Ĩà¤ļ à¤°à¤£
: /
à¤¦ à¤Ń
Ġ5 5
Ġc an
ment s
ĠJ obs
Ġà¤īà¤ª à¤®à¤¹
Ġà¥® à¥®
à¤ı à¤µà¤¢
à¤Ĩ à¤¦
à¤Ĥ. \
à¤¦à¤¤ à¤µ
Ġà¤ħà¤² à¤°
à¤ľà¤µà¤³ à¤ļ
Ġa g
n a
à¤¸ à¤¶
Ġà¤Ĩà¤¯ à¤«
al e
Ġs p
ion s
ĠMar ket
n à¤²
à¤¯ à¤¯à¤¨
ic al
à¤¤ à¤°à¤ķ
à¤µ à¤µà¤¤
à¤³ à¤ªà¤Ł
Ġ3 00
ĠA n
Ġ) ,
h one
Ġà¤¶ à¤µà¤µ
Ġà¤Ĺ à¤Łà¤¨
à¤¬ à¤µà¤°
à¤¸à¤ķ à¤Ł
ĠP l
à¤ıà¤® à¤ıà¤¸
ĠLif estyle
i re
à¤ĸ à¤Ł
Ġà¤īà¤ĺ à¤¡à¤¤
:/ /
! \
à¤ĩ à¤ľ
Ġà¤īà¤® à¤°
ream ing
C h
n ath
p ort
à¤° à¤µà¤¸
à¤ª à¤°à¤µ
à¤ı à¤Łà¤°
à¤Ĩ à¤Ī
Ġà¤ĳ à¤¬
Ġà¤īà¤® à¤Łà¤²
Ġs o
à¤ļ à¤°à¤£
Ġà¤® à¤Ł
Ġà¤ĩ à¤¬
or p
Ġà¤«à¤² à¤Łà¤£
à¥Ģ. .
Ġà¤ıà¤ķ à¤ľ
at a
ĠA r
Ġà¥Ń à¥¬
Ġà¤ļ à¤ª
Ġà¤ī à¤¡à¤¤
r it
Ġà¤ľ à¤¬à¤°
Ġà¤Ń à¤¡à¤ķ
Ġà¤¬à¤¸ à¤®à¤§
Ġà¤¸ à¤Ł
Ġ4 4
Ġà¥§à¥¯ à¥¦
ĠSt reaming
Ġà¤ļà¤®à¤ķ à¤¦
Ġà¤§à¤¡à¤ª à¤¡
à¥ĭ à¤ĥ
ol l
Ġà¤ĵà¤³à¤ĸ à¤£
ĠPol ice
Ġ $
à¤Ń à¤³
Ġà¤Ń à¤°à¤§
Ġà¤ĳ à¤¨
à¥¨ à¥Ń
ĠChan nel
à¥Ģ, "
à¤µà¤¡ à¤ķ
Ġà¥¯ à¥¯
à¤Īà¤Ł à¤µà¤°
Ġâ Ģ¢
Ġà¤ ĥ
Ġà¤ľ à¤ªà¤£
Ġà¤²à¤¢ à¤µà¤£
im e
Ġà¤ļ à¤®
Ġà¤ªà¤¦ à¤Ń
at i
Ġà¤ªà¤Łà¤ķ à¤¨
s s
Ġà¤ĩ à¤Ł
an ce
Ġà¥Ń à¥®
ĠT v
n ational
Ġà¤¦à¤Ĺà¤¡ à¤«
h y
à ¦
à¤³ à¤ķà¤¤
Ġà¤¬ à¤Ĺ
Ġà¤ļ à¤¢à¤²
Ġà¤īà¤ª à¤Ĺ
Ġà¤Ĩà¤° à¤¬
s e
à¤² à¤ªà¤Ł
à¤Ł à¤¸à¤¹
à¤Ĩ à¤ĺ
à¤®à¤ķ à¤¤
le d
à¤µ à¤ªà¤ķ
à¥¬ à¥¦
Ġà¤īà¤¤à¤° à¤µ
à¤ĵ à¤ª
à¤µà¤ª à¤³
Ġà¥¯ à¥®
à¤· à¤¶
à¤ī à¤²à¤Ł
is ter
Ġà¤ªà¤° à¤³
Ġà¤Ĩà¤ªà¤£ à¤ļ
à¥© à¥Ń
Ġà¥¯ à¥Ń
Ġà¤ıà¤® à¤ıà¤¸
ĠJ io
M umbai
Ġà¤µ à¤³à¤¤
Ġà¤² à¤¯
Ġà¤Ń à¤¨
Ġà¤ī à¤¬à¤¦
à¤¾ à¤¾
à¤ª à¤ª
à¤« à¤ļ
Ġà¥¬ à¥¯
ay s
à¤Ĥ -
à¤µ à¤¯à¤ķ
Ġà¤² à¤µà¤ļ
Ġà¤µà¤° à¤¦
Ġj our
à¤£ à¤ĺ
Ġà¤ħ à¤łà¤°
Ġà¤¨ à¤Ł
Ġà¤° à¤¡à¤¤
à¤¤à¤° à¤¦
à¤Īà¤² à¤µà¤°
Ġà¤¥ à¤ķà¤µ
ad i
ĠPat il
à¤ľ à¤³
à¤ı à¤ª
ol og
ut e
à¤ļ à¤ªà¤¦
Ġà¤¹ à¤Łà¤ķ
à¤¬ à¤²à¤ķ
Ġà¤ħà¤µ à¤®
Ġà¥Ń à¥ª
ĠD e
ĠDiv ya
à¥į '
Ġà¤µ à¤¸à¤²
à¤ĩ à¤ª
Ġ4 2
Ġ4 7
Ġà¤īà¤² à¤Łà¤²
Ġ19 7
à¤¹ à¤¶
à¥ĭ )
à¤· à¤µà¤°
Ġà¤ªà¤° à¤µà¤¡à¤£
à¤¸à¤¨ à¤²
. )
à¤¶ à¤Ń
Ġà¤¦ à¤Ĺ
or y
e ed
à¤® à¤ķà¤°
Ġà¤ķà¤® à¤°
ĠT e
ag ar
Ġà¤¢à¤ķà¤² à¤£
Ġà¤īà¤ª à¤ª
is hed
Ġ15 0
ID EO
à¤Ĺ à¤¬
Ġà¤µ à¤³à¤¸
à¤¡ à¤°à¤²
it ies
à¤ıà¤« à¤ļ
Ġ al
Ġà¤² à¤¡
Ġà¤¥ à¤ķà¤²
ri b
à¤Ĩ à¤¶
Ġ201 1
og le
ĠSh inde
Ġà¤īà¤ª à¤Ń
à¤Ĺà¤¤ à¤ļ
à¤ªà¤° à¤¹
ĠM in
ĠP r
Ġà¤ĳà¤« à¤²
à¤¶ à¤ķà¤°
à¤ķà¤° à¤¦
à¥ħ à¤ģ
à¥¨ à¥¯
an i
à¤¡à¤³ à¤ķà¤°
ĠG en
Ġà¤īà¤¡ à¤µà¤²
ation s
e et
à¤ľ à¤ķà¤¡
à¤ľ à¤µà¤¤
Ġà¤ľ à¤®à¤¤
à¤Ń à¤¨
Ġà¤Ĩà¤¢ à¤³à¤£
ĠT itle
Ġ @
à¥ĩ à¥ĩ
à¤¯ à¤°à¤ļ
à¤· à¤²à¤µ
Ġà¤Ń à¤²à¤¤
à¥ī à¤ģ
à¤°à¤¶ à¤ķ
à¤®à¤¨ à¤¸
on t
Ġà¤¨à¤ķ à¤³à¤¤
hat s
Ġà¤ħ à¤µà¤°
à¤Ĺ à¤°à¤ļ
Ġà¤¨ à¤°à¤¸
à¤ħ à¤ľ
on d
Ġà¥¨à¥¦à¥¦ à¥¯
h u
Ġà¤¹ à¤¡à¤ª
Ġà¤ķà¤¸ à¤°à¤¤
al th
Ġ201 2
Ġin d
Ġw ho
ĠF or
P M
à¤¯ à¤ĺà¤Łà¤¨
à¤ķ à¤ķà¤°
à¤¾à¤Ĥ à¤Ĥ
à¤Ń à¤µà¤£
à¤Ĩ à¤²
à¤ľ à¤¡
Ġà¤² à¤Łà¤ķ
à¤ĵ à¤¸
ing s
ve l
à¤£ à¤®à¤§
Ġà¤ª à¤¸à¤°
Ġà¤® à¤ł
Ġà¤² à¤¢à¤²
à¤ĸ à¤¨à¤¨
Ġà¥Ń à¥¯
Ġà¤Ńà¤Ĺà¤¤ à¤¸
2 6
n i
o ok
à¤¨ à¤¤à¤°
à¤¨ à¤¸à¤°
Ġà¤ī à¤°à¤£
Ġ4 00
Ġ19 6
Ġà¤¯ à¤¹
à¤ĩ à¤¨à¤ļ
G B
Ġà¤ £
Ġà¤¸à¤¹ à¤¯
à¤¹à¤¨ à¤¹
Ġà¤Ķ à¤ªà¤ļ
Ġh as
l ess
Ġà¤¦ à¤³à¤µ
Ġà¤Ĺ à¤¸
at er
Ġ3 9
Ġà¤īà¤ļ à¤²à¤¤
à¤¨ à¤¸à¤¹
Ġà¤ķ à¤³à¤£
Ġà¤ħà¤¨ à¤²
à¤ľà¤¨ à¤¶
à¥© à¥«
ĠE lection
g l
p l
à¤¤ à¤Ĳà¤µà¤ľ
à¤£ à¤ľ
Ġà¤Ĺ à¤¯
Ġà¥¯ à¥¬
à¤Ĩà¤¯ à¤Ĩà¤°
à¤ıà¤® à¤Ĩà¤°à¤¡
r ed
à¤£ à¤µà¤£
à¤³ à¤®à¤§
Ġà¤¬ à¤¬
Ġà¤ķà¤° à¤ª
Ġà¤ıà¤ķ à¤®à¤¤
à¥Ģ, '
à¤¾? "
Ġ200 7
à¤®à¤ļ à¤°
à¤Ĭà¤¨ à¤®
Ġà¤ķà¤® à¤³
Ġà¥¨à¥¦ à¥¦à¥¦
al i
Ġà¤Ķ à¤ļ
à¤¨à¤¯ à¤Ń
Ġà¤īà¤¦à¤° à¤¨
p t
à¤° à¤¬à¤³
Ġà¤ļ à¤¢à¤¤
Ġà¤ı à¤®à¤ª
Ġà¤Ĺà¤£ à¤µ
Ġà¤Ĩà¤Ī à¤µà¤¡
à¤³ à¤ªà¤°
à¤ı à¤¸à¤ļ
Ġ4 3
Ġà¤Ĺà¤Ł à¤µ
k nath
Ġà¤¶ à¤ª
à¤¶à¤¨ à¤¶
à¤¡ à¤¨à¤®à¤§
à¥® à¥¦
al a
Ġà¥§à¥¨ à¥¦
à¤¾ /
à¤ļ à¤Ĺ
Ġà¤Ĺ à¤ľà¤°
à¤¢ à¤¤à¤ļ
ing h
à¤Ĩà¤° à¤Ł
Ġà¤²à¤¢ à¤µà¤²
ĠV IDEO
Â ·
à¤Ī à¤°
Ġà¤ªà¤°à¤¤ à¤«
Ġà¥¨à¥« à¥¦
Ġà¤į à¤ķ
C B
Ġà¤ķ à¤µà¤ļ
er e
Ġà¥¬ à¥¨
ĠC rime
Ġà¤¸à¤« à¤°à¤ļ
orp or
8 0
à¤¯ à¤¡à¤¨
à¤ķ à¤ĺà¤°
à¤¸à¤¨ à¤Ĺà¤°
à¤ĵ à¤®
Ġà¥® à¥¯
id ent
Ġà¤¦à¤¡ à¤ªà¤£
n à¤ļ
Ġà¤ª à¤³à¤¤
à¤ľ à¤¯à¤ķ
Ġà¤ı à¤°à¤µ
à¤Ī à¤®à¤§
Ġà¤Ĩà¤° à¤¡
à¤§ à¤µà¤°
à¤¬ à¤°à¤¤
à¤°à¤¶ à¤¸
Ġà¤ªà¤Ł à¤µà¤°
Ġà¤¹à¤Ł à¤µà¤£
ĠUp d
ubl ished
à¤¸ à¤°à¤ķà¤°
Ġà¤ªà¤¡ à¤¸
Ġà¤ĺà¤¡ à¤µà¤£
oc ial
Ġà¤ª à¤¡à¤³à¤ķà¤°
Ġà¤² à¤¶
Ġà¥¬ à¥§
Ġà¥® à¥¬
à¤ª à¤¡à¤£
Ġà¤¡ à¤¹
à¤¯à¤ļ à¤ķ
Ġà¤ĺà¤° à¤«
à¥ĩ à¤¼
Ġà¤ļ à¤·
à¤Ĭ à¤¦
à¤Ĺà¤£ à¤¨
ĠS c
Ġà¥® à¥Ń
os s
ĠAg riculture
à¤µ à¤¨à¤ļ
à¤µ à¤§à¤°
Ġà¤ĸ à¤¬à¤°
Ġà¤ªà¤° à¤¶
à¤ į
à¤¸ à¤«à¤°
Ġà¤Ĩ à¤Ĺà¤³
Ġà¤ķà¤° à¤¦
à¤Ĩ à¤Ĺ
in a
an e
Ġà¤ķà¤¡ à¤ķà¤¡
> "
s k
Ġà¤ª à¤Łà¤¤
Ġà¤ĩ à¤«
Ġà¤ħà¤¨ à¤ª
Ġà¥¯ à¥ª
Ġà¤¨à¤Ĺ à¤°à¤µ
à¤¤ à¤¸à¤°
Ġà¤¦ à¤³à¤£
ic h
ĠInter national
Ġà¤¶à¤ª à¤¥à¤µ
t e
Ġà¤¨ à¤¬
Ġà¤ľ à¤Ł
Ġà¤¬ à¤¤
à¤Ī à¤¨à¤ļ
à¤°à¤® à¤¶
à¤ı à¤®à¤ļ
à¤Ĩ à¤°à¤¸
Ġà¤Ĩà¤ªà¤£ à¤¹
Ġà¤īà¤® à¤Ł
Ġà¥¯ à¥¨
Ġà¥¨à¥¦à¥§ à¥¦
Ġà¤µà¤¡ à¤Ĺ
Ġw as
Ġà¥¨à¥¦à¥¦ à¥®
S E
o ut
à¤Ĭà¤¨ à¤²
Ġà¤¦à¤° à¤¡
ĠM odi
m er
n à¤ıà¤ķ
à¤ħ à¤®à¤°
Ġ201 3
20 16
à¤ļ à¤µà¤Ł
à¤® à¤ªà¤£
Ġà¤² à¤¹à¤°
à¤Ĩ à¤ł
à¥© à¥©
or k
ĠA t
Ġà¤ıà¤¨ à¤Ĩà¤¯
Ġà¤ıà¤ļ à¤¡
I A
t a
Ġ Q
à¤¹ à¤°à¤ļ
Ġà¤Ĺ à¤ļ
Ġà¤ļ à¤·à¤ķ
à¤Łà¤ķ à¤ļ
Ġà¤ĵ à¤¢à¤²
Ġà¤īà¤ªà¤¸ à¤Ń
Ġ4 6
Ġà¤ķà¤³ à¤µà¤²
Ġà¤Ĺà¤¡ à¤¬à¤¡
à¤¸ à¤Ĺà¤¡
à¤¶ à¤µà¤¤
à¤Ī à¤µà¤°
Ġ5 2
à¤¯à¤¶ à¤¸
o y
à¤µà¤¸ à¤®
à¤ĩ à¤¤
Ġà¤¸à¤® à¤ķ
à¤¾à¥ħ .
A N
à¤® à¤£à¤¤
Ġà¤Ĩ à¤ī
Ġà¤¨ à¤°à¤ķ
Ġà¤¨à¤µ à¤ľ
Ġà¤ĵà¤³à¤ĸ à¤ªà¤¤
anj ay
Ġ htt
Ġà¤ķ à¤¬à¤¡
Ġà¤¹ à¤¯
Ġà¤Ĺ à¤ł
Ġà¤Ĩà¤ª à¤Ł
Ġr es
Ġgo vernment
C P
à¤Ł à¤ĸ
rig ht
Ġà¤ıà¤ķ à¤ª
Ġà¤¸à¤® à¤µ
c ess
à¤° à¤Ĺà¤°
Ġà¤¯ à¤·
Ġà¤¨ à¤¤
Ġà¤ľ à¤¯à¤¦
Ġà¤ļ à¤¢à¤µ
à¤² à¤ķà¤²
Ġà¤° à¤®à¤£
Ġà¥¯ à¥©
Ġ6 4
Ġà¥§à¥® à¥¯
dd hav
] \
à¤° à¤¤à¤°à¤¤
à¤ļ à¤°à¤²
Ġà¤Ĩ à¤µà¤°à¤£
Ġà¤® à¤°à¤¤
à¤ª à¤ªà¤¤
à¤Ĩ à¤ľà¤ļ
it s
à¤°à¤³ à¤®à¤§
Ġà¤īà¤²à¤Ĺ à¤¡
à¥ ĳ
à¤¿ '
à¤µ à¤¬à¤³
à¤¬ à¤Ĺ
à¤ĸ à¤°à¤ª
à¤°à¤® à¤¸
Ġà¤ªà¤°à¤¤ à¤¤
Ġà¥Ń à¥©
am b
B JP
Ġ ra
à¤ķ à¤¸à¤¹
à¤ķà¤° à¤®
à¤ĥ -
à¤¯à¤² à¤Ł
à¥« à¥Ń
bo ut
à¤¯ à¤Ĺà¤°
à¤¯à¤® à¤¯
ne y
Ġà¤Ĩ à¤ķà¤²à¤¨
Ġà¤¤ à¤Łà¤ķà¤°
à¤¦ à¤ĸ
à¤¡ à¤µà¤¤
Ġ13 9
Ġà¤µà¤Ĺà¤³ à¤£
à¤° à¤³à¤ķ
à¥Ģ (
Ġà¤Ĩ à¤¯à¤¤
Ġà¤ľ à¤¯à¤ķ
Ġà¤° à¤ľà¤¨
Ġ5 6
le ct
Ġ0 1
ig n
A pp
o ve
à¤ª à¤ķà¤°
à¤Ĺ à¤°à¤®
à¤· à¤ªà¤£
à¤°à¤ķ à¤ļ
Ġà¤¸à¤® à¤¯
à¥¨ à¥¦à¥¦
as hik
ĠI t
Ġà¤Ĩà¤Ī à¤¸
Ġà¤ĺà¤¡ à¤µà¤²
S hiv
à¤µ à¤ĸ
Ġà¤® à¤®
à¤¶ à¤ľ
à¥Ī ,
Ġà¤ĩ à¤Ĺ
Ġà¤Ī à¤¸
av irus
: :
j it
à¤ļ à¤µà¤°
Ġà¤¬ à¤¨à¤¸
Ġà¤ļ à¤Łà¤ķ
Ġà¥¬ à¥¦à¥¦
2 9
ð Ł
Ġà¤ī à¤łà¤µà¤²
Ġà¤Ĩà¤ª à¤¸
oron avirus
à¤¾ (
à¤ķ à¤«
à¤Ń à¤Ł
à¤Ń à¤°à¤£
à¤¸à¤¨ à¤ļ
à¤¨à¤¸ à¤¶
à¤Ĩà¤¯ à¤¡
Ġà¤Ĭ à¤¨
à¤¤ à¤ĸ
Ġà¤Ĩ à¤Ĭà¤Ł
Ġà¤¤ à¤µ
à¤Ł à¤¡
à¤« à¤¸à¤«
Ġà¥Ń à¥§
à¥ĩ? \
R aj
n av
à¤¨ à¤°à¤ļ
à¤ķ à¤ķà¤²
à¤§ à¤¡
Ġà¤ľà¤¨ à¤¹
ad l
ĠB y
Ġà¤ªà¤°à¤® à¤¬
Ġh y
hot o
Ġà¤ĺ à¤¶
Ġà¤« à¤¡
Ġà¤µà¤° à¤³
ar a
ar n
à¤¤à¤® à¤ľ
Ġà¤§à¤¡ à¤ķà¤²
A M
à¤¨ à¤«
Ġà¤¸ à¤¡
Ġà¤ķà¤° à¤¨
à¤ķà¤² à¤ļ
en c
it e
Ġà¤į à¤¸
i e
m ber
à¥ Ĵ
à¤Ĥ ;
Ġà¤ħ à¤¯à¤¶à¤¸
re e
à¤ıà¤¨ à¤ı
ag ram
2 8
Ġà¤Ĩà¤¤ à¤¡
Ġà¤īà¤® à¤Łà¤¤
Ġ4 1
à¤ıà¤¸ à¤Ī
2 00
l es
d ay
r al
Ġà¤Ĩ à¤ĸà¤£
Ġà¤® à¤Ĺà¤°
à¤ª à¤¦à¤°
Ġà¤¤ à¤Ĺ
à¤°à¤¸ à¤Ń
à¤ħ à¤¹
st agram
Ġà¤ĺ à¤¸à¤°
à¤¹à¤£ à¤²
ver s
à¤²à¤Ĺà¤¤ à¤ļ
S S
Ġà¤° à¤¯à¤¤
Ġà¤Ŀ à¤°
Ġà¤« à¤¤
à¥© à¥®
Ġ? "
Ġ25 0
4 7
C C
Ġ5 1
Ġà¤īà¤ł à¤¤
Ġà¤¢à¤ķà¤² à¤²
à¥ĩ à¥¤
Ġ( '
Ġà¤¸à¤¦ à¤°à¤ļ
! "
à¤Ł à¤µà¤¸
Ġà¤¨ à¤µà¤¸
Ġà¤¬ à¤°à¤¸
à¤¾, "
Ġà¤ľà¤¨ à¤°
ĠA d
Ġ9 5
à¤ıà¤¸ à¤Ĩà¤¯
ĠC hi
ĠGo ogle
m an
Ã ĳ
Ġà¤Ń à¤¦
Ġà¤Ł à¤³à¤²
à¤ĺ à¤Łà¤ķ
à¤¾, '
à¤Łà¤¨ à¤®à¤§
Ġà¤¸à¤°à¤ķ à¤¤
Ġà¤ıà¤® à¤¬
Ġà¤ĭ à¤£
Ġà¤į à¤¡
A n
n Home
à¤¾ à¥Ī
à¤ļ à¤ªà¤°
Ġà¤ľ à¤ªà¤²
à¤ı à¤ĸ
à¤®à¤¨ à¤Ĺà¤°
ĠS ingh
Ġà¤ªà¤°à¤¤ à¤£
Ġs h
à¤µ à¤Ī
Ġà¤ļ à¤¢à¤£
Ġà¤ªà¤¤ à¤¸
Ġ4 9
27 4
ï ¿
à¤ļ à¤°à¤ļ
Ġà¤¹ à¤°à¤Ńà¤°
à¤¾. ]\
Ġà¤ĸ à¤£
à¤°à¤£ à¤µ
Ġà¤ĩ à¤°à¤«
à¥ª à¥®
à¥© à¥¨
à¤ī à¤°
as ed
Ġà¤ªà¤¸ à¤°à¤µ
Ind ia
à¤·à¤¯ à¤°
our t
Ġà¤ıà¤« à¤Ĩà¤¯à¤Ĩà¤°
Ġà¤ªà¤ł à¤£
Ġà¤¸ à¤Ĺ
à¤¾à¤Ĥ .
à¤Ł à¤ªà¤°
à¤Ł Ãĳ
à¤¤à¤ļ à¤°
Ġà¤ľà¤® à¤µ
ĠSt ain
g h
Ġà¤ķ à¤Łà¤ķ
Ġà¤ħ à¤³
à¤Ĺ à¤°à¤£
Ġà¤« à¤¸à¤µ
à¤ľà¤ª à¤µà¤°
Ġà¥® à¥©
Ġà¤°à¤£ à¤¬
ĠGen es
d e
m ed
Ġà¤ħ à¤ªà¤¤
Ġà¤¬ à¤ľà¤°
à¤ĸ à¤¸
à¤« à¤¡à¤£à¤µ
à¤µà¤¨ à¤¸
à¤µà¤§ à¤Ĺ
Ġ8 5
ĠJ ind
iss ion
ĠJind al
3 1
Ġà¤Ĩ à¤¯à¤ķ
Ġà¤¸ à¤«à¤°
Ġà¤ľ à¤¸à¤ª
Ġà¤Ŀ à¤²à¤ķ
à¤Ĭà¤¨ à¤®à¤§
Ġà¤Ĩà¤¯ à¤Ĩà¤¯à¤Ł
à¥ª à¥Ń
Ġ19 5
ĠStain less
ĠGenes ys
b i
Ġ hi
Ġà¤® à¤µ
à¤³ à¤Ĺà¤²
à¤Ń à¤°à¤¤
à¤¤à¤° à¤²
Ġà¤īà¤ª à¤ħà¤§
in i
it al
ol ice
Ġd e
Ġà¤ĭà¤· à¤Ń
ï¿ ½
0 3
à¤ª à¤³à¤Ĺ
Ġà¤ħ à¤¥
Ġà¤¹ à¤°à¤µ
in s
Ġà¤®à¤² à¤Ī
Ġà¤¸à¤¤ à¤¤à¤ļ
à¤®à¤¸ à¤Ń
le ase
adl ines
d er
à¤ļ à¤¡
Ġà¤« à¤¸à¤²
Ġà¤¡ à¤¬à¤²
Ġà¤Ĩà¤¯ à¤Łà¤®
à¥¯ à¥¦
à¤¾? \
un g
à¤ıà¤« à¤¸
ec ial
Ġà¤¹à¤¡à¤ª à¤¸à¤°
n à¤Ĩà¤ªà¤²
à¤¹ à¤Ĺà¤¡
à¤ľ à¤¯à¤¨
Ġà¤² à¤ĸ
à¤¤à¤ķ à¤®
Ġà¤ĩà¤¤à¤° à¤¤
Ġà¥® à¥¨
Ġà¤Ī à¤µ
ent s
à¤ıà¤® à¤Ł
4 5
à¤¬ à¤²à¤ļ
Ġà¤ķà¤® à¤ľ
/ -
t i
Ġà¤ķ à¤«
Ġà¤ķ à¤¡à¤µ
Ġà¤¸ à¤Ī
à¤ª à¤°à¤®
à¤ľ à¤Ń
à¤¸à¤¨ à¤¸
à¤ıà¤¸ à¤ıà¤¸
ad nav
à¤µà¤Ł à¤ªà¤°
ga on
adnav is
à¤° à¤¤à¤°
à¤ķ à¤¸à¤¤
Ġà¤¸ à¤ķà¤²
à¤Ł à¤¶
à¤¶ à¤¤à¤ķ
Ġà¤¦ à¤£à¤ķ
Ġ' ,
Ġà¤ķà¤® à¤µ
Ġà¤ıà¤¸ à¤¯
ĠR aj
Ġà¤ķà¤³ à¤¸
Ġ200 9
à¤¬à¤§ à¤¬
ev endra
g an
Ġ x
à¤¤ à¤ľà¤®
à¤¸ à¤¬à¤°
à¤¸ à¤ªà¤£
à¤Ĺ à¤ľà¤¨
Ġà¤² à¤ł
Ġà¤¸à¤® à¤²
à¤°à¤ª à¤¡
à¤µà¤³ à¤²
à¤ªà¤£ à¤¨
Ġ5 8
à¤¹à¤² à¤ªà¤®
Ġm e
Ġ200 8
---- ----
w ay
à¤°à¤£ à¤¹
Ġà¤¸à¤® à¤Ń
à¤¸à¤² à¤ļ
à¥Ń à¥«
Ġà¤ıà¤² à¤Īà¤¡
oun t
A R
r on
Ġà¤ķ à¤¢
Ġà¤¤ à¤Łà¤¸
Ġà¤ħ à¤²à¤Ĺ
Ġà¤° à¤¬à¤°
Ġà¤Ĺ à¤¨
Ġà¤ī à¤Ĺà¤®
à¤Ī à¤¶
à¤ķà¤° à¤µ
Ġà¥¨ 0
Ġà¤ħà¤ķ à¤¬à¤°
ĠW hats
Ġy our
) :
3 5
C orona
à¤¸ à¤ĺ
à¤¡ à¤ķà¤¡
à¤¬ à¤°à¤®
à¤ĺ à¤¡à¤£
am s
Ġà¤²à¤ĺ à¤µ
s h
Ġà¤¬ à¤¡à¤Ĺ
Ġà¤ı à¤Ĺ
Ġà¤ĸ à¤Ĺ
à¤°à¤ĸ à¤°
à¤°à¤ªà¤Ł à¤Ĺ
en g
Ġs c
ir st
Ġà¥§à¥¦à¥¦ à¥¦
Ġà¤Ŀà¤³ à¤ķà¤²
Ġà¤ķ à¤£à¤ķ
à¥Ĥ )
Ġà¤¹ à¤°à¤£
à¤³ à¤Ń
à¤³ à¤Ĺà¤¤
à¤ł à¤ªà¤£
à¤ı à¤¸à¤ķ
à¤¬à¤Ī à¤¹
à¥« à¥«
à¤ľà¤° à¤¨
à¤ıà¤¸ à¤ª
Ġà¥® à¥§
Ġà¥® à¥¦à¥¦
à¤ĳ à¤«
ub e
M P
a ct
l ar
n à¤Ł
à¤¾ à¥¤
à¤¸ à¤¦à¤°
Ġà¤¸ à¤¡à¤ķ
Ġà¤ª à¤Ĺà¤¡
Ġà¤¨ à¤¯à¤¨
à¤ł à¤¬à¤³
à¤¯à¤ķ à¤¡
Ġà¤§ à¤¬à¤§à¤¬
Ġà¤Ĩà¤ľ à¤®
à¤¸à¤¨ à¤¨
Ġà¤Ľ à¤Ł
à¥Ń à¥¦
ĠHe adlines
Ġsu pp
Ġà¤ľ à¤³à¤ľ
à¥© à¥§
ic s
Ġà¤¸à¤¨ à¤¦
Ġp e
Ġà¤īà¤ĺà¤¡ à¤ªà¤£
ĠK han
ĠO f
Ġà¤ļà¤¢ à¤µà¤²
Ġà¤ķ à¤¹à¤°
ĠY ou
Ġhy per
à¤ĩ à¤¤à¤°
Ġ20 00
Ġp r
3 7
P hone
S har
b s
m b
à¤¹ à¤ķà¤°
Ġà¤¤ à¤«
Ġà¤Ŀ à¤Ĺ
à¤¯à¤¤ à¤ķ
Ġà¤Ĩà¤° à¤ª
Ġà¤ķà¤² à¤°
ĠA M
Ġ5 4
Ġs e
Ġ6 7
Ġre ad
ac c
bo ok
Ġà¤¦à¤³à¤£ à¤µà¤³à¤£
I PL
Ġà¤ķ à¤µà¤¡
Ġà¤¨à¤µ à¤µà¤°
à¤ĵ à¤°à¤¡
à¥© à¥ª
it ion
Ġc o
ra p
io us
E T
S h
n à¤«
à¥ĩ (
à¤¬à¤° à¤µà¤°
à¤¬à¤Ī à¤¸
Ġà¥§à¥® à¥®
Ġà¤ªà¤¸ à¤°à¤µà¤£
ĠW orld
S C
r ol
à¤² à¤¥
à¤£ à¤°
Ġà¤Ĩ à¤°à¤®
Ġà¤® à¤¥
Ġà¤¨ à¤¡
Ġà¤ī à¤ķà¤³
Ġà¤Ŀ à¤Łà¤ªà¤Ł
à¤°à¤® à¤ļ
à¤°à¤µ à¤³
à¤Ĩ à¤īà¤Ł
à¤¬à¤Ī à¤¤à¤²
or s
Ġt ake
Ġà¤Ĩà¤Ī à¤¬
l ic
r ans
Ġ im
Ġà¤¹ à¤°à¤²
à¤Łà¤² à¤µà¤°
à¤Łà¤¨ à¤°
à¤¬à¤Ī à¤¸à¤¹
à¤ıà¤® à¤Ĩà¤¯
Ġa bout
D A
w it
à¤¯ à¤ªà¤°
Ġà¤¸ à¤¶à¤¸
à¤Ĭ à¤¥
à¤¼ à¥ĩ
Ġà¤Ĩà¤® à¤¨
Ġà¤ľà¤¨ à¤ķ
à¥© à¥¬
Ġc ities
S t
T he
m p
à¤µ à¤ªà¤¦
Ġà¤¤ à¤Ł
à¤ĺ à¤²
à¤ı à¤¬
à¤®à¤² à¤¦
Ġà¥¯ à¥§
Ġm edia
Ġà¤¹à¤³ à¤¹à¤³
Ġh ous
Ġâ Ģ
à¤² à¤¬à¤°
à¤µ à¤ªà¤Ł
Ġà¤ªà¤° à¤ª
Ġà¤ĩ à¤®à¤°
à¤Ĩ à¤¯à¤²
à¤ĩ à¤Łà¤ļ
Ġà¥Ń à¥¦à¥¦
ha k
à¤ĳ à¤°
ver t
ĠAl l
ĠMin ister
m i
v i
à¤Ĥ à¤Ĥ
Ġà¤¤ à¤¬à¤²
à¤¦ à¤ľ
à¤¡ à¤§
à¤· à¤ľ
Ġà¤¬ à¤ķà¤°
Ġà¤ļ à¤¨
à¤ĥ ,
à¤²à¤¬ à¤ļ
Ġà¤īà¤Ń à¤¯à¤¤
ĠI PL
9 0
à¤¯ à¤°à¤¨
Ġà¤ħà¤¸ à¤®à¤°
Ġà¤ĺ à¤£
à¥Ģ. '
à¤ħ à¤µ
à¤ħ à¤°à¤¸
à¤ı à¤ķà¤¦
à¤Īà¤² à¤®à¤§
Ġà¤ĵ à¤¢à¤£
ar endra
ĠB l
ip s
Ġà¤ľà¤³à¤ľ à¤³
3 4
M C
l ocal
n al
à¤µ à¤ľà¤¯
à¤¦ à¤¬
à¥Ĥ à¤Ĥ.
Ġà¤ħ à¤ķà¤¸
Ġà¤ļ à¤Łà¤£
à¤ħà¤° à¤¨
à¥ª à¥ª
ul d
Ġà¤ĸà¤³à¤¬à¤³ à¤ľà¤¨à¤ķ
n à¤®à¤¹
s o
Ġà¤Ĩ à¤ķà¤¸
Ġà¤Ĺ à¤µà¤¸
Ġà¤Ŀ à¤Ł
à¤ķà¤¡ à¤²
à¤Ĺà¤² à¤ļ
à¤ĵ à¤µà¤°
à¥© à¥¯
à¤ļà¤² à¤ķà¤°
Ġà¥§à¥¨ à¥«
à¤°à¤« à¤³
u j
à¤¯ à¤§
à¤ķ à¤¯
Ġà¤¸à¤° à¤¸à¤ķà¤Ł
Ġs ame
à¤¡à¤° à¤µà¤°
os e
Ġà¥©à¥« à¥¦
ong ress
G o
a pp
Ġà¤® à¤¦à¤°
à¤ľ à¤µà¤¡
à¤·à¤£ à¤Ńà¤°
Ġ5 3
Ġà¤¹à¤² à¤µà¤£
ik e
o in
Ġà¤Ĩ à¤¦à¤²
Ġ1 000
Ġà¤ħà¤ľ à¤®
Ġà¤ªà¤¸ à¤°à¤£
Ġ0 2
Ġ0 3
Ġhyper local
0 2
L A
à¤® à¤°à¤¸
Ġà¤µ à¤£
à¤¶ à¤ķà¤¤
Ġà¤ļ à¤Ł
Ġà¤ıà¤ķ à¤²
à¤ķà¤² à¤®à¤§
Ġà¤ķà¤³ à¤µà¤£
Ġ0 6
Ġ0 8
à¤ĳ à¤¨à¤²
à¤ķ à¤Ĺ
Ġà¤Ĺ à¤¢
Ġà¤ħà¤¨ à¤°
Ġ0 4
e g
Ġà¤Ĩ à¤µà¤¡à¤£
Ġà¤¹ à¤¸à¤²
à¤Ĩ à¤°à¤ļ
à¤¶à¤¨ à¤¹
Ġ1 20
à¤ĩ à¤²à¤ļ
Ġ! "
à¥¤ à¥¤
I S
T C
Ġà¤µ à¤£à¤µ
Ġà¤° à¤¤à¤¨
à¤¥ à¤ªà¤£
Ġà¤ıà¤¸ à¤¬
Ġ7 2
Ġà¤ĸà¤¡ à¤¤à¤°
3 2
f t
p le
Ġà¤ħà¤¸ à¤®
à¤µà¤° à¤ķ
Ġà¤ļ à¤¹à¤²
à¤ľà¤ª à¤¸
ĠM ay
à¤¸à¤® à¤°
ĠGo vernment
Ġà¤īà¤¸ à¤³à¤²
Ġà¤Ĩà¤Ŀ à¤®
ex t
E R
I T
T e
l ine
z on
à¤¦ à¤ķà¤°
à¤Ł à¤ķà¤¡
Ġà¤ľ à¤¯à¤°
à¥ħ à¤¾
à¤ı à¤ıà¤¸
Ġà¤ªà¤£ à¤ľ
Ġà¤ĵ à¤¤
à¤ĵ à¤¹
Ġs har
Ġp m
Ġà¥§à¥Ń à¥«
ep end
n ow
Ġà¤² à¤ªà¤²
à¤Ŀ à¤¡
à¥ĭ. "
Ġw h
ĠV ideo
à¤Ł à¤°à¤®
à¤¡ à¤¨à¤ļ
Ġà¤ī à¤§à¤³
à¤Ĩ à¤ļ
ic le
Ġà¤ľà¤¸ à¤ľà¤¸
Ġà¥¨à¥¦à¥¦ à¥«
Ġà¥¨à¥¦à¥¦ à¥Ń
Ġà¤¦à¤¶ à¤°à¤¥
k e
à¤· à¤¹
à¤ı à¤¨à¤ª
Ġw ww
Ġm y
ĠF adnavis
Ġà¤¹à¤Ł à¤µà¤²
f ter
à¤Ł à¤Ńà¤°
à¤ĸ à¤ªà¤£
à¤µà¤° à¤¸
Ġà¤ī à¤°à¤¤
Ġà¤ı à¤®à¤¸
à¤ķà¤² à¤ķ
à¤¦à¤² à¤¹
Ġ5 9
Ġ0 5
ver y
Ġà¤Ĩ à¤¡à¤¨
à¤¬ à¤ľ
à¤¾. '
Ġà¤®à¤¹ à¤°
Ġà¤Ĩà¤¤ à¤®à¤§
à¥¬ à¥«
ĠI m
Ġ6 6
Ġ7 4
ha y
Ġà¤µà¤Ĺà¤³ à¤²
I M
à¤¤ à¤¨à¤ļ
à¤¹ à¤ļà¤µ
Ġà¤ľ à¤²à¤¯
Ġà¤Ŀ à¤Ĺà¤¡
à¤Ī à¤ªà¤²
à¤Ĺà¤¤ à¤ľ
Ġ5 7
ĠF ace
à¤¡à¤µà¤² à¤¶
à¤¯à¤ªà¤¦ à¤ķ
Ġà¤ķà¤£à¤ķ à¤µà¤²
wit ter
n à¤ĸ
u al
à¤ķ à¤ħ
à¤¡ à¤ªà¤¤
à¤§ à¤¸
à¥ĩ. ...
Ġà¤ī à¤¡à¤£
à¤°à¤¸ à¤¤
er t
à¤¨à¤µ à¤ľ
ĠP ar
ha h
à¥ĩ" ,
Ġà¤²à¤ĸà¤¨ à¤Ĭ
o j
à¤¦ à¤ķà¤¤
à¤ľ à¤«
Ġà¤¯ à¤¦
Ġà¤² à¤ľ
hi r
à¤¨à¤Ĺà¤° à¤®à¤§
Ġà¤¹à¤¤ à¤¬à¤²
A h
à¤° à¤ĺà¤°
à¤¾à¤Ĥ '
Ġà¤Ń à¤¸
ĠT h
ĠInd ian
ĠEn gl
__ __
3 8
Ġà¤ķ à¤¤à¤°
Ġà¤¤ à¤¡à¤ķ
Ġà¤¬ à¤¬à¤¨
Ġà¤ĺ à¤¸
à¤¾. ,
à¤ĺ à¤ļ
Ġc r
Ġà¥§à¥® à¥¦
à¥ĩ) .
à¤ĳ à¤¸
if ic
0 7
H O
a ve
Ġ %
à¥Ĥ ?
à¤³ à¤¹
Ġà¤ĸ à¤±
à¤¯à¤® à¤®à¤§
.. .\
à¤ıà¤¸ à¤ıà¤¨
Ġà¥§à¥¦ à¥®
ut ure
op y
uc cess
ma il
m ission
r at
s c
à¤¤ à¤µà¤°
à¤² à¤ķà¤¡
à¤¨ à¤Īà¤ļ
à¤ļ à¤ªà¤£
à¤¸ à¤ªà¤°
Ġà¤ħ à¤ļà¤²
à¤§ à¤¹
Ġà¤ı à¤¶
Ġ" ,
ĠD r
Ġ0 9
ĠApp le
ĠWhats App
à¥Ģ à¥¤
Ġà¤µ à¤¯à¤¸
or ies
ĠI N
Ġà¤ħà¤ĸ à¤¤
Ġ8 00
ap er
Ġà¤īà¤ł à¤£
if e
arm er
à¤¸ à¤ħà¤ª
à¤Ĺ à¤ķà¤°
Ġà¤µ à¤°à¤¤
Ġà¤ı à¤²à¤ª
à¤ı à¤¤
à¤Ĩ à¤Ĭà¤Ł
ag pur
> (
l a
à¤¤ à¤¥
à¤¸ à¤Ĺà¤³
à¤¡ à¤¸à¤¹
Ġà¤¦ à¤ª
Ġà¤ľ à¤Ĺà¤²
à¤ĸ à¤ª
Ġà¤ĸ à¤µà¤²
Ġà¤īà¤ª à¤¹
à¤¯à¤ķà¤² à¤µà¤°
n A
Ġ ar
Ġà¤ħ à¤Ŀ
Ġà¤ħ à¤²à¤ķ
à¤¡ à¤ªà¤£
Ġà¤ķà¤° à¤¡
Ġà¤ī à¤°à¤ķ
à¤¤à¤° à¤®
à¤·à¤£ à¤¹
à¤¹à¤° à¤¨
à¤ī à¤ļ
ĠR aut
ir al
ĠJ ul
ig h
ĠSp ecial
e ad
t ing
Ġ ro
à¥ĩ /
à¤¹ à¤ļà¤£
Ġà¤Ĩ à¤¤à¤²
Ġà¤¤ à¤¹à¤ķ
Ġà¤µ à¤¦
à¤Ĩ à¤¯à¤ķà¤¡
Ġà¥§à¥® à¥Ń
ow er
à¤¨à¤Ń à¤°à¤ª
Ġcont in
Ġsupp ort
3 6
O N
n à¤Ĩ
à¤¤ à¤¤à¤³
à¤¸ à¤®à¤¨
à¥ĭ "
Ġà¤¸ à¤¶à¤ķ
Ġà¤¹ à¤°à¤Ń
à¤³ à¤°
à¤¸à¤² à¤¤
Ġà¤ħà¤ª à¤¹
à¤¹à¤¨ à¤§
ĠM an
Ġà¤¤à¤ª à¤ķ
ĠI PO
Ġ6 00
Ġà¤°à¤¹ à¤¦
Ġà¥¨à¥¦à¥¦ à¥ª
à¤° à¤°à¤ķ
à¤¬ à¤®
Ġà¤° à¤«
Ġà¤Ŀ à¤¡à¤¤
à¤ĺ à¤¡à¤¤
Ġà¤ĵ à¤ª
Ġà¤ľà¤¨ à¤Ĺà¤£à¤¨
à¤¸à¤® à¤¸
Ġà¤«à¤³ à¤¬
Ġà¤¤à¤³ à¤®à¤³
o ol
à¤¤ à¤ªà¤¦
Ġà¤ħ à¤ªà¤¨
Ġà¤¹ à¤°à¤ª
à¤³ à¤ªà¤£
à¤¥ à¤µà¤°
Ġà¤ı à¤¨à¤°
à¤Ĩ à¤¯à¤µ
à¤Łà¤² à¤°
à¤°à¤ª à¤ķ
Ġà¤ĵ à¤¤à¤£
Ġà¤īà¤Ń à¤¯
ĠC ourt
Ġ202 4
Ġ6 2
à¤¸ à¤°à¤¸
à¤¸ Âºà¤¯
Ġà¤® à¤²à¤ķ
Ġà¤ħ à¤¥à¤ķ
at form
ĠA ug
Ġà¤īà¤¤à¤° à¤µà¤²
Ġ0 7
Ġi Phone
form ation
S ocial
Ġà¤ķ à¤²à¤ķà¤¤
à¤® à¤ķà¤°à¤£
Ġà¤¸ à¤°à¤¤
à¤°à¤¤ à¤®
ĠP lease
Ġ6 8
Ġà¤Ĩà¤łà¤µà¤¡ à¤¯
el hi
Ġà¤¹à¤® à¤ĸ
Ġà¤īà¤ķ à¤³à¤¤
ĠÂ »
ĠâĢ º
0 9
I V
a id
à¤¦ à¤µà¤¡
à¤ľà¤ķ à¤¤
ĠD ay
Ġp ost
ĠRe c
Ġh er
op le
Ġà¤¤à¤¡ à¤«
à¥¯à¥¯ à¥¯
Ġà¤Ńà¤¡ à¤ķà¤²
0 5
> -
c hi
f er
Ġà¤¬ à¤¢à¤¤
Ġà¥ Ĳ
Ġà¤ĺ à¤Łà¤¤
à¤« à¤Ł
Ġà¤¥ à¤Ł
Ġà¤ķà¤® à¤²à¤¨
Ġà¤īà¤¦ à¤ĺ
Ġà¤ıà¤® à¤ıà¤®à¤Ĩà¤°à¤¡
Ġà¤²à¤¢ à¤µà¤¤
à¤ıà¤ļ à¤¡
Ġà¤Ŀà¤³ à¤ķà¤£
Ġà¤ļ à¤¡
à¤Ĥ. ..
à¤®à¤¨ à¤°
à¤µà¤¨ à¤®
Ġà¤ľà¤¨ à¤®
à¥¯ à¥«
Ġ7 1
à¤ıà¤® à¤®à¤§
Ġ8 8
à¤ĩà¤² à¤µà¤°
ag es
Ġà¥¨à¥¦à¥¦ à¥¬
Ġhtt ps
l ip
u le
Ġ z
à¤¹ à¤Ĺ
Ġà¤¸ à¤¨à¤°
Ġà¤¹ à¤¬
à¤¶ à¤µà¤°
à¤Ń à¤Ĺ
Ġà¤Ń à¤°à¤µà¤£
à¤°à¤® à¤ª
à¤¨à¤Ĺ à¤°à¤ļ
Ġ6 1
Ġ200 4
m in
à¥į à¤¼
à¤¯ à¤Łà¤°
à¤¨ à¤Ĺà¤¡
à¤µ à¤ļà¤¨
Ġà¤¬ à¤°à¤ĸ
à¤¥ à¤¡
Ġà¤ļ à¤£
à¤¤à¤° à¤ľ
Ġà¤¸à¤¹ à¤ľà¤¤
Ġà¥¯ à¥¦à¥¦
Ġf uture
à¥ĩ' .
Ġà¥¦ à¥§
ma zon
Ġcont rib
n y
n à¤ªà¤£
s p
Ġ u
Ġ his
à¤¯ à¤¦à¤°
à¤¨ à¤¬à¤°
Ġà¤Ĩ à¤Ĺà¤°
Ġà¤¦ à¤¡à¤²
à¤°à¤¤ à¤ļ
à¤°à¤® à¤¦
Ġà¤¤à¤¸ à¤¤à¤¸
Ġà¤ľà¤¨ à¤¨
ĠC up
Ġc orpor
Ġ7 8
ĠMa ha
Ġà¤°à¤£ à¤¦
th er
M arathi
o or
à¤µ à¤Ĺà¤£
Ġà¤ĩ à¤ļà¤²à¤ķà¤°
à¤°à¤µ à¤ļà¤¨
à¤¯à¤® à¤°
à¥¬ à¥¬
Ġà¤ľà¤Ĺ à¤ľ
ĠT est
Ġm an
Ġà¥§à¥§ à¥¦
ĠO ff
T ube
à¤° à¤Ĺà¤£
à¤® à¤¸à¤°
à¤ª à¤¤à¤°
Ġà¤¬ à¤¸à¤¨
à¤µà¤¤ à¤ļ
à¤¬à¤Ī à¤ķà¤¡
ar s
à¤± à¤¯
Ġà¤ħà¤µ à¤ľà¤¡
ĠC l
à¤ıà¤® à¤ıà¤ļ
ov id
uk h
Ġà¤ıà¤ħ à¤°à¤²
4 8
E C
à¤£ à¤¬à¤¤
à¤¬ à¤ª
à¥Ī '
Ġà¤¸à¤® à¤Ĺ
à¤¹à¤° à¤®à¤§
à¤ī à¤Ŀ
Ġ! '
ĠA ir
and e
Ġc h
ru it
à¤ĭ à¤¤
à¤ļ à¤ĸ
à¤¸ à¤·
à¤ľ à¤®à¤¹
Ġà¤° à¤ļà¤£
Ġà¤ł à¤ªà¤ķ
Ġà¤¡ à¤Ŀà¤¨
à¤ªà¤° à¤Ĺ
ĠS e
Ġà¤Ĳ à¤¨à¤µ
Ġ9 7
re at
Ġà¥¨à¥¦à¥¨ à¥ª
ĠIn t
Ġcontin ue
H e
P F
t y
à¤£ à¤¶
à¤ľ à¤ĺà¤°
à¤Ń à¤®à¤¨
à¥Ī à¤ĥ
à¤¯à¤¤ à¤¨
à¥ª à¥¯
Ġd is
ri es
Ġh on
ĠEngl ish
C M
D evendra
Ġà¤¸ à¤ľà¤µ
à¤ħ à¤°à¤µ
à¤ĩ à¤¥
Ġà¤ħà¤ľ à¤¬
Ġ9 6
ĠJ an
ĠO ct
Ġà¤ıà¤ħà¤° à¤Ł
Ġjour ney
olog y
Ġind epend
C oronavirus
n à¤Ĩà¤¤
Ġ art
à¤¤ à¤«
à¤¨ à¤Ĭ
Ġà¤Ń à¤µà¤¤
Ġà¤ī à¤«
à¤°à¤µ à¤¯
Ġà¤Ĩà¤¯ à¤¶
Ġ! \
Ġ7 7
Ġà¤§à¤°à¤£ à¤Ĺ
all y
. ]
1 00
5 00
h ad
s ena
à¤¬ à¤¶
Ġà¤ªà¤° à¤µà¤¡à¤¤
à¤ı à¤°
à¤¬à¤Ī à¤¨
à¤µà¤¶ à¤ķ
Ġpl atform
3 3
d u
r is
Ġ `
à¤¯ à¤«à¤²
Ġà¤Ĺ à¤®à¤¤
Ġà¤ĺ à¤°à¤ª
à¤¹à¤£ à¤µ
Ġà¤ĺà¤° à¤Ł
Ġà¤ªà¤¦ à¤¯
ĠM edia
Ġà¥§à¥¨ à¥®
Ġà¤į à¤ª
Ġà¤īà¤ľ à¤³
Ġà¥§à¥¯à¥¯ à¥¯
vert ise
4 9
A S
i y
n S
o on
à¤° à¤Ĺà¤²
à¤° à¤ľà¤¨à¤¨
Ġà¤¹ à¤¸à¤£
Ġà¤¨ à¤¨
Ġà¤ĵ à¤¢à¤¤
à¤ī à¤¨à¤ļ
Ġt e
Ġà¤Ī à¤ª
Ġà¤ħà¤¡ à¤µà¤²
ro up
Ġon e
Ġà¤ĵà¤¢ à¤µà¤²
Ġà¥©à¥Ń à¥¦
Ġhous es
I P
n B
n er
Ġà¤ ¿
à¥į à¥į
à¤¤ à¤Ł
à¤ķ à¤µà¤¸
à¤¡ à¤Ľ
Ġà¤ķà¤° à¤®à¤£
Ġà¤ĺ à¤¸à¤°à¤¤
à¤¯à¤¤ à¤ļ
Ġà¤Ĩà¤¯ à¤ıà¤ıà¤¸
à¤²à¤¨ à¤ķà¤°
à¥« à¥®
à¤ľà¤¯ à¤¸
ĠC opy
IN D
Ġcontrib ute
M K
U ddhav
à¤¨ à¤¤à¤®
à¤µ à¤ĸà¤°
à¤Ł à¤°à¤µ
à¤µà¤² à¤¨
à¤°à¤¸ à¤®
Ġà¤Ĩà¤ľ à¤µà¤°à¤ļ
à¤Łà¤° à¤ªà¤°
à¤ķà¤Ł à¤µà¤°
Ġc he
Ġà¤®à¤¶ à¤°
ab ad
PS C
Ġad vertise
S anjay
n à¤¡
à¤¹ à¤ļà¤¤
Ġà¤ª à¤Łà¤£
Ġà¤¤ à¤Ĺà¤¡
Ġà¤ľ à¤ªà¤¤
à¤°à¤® à¤²
à¤Ĭ à¤¬
à¤ªà¤° à¤ļ
à¤Łà¤° à¤«
à¤¨à¤² à¤ļ
à¤ĵ à¤ľ
Ġà¤Ĳ à¤°à¤£
Ġà¤ıà¤¸ à¤ıà¤®à¤ıà¤¸
Ġ6 9
Ġ200 5
Ġjour nal
Ġgovernment s
B C
à¤ķ à¤ķà¤³
à¤¸ à¤¯
à¤ľ à¤Ńà¤µà¤¨
à¤³ à¤ĺ
Ġà¤° à¤¹à¤®
Ġà¤ī à¤ķà¤²
à¤ħ à¤¬
à¥ĭ. ..
à¤¯à¤² à¤ļ
à¥¯ à¥®
ĠS ep
à¤ī à¤¡
Ġà¤¨à¤Ĺà¤° à¤®à¤§
Ġ9 3
Ġà¤īà¤¤à¤° à¤µà¤£
à¤¯à¤¨à¤² à¤®à¤§
Ġindepend ent
0 6
h on
r est
Ġ 00
à¤¯ à¤¬à¤²
à¤² à¤¸à¤°
à¤² à¤¸à¤¹
à¤µ à¤¤à¤°
à¤® à¤¦à¤°
Ġà¤ĩ à¤¯à¤°
Ġà¤ĺà¤° à¤¬
ĠR E
Ġ7 6
à¤ıà¤¨ à¤¯
ĠU n
à¤¯à¤Łà¤¨ à¤¸
ist an
Ġread ers
0 1
3 9
a f
Ġà¤¤ à¤³à¤£
Ġà¤ħ à¤ĺ
à¤Ĺ à¤¡à¤ļ
à¤§ à¤°à¤£
Ġà¤¨ à¤¥
Ġà¤ľ à¤²à¤ķ
à¤ĸ à¤µà¤Ł
Ġà¤ī à¤łà¤µà¤£
à¤ĵ à¤¬
à¤°à¤¹ à¤ľà¤°
Ġà¤¬à¤¸ à¤ª
ĠP ublished
à¤Īà¤¨ à¤Ĺà¤°
ĠC O
Ġc hi
à¤° à¤³à¤ļ
à¤¨ à¤°à¤²
à¤¹ à¤µà¤°
Ġà¤¸ à¤ªà¤ķ
à¤¦ à¤¡
à¤¦ à¤µà¤¨
Ġà¤µ à¤Łà¤µ
à¥ĩ. )
Ġà¤² à¤Ĺà¤¤à¤ļ
à¤Ī à¤Łà¤ļ
Ġà¤¸à¤° à¤²
à¤¼ à¥Ģ
à¤ħ à¤°à¤²
à¤Ĺà¤¤ à¤ª
à¤¬à¤° à¤ł
à¤¸à¤² à¤Ĺ
Ġ! !
ĠA pr
Ġà¤ħà¤µ à¤Ĺà¤¤
ĠC ase
Ġà¤Ĺà¤£ à¤°
Ġ6 3
Ġà¤ªà¤¡ à¤Ŀà¤¡
Ġà¤ıà¤® à¤ıà¤ļ
ro p
Ġà¤ıà¤¨ à¤ª
Ġà¥¨à¥¦à¥¦ à¥§
à¤ļà¤µà¤¡ à¤®à¤§
à¤½ à¤½
ah ul
Ġsupport ed
Ġcorpor ate
Ġhon est
Ġadvertise ments
M S
b le
g et
t o
à¤² à¤Ŀ
à¤ķ à¤Łà¤²
à¤£ à¤Ń
à¤® à¤ľà¤²
à¥ģ '
à¤ª à¤ķà¤¤
Ġà¤ħ à¤°à¤£
Ġà¤¦ à¤¡à¤ª
Ġà¤ľ à¤¯à¤µ
à¤µà¤° à¤¦
Ġà¤ĺ à¤¨à¤¤
Ġà¤ĵ à¤¹
à¤¤à¤¨ à¤ª
Ġà¤Ī à¤¦
ĠG B
Ġà¤ļà¤µ à¤¦
Ġà¤¶à¤¹ à¤°à¤µ
Ġà¥§à¥© à¥¦
ri ya
à¤ĳ à¤ªà¤°
od ay
Ġun bi
Ġjournal ism
Ġunbi ased
n à¤¸à¤°
à¤µ à¤Ĺà¤¡
Ġà¤ľ à¤³à¤¤
à¤°à¤¦ à¤ķ
à¥¯ à¥¬
and hi
Ġà¤ħà¤Ĺ à¤¦à¤°
us e
ric t
ip al
ĠUp dates
ĠYou Tube
. ,
5 5
m s
w ad
à¤ķ à¤Ń
à¤® à¤ªà¤°
Ġà¤µ à¤³à¤µà¤£
à¤Ł à¤°à¤ķà¤¡
Ġà¤¬ à¤¢
à¤Ĭ à¤³
à¤°à¤¸ à¤¦
Ġà¤ªà¤£ à¤¨
à¤ıà¤¸ à¤¬
Ġà¤Ĺà¤£ à¤²
om en
Ġ8 7
Ġà¤īà¤¡ à¤µà¤£
ĠIn stagram
im es
st it
Ġy ear
à¥Ģ" ,
ide os
Ġcom p
D r
I m
P l
à¤° à¤¹à¤°
à¤® à¤¸à¤¨
Ġà¤Ĩ à¤Ĭ
à¤Ĺ à¤Ŀ
Ġà¤¦ à¤¹à¤¨
Ġà¤¬ à¤¬à¤²
à¤ĸ à¤¹
Ġà¤ļ à¤¯
à¤« à¤ĸ
à¥ª à¥¬
à¤°à¤¨ à¤Ĺà¤°
à¤ĳ à¤¨
Ġg ov
Ġpe ople
a ir
â Ģ
Ġà¤µ à¤¶
Ġà¤µ à¤³à¤µà¤²
à¤¯à¤® à¤²
à¤Ĩ à¤ªà¤ļ
à¤µà¤³ à¤¤
Ġà¤Ĩà¤® à¤Ł
Ġà¤®à¤² à¤®
à¤¨à¤µ à¤Ł
ĠT ips
am i
un ic
um ar
Ġà¥¨à¥¦à¥¦ à¥¨
Ġà¤°à¤® à¤ľ
ĠUpd ate
A I
A jit
n à¤Ĩà¤ªà¤£
y st
Ġà¤µ à¤¨à¤ķ
à¤ľà¤¨ à¤²
Ġ- \
à¤ĩ à¤ªà¤²
à¤Łà¤ķ à¤®à¤§
ĠA mazon
ĠL ok
20 18
Ġ200 1
up er
à¤¡à¤µà¤² à¤¦
ish es
Ġan y
ĠAs s
ĠCopy right
4 4
k in
o ot
Ġ q
à¤ķ à¤¸à¤¨
Ġà¤ľ à¤ķ
à¥ĩà¤Ĥ '
Ġà¤ĸ à¤°à¤ļ
à¤Ī à¤Ĺ
à¤¢ à¤³
à¥« à¥¨
à¤¯à¤¦ à¤³
Ġà¤¸à¤Ĺà¤³ à¤¯
as hi
ĠB ank
Ġà¤Ĭ à¤¤
ut h
à¤¯à¤£ à¤°
Ġà¤ıà¤² à¤Ĩà¤¯à¤¸
em b
o le
w ar
Ġà¤¬ à¤³à¤ľ
Ġà¤ī à¤¬
Ġà¤ĺ à¤¨à¤¦
à¤Ĩ à¤µ
à¤Łà¤° à¤Ł
in ation
à¥« à¥¦à¥¦
Ġà¤²à¤Ĺ à¤¬à¤Ĺ
ĠA cc
ĠC red
ĠR s
Ġ9 8
Ġà¤µà¤¨ à¤ªà¤°
ĠE knath
Ġà¤§à¤¨ à¤¶
Ġà¤¦à¤£ à¤¦à¤£
ľ ħ
Ġà¤Ĩ à¤³à¤¸
Ġà¤Ĩ à¤īà¤Ł
Ġà¤¸ à¤¶
à¤ª à¤µà¤¤
à¤¦ à¤Ĺà¤¡
à¤¶ à¤Ł
Ġà¤ĵ à¤¸à¤°à¤²
à¤ľà¤ª à¤¶
à¤ħà¤° à¤¬
à¤¸à¤® à¤¯
Ġà¤®à¤¦à¤¤ à¤¨
ĠN ew
à¤°à¤§ à¤°
.... ....
Ġà¤ıà¤ħ à¤°à¤ª
erv ed
oll ow
Shar ad
ĠFace book
A r
T V
n W
à¤° à¤ł
à¤¤ à¤¨à¤µ
Ġà¤ķ à¤¯
Ġà¤® à¤¡
à¤ª à¤ķà¤²
à¤ľ à¤°à¤ļ
Ġà¤¶ à¤µ
Ġà¤ĺ à¤¨à¤ķ
à¤°à¤ķ à¤¨
à¤¢ à¤¯
à¤ķà¤° à¤¶
à¤ħ à¤ķà¤°
Ġà¤Ĩà¤¯ à¤ıà¤®
at ing
ic k
am p
ur r
Ġc l
Ġ8 6
Ġm ar
ch n
7 5
P C
P I
P U
n ing
ĩ ¨
à¤¤ à¤µà¤¤
à¥ģ à¥ģ
à¤¶ à¤°à¤¦
à¤ħ à¤ļ
Ġ: \
Ġà¤¸à¤°à¤ķ à¤²
Ġà¤ħà¤® à¤³à¤¨
à¥ª à¥¨
à¥¬ à¥Ń
Ġà¤īà¤² à¤¥
à¤Łà¤£ à¤ķà¤°
ra k
ra v
Ġm arathi
Ġà¥§à¥¯à¥¯ à¥¦
à¥ĩ" .
Ġà¤ªà¤¥ à¤¦
ĠPl us
à¤¤ à¤ķà¤²
Ġà¤ĸ à¤Łà¤ªà¤Ł
à¤°à¤® à¤¹
Ġà¤¡ à¤°
à¤¬à¤° à¤¡
Ġà¤Ĩà¤° à¤¶
à¤ĩ à¤¨à¤°
Ġ. ...
à¥ª à¥©
à¤ĵ à¤Ĺ
Ġà¤Ķ à¤¤
Ġà¤Ķ à¤·
ĠG al
à¥Ģ) .
à¤µà¤Ń à¤ķ
Ġm a
à¤°à¤¬ à¤¦à¤²
Ġà¥§à¥¬ à¥¦
Ġà¥¨à¥¦à¥¦ à¥©
Ġà¤¬à¤¡ à¤¬à¤¡
ell ig
ĠHe alth
Ind ian
A t
n à¤ħà¤¸
à¤¾ à¥ħà¤Ĥ
à¤Ń à¤Ĺà¤µ
à¥Ģ. ...
à¤µà¤¸ à¤¹
à¤ı à¤µ
à¤¡à¤ķ à¤ª
ic a
Ġ? \
à¤µà¤°à¤£ à¤ª
op e
Ġà¤ıà¤« à¤¡
A C
D F
N G
T I
n à¤Ĩà¤ľ
Ġ Ã
à¤ķ à¤±
à¥ģ à¥į
à¤ª à¤ľ
Ġà¤¬ à¤²à¤ķ
Ġà¤ļ à¤ªà¤²
Ġà¤ī à¤¸à¤³
à¤ķà¤° à¤ª
Ġà¤¡ à¤®
Ġà¤¬à¤¸ à¤µà¤°
Ġin ter
Ġà¤ħà¤¡ à¤µà¤£
Ġp er
Ġà¤ķà¤³ à¤ķà¤³
Ġà¤Ńà¤¯ à¤Ń
à¤¯à¤°à¤¸ à¤®
Ġâ ĩ¨
M ar
à¤° à¤ľà¤¨
à¥ĩ à¥į
à¤¸ à¤µà¤¡
à¤¾. ...
à¤°à¤Ń à¤ķ
ĠS uccess
Ġà¤¨à¤° à¤¹à¤°
à¥ĩ? "
Ġà¤ĺà¤¡ à¤µà¤¤
à¤ĳ à¤²
Ġà¤ıà¤« à¤Ĩà¤°à¤ª
Ġà¤ĵà¤° à¤¡à¤¤
az ar
4 6
t or
w ood
à¤² à¤¸à¤ļ
à¤ļ à¤Ń
Ġà¤ħ à¤ł
Ġà¤ħ à¤ķà¤²
à¤Ĺ à¤¯
à¤ĸ à¤²à¤¨
à¤Łà¤ķ à¤ķ
à¤®à¤ķ à¤¥
à¤ĵ à¤¢
Ġà¤Ńà¤° à¤ĺ
ĠG andhi
Ġà¤ıà¤® à¤ıà¤²
Ġ7 9
à¤Ĩà¤° à¤ıà¤«
Ġ8 2
ir l
Ġâ ľħ
0 8
U S
n à¤¨à¤µ
n agar
à¤¾ à¤¼
à¤¨ à¤µà¤¡
Ġà¤ª à¤ļ
à¤ª à¤§
Ġà¤ħ à¤¥à¤°
Ġà¤ľ à¤¡à¤£
à¤ł à¤Ńà¤°
Ġà¤ļ à¤Łà¤ķà¤¨
Ġà¤ĸ à¤ªà¤µ
at ur
ĠA ct
Ġà¤ħà¤µ à¤ľ
om b
Ġà¥§à¥¦ à¥«
Ġb ut
od e
Ġà¤ľà¤² à¤¤à¤°à¤£
Ġà¤īà¤Ĺ à¤µà¤²
enc y
ellig ence
N CP
l l
n à¤®à¤²
à¤¯ à¤ľà¤¨
à¤µ à¤Ľà¤¤
Ġà¤Ĩ à¤Łà¤ª
à¤¢ à¤µà¤³
à¥ħ .
à¤µà¤¸ à¤ķà¤°
à¤ľà¤¨ à¤¸
à¤Ĺà¤³ à¤¸
at ive
à¤ľà¤ª à¤µ
Ġà¤Ľ à¤¡
à¥Ń à¥®
Ġt ime
à¤¬à¤² à¤µà¤°
à¤Ĩà¤¯ à¤ıà¤¸
Ġà¤¹à¤² à¤Ĺà¤°
Ġo ut
à¤¤à¤°à¤£ à¤¨
Ġ200 3
ĠUpd ated
5 9
? '
à¤² à¤§
Ġà¤¤ à¤³à¤²
à¤Ĺ à¤Ĺ
Ġà¤¹ à¤°à¤¯
Ġà¤ĸ à¤ª
Ġà¤ĸ à¤Łà¤ķ
Ġà¤ĸ à¤ļà¤²
à¤ı à¤¨à¤¸
à¥§ à¥¦à¥¦
à¥¬ à¥ª
ĠT oday
ĠI S
ĠB hav
ra b
ha pur
à¤Ĺà¤¨ à¤®à¤¤
Ġà¤¨à¤Ĺ à¤°à¤ļ
Ġà¤ħà¤Łà¤² à¤¬
E knath
v est
à¥ĭ ',
Ġà¤Ĩ à¤ļà¤°
à¥Ĥ à¤ģ
Ġà¤ľ à¤¡à¤²
à¤Ī à¤ķà¤°
Ġà¤« à¤°à¤¹
à¥Ī à¥¤
Ġà¤Ĩà¤ª à¤Ĩà¤ªà¤²
Ġà¤Ĩà¤¦ à¤³à¤²
à¤ī à¤®
Ġ? '
à¤°à¤Ĺ à¤Ł
Ġof f
os p
Ġà¤ĵà¤° à¤¡à¤²
Ġà¤¬à¤³à¤ľ à¤¬à¤°
I R
à¤¹ à¤¢
Ġà¤ķ à¤ªà¤²
à¤¥ à¤ªà¤°
Ġà¤ĸ à¤¦
à¤¤à¤² à¤Ĺ
à¤ħ à¤£
Ġ" </
à¥¬ à¥®
he t
Ġà¤®à¤Ĺ à¤ļ
ĠC orona
Ġn o
Ġà¥§à¥¨ à¥¦à¥¦
Ġà¤ķà¤µ à¤ł
Ġà¤· à¤¡
Ġ200 6
ĠShar ma
ax y
ĠInt elligence
Ġà¤ĺà¤¨à¤ķ à¤ļà¤°
0 4
> >
i et
t em
Ġà¤® à¤¡à¤Ĺ
Ġà¤¬ à¤³à¤ķ
à¤Ī à¤¦
à¤°à¤¤ à¤µ
Ġà¤Ł à¤ļ
à¤¡à¤² à¤µà¤°
Ġà¤ªà¤¦ à¤ªà¤¥
à¤ĵ à¤Ł
it ed
Ġà¤¬à¤¨ à¤ķà¤°
Ġà¤ıà¤¸ à¤Ĩà¤¯à¤Ł
Ġf il
ĠRe al
Ġà¥¦ à¥¨
ap ur
Ġà¤īà¤§ à¤³à¤£
und er
ear ch
eed s
r id
à¤¤ à¤¬à¤¦
à¤¦ à¤µà¤¤
à¥Ĥ !
Ġà¤° à¤£à¤§
Ġà¤Ń à¤Ĺà¤µà¤¤
Ġà¤ĸ à¤µ
à¤Ĺà¤³ à¤¯
in al
à¥¬ à¥¨
hi p
à¤¡à¤° à¤®à¤§
Ġ7 00
ent ral
Ġà¥§à¥Ń à¥¦
ĠO ne
Ġà¥§à¥¯à¥¯ à¥§
her e
Ġag ain
R T
n à¤ĩ
Ä ±
à¥Ģ à¤¼
à¤² à¤¤à¤°
Ġà¤¸ à¤ªà¤¨
Ġà¤¸ à¤ľà¤²
Ġà¤® à¤¥à¤³
à¤¡ à¤°à¤¨
à¤ł à¤¸
à¤Ń à¤¸
à¤¤à¤° à¤ľà¤®
à¤Ī à¤Ī
à¤°à¤£ à¤ļ
Ġà¤ĩ à¤Ĺà¤¤à¤ª
Ġà¤®à¤¤ à¤ª
ĠN o
Ġà¤ªà¤°à¤¤ à¤µ
ĠC ont
ra j
ent er
à¤ıà¤® à¤ıà¤²
Ġm in
Ġà¤ıà¤¨ à¤ıà¤¸
Ġà¤īà¤Ĺ à¤µà¤£
Ġà¤ħà¤¡à¤ķ à¤µ
Ġag riculture
ruit ment
ĠGal axy
* *
, ,
C O
C om
à¤¯ à¤²à¤¯
à¤¨ à¤Ŀ
à¤¸ à¤¬à¤¦
à¤® à¤ķà¤¡
à¤Ĺ à¤¸à¤¹
à¥ĩà¤Ĥ -
Ġà¤¸à¤® à¤Ŀ
à¤Ĥ. "
à¤µà¤¨ à¤¦
à¥« à¥ª
ĠT ime
ol hapur
Ġa b
ĠF eb
ĠF armer
Ġà¤į à¤¨
Ġà¤¨à¤µà¤° à¤¦
Ġre c
oh li
Ġà¤¬à¤¬ à¤¨à¤°
Ġà¤ĺà¤°à¤¬ à¤¸à¤²
> à¥¤
s at
w ard
à¤¨ à¤¬à¤¦
à¤ļ à¤¬
à¤¸ à¤¡
à¤¸ à¤Ńà¤°
à¤¸ à¤į
Ġà¤« à¤°à¤¶
Ġà¤« à¤£à¤¸
à¤Ŀ à¤¨à¤®à¤§
Ġà¤ķà¤² à¤¹
à¤ĵ à¤ķ
à¤§à¤¤ à¤¶
ĠT able
à¤ªà¤ļ à¤¯
ha g
Ġd ec
ir at
ou gh
ail s
i ed
n F
r ad
à¤£ à¤µà¤°
Ġà¤ķ à¤¥à¤¨
à¤® à¤²à¤¤
à¤Ī à¤ĺ
à¤Ŀ à¤ļ
à¤ĩ à¤²à¤®à¤§
à¤¸à¤¹ à¤ľ
Ġà¤ķà¤² à¤¶
Ġà¤Ĩà¤¦ à¤°à¤£
à¤§à¤¨ à¤¸
Ġà¤ľà¤® à¤£
ĠB o
re v
Ġà¤ķà¤¡ à¤§
Ġà¤ľà¤¯ à¤ĺ
à¤¾) .
ch ool
à¤²à¤® à¤¡à¤²
ĠW e
Ġà¤Ĺà¤¡ à¤¹
Ġ200 2
Ġà¤ªà¤³ à¤¸
Ġv ideos
Ġà¤ªà¤Łà¤ķ à¤¥
unic ipal
L Y
à¤² à¤ĺ
Ġà¤¨ à¤ķà¤²
à¤ĸ à¤ķà¤°
Ġà¤ĵ à¤¤à¤²
es e
or g
à¤¸à¤¦ à¤¸
Ġs ho
Ġà¤ħà¤Łà¤ķ à¤ª
Ġà¥§à¥« à¥¦à¥¦
Ġa fter
Ġà¤Ĺà¤ľ à¤¬
Ġà¤¸à¤¬ à¤¬
à¤ıà¤¶à¤¨ à¤¨
h as
j ect
à¤¨ à¤µà¤¨
à¤µ à¤¦à¤¤
à¤¦ à¤¯à¤°
à¤Ł à¤¬à¤¦
Ġà¤¬ à¤§
Ġà¤ıà¤ķ à¤ķ
à¤µà¤¸ à¤°
Ġà¤§ à¤¨à¤°
à¤·à¤£ à¤ķ
à¤Ĩ à¤®à¤¦
à¤®à¤¨ à¤ļ
à¥ª à¥§
à¥® à¥®
à¥Ń à¥Ń
Ġ9 4
Ġà¤ħà¤¡ à¤ķà¤¤
ay a
ĠMa j
ĠSt ories
5 7
à¤µ à¤§à¤¨
à¤¦ à¤µà¤°
à¤Ł à¤ľ
à¤³ à¤¦
à¤¬ à¤°à¤£
Ġà¤¬ à¤¹à¤°
Ġà¤ı à¤²à¤¬
Ġà¤ªà¤° à¤ĸà¤¡
Ġ( @
à¤·à¤£ à¤µ
à¤¯à¤¨ à¤¨
à¥¯ à¥¨
à¤¨à¤¸ à¤®
Ġà¤ľà¤Ĺ à¤ª
ol ly
à¤²à¤° à¤®à¤§
ĠL ED
Ġw ork
Ġp ol
ul l
ĠH igh
Ġ18 0
Ġà¥§à¥¯à¥® à¥¦
à¤¤à¤ĸ à¤³à¤ķà¤°
5 4
C ongress
E N
Ġà¤ķ à¤µà¤¯
à¤Ĺ à¤¢
à¤¡ à¤Ī
à¤Ń à¤°à¤¹
à¤ķà¤° à¤®à¤§
à¤¯à¤ķ à¤²à¤ļ
à¤Ĺà¤° à¤ª
à¤ªà¤£ à¤ľ
à¤£à¤¤ à¤£
Ġà¤Ī à¤¬
Ġà¤¹à¤² à¤µà¤²
il y
il ity
ak h
Ġà¤ĭ à¤Ĺ
ĠJ ug
ep art
ath er
c on
i j
n à¤¦à¤°à¤®
p e
Ġ en
à¤¨ à¤°à¤¨
à¤ļ à¤ķà¤°
Ġà¤¸ à¤ľà¤Ĺ
Ġà¤¤ à¤¡à¤µ
Ġà¤ħ à¤Ĺà¤¤
Ġà¤µ à¤¤à¤¨
à¤ľ à¤ķà¤²
à¤ľ à¤¸à¤¤
à¤· à¤µà¤²
Ġà¤² à¤®
à¤¥ à¤¹
à¤°à¤ķ à¤®
Ġà¤Ł à¤ªà¤°
ĠS hiv
à¥¬ à¥§
ĠP and
ĠP aper
ob er
ww w
olly wood
w e
Ã Ń
Ġ qu
à¤² à¤ªà¤¤
Ġà¤¶ à¤¹à¤¨
Ġà¤ī à¤ķà¤¡à¤²
Ġà¤¸à¤° à¤¬à¤¤
Ġà¤ħà¤¨ à¤®
à¤ħ à¤¡
à¤·à¤£ à¤¸
à¤Łà¤° à¤¹
à¤ķà¤£ à¤ļ
Ġ5 000
ĠI f
ur n
... "
Ġà¥¦ à¥«
Ġan i
ove mber
M I
n à¤ħà¤¨
o o
à¤¯ à¤µà¤¤
à¤¨ à¤ĸà¤¡
Ġà¤° à¤¡à¤£
Ġà¤² à¤Ł
à¤¥ à¤¯
à¤¥ à¤¸à¤¹
Ġà¤« à¤¡à¤£
à¤ħ à¤¸à¤²
à¤ħ à¤Ĺà¤¦
à¤¶à¤¨ à¤ķ
à¤Ĺà¤£ à¤ªà¤¤
à¤ĵ à¤ıà¤¸
ĠM e
ĠS u
à¤¤à¤¤ à¤§
Ġc ar
ĠB har
Ġn ew
Ġà¤ıà¤® à¤Ł
Ġà¤ªà¤ķà¤¡ à¤¤
Ġà¤Ńà¤Ĺà¤µ à¤¦
ĠRe port
Ġg et
.... ..
Ġà¤Ĩà¤µà¤° à¤¤
Ġà¤ħà¤¡à¤ķ à¤£
ĠRes ult
à¤ķà¤¸à¤¹ à¤Ń
Shiv sena
a ction
k a
n à¤ªà¤°
o à¤¯
à¥į -
Ġà¤¨ à¤Łà¤²
à¤¶ à¤ĸ
Ġà¤ľ à¤łà¤°
Ġà¤¬ à¤³à¤µ
Ġà¤µà¤° à¤µà¤°
Ġà¤¥ à¤°à¤¥
Ġà¤Ńà¤° à¤¡
ur der
à¤Ĩà¤¯ à¤ıà¤®
Ġ7 3
à¤Ĩà¤° à¤ıà¤¸
il d
Ġb o
20 21
ce mber
Ġà¥§à¥¯à¥¯ à¥¨
V ID
Ġà¤ķ à¤ªà¤Ł
à¤® à¤«
Ġà¤ħ à¤®à¤¨
à¤ľ à¤ľ
Ġà¤¬ à¤Ĺà¤²
à¤µà¤° à¤¨
Ġà¤ı à¤£
Ġà¤ĸ à¤²à¤¨
à¤ªà¤° à¤«
Ġà¤§ à¤¸
Ġà¤Ĩà¤ľ à¤¤
Ġà¤¸à¤¹ à¤¸à¤ļ
à¤µà¤¨ à¤Ĺà¤°
ĠS l
ĠS ena
al s
Ġà¤ľà¤® à¤¶
en ef
it a
ĠT han
Ġà¤Ĩà¤Ĺ à¤°à¤ķà¤°
ĠC on
ĠB azar
Ġà¤ıà¤® à¤¡
Ġthe ir
Ġm ore
Ġà¤Ĭ à¤¸à¤¤
Ġà¥ªà¥« à¥¦
Ġà¤īà¤§ à¤³à¤²
Ġà¤¸à¤« à¤²
Ġà¤ĸà¤¡à¤ķ à¤µ
Ġà¤Ĩà¤µà¤³ à¤²
out h
ĠQ u
lect ric
6 6
y cl
à¤° à¤¡à¤µ
à¤ļ à¤¦à¤°à¤®
Ġà¤® à¤¡à¤ķ
Ġà¤¤ à¤Łà¤¬
à¤Ł à¤µà¤²
à¤¡ à¤°à¤¸
à¤§ à¤³à¤²
Ġà¤ľ à¤²à¤ª
à¤µà¤° à¤ª
Ġà¤ī à¤ĸ
Ġà¤Ŀ à¤¡à¤ª
à¤Ĭ à¤£
Ġà¤¡ à¤ļ
à¤Ĺà¤² à¤¨
à¤Ŀ à¤¨à¤ļ
Ġà¤ªà¤£ à¤¤
Ġ" "
Ġà¤ĵ à¤¨
à¥Ń à¥¨
ad esh
Ġ9 2
us s
20 20
à¤ıà¤¨ à¤ıà¤¸
ist rict
ĠAg row
Ġle ad
vel op
med nagar
ĠJug ad
ĠAgrow on
' \
n N
à¤² à¤°à¤¨
Ġà¤µ à¤ļà¤ķ
Ġà¤¹ à¤°à¤®
Ġà¤² à¤¬
Ġà¤Ń à¤°à¤¦
à¤« à¤µ
Ġà¤ħà¤§ à¤°
à¤ı à¤ı
à¤Łà¤¨ à¤¨
à¥« à¥§
ĠM P
Ġà¤¤à¤ª à¤¸
hi l
ĠI s
Ġo ver
Ġà¤ķà¤ł à¤¡
el f
ĠK ohli
Ġ13 0
Ġà¤ıà¤« à¤¸
Ġà¤ľà¤²à¤¦ à¤Ĺà¤¤
ff ect
ight s
:: ::
ĠTable t
T T
à¤¨ à¤¸à¤¨
à¤µ à¤¥
à¤® à¤¸à¤¹
à¤® à¤ľà¤ª
Ġà¤Ĩ à¤³à¤¶
à¤Ł à¤µà¤£
Ġà¤Ĺ à¤¬
à¤¤à¤° à¤¸
Ġà¤« à¤ľ
à¤°à¤£ à¤¯
à¤¯à¤® à¤¬
à¤ľà¤¨ à¤®à¤§
à¤¶à¤¨ à¤®
Ġà¤Ĩà¤ľ à¤°
à¥« à¥©
Ġ3 50
ĠN arendra
ĠT witter
Ġs ub
à¤Ĭà¤¸ à¤®à¤§
Ġà¤ļà¤µ à¤¥
Ġa cc
ak istan
20 19
Ġà¤ĸà¤¡ à¤¬à¤¡
ig g
Ġst ate
à¤¨à¤Ń à¤µà¤¨
Ġà¤®à¤³ à¤®à¤³
epart ment
4 2
O R
a he
y e
Ġà¤Ĩ à¤¸à¤°
Ġà¤Ĩ à¤ĸà¤¤
Ġà¤ª à¤Łà¤¨
Ġà¤¦ à¤¶à¤®
al k
ĠA b
à¤ıà¤¸ à¤Ĩà¤°
Ġ9 00
à¤ıà¤® à¤Ĩà¤°
Ġa c
Ġà¥§à¥ª à¥¦
Ġà¥¦ à¥¦
ĠCred it
N S
i ence
n à¤¤à¤°
n à¤ľà¤°
Ĥ ¹
à¤µ à¤¦à¤°
à¤ª à¤ªà¤°
Ġà¤¯ à¤²
à¤§ à¤ªà¤£
Ġà¤¬ à¤¶
Ġà¤« à¤£
Ġà¤« à¤²à¤¦
à¤ĺ à¤³
à¤ħ à¤¦
à¤ķà¤² à¤®
Ġà¤Ĩà¤¯ à¤¬
Ġà¤ĳ à¤Īà¤²
à¥¯ à¥Ń
à¤¤à¤¨ à¤ķ
ic t
is ion
ĠC S
ĠC ha
à¤ĩà¤¨ à¤®à¤§
ĠL e
Ġ8 9
Ġà¤®à¤¦ à¤¤à¤ķ
A A
D R
L ED
R ead
d own
n à¤ħà¤¶
u ary
v en
à¤° à¤°à¤¥
à¤¯ à¤¦à¤²
Ġà¤® à¤Łà¤ķ
Ġà¤® à¤Łà¤£
Ġà¤ħ à¤µà¤¨
à¤µà¤° à¤µ
Ġà¤ĩ à¤¯
à¤Ĭ à¤¸à¤ļ
à¤¼ à¥ģ
à¤¸à¤° à¤®à¤§
à¤¤à¤ķ à¤£
Ġà¤īà¤¦ à¤Ĺ
à¤ī à¤ľ
Ġt w
ĠT H
Ġà¤ªà¤¸ à¤°à¤µà¤²
ĠH ow
à¤²à¤® à¤ľ
os ted
od y
oh it
à¤£ à¤ĸ
Ġà¤ķ à¤µà¤Ł
à¤ª à¤°à¤ķ
Ġà¤¨ à¤Łà¤°
Ġà¤ī à¤¸à¤¨
à¤¤à¤° à¤¨
à¤Ī à¤Łà¤¨
Ġà¤Ĩà¤ª à¤ļ
à¤¨à¤² à¤µà¤°
à¥¯ à¥ª
al gaon
as on
Ġà¤¨à¤Ĺà¤° à¤°à¤ļà¤¨
à¤°à¤¥ à¤®à¤¤
à¤¾à¤ĥ </
ers on
ĠMaj ha
D is
n à¤µà¤°
o und
p ut
r et
t ack
à¤Ĥ )
à¤ķ à¤ķà¤¡
à¤µ à¤ªà¤°
à¤ª à¤Ń
à¤ľ à¤ķà¤°
à¤§ à¤Ĺ
à¤³ à¤¬
à¤¬ à¤±
Ġà¤Ĺ à¤Ŀà¤²
à¤ľà¤¨ à¤µà¤°
à¤°à¤ľ à¤£
à¤°à¤ľ à¤µà¤³
Ġt ra
ĠT ra
ĠB e
ĠR ed
à¤Ĩà¤° à¤¬
Ġà¤ķà¤³ à¤ª
Âº à¤¹
à¤ĳ à¤Ĺà¤¸
à¤°à¤« à¤¡
ĠSt ation
à¤Ĩà¤£ à¤ĸ
à¤¾" ,
Ġà¥§à¥¯à¥¯ à¥«
Ġbe en
Ġà¤²à¤ª à¤µà¤²
Ġ> >
yst em
N ashik
R ef
U V
n à¤ħà¤°
y l
Â °
à¤¾ à¥ĩà¤Ĥ
à¤¹ à¤Ł
à¥ĭ à¥ĩ
à¤ľ à¤¯à¤ļ
Ġà¤° à¤¡à¤²
à¤µà¤° à¤Ĺ
à¤°à¤µ à¤¨
à¤ı à¤ľ
à¤ı à¤ķà¤¨
à¤Ĩ à¤¸
ĠS P
à¥¬ à¥©
Ġà¤ħà¤ľ à¤Ĺà¤°
ĠN ovember
à¤¨à¤ķ à¤ªà¤£
à¤¾' .
Ġà¤Ĺà¤Ł à¤¶
Ġà¥§à¥¦ à¥¨
Ġà¤ħà¤¡ à¤¸à¤°
Ġ12 5
ĠU S
Ġà¥§à¥¯à¥¯ à¥©
Ġà¥§à¥¯à¥¯ à¥®
à¤ħà¤¹à¤® à¤¦
Ġà¤īà¤²à¤Ĺ à¤¡à¤²
sk y
Ġà¤ħà¤ļà¤² à¤ª
Ġart icle
P hoto
i x
p ress
à¤¯ à¤ĸà¤³
à¤§ à¤¯
Ġà¤ľ à¤Ĺà¤µ
Ġà¤¬ à¤²à¤µ
à¤°à¤ķ à¤®à¤§
Ġà¤īà¤ª à¤¶
Ġà¤īà¤ª à¤ķà¤°
à¤ı à¤Łà¤°à¤®à¤§
à¥ĭ. .
Ġà¤®à¤¨ à¤Ĺà¤Ł
à¤®à¤¨ à¤µ
Ġà¤ĵ à¤¢à¤µ
ĠN ot
ĠA c
Ġà¤ĩà¤¨ à¤ª
Ġà¤ľà¤¬ à¤¡
Ġ8 1
ro d
ĠF il
ter s
ĠH ome
Ġà¥§à¥© à¥«
Ġà¤¸à¤¬ à¤®
Ġà¥§à¥¯à¥ª à¥Ń
Ġ37 0
8 8
h al
à¤¹ à¤°à¤®
à¤Ĺ à¤®à¤°
à¤§ à¤°à¤µà¤¡
à¤³ à¤¸à¤°
Ġà¤¦ à¤¬à¤¦
à¤· à¤°à¤¤
à¤· à¤¯à¤ļ
Ġà¤ħà¤¸ à¤¹à¤ķ
à¤Ī à¤ķà¤ļ
à¤°à¤£ à¤®
à¥Ģà¤Ĥ '
à¤Ĭ à¤ľà¤°
à¤°à¤¸ à¤Ĺ
Ġà¤Ĩà¤¯ à¤²
Ġà¤Ĩà¤¯ à¤¨
à¤Ĥ. .
at or
at ure
à¤Īà¤¨ à¤®à¤§
ĠT his
ĠC M
ĠC ard
Ġf l
Ġthe y
Ġd et
el d
ut ion
ir th
ĠJ un
ik as
à¥ĩ! \
Ġà¤ļà¤¢ à¤īà¤¤
Ġà¤¬à¤¡ à¤¤à¤°
ap oor
ams ung
Ġwh ich
ĠReal me
Ġà¤¦à¤¬à¤¦ à¤¬
4 3
7 7
p en
r en
Ġà¤Ĩ à¤¸à¤ķ
Ġà¤¹ à¤°à¤¤
à¤¶ à¤¶
à¤ł à¤¶
Ġà¤ī à¤¥à¤³
à¤ĩ à¤¶
Ġà¤¸à¤¹ à¤¨à¤¶
à¤¯à¤¨ à¤®à¤§
ĠM al
Ġà¤ķà¤ª à¤®à¤§
Ġà¤¸à¤ª à¤¶
Ġ10 8
à¤¹à¤² à¤ªà¤°
ĠU ddhav
Ġà¤ıà¤ļ à¤Ĩà¤¯à¤µ
art y
ug ht
Ġà¥§à¥¯à¥¬ à¥¦
nP ublished
ĠAr t
Ġà¤īà¤®à¤Ł à¤µà¤²
ĠApr il
A L
m art
n M
n et
w a
à¤° à¤¡à¤²
à¤¯ à¤īà¤¤
à¤¨ à¤Īà¤¤
à¤® à¤Ŀ
Ġà¤¦ à¤¯à¤¨
Ġà¤Ĺ à¤¤à¤µ
Ġà¤ı à¤ıà¤¨
à¤Ĭ à¤¦à¤ļ
à¤°à¤¸ à¤ļ
Ġà¤®à¤§ à¤®
à¤ĩ à¤Łà¤²
er y
à¥¯ à¥©
ĠI ST
ĠC orpor
Ġà¤Ī à¤°
ĠD esh
ĠJ une
à¤®à¤°à¤£ à¤¶à¤ķ
ĠOct ober
I I
U n
f ul
à ²
Ġà¤Ĩ à¤ĩà¤¸
à¤Ł à¤Ł
Ġà¤¬ à¤Łà¤¨
Ġà¤ī à¤ľà¤¨
Ġà¤ī à¤Ĺà¤µ
à¤ħ à¤¯
à¤¸à¤¨ à¤¹
à¤²à¤ķ à¤Ł
Ġà¤ĳ à¤ĩà¤²
Ġà¤ħà¤ª à¤¶à¤¬
Ġà¤®à¤² à¤¬
à¤¨à¤² à¤®à¤§
Ġ. \
à¤¤à¤¨ à¤Ĺà¤°
ĠN av
ĠI C
Ġ8 3
Ġ8 4
Ġà¤µà¤¨ à¤®
Ġ12 8
Ġà¤ªà¤² à¤Łà¤£
ĠDe cember
Ġal so
7 0
à °
à¥į à¤Ĥ
à¤¯ à¤°à¤ļà¤¨
à¤ķ à¤Łà¤¤
Ġà¤ķ à¤¬à¤°
Ġà¤¸ à¤ĸà¤²
à¤ª à¤ĸ
Ġà¤¤ à¤³à¤µ
à¤ľ à¤ĸ
Ġà¤² à¤Ĺà¤¤
à¤ķà¤° à¤¸
Ġà¤¤à¤° à¤µ
à¤ľà¤¨ à¤¤
à¤Ľ à¤¨
à¥¯ à¥§
Ġà¤ªà¤µ à¤Ī
ĠC o
ur ang
Ġà¥§à¥¦ à¥§
Ġà¥§à¥¨ à¥ª
Ġw orld
el y
à¥Ģ? "
à¤¾! "
ĠU V
ab ha
Ġà¤īà¤ķ à¤³à¤£
Ġà¤īà¤ķ à¤³à¤²
iz ed
Ġà¤§à¤¡à¤ª à¤¡à¤¤
Ġà¤¹à¤°à¤Ń à¤ľà¤¨
IV E
Pl us
D e
Y ou
f l
n ess
y m
Ġ under
à¤° à¤§à¤¨
à¤° à¤¬à¤²
à¤¹ à¤°à¤ª
Ġà¤ħ à¤ľà¤°
Ġà¤¨ à¤Ĺà¤£
Ġà¤° à¤ľà¤ª
Ġà¤ĺ à¤¨à¤¶
Ġà¤ĩ à¤¦
Ġà¤ħà¤¨ à¤Ń
à¤·à¤£ à¤ļ
Ġ" .
à¤¨à¤² à¤²
à¤¤à¤® à¤°
ĠS eeds
Ġà¤¤à¤ª à¤®
Ġà¤Ī à¤Ł
Ġà¤ıà¤¸ à¤ª
Ġà¤ıà¤® à¤ľ
ch an
à¤¦à¤³ à¤µà¤¨
à¤°à¤« à¤Łà¤ķ
Ġâ Ĥ¹
Ġà¤µà¤ļà¤¨ à¤¬à¤¦
à¤ĭ à¤·
Ġà¤¹à¤°à¤ª à¤²
Ġà¤¦à¤¡à¤ª à¤¶
5 6
A s
M an
S up
g n
h adi
n C
à¤® à¤ĺ
Ġà¤¸ à¤³
Ġà¤® à¤£à¤ķ
Ġà¤¤ à¤¨à¤ª
à¤¦ à¤°à¤µ
Ġà¤¦ à¤«à¤¨
Ġà¤Ń à¤ľ
Ġà¤Ń à¤°à¤®à¤¸
à¥Ī )
à¤°à¤® à¤¤à¤µ
Ġà¤ł à¤ķ
à¤« à¤¸
à¥Į -
à¤¹à¤° à¤Ł
à¤¯à¤² à¤²
à¤¤à¤µ à¤µ
he m
à¤łà¤² à¤°
ĠR o
Ġb ec
à¤ıà¤¨ à¤¬
Ġ199 6
ubl ic
à¤¬à¤²à¤ļ à¤ķ
emb ly
? ?
e el
h en
p ar
t ra
à¤¤ à¤ķà¤¡
à¤¨ à¤®à¤¸
à¤ļ à¤ķà¤Ł
à¤¹ à¤Łà¤ķà¤°
à¤ª à¤ľà¤¨à¤ķ
à¤µà¤¤ à¤¯
à¤ı à¤¸à¤¨
à¤Ĺà¤° à¤Ĺ
à¥« à¥¬
à¤¤à¤® à¤¹
à¤Ľ à¤µ
ĠM ot
he me
à¤®à¤£ à¤°
Ġà¥§à¥¦ à¥Ń
Ġà¤ıà¤® à¤ı
ĠE V
Social LY
E S
E x
r il
à¤° à¤¯à¤¸
à¤¸ à¤Ĩà¤ĺ
Ġà¤Ĩ à¤¸à¤®
Ġà¤® à¤ĸ
à¤Ĺ à¤¨à¤ļ
à¤Ł à¤¸à¤°
à¤Ł à¤ħ
Ġà¤¬ à¤Łà¤°
Ġà¤ħà¤¸ à¤¦
Ġà¤ªà¤° à¤Ĺà¤£
Ġà¤ĩ à¤¨à¤ķ
Ġà¤Ĩà¤ª à¤¨
à¤®à¤¤ à¤¦
at s
à¤¤à¤® à¤¸
Ġà¥§à¥¯ à¥«à¥¦
Ġc ase
à¤Ĩà¤° à¤ıà¤«à¤ļ
Ġp olice
à¤ľà¤£ à¤Ĺ
à¤ıà¤¨ à¤¡
à¤¯à¤°à¤¸ à¤¨
." \
à¥ĩ." \
Ġ199 9
ĠCom mission
ĠCorpor ation
! '
P olice
n à¤ķà¤°
à¤® à¤°à¤¨
Ġà¤Ĩ à¤«à¤¤
Ġà¤¤ à¤°à¤£
Ġà¤¯ à¤¸
Ġà¤ķà¤° à¤¸
à¤¥ à¤¤à¤ľ
à¤ĸ à¤ªà¤¤
Ġà¤ıà¤ķ à¤¶
Ġà¤ªà¤° à¤µà¤¡
à¤°à¤® à¤°
à¤°à¤® à¤¯
à¤ĩ à¤Ŀ
à¤¦à¤¨ à¤ķ
à¤¯à¤¨ à¤Ĺà¤°
à¥® à¥«
à¥¬ à¥¯
ĠP re
à¤¾? '
ĠR am
Ġ9 1
Ġà¤µà¤¨ à¤ª
Ġà¤ıà¤¨ à¤Ł
ot s
Ġà¤ªà¤² à¤Ł
ĠIn Marathi
ĠEx am
à¤ķà¤¸à¤¨ à¤¶
nW eb
5 3
i ent
r es
u ck
à¤ķ à¤Łà¤ķ
à¤ķ à¤Łà¤ļ
Ġà¤ħ à¤¡à¤²
Ġà¤ħ à¤Ĺà¤£
Ġà¤¬ à¤²à¤°
à¤°à¤ķ à¤£
à¤¯à¤ķ à¤¥
à¤°à¤µ à¤¶
à¤¼ à¥Ĥ
à¤¦à¤° à¤ªà¤£
à¤Ĺà¤¤ à¤¤
à¤ı à¤¶
à¤Ĺà¤£ à¤ĺ
à¤¹à¤° à¤¹
à¥« à¥¯
er n
à¤ī à¤ªà¤¸
Ġà¤Ĳ à¤°
Ġà¤Ĳ à¤¹
ĠA m
ĠA mb
à¥Ģ' .
ĠB JP
à¤ıà¤® à¤Ī
à¤ľà¤Ĺ à¤Ńà¤°
Ġp ass
Ġb l
ant i
Ġà¤ªà¤² à¤Łà¤µ
Ġà¥¦ à¥ª
ang e
à¤¯à¤Ŀ à¤°à¤ļ
eb s
Ġà¤ıà¤ķà¤µ à¤Łà¤²
Ġà¤īà¤²à¤Ĺ à¤¡à¤£
ock down
ĠÂ ©
Ch and
Ref er
5 8
r ation
y c
Ġà¤® à¤Łà¤¨
Ġà¤ħ à¤µà¤ļ
à¤¡ à¤ªà¤Ł
à¤Ī à¤¡à¤ļ
à¤Łà¤² à¤²
à¤Łà¤² à¤®
Ġà¤ĵ à¤®à¤ª
ĠS er
or n
ĠB h
Ġin c
ha w
Ġà¥§à¥§ à¥®
ri end
ant s
Ġà¤ľà¤² à¤¶
ric ket
Ġà¤īà¤ł à¤µà¤¤
ni vers
à¤ıà¤¸à¤ıà¤¨ à¤ıà¤²
" "
A d
y n
Ġ right
à¤° à¤¬à¤¦
à¤² à¤ĸà¤¨
à¤¿ à¤¾
à¤¸ à¤®à¤¤
à¤¸ à¤®à¤ķ
Ġà¤ª à¤³à¤£
Ġà¤¨ à¤°à¤®
à¤· à¤¦à¤°
à¤¤à¤° à¤µ
à¤°à¤¤ à¤ľ
à¤°à¤£ à¤ª
à¤¸à¤° à¤¶
à¤Ĺà¤² à¤ª
à¤ı à¤Ĩà¤¯
à¤°à¤¦ à¤¯
à¤¨à¤ļ à¤°
à¤¹à¤¨ à¤®à¤§
Ġà¥« à¥¦à¥¦à¥¦
Ġà¤ľà¤® à¤µà¤²
le g
ol a
à¤¨à¤®à¤§ à¤²
à¤¾à¤ĥ -
os c
Ġà¥§à¥¯à¥¯ à¥¬
ud d
tem ber
à¤® à¤¥
Ġà¤¨ à¤ļ
à¤¶ à¤µà¤£
Ġà¤Ł à¤³
à¤¡à¤² à¤ļ
à¤°à¤² à¤¯
à¤Łà¤° à¤Ĺ
à¤ĩ à¤¡à¤ļ
an y
à¤¦à¤¨ à¤µà¤¨
à¤¹à¤¨ à¤¸
à¥® à¥Ń
ĠS o
Ġà¤¬à¤¹ à¤°à¤²
ĠC ol
Ġà¥§à¥¦ à¥©
Ġà¤īà¤Ĺ à¤µà¤¤
ug h
Ġhtt p
urang abad
E n
] .
i or
v a
à¤¨ à¤§à¤°
Ġà¤¸ à¤µà¤°
Ġà¤¤ à¤¦à¤¨
Ġà¤µ à¤°à¤£
Ġà¤¬ à¤Łà¤²à¤°
à¤µà¤° à¤®à¤§
à¤« à¤¡à¤ķ
Ġà¤ªà¤¦ à¤¸
an esh
à¤ľà¤ķ à¤¨
à¥® à¥¨
à¤°à¤¹ à¤¸
as es
ol i
Ġà¤ªà¤¡ à¤µà¤³
Ġà¤µà¤¨ à¤°à¤ķ
Ġa ct
20 22
Ġà¥§à¥ª à¥ª
Ġ11 0
Ġh ad
ind ra
Ġà¤Ĺà¤ľ à¤Ń
Ġà¥§à¥¯à¥Ń à¥§
Ġà¤Ńà¤°à¤µ à¤¶
Ġà¤ıà¤¨à¤Ĩà¤¯ à¤ı
ĠRec ruitment
Ġà¤ľà¤¡à¤£ à¤ĺà¤¡à¤£
ahe b
A l
C S
p ro
à¤¤ à¤µà¤¸
à¤¯ à¤±
à¤¿ à¥į
à¤¨ à¤µà¤²
à¤¸ à¤¤à¤°
à¤¦ à¤¶à¤®
Ġà¤ĺ à¤°à¤®
Ġà¤ı à¤¥
à¤°à¤® à¤ľ
à¤°à¤® à¤ķà¤¤
à¤ľà¤¨ à¤µ
à¤Ĩ à¤°à¤¤
à¤ĩ à¤°
à¤ĩ à¤ļ
à¤°à¤ĸ à¤ª
à¤¹à¤¨ à¤¤à¤³
ĠS hah
à¥Ń à¥§
à¤¤à¤¨ à¤¶
Ġà¥§à¥¯ à¥¨à¥¦
et rol
Ġw hat
à¤°à¤®à¤§ à¤²
ĠK ar
à¤°à¤®à¤£ à¤§
os it
à¤¤à¤¬ à¤Ĺ
ib le
erv ation
Ġà¤Ĺà¤ľà¤¬ à¤ľà¤²
enef its
5 2
P ro
V irat
g o
Ġà¤ ¾
à¤ķ à¤Ĩà¤īà¤Ł
à¤® à¤ľà¤¨
Ġà¤¸ à¤ķà¤¸
à¤ª à¤Łà¤²
Ġà¤ıà¤ķ à¤¸à¤®
à¤« à¤Ĺ
à¤ħ à¤¸à¤¤
Ġà¤¨à¤µ à¤®
à¤¶à¤¨ à¤ª
Ġà¤Ĩà¤¯ à¤ıà¤¸
Ġà¤Ľ à¤¬
à¤ĵ à¤¡
ĠS at
ĠS he
à¤¡à¤ķ à¤³
Ġà¤¬à¤¸ à¤µà¤¤
Ġà¤Ķ à¤Ł
ĠA h
à¤Ĩà¤¯ à¤ı
à¤²à¤° à¤µà¤°
el s
ĠH el
ĠH ind
à¥¨à¥¦ à¥¨à¥§
à¤²à¤ķà¤° à¤ļ
ik a
if y
Ġà¤Ĺà¤µ à¤Ī
à¤Ķ à¤·à¤§
Ġà¤Ńà¤Łà¤ķ à¤¤
Ġà¥§à¥¯à¥Ń à¥¨
à¤¶à¤ĸ à¤¬à¤°
9 5
S a
n T
r an
t ar
à¤° à¤¬à¤°
à¤² à¤°à¤¶
à¤® à¤Ńà¤°
à¤· à¤¯à¤¨
Ġà¤ªà¤° à¤²
Ġà¤ĩ à¤¸à¤µ
Ġà¤§ à¤®à¤¨
à¤¸à¤° à¤¨
Ġà¤Ĩà¤¤ à¤ļ
Ġà¤¨à¤µ à¤ĸ
Ġà¤¨à¤µ à¤±
à¤°à¤ª à¤³
à¤²à¤ķ à¤ļ
à¥Ń à¥¬
ĠN MK
à¤Ńà¤µ à¤µ
le t
Ġs ays
ĠR el
Ġp ar
id as
Ġà¤ıà¤¨ à¤ľ
ai k
à¤®à¤¶ à¤¹
Ġk now
Ġà¤ļà¤®à¤ķ à¤¤
one y
Ġit s
osp ital
I L
h ya
m ar
à¤¯ à¤¸à¤®
à¤² à¤ĸà¤¤
à¤¹ à¤¡
à¤¦ à¤°à¤¸
à¥Ĥ "
à¤Ł à¤®à¤¨
à¤ľ à¤¸à¤¹
à¤¡ à¤¨à¤²
à¤§ à¤µà¤¨
à¤³ à¤§
Ġà¤Ĺ à¤«
à¤¥ à¤¦
à¤ĸ à¤ł
Ġà¤ĺ à¤°à¤¤
Ġà¤Ŀ à¤£
à¤°à¤¤ à¤Ńà¤°
Ġà¤¸à¤° à¤¹à¤¦
Ġà¤ħà¤¨ à¤¸
à¤¦à¤° à¤¨
à¤ľà¤¨ à¤¹
à¤¯à¤¤ à¤¦
à¤¶à¤¨ à¤¸à¤¹
à¤ªà¤¨ à¤µ
Ġà¤¸à¤¹ à¤ª
à¤²à¤¨ à¤ª
Ġà¤ħà¤ª à¤ļà¤¨
Ġà¤ħà¤® à¤°à¤¨
à¤ªà¤² à¤ļ
ĠA N
is ha
à¤®à¤£ à¤Ĺ
ĠR ights
ĠD ec
Ġà¤īà¤¡ à¤µà¤¤
id s
Ġm on
à¤¾! \
Ġà¤· à¤¡à¤¯
à¤ıà¤« à¤Ł
Ġà¤ķà¤ļ à¤±
lo od
Ġà¤Ĺà¤µà¤¸ à¤£
rev ious
A P
B S
L atest
T A
a un
w al
¸ ı
ï ¸ı
à¥ĩ à¤¾
à¤ļ à¤¨à¤ļ
Ġà¤® à¤²à¤¯
Ġà¤¹ à¤¶
à¤¶ à¤Ŀ
à¤¬ à¤²à¤¤
à¤¥ à¤®à¤§
Ġà¤ī à¤Ĺà¤²
Ġà¤ı à¤Ĩà¤¯
à¤¾. )
Ġà¤Ŀ à¤Łà¤¤
Ġà¤ĸ à¤¤à¤ª
à¤¤à¤° à¤ªà¤¤
à¤®à¤§ à¤¡
à¤ĺ à¤¦
Ġà¤ł à¤£
à¤« à¤¡
à¤« à¤°à¤¸
à¤ħ à¤³
Ġà¤¨à¤µ à¤¦
Ġà¤¤à¤¸ à¤ļ
à¤®à¤¨ à¤®
à¤¬à¤Ī à¤µà¤°
Ġà¤ľà¤¨ à¤®à¤¤
à¤¸à¤® à¤ľ
Ġà¤īà¤® à¤¦
ĠN ashik
ic er
ic ide
à¤¯à¤° à¤®à¤§
Ġà¤Ĺà¤Ł à¤¬
Ġs k
Ġà¥§à¥¨ à¥¬
à¤ıà¤® à¤ıà¤ķ
et s
ha j
Ġà¥§à¥§ à¥ª
ri v
ĠO r
ĠU s
Ġv a
ĠSt ock
Ġà¤µà¤°à¤ļ à¤¢
Ġcom ment
ru ary
anc hay
Ġagain st
c ha
n à¤Ĩà¤°
Ġ Ġ
à¥į à¤¾
Ġà¤ª à¤¯
Ġà¤¤ à¤¸à¤²
Ġà¤¤ à¤ľà¤µ
à¥Ĥ ;
à¤ľ à¤²à¤Ĺ
Ġà¤¨ à¤Ĺà¤¦
Ġà¤° à¤®à¤²
à¤µà¤² à¤²
Ġà¤īà¤ª à¤ĸ
Ġà¤¸à¤¹ à¤ľà¤ļ
er al
à¥® à¥©
ic es
à¤ıà¤¸ à¤ı
ĠT r
ĠC ar
ĠC PU
Ġà¤īà¤² à¤Łà¤¸
ĠD is
Ġthe m
re me
à¤ķà¤®à¤¤ à¤¨
Ġà¤°à¤£ à¤Ĺ
Ġre g
Ġà¤īà¤²à¤Ĺ à¤¡à¤¤
ific ation
sat ta
' t
4 00
m y
n R
Ĺ ı
Ŀ ¤
à¤® à¤¹à¤°
Ġà¤µ à¤·
Ġà¤° à¤ļà¤¤
Ġà¤¬ à¤¯
à¤Ń à¤°à¤ļ
à¥Ģ. )
Ġà¤Ŀ à¤ķ
à¤Ī à¤¸à¤°
Ġà¤ªà¤° à¤Ĺ
Ġà¤ĩ à¤¨à¤¸
Ġà¤Ĩà¤ª à¤ķ
Ġ( "
à¤ªà¤° à¤ĸ
à¤ªà¤° à¤Ńà¤£
Ġà¤īà¤ª à¤ħà¤Ń
à¤ı à¤Ĺ
à¤Łà¤ķ à¤¸à¤°
à¤®à¤¨ à¤ľ
à¤¸à¤¹ à¤ķ
à¤·à¤ķ à¤ªà¤¦
à¤¡à¤£ à¤ķà¤°
à¤ĵ à¤°
ĠM LA
ĠS uper
Ġt han
à¤ıà¤¸ à¤ıà¤®à¤Ł
ĠT imes
Ġà¥§à¥¦ à¥¯
Ġà¤¢ à¤®
et h
à¤Ĩà¤° à¤ı
Ġb er
Ġl ike
Ġà¤ķà¤³ à¤®à¤¨
ess ion
Ġe lection
ov ie
Ġà¥§à¥¯à¥Ń à¥¦
Ġà¤²à¤ª à¤µà¤£
arm ing
-------- --------
ĠSep tember
Ġà¤¹à¤°à¤® à¤¨à¤ª
' !
R C
m on
z a
à¤¹ à¤®à¤§
à¤¹ à¤ļà¤µà¤£
à¤ª à¤Ĺà¤¡
à¤Ĺ à¤ĸ
à¤ľ à¤Ĺà¤¡
à¤¶ à¤ªà¤°
Ġà¤¦ à¤«
Ġà¤Ĺ à¤³à¤£
Ġà¤² à¤°
Ġà¤² à¤¸à¤£
à¤Ń à¤ļ
Ġà¤Ń à¤°à¤ķ
Ġà¤ĺ à¤¬à¤°
Ġà¤ıà¤ķ à¤ľà¤£
à¤°à¤¤ à¤²
à¤¯à¤ķ à¤®
à¤ªà¤° à¤¨
à¤¤à¤² à¤¬
Ġà¥§ 0
à¤ħ à¤¡à¤ļà¤£
à¥® à¥¯
à¥® à¥¬
ĠS BI
à¤²à¤¬ à¤®à¤§
ĠN ational
ĠA C
à¤ıà¤¸ à¤¡
à¤ªà¤Ł à¤£
ĠG a
Ġs aid
ur al
Ġc ount
ĠB oss
Ġà¤ªà¤Ł à¤¸
20 15
Ġà¤¤à¤³ à¤ĺà¤°
à¤ıà¤« à¤ĵ
Ġà¥¦ à¥¬
à¤°à¤®à¤ķ à¤ªà¤£
Ġà¤ħà¤µà¤¯ à¤µà¤¦
cl ai
ĠPl ay
Ġà¤®à¤¦à¤° à¤¶
ĠSl ide
O C
g en
n ic
à¤¾ à¥ĩ.
à¤¯ à¤·
à¤¯ à¤«à¤³
à¤² à¤°à¤²
à¤¨ à¤ī
à¤ļ à¤ľà¤£
à¤¹ à¤°à¤ļà¤¨
Ġà¤ª à¤¢
à¥Ĥ à¤ĥ
Ġà¤ªà¤° à¤ľ
Ġà¤Ł à¤°à¤¬
à¤¯à¤ķ à¤ļ
à¤¬à¤° à¤¹
à¤ĩ à¤¸à¤µà¤°
Ġà¤ĸà¤° à¤Ĺ
à¤µà¤¨ à¤µ
à¤ľà¤ª à¤ķ
Ġà¤ľà¤¨ à¤¸à¤®
ĠS ang
à¤¬à¤² à¤ª
à¤¤à¤ª à¤Ł
ĠA S
Ġd ay
à¤¾) </
ĠF e
à¤¯à¤£ à¤Ĺ
à¤¤à¤°à¤£ à¤ķà¤¡
Ġà¤«à¤¸ à¤µà¤²
Ġà¤ĸà¤³ à¤ĸà¤³
Ġv is
nà¤¸ à¤§
op s
Ġà¥§à¥¯à¥¯ à¥ª
arm ers
Ġà¤ıà¤ħ à¤°à¤µ
Ġsu ch
Ġà¤ıà¤¨à¤Ĩà¤¯ à¤ıà¤¨
CC I
à¤ŁÃĳ à¤µ
anchay at
9 8
c ed
i w
n I
n à¤ī
p h
à¤¸ à¤ıà¤ª
à¤¹ à¤Ń
Ġà¤¶ à¤«
Ġà¤Ĺ à¤¡à¤Ĺ
à¤°à¤ķ à¤¥
Ġà¤ĸ à¤®
à¤¿à¤Ĥ .
Ġà¤ł à¤£à¤ķ
à¤µà¤² à¤ķà¤°
à¤°à¤¸ à¤ª
à¤¸à¤¨ à¤°
Ġà¤ħà¤ª à¤ª
en ot
ĠP ost
Ġà¤Ĺà¤°à¤ľ à¤ļ
ĠD m
ĠL IVE
à¤ıà¤® à¤ı
Ġw ere
Ġà¥§à¥§ à¥§
ot h
à¤²à¤Ń à¤Ń
ĠIn formation
à¥ĩ! "
ist s
Ġà¥§à¥¯à¥¯ à¥Ń
ff ic
Ġà¤ªà¤¦à¤Ń à¤°à¤¤
lip i
ĠOne Plus
ebs ite
N L
T op
e y
j p
m ukh
Ã ¼
â Ħ
à¤® à¤ªà¤¤
Ġà¤Ĩ à¤¡à¤ķ
Ġà¤° à¤ľà¤¤
Ġà¤¶ à¤¬à¤°
Ġà¤¡ à¤²
à¤¼ à¤¿
à¤µà¤£ à¤ķà¤°
à¤¯à¤¤ à¤¶
à¤Łà¤° à¤¦
à¤®à¤¨ à¤¦
at op
à¥ª à¥¦à¥¦
ĠS ur
à¥Ń à¥ª
.. \
it i
it ya
à¤ķà¤£ à¤®
ic rit
ĠA T
Ġà¤ħà¤µ à¤¤à¤°à¤²
ĠT rans
ĠC ity
ĠG roup
ĠR BI
ĠD elhi
ra o
ĠH D
à¤²à¤Ń à¤¤
Ġà¤ħà¤« à¤²
Ġà¤ĵà¤² à¤¸à¤°
Ġà¤ħà¤¹à¤® à¤¦à¤¨
Ġà¥¦ à¥¯
iv es
ass es
ĠJan uary
Im age
enot ril
H A
H ow
N agpur
b al
v is
Ġ ðŁ
Ĩ Ĵ
à¤° à¤Ĺà¤¡
à¤¤ à¤ªà¤°
à¤µ à¤ķà¤²
Ġà¤ķ à¤£à¤¸
à¤¦ à¤ķà¤¡
à¤¦ à¤ªà¤£
Ġà¤µ à¤ĸ
Ġà¤¨ à¤°à¤µ
à¤¬ à¤®à¤¨
Ġà¤Ń à¤°à¤µà¤²
à¤¢ à¤±
à¤¹à¤£ à¤ķà¤°
à¤Ĭ à¤¡
à¥¦ à¥«
Ġà¤ħà¤¨ à¤ĺ
à¤ľà¤¨ à¤¬à¤¦
Ġà¤ĵ à¤¶
à¤ķà¤°à¤£ à¤¹
à¥ĭ, '
ĠA jit
is ul
à¤²à¤£ à¤ķà¤°
ĠR ain
Ġp re
Ġà¥§à¥§ à¥«
Ġà¤¨à¤Ĺ à¤°à¤ķà¤°
ut i
ul ar
ir c
ĠK apoor
ai ro
Ġà¤Ĺà¤¡ à¤Ĺà¤¡
ĠSt ory
ap rod
Ġâ Ŀ¤
ĠCh and
Ġà¤łà¤³à¤ķ à¤ªà¤£
IA L
Ġche ck
aprod om
R R
u y
Ġ ol
à¤¨ à¤¯à¤¨
à¤¨ à¤Īà¤¨
Ġà¤ª à¤Ľ
à¤ª à¤ł
à¤ª à¤±
Ġà¤ħ à¤Ĺà¤¸
Ġà¤µ à¤Ł
Ġà¤¹ à¤£à¤®
Ġà¤Ĺ à¤¹à¤¨
à¤ªà¤° à¤¦
à¤Łà¤° à¤¬
à¤§à¤¨ à¤Ĺ
ĠM et
à¤ķà¤°à¤£ à¤ļ
à¤ķà¤¸ à¤ķ
ĠS T
à¥Ń à¥©
à¤¨à¤° à¤®à¤§
ĠI I
ĠI T
ĠC ap
Ġà¤Ī à¤¦à¤ļ
Ġf irst
Ġw ater
Ġà¤¦à¤² à¤¦à¤²
Ġl ife
Ġ15 00
ĠH y
ĠH or
Ġà¤¸à¤ľ à¤µà¤²
Ġv acc
Ġà¤§à¤¡ à¤§à¤¡
ĠSt ate
à¤¯à¤¸à¤¨ à¤®
Ġà¤Ŀà¤³ à¤ķà¤¤
ef ur
ĠChi a
Ġà¤²à¤Ł à¤ķà¤²
ĠThan ks
âĦ ¢
6 8
N arendra
P ol
d a
g er
l im
o x
r us
s ur
à ª
Ġà¤¸ à¤°à¤®
Ġà¤¦ à¤¬à¤²
Ġà¤Ĺ à¤¡à¤ķ
à¤Ī à¤Ŀ
Ġà¤Ĩà¤ª à¤Łà¤²
à¤µà¤² à¤Ĺ
à¤¯à¤® à¤¹
à¤ħ à¤ªà¤°
à¤ªà¤¨ à¤¦
à¤¯à¤² à¤¢
Ġà¤ĺà¤° à¤Ń
ĠS ec
as aheb
Ġà¤Ńà¤° à¤µà¤¸
à¤°à¤¥à¤® à¤¦à¤°
Ġon ly
ĠF ood
ĠK umar
Ġto day
à¥¨à¥¦ à¥§à¥¯
... '
Ġà¤µà¤ľà¤¨ à¤¦
à¥Ģ! \
ov a
Ġà¤ĩà¤ķ à¤¬
Ġà¤ıà¤®à¤Ĩà¤¯ à¤ıà¤®à¤ļ
Ġà¤¦à¤® à¤Ľ
pr atop
In ter
Ġshar ed
rest ed
isul ide
, </
4 1
5 1
? )
E L
O n
à¤° à¤Ĺà¤³
Ġà¤¹ à¤°à¤¦
à¤§ à¤Ń
Ġà¤ļ à¤ªà¤³
à¤Ī à¤¹
à¤ķà¤° à¤Ńà¤°à¤¤
à¤ĺ à¤Ĺà¤°
Ġà¤¡ à¤ķ
à¤Ŀ à¤µà¤£
à¤®à¤¨ à¤µà¤®
à¤ľà¤ª à¤ª
à¤¯à¤¨ à¤µ
es ident
ĠM ade
ĠM unicipal
à¤ī à¤¥
Ġà¤īà¤® à¤Łà¤µ
à¤¯à¤¸ à¤°à¤ķ
ĠI M
Ġs ur
Ġc han
ĠR CB
à¤Īà¤ķ à¤µà¤°
est ions
ĠO D
Ġà¤¸à¤ľ à¤µà¤£
Ġ14 4
Ġà¥¦ à¥©
iv al
99 9
Ġex am
Ġà¤¬à¤°à¤¸ à¤²
ï¿½ ï¿½
tor idas
Ġà¤ıà¤®à¤ıà¤² à¤¡
clai mer
efur ica
) -
n à¤Ĩà¤£
v ax
Ġ à¥į
à¤¤ à¤ĺ
à¤¯ à¤µà¤¤à¤®
à¤¨ à¤¨à¤Ĺà¤°
Ġà¤ħ à¤¤à¤°
Ġà¤ħ à¤ľà¤¨
Ġà¤ħ à¤¦à¤²
à¤ĸ à¤®à¤§
Ġà¤ĩ à¤¡
à¤Ĭ à¤ªà¤£
à¤¦à¤° à¤µà¤°
Ġà¤ĳ à¤¥
ĠN e
Ġ4 000
om at
Ġà¤Ĩà¤Ī à¤ķà¤¡
Ġà¤ĩà¤¥ à¤ªà¤°
Ġd ough
Ġv ideo
im p
im vax
aj i
ĠCom p
Ġà¤ªà¤ª à¤Ī
à¤¸à¤Ĺà¤¡ à¤®à¤§
nB y
velop ment
W e
y t
Ġ ed
Ġ har
Ġ if
à¤¯ à¤ĸ
à¤µ à¤ĺà¤°
à¤¸ à¤ªà¤Ł
à¤® à¤¸à¤²à¤¤
Ġà¤ª à¤ļà¤µ
Ġà¤® à¤¸à¤²à¤¤
à¤¡ à¤ħà¤³
Ġà¤¹ à¤¸à¤°
Ġà¤¹ à¤³à¤µ
Ġà¤° à¤®à¤¤
Ġà¤¬ à¤µ
Ġà¤ĸ à¤°à¤ª
Ġà¤ıà¤ķ à¤°à¤ķà¤®
Ġà¤¤à¤° à¤¡
à¤ªà¤° à¤®à¤§
à¤ı à¤¤à¤¨
à¤ĥ '
à¤ĩ à¤Łà¤¨
Ġà¤ªà¤¦ à¤®à¤¨à¤ľ
à¤Ľ à¤¡
Ġà¥¤ '
à¤ĵ à¤³à¤ĸ
ĠS amsung
à¤ī à¤ªà¤¨
en e
en n
ĠN agpur
ad a
am ily
Ġà¤ıà¤¸ à¤¡
ĠB S
ĠR ane
à¤ķà¤³ à¤ļ
ĠL ast
Ġp art
Ġà¤Ĩà¤¢à¤³ à¤°
Ġà¤¸à¤¦à¤° à¤¹
Ġà¤ħà¤Ł à¤³
Ġà¤į à¤®
av a
Ġà¥§à¥¯à¥ª à¥®
ĠRes erved
Ġà¤ķà¤Łà¤ķ à¤Ł
ĠAug ust
EC IAL
" \
6 7
C o
H z
V ideo
h l
i ver
r as
s er
à¤¯ à¤®à¤§
à¤¦ à¤°à¤¤
à¤ľ à¤°à¤²
Ġà¤¨ à¤¤à¤®à¤¸
Ġà¤¬ à¤Łà¤²
Ġà¤ķà¤° à¤µà¤¤
Ġà¤ļ à¤²à¤¤
Ġà¤ĺ à¤®
Ġà¤ı à¤²à¤¸
à¤Ī à¤ķà¤¡
à¤Ĭ à¤³à¤Ĺ
à¤« à¤£
à¥¦ à¥¯
à¤¶à¤¨ à¤¦
Ġà¤®à¤¨ à¤¨
ĠS um
à¤ī à¤¡à¤µ
à¤ī à¤¨à¤®
ĠP ay
ĠA k
à¤ķà¤Ł à¤µ
ad ha
Ġs ol
à¤Ĩà¤¯ à¤¬
ĠR ahul
Ġn ow
à¤²à¤¦ à¤¸
à¤ıà¤² à¤¸
à¤¹à¤¸ à¤³
Ġd ishes
à¤²à¤® à¤¡
our ce
Ġà¤īà¤ľ à¤³à¤£
iv en
ies el
hav an
Ġ199 0
Ġà¥§à¥¯à¥® à¥¯
dd ress
ĠPr adesh
ĠChi ef
mp lo
ĠLok satta
urr ent
Ġsho uld
M e
N E
N ational
S P
a use
s ha
à¤¯ à¤ľà¤°
à¤² à¤µà¤¡
à¤µ à¤Ĺà¤¤
à¤£ à¤ĸà¤¤
Ġà¤¸ à¤¬à¤²
à¤Ł à¤¸à¤ļ
à¤§ à¤§à¤°
Ġà¤ľ à¤ľ
Ġà¤ķà¤° à¤¶
Ġà¤Ĺ à¤²à¤µ
Ġà¤² à¤ķà¤¡
Ġà¤ı à¤¡à¤µà¤°
Ġà¤« à¤¤à¤µ
à¤¢ à¤ª
Ġà¤ªà¤° à¤¨
Ġà¤ħà¤¨ à¤¨à¤¸
Ġ' </
Ġà¤ķà¤°à¤¤ à¤ļ
Ġà¥¨ à¥¨à¥¦
à¥ĭ. '
à¤Ĩ à¤°à¤¨
à¤¶à¤¨ à¤§
à¤¶à¤¨ à¤Ĺà¤°
à¤ķà¤² à¤²
à¤¤à¤ķ à¤¥
à¤¯à¤¨ à¤¸
ĠM y
à¤µà¤¢ à¤¯
Ġà¤Ĺà¤£ à¤ªà¤¤à¤°
ad av
à¤ķà¤ļ à¤ķ
ĠL IC
re ad
Ġ10 1
ĠF rom
Ġà¤Ĳà¤ķ à¤µà¤²
ĠW ith
à¥Ģà¤ĥ -
ou g
Ġà¤¬à¤ļà¤¤ à¤Ĺà¤Ł
Ġst ul
Ġ199 8
Ġà¥§à¥¯à¥® à¥¬
ens ion
vi ew
ĠIN D
ĠJul y
Ġà¤¡à¤Ŀà¤¨ à¤Ńà¤°
Ġyear s
C ovid
R O
R am
R ohit
c ast
e le
m g
m at
m Ah
o an
t Top
à¤² à¤Łà¤²
à¤² à¤®à¤°
à¤ķ à¤¨à¤Ĺà¤°
à¤£ à¤ªà¤Ł
Ġà¤ķ à¤Ń
à¤® à¤²à¤ķ
Ġà¤¸ à¤µà¤¡
Ġà¤µ à¤£à¤µà¤£
à¤Ł à¤°à¤ķ
à¤§ à¤µà¤¸
à¤§ à¤°à¤¨
Ġà¤ľ à¤¯à¤¤
à¤¬ à¤ķà¤°
Ġà¤° à¤Ĺ
Ġà¤° à¤Ŀ
Ġà¤¬ à¤Ŀ
à¤µà¤° à¤®
à¤ķà¤° à¤µà¤°
à¤¦à¤° à¤®à¤§
à¤ı à¤Ī
à¤ĥ \
à¤Ĩ à¤°à¤ķ
à¤Īà¤² à¤¨
à¤ĩ à¤¨à¤¸
ar at
in c
Ġà¤¬à¤° à¤¬
ĠM ed
à¥® à¥§
Ġ3 000
à¥ĭ, "
Ġà¤¬à¤¸ à¤Ĺ
Ġà¤ħà¤² à¤Ĺà¤¦
à¤Ĩà¤¯ à¤®à¤§
Ġà¤¹à¤² à¤µà¤¤
à¤µà¤§ à¤ªà¤£
ĠD es
ra ind
Ġà¥§à¥¨ à¥¨
à¤Ĩà¤° à¤®à¤§
à¤Ĩà¤° à¤Ĩà¤°
Ġb et
Ġà¥¨à¥« à¥¦à¥¦
Ġà¤ľà¤¸ à¤ľà¤¶
um an
à¤ıà¤¨ à¤Ł
Ġh ere
han e
ab h
kar i
à¤¯à¤Ĺ à¤¡à¤ļ
ĠAg hadi
Ġth ese
erv ice
PO RT
Ġà¤ļà¤® à¤ķà¤²
ĠJio TV
Ġà¤Ĩà¤ī à¤Łà¤ª
à¤ľà¤¯à¤¨ à¤Ĺà¤°
ĠFeb ruary
nic in
raind ic
6 5
A m
N ew
R A
R ahul
a u
g ram
w ord
à¤° à¤Ŀ
à¤¯ à¤§à¤¨
à¤Ĥ "
à¤µ à¤ķà¤¡
à¤¹ à¤µà¤¤
Ġà¤Ĩ à¤¡à¤Ĺ
à¤¡ à¤Ł
à¤Ń à¤¹
Ġà¤ī à¤°à¤ķà¤²
Ġà¤ı à¤¡à¤®
Ġà¤Ŀ à¤Łà¤²
Ġà¤®à¤¹ à¤®
Ġà¤ĩ à¤¡à¤²
à¤Ĺà¤² à¤ķ
à¤ı à¤®à¤§
à¤Łà¤¨ à¤²
Ġà¤®à¤¨ à¤µ
à¤µà¤¨ à¤Ĺ
in ch
à¤ŀ à¤ķ
on y
Ġà¤ķà¤² à¤°à¤ļ
à¤ļà¤¨ à¤®à¤§
ĠS am
à¥Ń à¥¯
Ġà¤Ķ à¤ķ
ĠN CP
à¤ķà¤® à¤¹
Ġc all
ĠR ail
ĠD epartment
à¤¸à¤®à¤§ à¤²
Ġà¥§à¥§ à¥¨
20 17
ir it
Ġà¥§à¥© à¥¯
Ġà¥§à¥© à¥Ń
Ġà¤ħà¤µà¤¸ à¤°
ow s
Ġà¤ıà¤² à¤ľ
umb er
Ġis s
ĠRead ing
Ġr et
Ġà¤ıà¤®à¤Ĩà¤¯ à¤ıà¤®
Ġà¤ªà¤ļà¤¨ à¤ķ
Go a
Ġà¤īà¤§à¤³ à¤ªà¤Ł
osc ope
3 00
e ver
e ction
i um
n à¤īà¤¤
Ä °
à¤¨ à¤¸à¤ļ
à¤Ĥ à¤ĥ
à¤ķ à¤¤à¤ļ
à¤µ à¤µà¤°
Ġà¤¹ à¤²à¤¤
à¤§ à¤ľà¤¨
Ġà¤¨ à¤®à¤¨
Ġà¤¶ à¤Łà¤°
Ġà¤ħà¤¸ à¤Ń
Ġà¤ı à¤²à¤¨
à¤Ī à¤¯
Ġà¤ĩ à¤ª
à¤« à¤²à¤ķ
Ġà¤¸à¤® à¤°à¤¸
à¥¦ à¥¨
Ġà¤īà¤ª à¤ªà¤¤
à¤ı à¤¬à¤²
Ġà¤Ĩà¤° à¤ľ
à¤Ĭà¤¨ à¤¨
à¤µà¤³ à¤ļ
Ġà¥© à¥¦à¥¦à¥¦
à¤²à¤¤ à¤¤
Ġà¤ħà¤² à¤µ
ĠN ar
ic ro
à¤¨à¤° à¤µà¤°
à¤Ĥ, "
ĠB al
ĠR et
ra y
re en
à¤³à¤µà¤² à¤ķà¤°
av i
Ġe mail
og rap
Ġ199 5
à¤Łà¤°à¤¸ à¤°
oh ol
ĠTH E
irth day
D elhi
F T
O G
U M
n à¤ħà¤®
o f
p a
t on
w ant
à¤° à¤Ĭà¤°
à¤¯ à¤ĺ
à¤ķ à¤ªà¤°
à¤® à¤Ī
à¤® à¤¸à¤®
Ġà¤¸ à¤¬à¤³
Ġà¤® à¤¢
à¥Ĥ \
à¤Ĺ à¤ªà¤°
à¤ľ à¤¬à¤°
à¤³ à¤«
Ġà¤ľ à¤µà¤¸
Ġà¤¬ à¤¡à¤µ
Ġà¤ļ à¤ķà¤°
Ġà¤Ń à¤¡à¤Ĺ
à¤Ī à¤¡à¤²
Ġà¤Ł à¤µ
Ġà¤¸à¤® à¤¶
à¤¤à¤² à¤ĸ
à¤¦à¤° à¤ª
à¤·à¤£ à¤ķà¤°
in ter
à¤ľà¤¯ à¤ª
Ġà¤°à¤¸ à¤¦
Ġà¥§à¥¯ à¥©à¥¦
Ġc orona
ing iz
Ġn ame
Ġ7 50
Ġin formation
un j
Ġw ebsite
Ġà¤ĭ à¤ļ
... !
ĠW HO
à¤ļà¤µà¤¡ à¤ļ
à¤½ à¤ª
Ġà¥§à¥¯à¥® à¥©
Ġ] .
Ġà¥§à¥¯à¥¬ à¥§
ust ral
Ġ198 0
Ġ198 4
ĠTe chn
ĠRE PORT
stit ute
ĠDesh mukh
% )
R I
c ohol
k i
n à¤¤à¤¸
n à¤Ĩà¤®
t el
u es
Ã Ĺ
Ġ à¦
à¤¨ à¤¸à¤²
à¤µ à¤·
à¤¸ à¤ıà¤¨à¤¯
à¤® à¤°à¤¤
Ġà¤¸ à¤ªà¤¤
Ġà¤¸ à¤¬à¤ķ
à¤ª à¤¯à¤¤
Ġà¤ħ à¤Ŀà¤°
Ġà¤µ à¤²à¤¯
Ġà¤µ à¤¨à¤°
à¤¡ à¤Ń
à¤¶ à¤Ĺ
Ġà¤¦ à¤³
Ġà¤ļ à¤ªà¤°
Ġà¤ļ à¤ķà¤ļà¤ķ
Ġà¤ī à¤Ł
à¤ĺ à¤³à¤²
à¤ľà¤¨ à¤ª
à¤ľà¤¨ à¤Ĺ
Ġà¤Ĩà¤° à¤ıà¤¸à¤ıà¤¸
à¤Ĩ à¤³
à¤Ĺà¤£ à¤¦
à¤ķà¤² à¤ł
à¤®à¤¤ à¤µ
Ġ" \
Ġà¤īà¤¦ à¤¯à¤ª
ĠM und
à¥® à¥ª
Ġà¤¸à¤ķ à¤³
Ġà¤Ĩà¤ł à¤ļ
ĠA I
ĠA f
à¤Īà¤¨ à¤µà¤°
Ġà¥Ń à¥«à¥¦
ĠC are
Ġà¤ıà¤¸ à¤¸
à¤®à¤£ à¤£
Ġs m
ĠB an
Ġà¤ħà¤Ĺ à¤°à¤µ
Ġà¤®à¤ľ à¤¦
ro ugh
Ġà¥§à¥§ à¥©
Ġà¥§à¥ª à¥¯
ir on
ĠH ot
os age
à¤²à¤ķà¤° à¤¨
Ġà¥¦ à¥Ń
Ġà¤ķà¤£ à¤ĸà¤°
iz e
à¤Łà¤°à¤¸ à¤¹
ons oon
Ġtw o
ĠSP ECIAL
oug ht
N A
R E
b h
d ing
m ir
n D
u ch
v id
Ã ©
Ġ \
à¥ Ĳ
à¤¨ à¤°à¤¸
à¤ķ à¤§à¤°
à¤¹ à¤°à¤¸
à¤£ à¤¬à¤§
Ġà¤ħ à¤¡à¤¤
à¤Ĺ à¤¨à¤Ĺà¤°
à¤¡ à¤ľ
à¤¡ à¤°à¤¸à¤¨
à¤· à¤ķà¤°
à¤¥ à¤¬
à¤µà¤° à¤ĸ
Ġà¤®à¤¹ à¤²
Ġà¤ĩ à¤Ŀà¤®
Ġà¤¡ à¤¸
à¤ĥ à¥¤
Ġà¤ķà¤® à¤¬
à¤¸à¤¹ à¤¸
ĠM ess
.. ...
Ġà¤¬à¤¦à¤² à¤µ
Ġà¤µà¤¸ à¤Īà¤ļ
ĠP arty
ĠN et
Ġà¤Ĩà¤Ĺ à¤Ĺ
Ġà¤ķà¤ª à¤ļ
ad hav
Ġà¤Ī à¤ļ
ur b
Ġà¥§à¥¦ à¥ª
à¤Ĩà¤° à¤Ĩà¤¯
Ġà¥§à¥® à¥¦à¥¦
à¤¸à¤Ĺ à¤¢
Ġd es
ak a
à¥Ģ? \
ot her
Ġà¤¤à¤³ à¤®à¤ľà¤²
ĠV i
Ġ14 0
Ġre l
ĠY oj
Ġà¤¢à¤ķà¤² à¤¤
ĠSc heme
% ,
B reaking
R S
e al
n à¤¸à¤®
Ġ enter
à¤¯ à¤ĳà¤ķ
à¤² à¤¬à¤¦
à¤¨ à¤Łà¤ķ
à¤¨ à¤²à¤¨
à¤¸ à¤Łà¤²
Ġà¤Ĩ à¤¡à¤®
Ġà¤¹ à¤«
Ġà¤¹ à¤µà¤¨
Ġà¤ľ à¤²à¤°
Ġà¤ī à¤ĸà¤¡
Ġà¤ĩ à¤ħà¤°
Ġà¤¸à¤° à¤¡
Ġà¤µà¤° à¤ª
à¤Ĺà¤² à¤¬
à¤Ŀ à¤°à¤¨
à¤Ĺà¤¤ à¤¦
à¤Łà¤¨ à¤ª
Ġà¤¸à¤¹ à¤Ĩà¤¯
Ġà¤¸à¤°à¤ķ à¤£
à¤¸à¤¨ à¤ķà¤°
Ġà¤ĵ à¤¸à¤µ
à¤ľà¤ª à¤¤à¤°
à¤¹à¤¨ à¤¨
Ġt rans
Ġà¥¯ à¥¯à¥¯
Ġà¥§à¥¦ à¥¬
à¤ķà¤®à¤¤ à¤ļ
ul kar
Ġà¥§à¥© à¥®
Ġà¤«à¤° à¤«
à¤ĳ à¤Ł
Ġà¤į à¤²à¤°
Ġe very
ĠEn g
Ġst r
Ġà¤¢à¤Ĺ à¤«
Ġà¥§à¥¯à¥¬ à¥¨
Ġth ere
à¤ļà¤ªà¤¦ à¤¸
Ġdet ails
7 8
9 6
P G
n à¤§
p hoto
à¤° à¤°à¤ļà¤¨
à¤¨ à¤Īà¤²
à¤¹ à¤²à¤ļ
Ġà¤® à¤¡à¤³
Ġà¤® à¤¤à¤²à¤¬
à¤ľ à¤Ĺà¤¤
à¤¡ à¤¸à¤°
à¤¶ à¤ªà¤¤
Ġà¤ľ à¤ł
Ġà¤¶ à¤¯à¤¨
Ġà¤¸à¤® à¤¦
Ġà¤īà¤ª à¤µà¤¨à¤¸
à¤¯à¤² à¤®à¤§
Ġà¤®à¤¨ à¤°
ar th
at t
Ġà¤ħà¤® à¤°à¤¸
or r
à¤ķà¤£ à¤ķà¤°
ĠC ongress
Ġà¤Ī à¤ıà¤®à¤Ĩà¤¯
Ġs er
ĠR T
ra h
Ġà¥§à¥« à¥©
ent ion
Ġà¥§à¥¨ à¥§
à¤Ĩà¤° à¤ıà¤ļ
Ġà¤ħà¤¡ à¤¸
à¤Łà¤¸ à¤ħ
à¤£à¤µ à¤ł
ĠV iv
Ġà¤¡à¤¬ à¤ķ
Ġst ud
ug ar
à¤½ à¤¸
Ġà¥§à¥¯à¥® à¥ª
ect or
Ġi OS
ord er
In stagram
Ġà¤ĸà¤£ à¤ĸà¤£
' )
, \
B T
a ctor
c o
g y
Ä ģ
à¤¨ à¤µà¤¸
à¤¹ à¤ĸ
Ġà¤¸ à¤¨à¤¸
Ġà¤¤ à¤®à¤¨
Ġà¤¨ à¤£
à¤¬ à¤¨à¤ļ
Ġà¤ĺ à¤°à¤ªà¤Ł
Ġà¤ı à¤ļà¤ª
Ġà¤Ŀ à¤Łà¤£
à¤¿à¤Ĥ à¤Ĥ
à¤¯à¤ķ à¤¶
à¤Ĭ à¤ľ
Ġà¤¡ à¤Ĺà¤®
Ġà¤¸à¤® à¤ķà¤ķ
à¤Ĩ à¤¬
à¤Łà¤² à¤¨
Ġà¤Ĩà¤® à¤°à¤£
Ġà¤®à¤¨ à¤§à¤°à¤£
à¤¦à¤¨ à¤¹
à¤¨à¤µ à¤µ
ĠS UV
or a
ic ron
Ġà¤Ĩà¤¨ à¤¨
ĠR ate
ĠD ev
re qu
Ġo ther
Ġm ust
à¤¸à¤Ĺ à¤¡à¤ļ
ch ing
à¥¨à¥¦ à¥¨à¥¨
ĠV R
ig ital
Ġà¥¦ à¥®
if ied
Ġ199 3
ian ce
Ġà¤²à¤ª à¤µà¤¤
ank a
hot os
htt ps
à¤ķà¤ħ à¤ªà¤ļ
hon i
ĠAss embly
ycl ine
Ġlead er
9 7
A D
E M
G S
b e
m ary
n à¤®à¤°
u z
Ġ ve
Ġà¤ ³
à¤¹ à¤ķà¤¤
Ġà¤ķ à¤Łà¤°
Ġà¤® à¤ĺ
Ġà¤¤ à¤±
Ġà¤¤ à¤¡à¤¸
à¤¦ à¤¯à¤¸
à¤Ł à¤®à¤ļ
Ġà¤¹ à¤°à¤µà¤£
à¤¶ à¤²à¤¤
à¤ł à¤³
Ġà¤Ĺ à¤°à¤µ
à¤µà¤° à¤¯
Ġà¤Ŀ à¤£à¤ľ
Ġà¤¤à¤° à¤²
Ġà¤§ à¤¨à¤ķ
à¤ı à¤ħà¤°
à¤¶à¤¨ à¤ķà¤¡
Ġà¤¸à¤¹ à¤ľà¤¸
à¤²à¤ķ à¤¹
Ġà¤¥ à¤µ
an n
Ġà¤¦à¤° à¤¹
Ġà¤®à¤° à¤Ĺà¤³
à¤ĵ à¤¦
à¤ī à¤ļà¤°
ĠP hone
Ġà¤Ĳ à¤ļ
Ġà¤īà¤® à¤°à¤ĸ
Ġ4 50
Ġ) ;
Ġs al
à¤ķà¤³ à¤¸
à¤ıà¤® à¤¡
Ġà¤ıà¤µà¤¢ à¤¯
à¤¹à¤² à¤®à¤§
Ġm ade
ay an
Ġà¤ªà¤¸ à¤°à¤µà¤¤
à¤·à¤® à¤ªà¤£
ĠU P
our s
kar t
à¤Ĥ? "
Ġ199 2
Ġà¥§à¥¯à¥¬ à¥Ń
Ġà¥§à¥¯à¥ª à¥¨
Ġà¤Ńà¤Ĺ à¤µà¤¨
anc ycline
Ġà¤¸à¤Ī à¤¦
oin t
He alth
Dis claimer
à¤Ĺà¤®à¤° à¤µà¤°
ustral ia
P ar
S c
a ught
g es
i eld
n à¤ĸà¤°
s on
Ġ ass
Ġ ____
Ġ ï¿½ï¿½
à¤¯ à¤¤à¤°
à¤² à¤Ī
à¤ķ à¤Łà¤°
à¤ļ à¤Ł
à¤ļ à¤®à¤¨
à¤£ à¤°à¤¤
à¤£ à¤ķà¤Ł
Ġà¤ķ à¤¨à¤ķ
à¤ª à¤¸à¤®à¤§
Ġà¤ħ à¤¬à¤¦
Ġà¤µ à¤Łà¤ª
à¤Ł à¤ľà¤µà¤³
à¤³ à¤Ĺà¤¡
Ġà¤¦ à¤®à¤Ł
à¤· à¤Ĺ
à¤°à¤µ à¤ªà¤¦
à¤¦à¤° à¤°
à¤µà¤³ à¤Ł
à¤ĩ à¤ķà¤ļ
Ġà¤ĵ à¤ľà¤¸
à¤ĸà¤² à¤¦à¤°
ĠM C
Ġà¤Ĳ à¤ķà¤µ
Ġà¤Ķ à¤¸
ĠN E
and id
Ġs w
ĠB ook
ĠR ana
Ġb ro
Ġà¥§à¥§ à¥¯
Ġà¥§à¥§ à¥Ń
ce pt
Ġre m
ug s
Ġà¥§à¥¯à¥® à¥®
hik riya
anc er
Ġpl ay
Ġà¤Ĩà¤ī à¤Łà¤«
uth or
Ġab hikriya
à¤¸à¤į à¤ª
ĠAh mednagar
ĠMund e
F ollow
V irus
h ur
Ã ¨
Ġ <
à¤¤ à¤µà¤¨
à¤² à¤®à¤¨
à¤£ à¤¥à¤³
à¤¦ à¤¯à¤¦
à¤Ł à¤¸à¤¨
à¤¡ à¤ķà¤²
à¤§ à¤Ł
Ġà¤¦ à¤®à¤²
Ġà¤ľ à¤¯à¤²à¤²
Ġà¤Ń à¤Ĺà¤¦
Ġà¤ĺ à¤µà¤ĺ
Ġà¤ıà¤ķ à¤¬
Ġà¤¸à¤° à¤«à¤°
Ġà¤¸à¤® à¤·
Ġà¤µà¤° à¤µà¤°à¤ļ
à¤µà¤¤ à¤¨
à¤Ŀ à¤®à¤ļ
à¤µà¤¡ à¤°à¤ļ
à¤ĩ à¤ķà¤¡
à¤ĩ à¤¡à¤²
à¤ĩ à¤¨à¤²
Ġà¤Ĩà¤¯ à¤ıà¤¸à¤ª
in t
à¤²à¤¨ à¤Ĺà¤°
à¤¹à¤¨ à¤ªà¤°
à¤ľà¤¯ à¤°
à¥© à¥¦à¥¦
ĠS al
ĠMar ch
Ġà¥§à¥§ à¥¬
Ġà¥©à¥¦ à¥¨
20 12
Ġà¥§à¥¬ à¥«
Ġ18 00
ant a
ĠIn c
Ġg l
Ġ[ â
Ġ60 2
hav ikas
mit t
nP osted
Ġà¤ĸà¤² à¤¬à¤¤
Ġà¤ĺà¤¨ à¤«
Ġà¤§à¤µà¤¨ à¤¨
à¤²à¤¢ à¤ķà¤²
du ct
ĠFil m
ĠYoj ana
A K
A mit
W S
n à¤ªà¤¹
p o
y an
à¤ķ à¤ªà¤Ł
Ġà¤ķ à¤Ŀ
à¤® à¤²à¤²
Ġà¤¸ à¤¶à¤°
Ġà¤® à¤°à¤ķ
à¥Ĥ ',
Ġà¤¨ à¤³à¤ľ
Ġà¤ı à¤²à¤°
à¥ĩà¤Ĥ à¤ĥ
Ġà¤¤à¤° à¤¸
à¤ķà¤¡ à¤¯
à¤µà¤£ à¤ķ
à¤¦à¤° à¤¬
à¤·à¤£ à¤ª
Ġà¤¤à¤¸ à¤¤à¤¶
at ha
Ġà¤ħà¤ª à¤Ĺ
Ġà¥© 0
er a
ĠS abha
à¤ļà¤² à¤°
à¤µà¤ļ à¤°
à¤ī à¤·
à¤ī à¤Ŀà¤°
à¤µà¤ķ à¤±
à¤³à¤µ à¤Ł
Ġà¤ħà¤µ à¤¹
he l
ur es
Ġc ol
à¤®à¤¦ à¤¹à¤¨
Ġp at
est er
Ġà¤²à¤¢ à¤µà¤¯
ul ation
Ġà¥§à¥© à¥¨
ot ify
Ġà¥¨à¥ª à¥¦
Ġà¥¨à¥§ à¥¦
end er
à¥Ģ" .
ĠSaam ana
ang u
à¤¨à¤Ī à¤®à¤§
à¤ĩà¤« à¤¸
Ġas k
Ġ196 2
Ġshar e
Ġà¤ļà¤£ à¤ļà¤£
ĠCO VID
Ġchi ld
Ġà¤¬à¤²à¤ķ à¤µà¤¡
Ġà¤łà¤£ à¤łà¤£
Ġà¤ĺà¤µà¤ĺ à¤µ
C entral
I ON
K R
m un
n G
n à¤ªà¤¤
n ik
â ĸ
à¤ķ à¤®à¤²
à¤ļ à¤®à¤¹
à¤® à¤°à¤ķ
Ġà¤Ĩ à¤Łà¤²
à¤¦ à¤®à¤¯
à¤Ĺ à¤°à¤ķ
à¤Ł à¤°à¤¤
à¤ľ à¤²à¤µ
Ġà¤ľ à¤²à¤®
à¤ł à¤®à¤²
Ġà¤² à¤ĸà¤²
à¤°à¤ķ à¤¸
à¤¤à¤° à¤§
à¤Ī à¤ķà¤²
à¤ķà¤° à¤¦à¤¨
à¤Ĺà¤² à¤Ł
à¤Ŀ à¤£
à¤¦à¤° à¤¹
à¤·à¤£ à¤¤à¤ľ
à¤ı à¤²à¤¨
à¤ı à¤²à¤¬
à¤Ĩ à¤·
à¤ĩ à¤¸à¤ļ
Ġà¤īà¤¦ à¤ķ
à¤¬à¤Ī à¤¤à¤¹
in et
Ġà¤ħà¤® à¤ķ
Ġà¤µà¤¸ à¤Īà¤¤
Ġt r
ĠP anchayat
ĠI E
Ġs l
à¤ĩà¤¨ à¤µà¤°
ra w
um p
ĠK olhapur
Ġà¤· à¤·
ag a
ĠV iral
à¤ıà¤ļ à¤ĵ
av n
Ġà¤ıà¤ħà¤° à¤¬
Ġcom ments
Ġà¤ļà¤®à¤ķ à¤£
à¤¾... \
Ġà¤ļà¤²à¤¨ à¤µ
An il
Ġà¤¨à¤¯à¤¨ à¤°à¤®
ĠAcc ident
Ġright s
raindic ations
Ġà¤«à¤°à¤« à¤Łà¤¤
C hi
D C
e z
e ep
k o
n J
n à¤®à¤¨
p ect
v ar
Ġ ri
à¤¯ à¤°à¤®
à¤² à¤¨à¤ļ
à¤¿ /
à¤¨ à¤®à¤¨
à¤ª à¤ķà¤¡
à¤¡ à¤µà¤³
à¤§ à¤¬
Ġà¤¨ à¤Ń
Ġà¤ķà¤° à¤ķ
à¤ł à¤¦
à¤¥ à¤Ĺà¤¤
Ġà¤ĸ à¤µà¤¯
à¤°à¤£ à¤Ĺ
à¤°à¤® à¤®à¤§
Ġà¤Ĩà¤¤ à¤·à¤¬
Ġà¤Ĩà¤° à¤ıà¤¸
Ġà¤ªà¤¤ à¤¨
à¤Ľ à¤ª
Ġà¤Ľ à¤ªà¤°
ĠM and
ĠM od
ĠM eet
à¥Ĥà¤Ĥ ;
.. !
à¤²à¤ļ à¤°
Ġà¤®à¤¦à¤¤ à¤¹
Ġ! !!
ĠP od
ĠN ow
ĠN agar
Ġà¤Ĺà¤° à¤¬
le y
le an
Ġà¤īà¤² à¤Łà¤¤
Ġà¤Ī à¤ķ
Ġà¤ĳà¤« à¤°à¤ļ
am m
am es
ra g
Ġin s
Ġin to
Ġin vest
à¤ıà¤® à¤¡à¤¬
il led
ro ss
Ġ19 47
est ival
Ġd ef
ĠF und
à¤¡à¤®à¤§ à¤²
à¥¨à¥¦ à¥¨à¥¦
ĠW hat
ĠW omen
Ġ18 8
ĠMa h
ĠV acc
Ġà¥¨à¥¨ à¥«
Ġà¤į à¤ªà¤²
Ġv ar
ĠY adav
Ġà¥§à¥¯à¥¬ à¥«
Ġà¥§à¥¯à¥¬ à¥¯
Ġà¤¹à¤¸à¤¤ à¤®
ĠPat el
ee k
Ġpro t
row n
Ġhi gh
ble m
rak ant
iet y
nF irst
con om
ĠPod cast
A g
A k
G old
S L
c orona
n à¤ħà¤Ń
r ist
à¤® à¤°à¤ļ
à¤® à¤Ńà¤ķ
à¥Ĥ à¥Ĥ
à¤Ĺ à¤ķà¤¡
Ġà¤¯ à¤µà¤¤
à¤³ à¤ķà¤¡
à¤¬ à¤¬
Ġà¤ħà¤¸ à¤¶
à¤ĸ à¤ªà¤¦
Ġà¤ĺ à¤¨à¤µà¤Ł
Ġà¤ĸ à¤ªà¤²
Ġà¤ªà¤° à¤®à¤ª
Ġà¤Ł à¤ķà¤²
à¤°à¤£ à¤Ń
Ġà¤¤à¤° à¤¬
Ġà¤¤à¤° à¤¤à¤°
à¤ĺ à¤°à¤ļ
Ġà¤īà¤ª à¤¨à¤¦
à¤ĩ à¤¸à¤°
à¤²à¤ķ à¤ªà¤¦
Ġà¤Ĩà¤¯ à¤Ĩà¤°à¤¸
Ġà¤ħà¤ª à¤Ń
Ġà¤ªà¤¤ à¤§
Ġà¤®à¤¤ à¤¹
er r
à¤ĵ à¤ķà¤¡
ĠM ore
à¤ī à¤ªà¤°
Ġà¤µà¤¸ à¤µ
Ġà¤Ĩà¤ł à¤¶
à¤ļà¤° à¤®à¤§
is an
and s
ad d
ol t
ĠD o
Ġin f
Ġ10 2
Ġ10 6
har ma
Ġà¥§à¥® à¥«à¥Ń
Ġà¤¶à¤¹ à¤°à¤ª
Ġl ast
Ġà¥§à¥¬ à¥¦à¥¦
ĠMa x
Ġà¤īà¤²à¤Ł à¤ªà¤ķ
ort h
Ġg u
Ġapp lic
ud get
à¤¹à¤ļ à¤µà¤²
Ġà¥§à¥¯à¥® à¥«
Ġà¥§à¥¯à¥Ń à¥©
ach er
IN G
Ġad d
olog ical
Ġà¤Ĩà¤ī à¤Łà¤²
Ġà¤ķà¤¢ à¤Īà¤¤
eng al
à¤ıà¤¸à¤ıà¤¨ à¤ıà¤²à¤ļ
ffect s
Ġà¤ķà¤°à¤¸ à¤µà¤²à¤¤
ĠPodcast s
B l
M NS
V iral
l ing
Â ©
à¤ķ à¤¬à¤§
à¤µ à¤®à¤¤
Ġà¤ª à¤³à¤µà¤²
Ġà¤µ à¤°à¤µ
à¤¡ à¤µà¤¡
Ġà¤¬ à¤¡à¤¨
Ġà¤² à¤³
Ġà¤ı à¤¤
à¤Ī à¤ķà¤¨
à¤°à¤¤ à¤Ń
Ġà¤§ à¤¨à¤²
Ġà¤§ à¤¨à¤µ
Ġà¤īà¤ª à¤Ł
à¤ħ à¤®à¤ļ
à¤¯à¤¤ à¤¤
Ġ- --
à¤Ĩ à¤Ĭ
Ġà¤Ĩà¤ľ à¤ĺà¤¡
à¤¹à¤° à¤µà¤°
Ġà¤Ĩà¤® à¤²
à¤µà¤¨ à¤ª
Ġà¤ªà¤¤ à¤ª
Ġà¤ľà¤¨ à¤Ĩ
ĠM PSC
ĠS chool
à¤ī à¤Ń
à¤¸à¤® à¤¸à¤ļ
ĠP rime
à¤ķà¤£ à¤µ
hi m
ĠT ax
ĠG l
ĠG old
Ġà¥§à¥ª à¥«
à¤ıà¤« à¤®à¤§
à¤®à¤¶ à¤¤
ĠSp otify
Ġk o
à¤¾" .
Ġ27 0
Ġ199 4
Ġ199 7
à¤½ à¤¨
à¤Ķ à¤¦
Ġà¥§à¥¯à¥Ń à¥«
ĠAs h
Ġà¥§à¥¯à¥« à¥¬
ĠJio Sa
rap ati
we en
nivers ity
ĠGa ana
Ġcount ry
ĠJioSa avn
6 9
8 00
A cc
A sh
L ast
L SS
P etrol
c es
g ed
m r
n à¤¥
v t
à¤¯ à¤¸à¤¤
à¤² à¤ľà¤µà¤³
à¤ķ à¤Ĩà¤Ĭà¤Ł
à¤¹ à¤¹
à¥ĭ ),
Ġà¤ķ à¤¦à¤°
à¤® à¤¸à¤®à¤°
Ġà¤¹ à¤Łà¤²
Ġà¤¹ à¤°à¤µà¤¤
à¤¶ à¤µà¤¸
Ġà¤¬ à¤²à¤¸
à¤ĸ à¤°à¤£
Ġà¤ı à¤¨à¤ķ
à¤°à¤ķ à¤ªà¤£
Ġà¤ĩ à¤¨à¤µ
Ġà¤īà¤ª à¤¸à¤ļ
à¤µà¤¡ à¤Ĺ
à¤ı à¤®à¤¨
Ġ2 20
Ġà¤Ĩà¤® à¤Ĺ
Ġà¤¥ à¤ķà¤¤
Ġà¤Ĩà¤¯ à¤µ
Ġà¤Ĩà¤¯ à¤¶à¤°
à¤Ĺà¤³ à¤¤
Ġà¤ĵ à¤Ŀà¤°
à¤ħà¤° à¤¹
à¤ĵ à¤¥
ĠS un
à¤ī à¤®à¤°
Ġà¤µà¤¸ à¤®à¤¤
à¤¬à¤² à¤®à¤§
ĠP ad
ĠP DF
Ġà¤¸à¤®à¤ľ à¤µ
as k
as ter
à¤µà¤°à¤£ à¤µ
Ġs ome
ur s
ur y
Ġc al
ĠB ut
ĠB enefits
ĠD honi
ra ct
Ġà¥§à¥¨ à¥©
à¥ĩ? '
Ġm ay
20 13
Ġ12 00
ul es
ri al
ot e
os ition
Ġà¤¤à¤³ à¤¹
Ġ11 2
ĠMa har
ĠRe g
av y
hat rapati
og a
ine er
his h
Ġà¥§à¥¯à¥Ń à¥¯
iz ation
ĠTe am
Ġà¤Ŀà¤Ĺ à¤¡à¤¤
At om
ĠCS K
Sup reme
imp ri
adha ar
C rime
L S
M LA
N it
d i
n à¤ķà¤¸
w ays
à¤¤ à¤§
à¤¯ à¤Łà¤²
à¤¯ à¤¬à¤°à¤ļ
à¤² à¤°à¤ª
à¤¿ )
à¤ķ à¤¨à¤ļ
à¤ļ à¤Ĺà¤£
à¥ĭ \
Ġà¤¸ à¤ķà¤¤
Ġà¤® à¤³à¤£
Ġà¤µ à¤°à¤ķà¤¡
à¤Ł à¤Ńà¤Ł
à¤¡ à¤ªà¤°
à¤¡ à¤®à¤¨
Ġà¤¦ à¤°à¤¸
Ġà¤¬ à¤¦à¤ķ
Ġà¤ķà¤° à¤ķà¤°
à¤ł à¤¨
Ġà¤ļ à¤ķà¤µ
Ġà¤ı à¤¡à¤µ
à¤Ī à¤Ńà¤ķ
à¥ī '
Ġà¤ĩ à¤¹à¤²
Ġà¤§ à¤¸à¤ķ
à¤Ŀ à¤°à¤ļ
à¤ħ à¤Ł
à¤ħ à¤·
à¤ħ à¤¥
à¤ı à¤Īà¤®à¤§
Ġà¤¨à¤µ à¤¯
à¤Ĩ à¤ľà¤ķ
à¤¶à¤¨ à¤¤à¤°
Ġà¤ķà¤® à¤µà¤¤
à¤¯à¤² à¤°
à¤²à¤¤ à¤ľ
or ec
à¤²à¤Ĺ à¤¡
ĠP h
ĠN aprodom
ĠI r
am an
ur ing
ol apur
Ġà¤ħà¤¹ à¤²
à¥Ģ) -
Ġà¤ħà¤¡ à¤ĸ
Ġ10 5
à¤¨à¤¦ à¤¯
ĠE l
Ġà¥§à¥® à¥«
Ġà¤ıà¤¨ à¤Ĩà¤°à¤¸
ak al
Ġl ist
ia b
ĠH ospital
Ġà¥§à¥© à¥ª
ĠO F
han a
Ġà¤ķà¤¡à¤ķ à¤ªà¤£
ĠShar ad
Ġà¥§à¥¯à¥® à¥Ń
ail y
ĠX enotril
Ġà¤«à¤¡à¤ķ à¤µà¤²
ens e
Ġà¥§à¥¯à¥« à¥¨
IC I
Ġres erved
amb haj
ĠViv o
" </
6 1
I G
J ay
O T
c ent
c har
n à¤Ŀ
n à¤ĩà¤¤à¤°
w ik
à¤¿ ;
à¤µ à¤ļà¤²
à¤¸ à¤Łà¤¤
à¤® à¤¸à¤¤
Ġà¤® à¤²à¤¨
à¤§ à¤¦
à¤¬ à¤ĺ
Ġà¤¬ à¤°à¤ļ
Ġà¤Ĺ à¤Ŀ
à¤Ń à¤¯à¤ªà¤£
Ġà¤ī à¤ķà¤¡
Ġà¤ĺ à¤Łà¤£
à¤Ī à¤ıà¤®
Ġà¤¸à¤® à¤¸à¤®
Ġà¤§ à¤µà¤¨à¤ļ
à¤ħ à¤°à¤ª
à¤¬à¤° à¤¶
à¤Ĺà¤° à¤²
Ġà¤¨à¤µ à¤¶
Ġà¤¸à¤¹ à¤¦
Ġà¤Ĩà¤¯ à¤ľ
Ġà¤ĳ à¤¨à¤°
à¤®à¤¤ à¤¤
Ġà¤ĵ à¤®à¤ķ
Ġà¤ĵ à¤®à¤°
à¥Ĥà¤Ĥ ,
ĠS anjay
it iz
ĠT w
ĠT ata
ĠG lipi
à¤®à¤£ à¤ª
Ġc ap
ĠB ab
à¤Łà¤®à¤§ à¤²
Ġb el
Ġm eet
Ġm Ah
Ġà¤ľà¤¯ à¤ľà¤¯à¤ķ
ch in
Ġà¥§à¥ª à¥§
ul y
Ġà¥§à¥¬ à¥¬
ĠW ater
à¥Īà¤Ĥ à¥¤
Ġg iven
à¤¯à¤Ĺà¤¡ à¤®à¤§
Ġà¥§à¥¯à¥¬ à¥®
Ġà¥§à¥¯à¥¬ à¥¬
qu e
ĠInter action
IC C
ĠAt orec
ĠIm icrit
lip kart
Ġà¤īà¤ĸ à¤¡à¤²
ĠHor oscope
) (
) )
B ollywood
F or
P akistan
j ee
n à¤ĺà¤°
n à¤Ĩà¤®à¤ļ
Ġà¤ ±
à¤° à¤µà¤°à¤ļ
à¤µ à¤Łà¤²
à¤¹ à¤¨à¤²
Ġà¤Ĩ à¤ľà¤¨
Ġà¤Ĩ à¤ĩ
à¤ª à¤Łà¤ķ
à¤¦ à¤§
à¤ľ à¤ªà¤£
à¤¡ à¤¸à¤®
à¤¡ à¤¨à¤¨
à¤¬ à¤ĸ
à¤¬ à¤°à¤µ
à¤¥ à¤¨à¤Ĺà¤°
à¤Ń à¤°à¤ª
Ġà¤« à¤¨
à¥Ī à¤Ĥ,
à¤°à¤® à¤°à¤£
à¥Ģà¤Ĥ -
à¤ªà¤° à¤µà¤°
Ġà¤§ à¤¨à¤¸
à¥¦ à¥Ń
à¥¦ à¥¬
à¤°à¤¸ à¤°
à¤Ĺà¤² à¤Ĺ
à¤Ŀ à¤«
à¤ħ à¤«à¤Ĺ
à¤µà¤¡ à¤ķà¤°
à¤Ĺà¤° à¤°
à¤¹à¤¤ à¤µ
à¤Łà¤² à¤µ
à¤¹à¤° à¤¬
à¤°à¤¦ à¤¸
à¤ľà¤ª à¤¥
ĠM H
à¤£à¤¯ à¤¹
ĠS mart
à¤²à¤¬ à¤¹
Ġt ab
Ġà¤īà¤® à¤°à¤Ĺ
Ġà¥¬ à¥«à¥¦
Ġà¥§à¥¯ à¥§à¥Ń
ĠC ris
Ġà¤Ńà¤° à¤Ĺà¤ļ
Ġ, "
and h
à¤µà¤°à¤£ à¤ªà¤¤
ed kar
Ġs ay
Ġà¤īà¤ĺ à¤¡à¤ļ
à¤¨à¤Ĺ à¤°à¤¸
Ġn ext
ĠD A
à¤°à¤¯ à¤·
Ġà¥§à¥¨ à¥Ń
et t
à¤Īà¤ķ à¤µ
Ġp ower
Ġp erson
Ġ19 50
Ġd ays
ch un
ut y
Ġà¥§à¥¬ à¥ª
à¤Ĳ à¤ķ
ag s
ĠIn f
à¥Ģ! "
Ġà¤į à¤¡à¤®
if fer
Ġà¤¡à¤¬ à¤ĺ
ok ia
Ġà¤Ĩà¤µà¤° à¤²
Ġst art
ĠY ear
ult iv
Ġcon s
ud e
Ġà¤ıà¤®à¤Ĩà¤¯ à¤Ł
Ġan n
Ġà¤ħà¤¡à¤ķ à¤µà¤£
und ai
Ġà¤ĵà¤° à¤¡à¤£
Ġà¥§à¥¯à¥Ń à¥ª
Ġà¥§à¥¯à¥Ń à¥®
Ġex per
Ġà¤Ĺà¤µà¤¸ à¤²
Ġu chun
Ġà¤¥à¤°à¤¥ à¤°
ĠQu estions
ĠRed mi
. (
6 4
7 3
k h
m icron
n à¤ħà¤²
t d
t r
u v
u ild
Å ŀ
Ø §
Ġà¤ Ļ
à¤¯ à¤¸à¤ļ
Ġà¤ķ à¤µà¤³
Ġà¤¸ à¤§à¤¨
à¤Ł à¤§
à¤¡ à¤¸à¤¨
à¤³ à¤®à¤³
Ġà¤¬ à¤ĸ
à¤¥ à¤°à¤²
Ġà¤ļ à¤Łà¤¯
Ġà¤ī à¤ķà¤°
Ġà¤ı à¤¤à¤¦
Ġà¤ĸ à¤¤à¤°à¤¨
Ġà¤ıà¤ķ à¤²à¤µ
Ġà¤Ĩà¤² à¤®
Ġà¤Ĩà¤² à¤¬
à¤ªà¤° à¤³
Ġ' .
à¤µà¤² à¤ļ
à¤Ĺà¤² à¤®
à¤Ŀ à¤Ĺ
à¤·à¤£ à¤¶
à¤ı à¤ķà¤¡
à¤Ĺà¤° à¤®à¤§
à¥ĭ. )
Ġà¤¨à¤µ à¤µà¤§
à¤Ĩ à¤°à¤ľ
à¤µà¤³ à¤ķà¤°
à¤ĩ à¤Łà¤®à¤§
à¤ĩ à¤¤à¤ªà¤¤
in ing
à¤°à¤ľ à¤ļ
Ġà¤ľà¤¨ à¤µ
à¤®à¤ķ à¤¹
ĠS ha
à¤²à¤¬ à¤²
à¤²à¤¬ à¤¨
ĠN SE
hi le
ĠI pratop
Ġà¤Ńà¤° à¤¡à¤²
ĠG irl
ĠD airo
Ġà¥§à¥« à¥«
à¤ıà¤® à¤¬
ro v
Ġà¤µà¤¨ à¤ĸ
Ġ19 60
Ġm ill
Ġà¥§à¥§ à¥¦à¥¦
Ġà¤§à¤¨ à¤¤
Ġà¤¶à¤°à¤¦ à¤ļ
Ġl oss
Ġà¥¨à¥« à¥¬
Ġà¤ıà¤² à¤Ł
itic al
Ġg irl
ĠSt ud
op er
Ġà¤¸à¤£ à¤¸à¤£
ap e
ov sky
Ġ199 1
ĠAl so
ach in
Ġ198 5
Ġ198 9
Ġor g
ĠAt tack
ðŁ ĳ
ĠChi ld
ĠBl isulide
ĠOff icer
ĠCl asses
ĠMal ik
ele b
inch wad
B har
g ad
k ra
o uld
s ah
t he
à¤² à¤¤à¤ļ
à¤¨ à¤ªà¤Ł
à¤µ à¤Ńà¤°
à¤¸ à¤µà¤²
à¤® à¤¬à¤°
Ġà¤Ĩ à¤¥
Ġà¤Ĩ à¤¡à¤¤
Ġà¤¸ à¤¬à¤¨
à¤ª à¤²à¤¬
à¤¦ à¤®à¤°
à¤ľ à¤Ĺà¤£
à¤ľ à¤¯à¤¦
à¤¡ à¤°à¤µ
Ġà¤¹ à¤²à¤£
Ġà¤¯ à¤°
à¤¶ à¤ķà¤¡
à¤³ à¤µà¤¡
Ġà¤¦ à¤®à¤¨
Ġà¤ľ à¤¬à¤²à¤ª
Ġà¤° à¤Ł
Ġà¤ħà¤¸ à¤ļ
Ġà¤ªà¤° à¤Ń
Ġà¤Ł à¤®
à¤¯à¤ķ à¤²à¤¸
à¤Ĭ à¤¡à¤¸
à¤µà¤¸ à¤ħà¤ĸ
Ġà¤¸à¤° à¤¶
Ġà¤§ à¤ľ
à¤µà¤³ à¤¸à¤°
Ġà¤¤à¤¸ à¤¦
à¤¤à¤ķ à¤µ
Ġà¤®à¤¤ à¤ªà¤¤
ĠM us
Ġà¤īà¤ªà¤¸ à¤®
Ġà¤īà¤® à¤Ĺà¤²
ĠT y
ĠC A
ĠC efurica
le x
Ġà¤Ĺà¤Ł à¤ª
Ġs he
ur g
Ġà¤¢ à¤¸
Ġà¥§à¥« à¥Ń
Ġà¥§à¥« à¥¬
Ġp ati
ĠE MI
à¤Łà¤® à¤®à¤§
Ġà¤«à¤³ à¤Ŀ
Ġà¥§à¥© à¥©
pp ed
Ġg ood
Ġà¤ľà¤² à¤ľ
Ġv irus
Ġà¤īà¤¸ à¤³à¤¤
Ġà¤§à¤¡ à¤§
ind ia
ip edia
Ġà¤Ńà¤Ł à¤ľ
à¤¤à¤¶ à¤¤
à¤®à¤Ń à¤Ł
à¤²à¤ĺà¤° à¤®à¤§
Ġà¥§à¥¯à¥ª à¥«
Ġth rough
Ġth ought
Ġcont ent
à¤°à¤ĺ à¤³à¤²
ĠOn line
Ġor gan
hu le
ĠOff ice
ĠIf en
osit ive
à¤¨à¤ī à¤ĺ
Ġà¤ħà¤¹à¤®à¤¦à¤¨ à¤Ĺà¤°à¤ļ
Ġstul lar
mitt ee
B igg
E E
G O
L e
M ay
b it
b and
m et
r ia
x y
Â »
Ġ ant
Ġ very
à¥ Ĩ
à¤¯ à¤ľà¤²
à¤² à¤¸à¤¨
à¤ļ à¤ķà¤¤
Ġà¤ķ à¤¸à¤°
à¥ģ )
Ġà¤¸ à¤¡à¤²
Ġà¤¤ à¤ĸ
Ġà¤ħ à¤¢
Ġà¤µ à¤Ŀ
à¤Ł à¤®à¤°
à¤¡ à¤Ńà¤°
Ġà¤¯ à¤®à¤ķ
à¤§ à¤¡à¤ķ
Ġà¤ľ à¤¡à¤¤
Ġà¤° à¤¨à¤ļ
Ġà¤¶ à¤°à¤®
Ġà¤ļ à¤°à¤ĸ
à¤¢ à¤¨
à¤« à¤®à¤§
à¤ªà¤° à¤ľ
à¤ı à¤ļà¤ª
à¤Łà¤² à¤°à¤ļ
à¤¸à¤¨ à¤¤
Ġà¤ĵ à¤¸à¤°
at n
Ġà¤ħà¤ª à¤¸
Ġà¥© à¥¨à¥¦
à¤¦à¤¤ à¤ª
Ġà¤¬à¤° à¤¡
Ġà¤ľà¤° à¤¬
ĠM eb
Ġà¥« 0
ĠS om
à¤Ĺà¤¦ à¤°à¤®
ĠP er
à¤®à¤Ĺ à¤¡
ic les
Ġà¤¯à¤¶ à¤°
à¤ıà¤¸ à¤®à¤§
ĠC havan
om s
ur ed
à¤ľà¤µà¤³ à¤ª
à¤ıà¤® à¤ľ
Ġà¤ħà¤¡ à¤Ĺà¤³
re ak
ĠE toridas
ch u
um e
ĠK ur
à¥ĩ) </
à¤¾! '
Ġà¤· à¤Ł
Ġà¤¸à¤¹à¤ľ à¤Ĺà¤¤
Ġà¤īà¤ļà¤² à¤¬
Ġ13 5
Ġ16 0
à¥ĩà¤ĥ -
st ar
iv ity
ĠSa want
Ġà¤īà¤ªà¤¨ à¤¯à¤¨
ip e
à¤°à¤ĺ à¤³à¤¤
Ma havikas
ĠRes ervation
AT E
Ġà¤ıà¤®à¤ıà¤¸ à¤ıà¤®à¤Ī
pl ain
uj arat
Ġmar ket
Ġma harashtra
iw ali
omat o
Ġbet ween
! )
6 3
7 2
I F
i ra
n à¤§à¤¨
n à¤Ĩà¤¹
r ish
Å Ł
à¤° à¤°à¤¸
à¤° à¤ªà¤¨
à¤¨ à¤®à¤ļ
à¤¨ à¤¨à¤ļ
à¤ķ à¤¤à¤°
à¤ļ à¤ķà¤³
à¤¸ à¤ı
à¤® à¤¶à¤ķ
à¤ª à¤³à¤ķà¤°
Ġà¤¤ à¤ªà¤¨
Ġà¤ħ à¤¢à¤³
Ġà¤µ à¤¢
Ġà¤µ à¤¹à¤¨
à¤Ł à¤Ń
à¤Ł à¤µà¤°à¤ļ
à¤§ à¤¨à¤ļ
à¤¶ à¤¸à¤¹
Ġà¤¦ à¤°à¤¦
Ġà¤¶ à¤Łà¤²
à¤¥ à¤Ł
à¤Ń à¤µà¤¶
Ġà¤ī à¤Īà¤ķ
Ġà¤ĸ à¤µà¤³à¤²
à¤°à¤¤ à¤¹
Ġà¤ªà¤° à¤§à¤°
à¤ĺ à¤³à¤£
à¤µà¤¸ à¤Ī
Ġà¤§ à¤¨à¤¦
à¥¦ à¥®
à¤Łà¤¨ à¤¸
à¤¸à¤² à¤°
Ġà¤¸à¤¹ à¤ķà¤²
à¤Łà¤ķ à¤³à¤¤
à¤¯à¤² à¤¨
à¤®à¤¤ à¤¹
à¤¬à¤Ī à¤ª
à¤ŀ à¤µà¤²
Ġà¥« à¥«à¥¦
ĠS imvax
à¤°à¤¹ à¤®
à¤§à¤µ à¤µ
en ed
Ġà¤īà¤® à¤Łà¤£
ĠN IA
Ġà¤ħà¤µ à¤¤à¤°à¤£
Ġà¥§à¥¯ à¥¨à¥Ń
ĠC r
ĠC he
om an
Ġà¤ıà¤¸ à¤ıà¤Ł
Ġs ec
Ġs ocial
ĠB i
à¥Ģ) :
Ġn e
Ġà¤ıà¤µà¤¢ à¤ļ
Ġw ell
Ġw rit
Ġà¥¨à¥¦à¥¨ à¥«
ĠE lectric
à¤ľà¤® à¤ľ
Ġd ist
Ġà¤Ńà¤°à¤¤ à¤¨
ĠF l
Ġà¥§à¥ª à¥¨
Ġà¤«à¤³ à¤ª
ir d
ir i
ĠH ar
ot t
os h
à¤ıà¤« à¤¨
ĠO pp
à¤ħà¤ª à¤ĺ
Ġà¤¬à¤¦ à¤®
ab inet
im a
st and
Ġà¥©à¥¬ à¥¦
Ġup d
Ġà¥§à¥¯à¥ª à¥¯
Ġà¤ıà¤¨à¤Ĩà¤¯ à¤ıà¤ļ
Ġde ath
Ġim p
ÃŃ à¤¥à¤ķ
ĠSer ies
unj ab
7 1
A b
A ss
D P
G et
I B
M A
R BI
S p
T ra
U P
W h
c he
j ar
r ant
s hi
à §
à¤® à¤¦à¤¨
Ġà¤¸ à¤µà¤¤
Ġà¤ª à¤¥à¤¨
Ġà¤® à¤Ĺà¤¦
à¤ª à¤Łà¤°
à¤ª à¤¸à¤²
à¤¦ à¤µà¤ļ
à¤Ĺ à¤«
à¤Ĺ à¤°à¤µ
à¤ľ à¤®à¤¨
à¤¡ à¤°à¤ª
Ġà¤¨ à¤³à¤ª
Ġà¤ľ à¤³à¤£
Ġà¤¬ à¤ĸà¤°
Ġà¤² à¤Ī
Ġà¤ĺ à¤¨à¤®
Ġà¤ı à¤¯
Ġà¤ĸ à¤³à¤Ĺ
Ġà¤ĩ à¤ķà¤¡à¤ļ
à¤°à¤® à¤¤
Ġà¤¸à¤° à¤ªà¤Łà¤£
à¤°à¤µ à¤Ł
Ġà¤§ à¤Ĺà¤§
à¥¦ à¥ª
Ġà¤īà¤ª à¤¸à¤²
Ġà¤īà¤ª à¤ľà¤¤
à¤¸à¤° à¤³
à¤Ŀ à¤¬
à¤·à¤£ à¤Ń
à¤ı à¤®à¤ķ
à¤¹à¤¤ à¤Ĺ
à¤²à¤¯ à¤ļ
à¤®à¤¨ à¤¨
à¤°à¤ªà¤Ł à¤¹
à¤ī à¤ªà¤µ
Ġt est
à¤¦à¤µ à¤¹
à¤¶à¤² à¤µà¤°
ĠN ov
ic ket
à¤²à¤µ à¤ķà¤°à¤ļ
ĠA ddress
Ġà¥§à¥¯ à¥§à¥¯
Ġà¥§à¥¯ à¥¨à¥§
ĠC NG
ĠG aut
om i
ĠB a
à¤ķà¤³ à¤¦
ĠL td
Ġà¤ªà¤Ł à¤µà¤£
id a
Ġm ah
ht a
Ġà¥§à¥ª à¥Ń
Ġà¤ĭ à¤¦
Ġà¤ħà¤¬ à¤ķ
à¤³à¤µà¤£ à¤ķà¤°
Ġà¤ĸà¤¡ à¤ĸà¤¡
Ġà¤ħà¤« à¤°
Ġh ow
ĠU niversity
oc i
Ġà¤¨à¤Ĭ à¤µ
Ġ17 5
ĠSt at
ud i
Ġdo es
Ġà¤ıà¤ķà¤µ à¤ļà¤¨
Ġà¤¨à¤ľ à¤°à¤ķ
ĠÂ °
Ġhe l
az e
à¤¨à¤Ł à¤ªà¤°
ire ctor
Ġar rested
Ġher bs
ĠBhar ti
ĠAc nicin
sur ance
ograp hy
9 2
: \
: </
A urangabad
S BI
a ur
j an
k har
n ews
o e
t tar
à¤¨ à¤¹à¤°
à¤ļ à¤ķà¤²
à¤® à¤¦à¤¤
à¤¦ à¤°à¤ķ
Ġà¤µ à¤¡à¤²
à¤¡ à¤¡
Ġà¤¨ à¤¸à¤°
Ġà¤¦ à¤¡à¤µ
Ġà¤¬ à¤«à¤°
à¤Ń à¤¶
à¤Ń à¤°à¤ķà¤°
à¤¤à¤° à¤ªà¤£
à¤°à¤¤ à¤µà¤°
à¤¯à¤ķ à¤²à¤¨
Ġà¤¡ à¤Ĺ
Ġà¤§ à¤µà¤²
à¥¦ à¥©
à¤Ĺà¤° à¤ĸ
à¤Łà¤¨ à¤ªà¤Ł
Ġà¤¥ à¤¡à¤Ĺ
à¤Łà¤ķ à¤Ł
Ġà¤ĸà¤° à¤¬
à¤ªà¤¤ à¤Ĺ
à¤°à¤ĸ à¤¨
Ġà¤¹à¤ľ à¤°à¤¤
à¤ĸà¤² à¤ª
à¤Ľ à¤²
Ġà¤ħà¤® à¤¦
Ġ20 30
Ġà¤Ĩà¤¦ à¤³
à¤ľà¤¯ à¤µà¤°
à¥¯ à¥¦à¥¦
ĠM urder
ĠS n
.. "
al ity
à¤ī à¤¨à¤®à¤§
à¤²à¤Ĺ à¤Ł
Ġà¤¸à¤¦ à¤Ĺ
ĠN CB
à¤¾? ,
ĠI RC
à¤¤à¤¹ à¤¸
ĠC ent
ĠC ricket
Ġc are
ĠD evendra
ra ud
re et
Ġb est
Ġ19 0
ĠE D
Ġd istrict
Ġà¤¶à¤¹ à¤°à¤ļ
Ġà¤ķà¤³ à¤µà¤³
à¤¯à¤£ à¤¨
à¥¨à¥¦ à¥§à¥ª
à¥Ĥ. "
Ġ11 4
Ġ25 6
Ġfor m
Ġh ome
Ġà¤ľà¤² à¤ªà¤°
Ġà¤ľà¤² à¤¸à¤®
Ġà¤ľà¤² à¤®à¤¯
à¥ĩà¤ĥ \
ile d
Ġe ven
Ġà¤§à¤¡à¤ķ à¤£
Ġà¥§à¥¯à¥Ń à¥Ń
Ġà¥§à¥¯à¥ª à¥¦
Ġà¤«à¤¡à¤ķ à¤µ
port ant
à¥ĩà¤¼ .
Ġhi st
Ġà¤¤à¤¡à¤« à¤¡
DF C
ĠIS IS
à¤²à¤ĺ à¤°à¤ļ
ij ay
:::: ::::
ĠIC ICI
Ġà¤ĩà¤¨à¤ķ à¤®
ĠSum mary
ĠEng ineer
ĠIRC TC
, (
7 4
8 3
8 5
B al
C D
K olhapur
N o
N MK
P r
T h
b y
n à¤ħà¤ķ
s w
u ed
u ff
w are
à¥ ķ
à¤¾ à¥ĳ
à¤² à¤¸à¤®
à¤Ĥ ',
Ġà¤Ĩ ÃŃà¤¥à¤ķ
Ġà¤¸ à¤¢à¤³
Ġà¤ª à¤¡à¤ķ
à¥Ĥ ...
Ġà¤¹ à¤°à¤ķ
Ġà¤¹ à¤Ńà¤ª
à¤µà¤° à¤¬
à¤°à¤¤ à¤®à¤§
à¥Ī -
à¥¦ à¥§
Ġà¤ħà¤¨ à¤ķ
à¤µà¤² à¤£
à¤¸à¤° à¤µà¤°
à¤Ŀ à¤¸
à¤ľà¤¨ à¤¸à¤®
à¤Ĭà¤¨ à¤¸
à¤¹à¤° à¤¡
à¤ĩ à¤®à¤²
à¤ķà¤² à¤¸
Ġà¤¥ à¤°à¤ķ
à¤®à¤¨ à¤²
Ġà¤ĸà¤° à¤¡
à¤µà¤¨ à¤¯
in o
Ġà¤ªà¤¹ à¤²
Ġà¤ľà¤¨ à¤¶à¤ķ
Ġà¤Ľ à¤¦
à¤¾à¤ģ ,
à¤ľà¤¯ à¤¶
à¤¡à¤ķ à¤¨
Ġà¥ª à¥¦à¥¦à¥¦
al d
Ġà¤¸à¤ķ à¤Ł
Ġt y
Ġà¤¬à¤¸ à¤«
it er
à¤Ńà¤µ à¤¹
Ġà¤¯à¤¶ à¤ļ
ĠT O
ĠT al
ad s
ed ding
à¤®à¤² à¤·
Ġn umber
Ġ6 000
Ġà¤¢ à¤³
Ġw in
Ġw ould
ro und
Ġà¤Ĭ à¤¹
Ġà¤ķà¤¡ à¤¬
à¤¹à¤¸ à¤µà¤¡
Ġd ue
nd er
Ġ12 4
Ġà¥§à¥Ń à¥¬
ag ue
ĠW ar
à¤ıà¤« à¤ª
à¤ĳ à¤ª
Ġà¥¨à¥¨ à¥¨
Ġg reat
oc iety
Ġà¤į à¤¥à¤²
Ġv iral
Ġà¥©à¥¬ à¥«
Ġà¤ħà¤¹à¤®à¤¦à¤¨à¤Ĺà¤° à¤®à¤§
Ġ35 4
ash mir
ach chan
Ġ198 7
Ġ198 8
ĠLif e
Ġà¥§à¥¯à¥© à¥«
hu i
Ġhi m
Shar e
Ġà¤Ŀà¤Ĺ à¤®à¤Ĺ
âĢ ²
omb ay
ĠBo ard
ĠRail way
angu age
ĠCris is
" )
F C
S un
U p
W hats
b ank
j un
o ff
à¤µ à¤¬à¤¹
à¤ļ à¤¤à¤®
à¤¸ à¤°à¤µ
à¤Ĺ à¤°à¤¤
Ġà¤¯ à¤®à¤¦
Ġà¤¨ à¤ª
à¤³ à¤µà¤°
Ġà¤¦ à¤¦
Ġà¤° à¤Ĺà¤¡
Ġà¤° à¤Īà¤¸
Ġà¤¬ à¤Ľà¤¡
Ġà¤ī à¤¸à¤ķ
Ġà¤ī à¤¥à¤ª
Ġà¤ı à¤®à¤ķ
Ġà¤ıà¤ķ à¤µà¤Ł
à¤Ī à¤ıà¤«à¤Ł
à¤®à¤§ à¤°
à¤¯à¤ķ à¤µà¤¡
à¤ĺ à¤³à¤¤
Ġà¤¡ à¤³à¤®à¤³
Ġà¤¸à¤® à¤°à¤¸à¤¤
à¤¼ à¤¾,
à¤¸à¤° à¤¡
à¤Ĺà¤² à¤®à¤¯
à¤Ŀ à¤°à¤®à¤§
Ġà¤¨à¤µ à¤ĺà¤°
à¤Ĩ à¤Ń
à¤Ĩ à¤¦à¤°
à¤Ĩ à¤ī
à¤¬à¤¤ à¤ľ
à¤ĩ à¤®à¤°
à¤Łà¤ķ à¤³
à¤µà¤¨ à¤°
Ġà¤ĵ à¤¸à¤°à¤¤
à¤Ľ à¤Ł
à¤ķà¤¸ à¤®
ĠS an
ĠS ule
Ġà¤ħà¤ľ à¤¹à¤°
ĠP akistan
à¤¤à¤¨ à¤¦
ĠA bout
ĠC oronavirus
ĠG ST
Ġs ign
ur ity
ol k
Ġc at
ĠB ar
Ġà¤¨à¤¸ à¤¬
Ġà¤ħà¤Łà¤ķ à¤³
Ġà¤ıà¤® à¤ıà¤®
Ġin t
ent al
Ġà¥§à¥¨ à¥¯
à¤°à¤µà¤ł à¤¯
Ġ10 3
Ġb ook
Ġà¤Ĭ à¤¬
Ġd r
Ġd el
Ġl akh
Ġà¥§à¥¬ à¥©
Ġà¥§à¥Ń à¥ª
à¥¨à¥¦ à¥§à¥®
os is
Ġà¤¤à¤³ à¤®
ĠW eb
Ġà¤ķà¤ªà¤¡ à¤¯
Ġà¤ªà¤³ à¤¶
Ġà¥¨à¥© à¥¦
Ġ17 0
Ġà¤¸à¤¹à¤¨ à¤¶à¤ķ
Ġan al
Ġà¤Ŀà¤Łà¤ķ à¤¨
ast han
Ġà¤ħà¤¡à¤ķ à¤µà¤²
ian s
à¥ĩ... \
Ġà¤ªà¤¥ à¤¦à¤°
Corona Virus
Ġà¤¤à¤Ł à¤°à¤ķ
Ġà¤ļà¤Ł à¤Ī
min ist
à¤Ĭà¤ľà¤° à¤®à¤§
Ġà¤ıà¤®à¤ı à¤ıà¤ļ
Ġà¤Ńà¤°à¤ķ à¤Łà¤²
6 2
A B
C l
E d
M R
N ar
N ews
O r
O ne
U L
W hat
b l
c a
f or
h in
i ya
p ons
y o
à ®
à¤¾ à¥Ģ
à¤ķ à¤¦à¤µ
à¤ļ à¤¯à¤¨
à¤¹ à¤°à¤ķ
à¤® à¤¸à¤ļ
Ġà¤ª à¤²à¤ķ
à¤¦ à¤¶à¤¨
à¤ľ à¤¯à¤²
à¤¡ à¤Īà¤¤
à¤· à¤°à¤®
à¤ł à¤µà¤°
Ġà¤ļ à¤¢à¤µà¤£
à¤Ī à¤ıà¤¸
à¤¹à¤£ à¤¨
à¤¹à¤£ à¤¶
à¤ĺ à¤µà¤¨
à¤µà¤¸ à¤ļ
Ġà¤¡ à¤¯
à¤Ŀ à¤®à¤§
à¤ħ à¤ªà¤ķ
à¤·à¤£ à¤ªà¤¦
à¤ı à¤ķà¤¤
à¤Ĺà¤° à¤ľ
Ġà¤¸à¤¹ à¤ľà¤°
à¤¯à¤² à¤®
à¤®à¤¨ à¤ª
à¤ªà¤¤ à¤ļ
à¤ŀ à¤ª
à¤²à¤¨ à¤¸
à¤¡à¤£ à¤Ĺà¤¡
ĠM B
ĠM ang
ĠS MS
or es
it ra
is hi
ĠC ovid
Ġà¤ĳà¤« à¤¸
Ġc ha
ĠB ill
Ġn t
Ġà¤Ĩà¤Ī à¤ª
Ġà¥§à¥« à¥§
à¤Ĭà¤¸ à¤µà¤°
Ġ10 4
à¤¹à¤² à¤ª
id es
Ġm et
à¤¹à¤³ à¤¦
Ġà¤«à¤² à¤ľ
à¤¦à¤¯ à¤¸à¤®
Ġà¥§à¥ª à¥¦à¥¦
Ġà¥§à¥¬ à¥¨
ir ish
à¤¤à¤°à¤£ à¤²
Ġà¥§à¥© à¥§
Ġà¥§à¥© à¥¬
ĠK ad
ĠW arn
à¤®à¤®à¤§ à¤²
ik ar
Ġà¤¨à¤Ĭ à¤ļ
Ġà¥¨à¥Ń à¥¦
if f
Ġà¤Ĺà¤ľ à¤¬à¤ľ
Ġà¤ıà¤« à¤ıà¤¸à¤Ĩà¤¯
end ing
ist ry
Ġà¤Ĺà¤² à¤¥
ug g
ian hui
Ġà¥§à¥¯à¥Ń à¥¬
Ġth en
Ġà¤Ĩà¤µà¤³ à¤£
Ġà¤°à¤¥ à¤¯
AT ION
Ġà¤µà¤°à¤¦ à¤¹à¤¸
ĠPr esident
Ġà¤®à¤²à¤® à¤ªà¤Ł
rid ge
par in
Ġmon th
M L
N and
W orld
b a
g ar
m m
n à¤Ķà¤°
p ol
v iron
z o
Ġ kar
à¤° à¤Łà¤¯
à¥ĩ à¥ĩ.
à¤¤ à¤®à¤ļ
à¤² à¤¹à¤°
à¤¨ à¤ĺ
à¤¹ à¤¸à¤°
Ġà¤Ĩ à¤µà¤¤
Ġà¤¸ à¤ľà¤¨
Ġà¤ª à¤ľ
Ġà¤® à¤¢à¤µ
à¤ª à¤³à¤µ
Ġà¤ħ à¤°à¤®
à¤¡ à¤ľà¤µà¤³
Ġà¤ľ à¤®à¤¨
Ġà¤¬ Âºà¤¯
à¤ĸ à¤µà¤¸
Ġà¤Ń à¤°à¤µà¤¤
à¤°à¤ķ à¤µà¤°
à¤¤à¤° à¤¶
à¤ķà¤° à¤¹
Ġà¤ĩ à¤¹
à¤ĺ à¤²à¤ķ
à¤« à¤°à¤ļ
à¤« à¤°à¤ª
à¤Ĺà¤² à¤µà¤°
à¤¯à¤® à¤¸à¤¨
à¤ħ à¤°à¤®
à¤Ĩ à¤Īà¤ļ
à¤Łà¤° à¤¶
Ġà¤¥ à¤¬
à¤¸à¤¤ à¤¤
an p
ĠM ovie
en ama
ĠN okia
ĠA v
ĠT ar
ĠC BI
Ġà¤Ī à¤¡à¤¨
Ġà¤ıà¤¸ à¤ıà¤¸à¤¸
à¤Ĩà¤¯ à¤Ĩà¤¯
à¤ķà¤® à¤¤à¤²
à¤Łà¤£ à¤®
ĠB and
ĠB hat
ĠB irthday
ĠB engal
Ġf arming
Ġn ic
Ġ9 99
Ġd em
ak ar
ĠF inal
ĠF estival
ul a
Ġà¥§à¥Ń à¥«à¥Ń
ĠK ul
ri ed
à¥¨à¥¦ à¥§à¥«
ĠW I
ai m
ĠO S
ĠO TT
Ġà¤ħà¤« à¤ľà¤²
itic s
ĠV er
ĠIn stitute
Ġg en
Ġv i
st ru
ind er
ill age
Ġj ust
Ġà¤¶à¤ªà¤¥ à¤ªà¤¤
Ġà¥§à¥¯à¥® à¥§
Ġà¤Ńà¤Łà¤ķ à¤£
karn i
nà¤¶ à¤¹à¤°
Ġ36 0
à¤Ĺà¤ł à¤¨
Ġà¥§à¥¯à¥« à¥ª
Ġà¥§à¥¯à¥© à¥ª
ĠDe ath
Ġpr es
Go vernment
ĠIndian s
ĠAcc ount
Ġà¤ĸà¤¦ à¤ĸà¤¦
à¤ıà¤®à¤ıà¤² à¤ı
Ġà¤Ĺà¤¡à¤Ĺ à¤¡à¤²
Ġann oun
' ;
9 3
I ST
R D
S at
W est
c il
â Ĺı
Ġ et
à¤¤ à¤¬à¤°
à¤¤ à¤Ĺà¤£
à¤¤ à¤Ńà¤°
à¤¯ à¤°à¤ķ
à¤¯ à¤°à¤µ
à¤¯ à¤§à¤°
à¤² à¤Łà¤£
à¤¿ à¤¼
à¤ķ à¤ľà¤¨
à¤µ à¤«à¤²à¤ķ
à¤¹ à¤³à¤£
à¤® à¤¯à¤¤
à¤® à¤ķà¤²
à¤ª à¤¸à¤¹
à¤ª à¤²à¤¨
à¥Ĥ .\
à¤Ĺ à¤®à¤ª
Ġà¤µ à¤ļ
Ġà¤µ à¤°à¤ķà¤°à¤£
à¤ľ à¤µà¤¸
à¤ľ à¤±
à¤¡ à¤ªà¤²
Ġà¤¦ à¤ĸ
Ġà¤ķà¤° à¤ªà¤²
Ġà¤Ĺ à¤£à¤¤
à¤Ń à¤µà¤°
Ġà¤ļ à¤¹à¤°
Ġà¤ĺ à¤°à¤¦
à¤°à¤ķ à¤±
Ġà¤ĸ à¤¸
à¤Ī à¤Łà¤²
Ġà¤Ł à¤£à¤ķ
à¤°à¤£ à¤ķ
Ġà¤µà¤° à¤ĸ
à¤¼ à¥ĭ
Ġà¤īà¤ª à¤°à¤£
à¤¸à¤° à¤¬
à¤Ŀ à¤¡à¤¤
à¤¬à¤° à¤¦à¤°à¤®
à¤Ĩ à¤°à¤µ
à¤ªà¤¨ à¤²
à¤¹à¤¤ à¤ļ
Ġ: )
Ġ: )\
à¤ĩ à¤®à¤ļ
at aka
à¤²à¤¨ à¤¹
à¤¯à¤¦ à¤ķ
Ġà¤ľà¤¨ à¤§à¤¨
Ġà¤ķà¤² à¤¬
à¤¹à¤¨ à¤°
à¤µà¤¯ à¤µ
à¥® à¥¦à¥¦
ĠS w
ĠS av
à¤ī à¤ªà¤ļ
Ġà¤ľà¤® à¤µà¤£
Ġt ur
ĠP S
it or
it ation
ic enama
ĠA ward
à¤¨à¤ķ à¤¥
is ed
à¤ĺà¤Łà¤¨ à¤®
ad an
à¤ķà¤® à¤ªà¤£
ĠB SE
ion al
Ġf amily
ĠD z
ĠD am
à¤¡à¤° à¤Ĺ
ent ly
Ġp rice
Ġo w
il es
ĠE ffects
Ġm ed
Ġm ake
Ġà¤ľà¤¯ à¤µà¤°
Ġà¥§à¥ª à¥©
ain e
ĠJ adhav
Ġ25 00
ĠV id
Ġà¤°à¤® à¤®
od a
à¤Ĺà¤ľ à¤³
Ġat tack
Ġre al
Ġcom ple
à¤¤à¤¶ à¤¬
Ġà¥§à¥¯à¥ª à¥¬
Ġi jar
Ġhe alth
Ġà¤ħà¤¸à¤¹ à¤®à¤¤
ĠCom mittee
Ġà¤¬à¤Łà¤£ à¤µà¤°
ise ase
ĠRes earch
ĠDe velopment
Sh inde
Te am
Ġwh en
PF O
Ġà¤¥à¤°à¤¥ à¤°à¤¤
Ġber ries
ĠMess ages
po ons
ðŁĳ ī
B h
B MC
N e
O L
O LED
Q u
T ok
U N
o ver
r and
r ut
á ¹
Ġ el
Ł ¶
à¤¯ à¤¶à¤µ
à¤² à¤ķà¤°à¤£
à¤¨ à¤°à¤ª
à¤¨ à¤ľà¤¨à¤ķ
à¤ķ à¤¬à¤¸
à¤µ à¤Ĺà¤°
à¤¸ à¤ł
à¤¸ à¤µà¤¤
Ġà¤ª à¤³à¤µà¤£
Ġà¤¹ à¤°à¤¨
Ġà¤ľ à¤¹à¤°
Ġà¤¬ à¤Ĺà¤³
Ġà¤¬ à¤²à¤¦
Ġà¤¶ à¤°à¤ľ
Ġà¤Ĺ à¤³à¤ļ
Ġà¤² à¤Ĺà¤¦
Ġà¤² à¤ļà¤ķ
à¤ĸ à¤°à¤¨
Ġà¤Ĩà¤£ à¤µ
à¤Ń à¤ľà¤¨
Ġà¤ı à¤¯à¤°
à¥ī ,
à¤Ĭ à¤Łà¤°
Ġ( )
Ġà¤§ à¤£
à¤Ŀ à¤ª
à¤Ĺà¤° à¤¨
Ġà¤¨à¤µ à¤ļ
Ġà¤ķà¤® à¤µà¤£
à¤¬à¤Ī à¤¤à¤ļ
an ya
à¤¦à¤¨ à¤µ
ĠS E
ĠS ide
en ing
à¤ªà¤¦ à¤µ
à¤Łà¤ļ à¤ķ
Ġà¤Ĳ à¤ªà¤¤
à¤Ĺà¤µ à¤Ł
à¤Ĺà¤¡ à¤®à¤§
à¤Ĺà¤¡ à¤¬à¤¡
Ġà¤Ĺà¤°à¤ľ à¤µ
Ġà¤ĩà¤¤à¤ķ à¤ļ
à¤ıà¤¸ à¤Īà¤ļ
Ġà¥§à¥¯ à¥¨
Ġà¥§à¥¯ à¥§à¥®
Ġà¥§à¥¯ à¥¨à¥«
Ġà¥® à¥«à¥¦
Ġà¤¸à¤² à¤Ĺà¤°
à¤µà¤Ł à¤µ
Ġà¤ıà¤¸ à¤Ĩà¤¯à¤ª
Ġs ee
Ġc har
ĠR AM
Ġf ollow
Ġà¤¸à¤¨ à¤¸à¤¨
à¤¡à¤° à¤°
ĠL im
à¤Ĩà¤° à¤Ŀ
re m
ĠH ist
os hi
Ġ11 5
ĠV s
Ġg row
Ġà¤«à¤¸ à¤µà¤¤
Ġà¤ļà¤¹ à¤²à¤¨
nà¤¸ à¤°à¤ķ
em s
em ic
ou d
Ġà¤ļà¤°à¤£ à¤¸
Ġha pp
à¤Ĺà¤ł à¤¬
Ġà¥§à¥¯à¥« à¥Ń
Ġle arn
à¦ ¾
Ġà¤ľà¤¯à¤¦ à¤¤
de a
à¤ĳà¤« à¤®à¤§
Go ogle
ĠIm ages
Ah mednagar
ĠSpecial ity
ĠAir tel
rak ash
à¤²à¤ĸà¤¨ à¤Ĭ
ĠAN D
Ġà¤¢à¤® à¤¢
Ġol ish
ĠMahar aj
xy gen
viron ment
- '
1 18
C on
M in
S u
S w
p m
y at
à¤¤ à¤ĸà¤¡
à¤¯ à¤ªà¤¤
à¤² à¤°à¤¸
à¤² à¤ªà¤¦
à¤¨ à¤³
à¤µ à¤ªà¤£
à¤¸ à¤¸à¤®
Ġà¤¸ à¤°à¤£
à¤Ĺ à¤µà¤³à¤£
à¤ľ à¤ľà¤µà¤³
Ġà¤¹ à¤²à¤²
Ġà¤¹ à¤Łà¤£
Ġà¤¨ à¤µà¤¤
à¤¶ à¤°à¤ļ
à¤¶ à¤ªà¤£
à¤³ à¤¸à¤µ
à¤· à¤¯à¤®
Ġà¤ľ à¤¸à¤µ
à¤¬ à¤ķà¤¡
Ġà¤Ĺ à¤Ĺ
Ġà¤² à¤µà¤²
à¤¥ à¤ķà¤°
Ġà¤ĺ à¤Łà¤µ
Ġà¤Ŀ à¤¡
à¤ĺ à¤¸
à¤ĺ à¤¹
à¤ĺ à¤¡à¤µ
Ġà¤¸à¤° à¤µ
Ġà¤ħà¤¨ à¤µ
à¤µà¤¤ à¤¤
à¤¯à¤® à¤¶
à¤¦à¤° à¤ľ
à¤¶à¤¨ à¤µ
Ġà¤ĵ à¤ıà¤¸
Ġà¤ĵ à¤°à¤¬
in f
à¤°à¤ľ à¤µ
à¤¤à¤® à¤¯
Ġà¥¨à¥¦ à¥©à¥¦
Ġà¤ħà¤® à¤²à¤¬à¤ľ
à¤·à¤¯ à¤¹
ĠS SC
or re
à¤µà¤ķ à¤ª
ĠP ri
ĠA mit
Ġà¤ħà¤µ à¤Ĺ
Ġà¥¬ à¥¦à¥¦à¥¦
à¤·à¤¦ à¤ļ
ĠC hat
à¤ľà¤² à¤¸
and i
am in
Ġs ystem
ur t
Ġc ity
ĠB CCI
ĠR oy
Ġf eel
Ġf riend
Ġn eed
à¤¡à¤° à¤°à¤¨
Ġà¥§à¥« à¥¨
Ġ7 000
Ġin v
à¤ıà¤® à¤ĵ
Ġw ord
Ġ10 9
Ġo pen
id d
il k
Ġon line
Ġm en
Ġa ction
Ġd id
Ġà¤ķà¤³ à¤®
Ġà¤ķà¤³ à¤µà¤¤
ĠH er
à¥¨à¥¦ à¥§à¥¬
ĠJ ay
à¤ıà¤« à¤Ĩà¤¯
ĠO BC
ob al
ĠV as
ĠGo d
ric a
Ġà¥¨à¥® à¥®
à¤Ĩà¤ľ à¤¹
og i
ist ant
à¤°à¤ĺ à¤³
uk i
ect ed
Ġà¤®à¤ķà¤° à¤¸
oun g
Ġex press
ib ility
Ġà¤ªà¤¬ à¤ľ
Ġà¥§à¥¯à¥¦ à¥¬
hu j
Ġà¤¬à¤°à¤¸ à¤£
Ġà¤ķà¤¢ à¤Ī
ĠDr ugs
hag at
ĠRo ad
ĠAmb edkar
Ġà¤Ŀà¤£ à¤Ŀà¤£
Ġijar aga
7 00
C H
E lection
F S
J algaon
M ah
N à¤¯
O M
O W
S hah
e es
f ore
h ing
n à¤ıà¤ĸ
w ork
Ġ ent
Ġ end
à¤¨ à¤¨à¤²
à¤¨ à¤¦à¤°à¤®
à¤ķ à¤¸à¤ļ
à¤¸ à¤µà¤£
à¤¹ à¤¬à¤¦
à¥ĭ /
à¤® à¤®à¤¤
Ġà¤Ĩ à¤ĩà¤ķ
Ġà¤¸ à¤Ĺà¤°
Ġà¤¸ à¤¡à¤ª
Ġà¤ª à¤ĸ
Ġà¤ª à¤ļà¤µà¤£
à¤¦ à¤¨à¤ļ
à¤Ĺ à¤§à¤°
à¤· à¤¯à¤²
Ġà¤° à¤¨à¤°
Ġà¤¬ à¤®
Ġà¤¬ à¤°à¤£
Ġà¤² à¤µà¤£
à¤ĸ à¤°à¤²
Ġà¤ļ à¤¬
Ġà¤ī à¤µ
Ġà¤ī à¤²à¤µ
Ġà¤ı à¤ļà¤¸
Ġà¤ķà¤°à¤£ à¤¨
Ġà¤« à¤¡à¤«
Ġà¤Ł à¤ļà¤¸
Ġà¤Ł à¤µà¤Łà¤µ
Ġà¤¤à¤° à¤«
Ġà¤ĩ à¤Ŀ
à¤ĺ à¤¡à¤µà¤£
à¤Ĭ à¤¹
Ġà¤¸à¤° à¤³à¤¸
Ġà¤¸à¤° à¤µà¤£à¤ķà¤°
à¤¹à¤° à¤«
à¤ĩ à¤¡à¤°
à¥ĭà¤Ĥ ;
ar k
à¤·à¤ķ à¤¹
à¤¤à¤® à¤ª
à¤ļà¤¨ à¤¸
à¤°à¤¨ à¤ª
ĠM G
ĠM S
ĠM er
à¥Ń à¥¦à¥¦
Ġà¥ª à¥¨à¥¦
à¤ī à¤¬
ĠP ack
ĠP hoto
ĠP ower
ĠN DA
à¤Īà¤¨ à¤¨
à¤ļà¤° à¤µà¤°
ĠT here
Ġà¥§à¥¯ à¥¨à¥¨
Ġà¥§à¥¯ à¥¨à¥©
Ġà¤Ĩà¤Ĺ à¤ª
le k
am ent
à¤µà¤ª à¤°à¤µ
Ġ202 5
à¥Ģ) \
Ġf ree
ĠD istrict
Ġà¥§à¥« à¥ª
Ġà¥§à¥« à¥®
à¤ķà¤³ à¤¶
ent ial
Ġo pp
il it
il ip
Ġm at
à¤ıà¤² à¤ĵ
Ġa v
ak es
Ġl aw
ĠF ire
Ġà¥§à¥¬ à¥®
ir m
Ġà¥«à¥¦ à¥¬
Ġ11 7
ĠV ik
ĠV irus
ĠIn vest
ĠU R
ĠU l
Ġà¤°à¤£ à¤¶
Ġà¤īà¤¸ à¤³à¤£
Ġe v
à¤³à¤¸ à¤ķà¤°
à¤ľà¤®à¤§ à¤²
em ple
aj a
aw ab
à¥ĭ' .
age ment
Ġà¥§à¥¯à¥¬ à¥©
nP revious
oh n
Ġà¥§à¥¯à¥« à¥¯
Ġà¤¨à¤² à¤µà¤¡
Ġà¥§à¥¯à¥© à¥¬
Ch ina
Ġind ia
Ġ196 1
les poons
ande ep
Ġà¤®à¤ĸ à¤®à¤²
ĠOD I
wik ipedia
Ġtab lespoons
6 00
8 7
B e
H T
M T
R ak
S al
T H
c ome
d as
i er
m arathi
n E
n à¤ı
n à¤ľà¤Ĺ
u ction
v an
Â ®
Ġ à¥Ģ
Ġ 000
à¤¾ à¥į
à¤° à¤¡à¤¤
à¥Ģ à¥ĩ
à¤¤ à¤®à¤¨
à¤¤ à¤¸à¤¹
à¤¤ à¤«à¤°
à¤¯ à¤ľà¤¤
à¤² à¤·
à¤² à¤ħà¤ª
à¤£ à¤®à¤¹
Ġà¤Ĩ à¤¸à¤µ
Ġà¤ª à¤ŀ
Ġà¤ª à¤¡à¤µ
Ġà¤® à¤³à¤²
à¤ª à¤ªà¤£
à¤ª à¤®à¤¤
à¤Ĺ à¤¸à¤®
à¤Ł à¤¤à¤°
à¤ľ à¤°à¤ļà¤¨
à¤¡ à¤¬à¤°
Ġà¤¨ à¤®à¤µ
Ġà¤¦ à¤®à¤¯
à¤¬ à¤¯
à¤¬ à¤¨à¤µ
à¤Ń à¤ľ
à¤Ń à¤Ĺà¤¤
Ġà¤ī à¤¹
à¤°à¤ķ à¤°à¤ļ
Ġà¤« à¤°à¤¸
à¥ĩ, </
à¤¹à¤£ à¤µà¤£
Ġà¤ĩ à¤¤à¤®
à¤°à¤ļ à¤ķ
à¤ı à¤Łà¤°à¤ļ
à¤Ĩ à¤µà¤¶
à¤ªà¤¨ à¤Ĺà¤°
à¤Łà¤° à¤¨à¤²
à¤Īà¤² à¤¸
à¤ķà¤² à¤°
à¤ķà¤² à¤¹
à¤®à¤¤ à¤ļ
on es
Ġà¤ķà¤² à¤Ĺ
ĠS k
ĠS ervice
or i
ĠP e
ic har
ĠA z
ĠA fter
Ġ5 50
Ġ4 20
Ġà¥§à¥¯ à¥¨à¥¬
ĠC ons
le ctor
à¤µà¤Ł à¤³
Ġs iz
à¤ķà¤® à¤³
ĠB ang
ĠR ancycline
Ġà¤Ĩà¤Ī à¤µà¤°
Ġw ay
à¤Ĭà¤¸ à¤«
Ġp awar
Ġb row
Ġà¤¹à¤¤ à¤¬à¤²à¤¤
Ġà¥§à¥® à¥¨
à¤²à¤®à¤§ à¤²
Ġà¥§à¥ª à¥®
ia omi
pp ing
Ġà¤¤à¤³ à¤µà¤¡
ĠW ork
à¤ĳ à¤¡
ĠRe ach
oc ation
à¤°à¤« à¤Łà¤²
ab ility
Ġà¤ļà¤¢ à¤µà¤¤
ind ex
Ġà¤īà¤Ĺ à¤®à¤¸
Ġâ Ĺı
ep uty
Ġbe fore
ff air
qu ir
bo ard
Ġth ings
.' \
ĠPat ole
Ġà¤ıà¤ħ à¤°à¤ķ
Ġex p
Ġle vel
Ġà¥§à¥¯à¥© à¥¯
Ġà¥§à¥¯à¥¦ à¥«
Ġà¤ıà¤®à¤ıà¤¸ à¤Ĩà¤°à¤¡
olog ies
ĠElection s
sp ector
Ġdis c
ĠLe ague
enn ai
ez id
Ġadd ress
iab et
Jay ant
) .\
B CCI
C ar
D o
G F
G anesh
M ad
M urder
R F
R P
S ub
S ang
S achin
l er
n à¤ł
n à¤ĺ
n à¤¬à¤°
n à¤Ĩà¤¯
n à¤īà¤¦
r d
y as
à¥ĩ à¤¿
à¤¯ à¤£à¤¸
à¤² à¤µà¤¸
à¤² à¤¡à¤ļ
à¤ļ à¤°à¤¨
à¤ļ à¤ªà¤Ł
à¤® à¤¯à¤ķ
Ġà¤¯ à¤ļ
Ġà¤¨ à¤®à¤¤
à¤¶ à¤«
à¤· à¤¯à¤¤
Ġà¤ľ à¤¡à¤µ
à¤¬ à¤Ń
à¤¬ à¤ļà¤¤
à¤¬ à¤ĺà¤¤
Ġà¤Ĺ à¤®à¤ķ
à¤µà¤° à¤µà¤°
à¤Ń à¤Ī
Ġà¤ļ à¤ķà¤¤
Ġà¤ī à¤ĸà¤³
à¥Ģ. ,
Ġà¤ıà¤ķ à¤Łà¤¯
à¤Ī à¤¸à¤ª
Ġà¤« à¤ľà¤²
Ġà¤« à¤¡à¤¶
à¤°à¤¤ à¤ªà¤£
à¤¹à¤£ à¤µà¤¤
Ġà¤¸à¤® à¤°à¤ľ
à¤ªà¤° à¤ª
Ġà¤§ à¤°à¤ª
à¤µà¤² à¤ķ
à¤°à¤¸ à¤°à¤ķ
à¤Ĺà¤² à¤¸
à¤Ŀ à¤¨à¤²
à¤¯à¤® à¤ª
Ġà¤¥ à¤¡
Ġà¤Ĩà¤¯ à¤ĵà¤ıà¤¸
Ġà¤Ĩà¤¯ à¤Ĩà¤°à¤¬
à¤¬à¤Ī à¤µ
ar b
à¤ŀ à¤¯
à¤ľà¤ª à¤¸à¤¹
à¤Ľ à¤°
Ġà¤ħà¤® à¤°à¤ķ
à¤·à¤¯ à¤¸
ĠS L
ĠS m
ĠS kin
Ġà¤¸à¤ķ à¤ª
or ks
Ġt s
ĠP o
it t
Ġà¤ħà¤² à¤®
Ġà¤Ķ à¤ľ
as ing
ĠC an
ĠG u
Ġf ay
Ġà¤Ĩà¤Ī à¤¶
Ġp o
id er
ro ts
Ġà¤Ĭ à¤¤à¤ķ
à¤ıà¤² à¤Ł
Ġd ush
Ġd osage
20 14
Ġà¥§à¥Ń à¥¦à¥¦
ĠK er
ri ke
à¥ĩ) \
à¥¨à¥¦ à¥§à¥Ń
ag h
ag ger
ĠW TC
ĠW ishes
Ġà¥§à¥¦à¥¦ à¥¦à¥¦
Ġà¥¨à¥® à¥¦
Ġà¥©à¥« à¥ª
Ġà¤ıà¤« à¤Ł
Ġà¤¦à¤¶à¤ķ à¤Ńà¤°
Ġk illed
ov o
iv ing
Ġr un
ang ana
ult ib
Ġcom e
Ġà¤ħà¤ªà¤¹à¤°à¤£ à¤ķà¤°
à¤°à¤ĺ à¤³à¤£
à¥Ģ... \
à¤Ĥ! "
à¤Īà¤« à¤¸
ĠPro te
Ġà¥§à¥¯à¥© à¥Ń
ines e
ĠTe ch
ĠTe acher
rib e
à¤į à¤ķ
enc es
à¤¬à¤°à¤® à¤¤
St ock
à¤ķà¤ħ à¤¦
Ġà¤¤à¤¡à¤« à¤¦
ĠBhar at
uss ia
ĠCommission er
Ġsuch na
mplo y
ĠAf rica
Ġask ed
ambhaj i
parin am
Ġfay de
Ġdush parinam
8 2
D S
M onsoon
R ain
S ar
V A
c p
e h
e ak
m umbai
n à¤®à¤§
Ġ old
à¤¾ à¤¿
à¤¤ à¤³à¤²
à¤² à¤°à¤ķ
à¤Ĥ \
à¤® à¤¡à¤²
Ġà¤Ĩ à¤¸à¤²
Ġà¤¸ à¤£à¤¸
Ġà¤ª à¤ļà¤£
à¤ľ à¤¯à¤®
à¤¡ à¤Ŀ
à¤¡ à¤Ĺà¤°
à¤¡ à¤¨à¤°
Ġà¤¹ à¤°à¤¸
Ġà¤ľ à¤ĸ
Ġà¤ľ à¤«à¤°
Ġà¤ľ à¤²à¤ļà¤°
Ġà¤° à¤£à¤¸
Ġà¤¶ à¤¯
à¤¥ à¤ľ
à¤µà¤° à¤«
Ġà¤ī à¤¨à¤ķ
Ġà¤ĺ à¤Ī
à¤°à¤¤ à¤³
à¤ķà¤° à¤¬
Ġà¤®à¤¹ à¤¨
à¤°à¤£ à¤°
à¤°à¤£ à¤¸
Ġà¤ĩ à¤¤à¤µ
à¤ªà¤° à¤°
Ġà¤§ à¤Ĺ
à¤Ĺà¤² à¤µ
à¤Ŀ à¤µà¤°
à¤Ĺà¤¤ à¤¯
à¤¬à¤° à¤Ĺ
à¤Ĩ à¤¢
à¤Ĩ à¤«
à¤Ĩ à¤łà¤µà¤£
Ġà¤Ĩà¤® à¤°
Ġà¤ħà¤° à¤¬à¤¸
à¤Łà¤ķ à¤±
Ġ" (
Ġà¤īà¤¦ à¤¯à¤¸
Ġà¤ĵ à¤¤à¤ª
in ance
à¤ŀ à¤¸
à¤°à¤ľ à¤ķ
à¤°à¤ľ à¤ķà¤°
à¤°à¤¨ à¤¨
à¤µà¤¯ à¤¸
ĠM I
ĠS ocial
ĠS IP
à¤ī à¤ªà¤¯
en ior
Ġà¤¬à¤¹ à¤²
à¤²à¤Ĺ à¤ĩà¤¨
ic ial
ĠI AS
Ġà¥§à¥¯ à¥§
Ġà¥§à¥¯ à¥§à¥¨
ĠC C
à¤§à¤° à¤°
à¤µà¤°à¤£ à¤®
ed s
Ġà¤ıà¤¸ à¤ıà¤®
Ġs et
Ġs chool
Ġà¤ĩà¤¨ à¤¡
Ġc ent
Ġc re
ĠB el
à¤¨à¤Ĺ à¤°à¤µ
à¤ĩà¤¨ à¤®
ĠD ist
us es
Ġp ay
Ġà¤¹à¤° à¤ıà¤ķ
Ġb ack
à¤ľà¤¸ à¤ªà¤£
Ġà¤ıà¤¨ à¤ıà¤ļ
Ġà¤ıà¤¨ à¤Īà¤ıà¤«à¤Ł
Ġd ev
Ġl ook
ĠF ree
ĠF lipkart
ch en
ter y
Ġà¤¹à¤³ à¤¹
Ġà¥§à¥Ń à¥¨
ĠK isan
Ġ11 3
à¤ıà¤« à¤¡
ĠMa c
ĠGo vt
ĠRe p
Ġà¥¨à¥¨ à¥ª
Ġà¥¨à¥¨ à¥Ń
Ġg roup
ĠU PSC
ĠU PI
à¤°à¤« à¤²
Ġà¤®à¤¦ à¤°à¤¸
à¤¯à¤Łà¤¨ à¤®
Ġà¤ķà¤¬ à¤ľ
op ra
all s
ill s
Ġà¥©à¥¨ à¥©
ly mp
Ġà¤ļà¤®à¤ļ à¤®
ast e
Ġà¥§à¥¯à¥® à¥¨
à¤¤à¤Ń à¤Ł
Ġà¥§à¥¯à¥ª à¥ª
vern or
uk a
ans ion
Ġà¤§à¤¡à¤ª à¤¡à¤£
nà¤ħ à¤ľ
ade ep
ĠEx p
Ġà¤ļà¤ª à¤ĸà¤²
Ġ196 8
arn ataka
ĠIm age
Ġà¤¤à¤¡à¤« à¤¡à¤¤
Ġmin ister
EN T
ĠPand ya
Ġinc re
aun ch
ĠHy undai
Ġà¤§à¤¨à¤ķ à¤µà¤¡
andid ates
Ġ[â ĨĴ
rish na
Ġà¤§à¤Ĺà¤§ à¤Ĺà¤¤
Ġbrow ser
: -
A nd
F i
O U
P revious
S am
T hane
b ack
c y
f i
g ov
h ys
j a
k an
k ad
n à¤¬à¤¹
o id
s y
t en
t ion
v ed
z e
Ù ħ
ĺ ħ
Ġà¤ ½
à¤¤ à¤ķà¤°à¤£
à¤¯ à¤ľà¤®
à¤¨ à¤¥
à¤¸ à¤ªà¤¦
à¤£ à¤®à¤¤à¤µ
Ġà¤ķ à¤ľ
Ġà¤ķ à¤Łà¤²
Ġà¤Ĩ à¤Ĺà¤²
Ġà¤Ĩ à¤³à¤µ
Ġà¤¤ à¤¨à¤µ
à¤¦ à¤³à¤µ
Ġà¤µ à¤ļà¤ª
à¤ľ à¤ªà¤°
à¤§ à¤ķà¤°
Ġà¤¦ à¤Ł
à¥ĩ. .\
Ġà¤ľ à¤¸à¤²
Ġà¤° à¤ĸà¤®
à¤ł à¤ķà¤°
à¤ĸ à¤¶
Ġà¤ļ à¤°à¤¸
Ġà¤Ń à¤Łà¤ķà¤°
Ġà¤Ŀ à¤¹
à¤°à¤ķ à¤ª
à¤¤à¤° à¤¬
Ġà¤« à¤¸à¤¤
Ġà¤ĩ à¤¨à¤¹
à¤ĺ à¤¶
Ġ( ?)
à¤¼ ,
à¤Ĺà¤² à¤ĸ
à¤Ĺà¤² à¤®à¤§
à¤Ŀ à¤ķ
à¤ı à¤ķà¤µ
Ġà¥¨ 00
à¤¶à¤¨ à¤ªà¤°
à¤Łà¤¨ à¤°à¤¶
à¤ĩ à¤²à¤¨
à¤Ĥ. '
Ġà¤®à¤¨ à¤ľ
ar am
Ġà¥¨à¥¦ à¥©
Ġ20 8
ĠM at
ĠM or
Ġà¤°à¤¸ à¤Ĺ
ĠS C
ĠS ession
à¤§à¤µ à¤ľ
al t
Ġà¤ħà¤ľ à¤¯à¤ļ
à¤Ĺà¤¦ à¤Ĺ
ĠP ass
Ġà¤ľà¤Ĺ à¤Ńà¤°à¤ļ
à¤¯à¤° à¤µà¤°
ĠC N
le ar
ad itya
Ġà¤Ī à¤¤à¤°
ĠG ang
am il
ol es
à¤Ĩà¤¯ à¤ıà¤²
Ġc rime
à¤®à¤¦ à¤ļ
Ġf ound
Ġn ashik
à¤Ĺà¤¸ à¤°à¤ķà¤°
Ġà¥§à¥« à¥¯
ĠL ink
ĠL oss
Ġà¤ĩà¤¥ à¤ª
à¤Ĩà¤° à¤ıà¤²
us p
us ed
Ġp an
Ġb ul
Ġà¥§à¥® à¥©
Ġà¤ľà¤¯ à¤Ĺà¤¡
Ġd ate
ĠF orm
Ġ15 3
ĠH ous
à¤Ĳ à¤¤
ĠW h
à¤ıà¤« à¤ıà¤¸
Ġh and
Ġv al
Ġv ari
à¤ªà¤³ à¤¨
Ġà¥¨à¥Ń à¥«
Ġà¤¦à¤¬ à¤ķ
ap s
end ed
Ġà¤ĵà¤¢ à¤¯
Ġà¥¨à¥¯ à¥¦
Ġà¥§à¥¯à¥¬ à¥ª
Ġà¤ĵà¤ªà¤¨ à¤®à¤§
à¥Ģ." \
Ġà¥§à¥¯à¥« à¥®
Ġus e
PM C
Ġsh ow
bs p
ĠAM OLED
Ġhous e
Te k
fer ence
Ġman y
du ction
Ġq il
Ġà¤ĸà¤Łà¤ķ à¤¤
Ġpass word
ĠSang li
ph p
Ġiss ue
Ã¨ à¤¯
" ;
' d
A E
H ard
M et
S on
S ave
T witter
U B
U r
Y C
d han
i vers
j ay
l s
n à¤Ĩà¤§
n bsp
r in
t itle
z uki
Ä Ł
Ġ ver
Ġ ya
à¤¤ à¤³à¤£
à¤¤ à¤¥à¤°
à¤ļ à¤ķà¤¡
Ġà¤ķ à¤¥à¤ķ
à¤® à¤²à¤¨
à¤ª à¤¸à¤¨
à¤Ĺ à¤¬à¤¹
à¤ľ à¤°à¤¸
Ġà¤¯ à¤µà¤¨
Ġà¤² à¤ľà¤ªà¤¤à¤°
Ġà¤Ń à¤µà¤°
Ġà¤ĺ à¤£à¤¸
à¤°à¤ķ à¤¹
à¤Ī à¤®à¤ª
à¤°à¤¤ à¤ķ
à¤ķà¤° à¤¶à¤¹
à¤¯à¤ķ à¤²à¤²
à¥ħ à¥ħ
Ġà¤īà¤ª à¤¸à¤°
à¤Ŀ à¤ªà¤¦à¤ķ
à¤ı à¤®à¤²
à¤¡à¤² à¤°
à¤¶à¤¨ à¤¬
à¤µà¤³ à¤ª
à¤ķà¤² à¤ª
Ġà¤¸à¤°à¤ķ à¤°
Ġà¤¥ à¤¤
Ġà¤Ĩà¤µ à¤Ł
Ġà¤ĺà¤° à¤ĸà¤°
Ġà¤ªà¤¦ à¤ļ
ar ashtra
at ra
at ors
à¤·à¤ķ à¤ļ
Ġà¤ħà¤® à¤ľà¤¦
Ġà¤¶à¤¹à¤° à¤Ńà¤°
à¤¹à¤¨ à¤ª
à¤®à¤ķ à¤¦
à¤§à¤¨ à¤¹
ĠM E
ĠM oney
ĠS on
ĠS up
ĠS het
à¤°à¤¹ à¤ľ
à¤¡à¤ķ à¤ªà¤®à¤§
à¤ī à¤ªà¤®
à¤¸à¤® à¤Ł
Ġt hi
Ġt ax
ĠP ur
ĠP hotos
Ġà¤Ĳ à¤µà¤¢
ĠA US
ĠA ustralia
ĠA uthor
à¤¨à¤ķ à¤ļ
Ġà¥Ń à¥¨à¥¦
ĠT ik
ĠI P
Ġà¥§à¥¯ à¥¦à¥¦
Ġà¥§à¥¯ à¥¨à¥®
Ġà¥§à¥¯ à¥¨à¥¯
ĠG e
ĠG ad
ĠG anesh
à¤¨à¤Ĺà¤° à¤²
Ġs a
Ġs im
ol s
Ġc ases
ĠB achchan
ĠR a
à¤ĩà¤¨ à¤¨
Ġf und
Ġà¤ħà¤Łà¤ķ à¤¹
ĠL oan
il ver
Ġà¤ıà¤ª à¤µà¤°
Ġm od
Ġm ind
Ġà¤¤à¤¬ à¤ķà¤¡
Ġl o
à¤¸à¤¬ à¤§
Ġà¥§à¥ª à¥¬
Ġ12 7
Ġà¤«à¤³ à¤Ń
ĠH DFC
ĠK h
ri pt
à¤ıà¤¨ à¤ıà¤ķ
ain st
os ed
ag i
ag iri
ĠW est
ĠW ill
à¤ıà¤« à¤ı
ĠO ut
ĠO ther
Ġà¥¨à¥§ à¥¬
ver e
ap i
Ġà¤ıà¤« à¤ıà¤¸
ĠAl ert
Ġ198 6
Ġà¥§à¥¯à¥« à¥«
ace book
old id
Ġà¥§à¥¯à¥© à¥®
ĠEx press
Ġ196 6
Ġres ult
Ġra in
lect ron
ĠAd v
lic k
Ġà¤ļà¤Ł à¤Īà¤ķ
ĠMedia Tek
Ġinter est
Ġfil ters
Ġà¤ıà¤¨à¤ıà¤¸ à¤¯
nN ext
ĠNot e
Sup riya
En gl
Ġà¤¬à¤Łà¤² à¤°à¤¨
ĠTechn ology
mun ity
à¤Īà¤ķà¤¨ à¤µà¤°
orre ct
Ġà¤§à¤°à¤ª à¤ķà¤¡
) '
8 9
A Y
H igh
O D
S outh
T P
T w
U ttar
g han
n à¤Ľ
t est
Ã ¡
Ã §
à ³
à¤² à¤°à¤¤
à¤µ à¤¯à¤ļ
à¤ļ à¤¸à¤¹
à¤¸ à¤ľà¤µà¤³
à¤£ à¤Ńà¤ķ
à¥ģ "
Ġà¤¸ à¤³à¤¸
Ġà¤® à¤¸à¤²
à¤ª à¤µà¤¨
à¤ª à¤¥à¤ķ
à¤¦ à¤¯à¤ķ
à¤¦ à¤®à¤ļ
Ġà¤ħ à¤ĸà¤°
à¤Ĺ à¤ªà¤Ł
à¤Ł à¤Ŀ
à¤Ł à¤¸à¤®
à¤Ł à¤®à¤¸
à¤ľ à¤°à¤ª
à¤ľ à¤¬à¤¦
à¤ľ à¤§à¤°
à¤· à¤²à¤Ĺ
Ġà¤¬ à¤Ĺà¤¦
Ġà¤ķà¤° à¤ļ
à¤ĸ à¤¨à¤ļ
à¤µà¤° à¤³
Ġà¤ī à¤Ŀà¤¬
à¥ĩà¤Ĥ à¤ĥ-
Ġà¤ıà¤ķ à¤Łà¤ķ
à¤¢ à¤¸
à¤¢ à¤°à¤ķ
Ġà¤ªà¤° à¤®à¤µ
Ġà¤ĩ à¤Ń
Ġà¤īà¤ª à¤Ĩà¤¯
à¤°à¤¸ à¤²
à¤¸à¤° à¤¹
à¤ħ à¤¸à¤ļ
à¤ı à¤ķà¤®
à¤Ĺà¤° à¤¬
Ġ- "
à¤Ĩ à¤Ĺà¤°
à¤Ĺà¤£ à¤¸
Ġà¤ĺà¤° à¤ĺà¤°
à¤°à¤ĸ à¤¡
Ġà¥¨à¥¦ à¥«
Ġà¤ľà¤¨ à¤ķà¤²
er gy
ĠM o
ĠM ad
ĠM ag
ĠS outh
ĠS ugar
al kar
al ks
à¤ī à¤ªà¤ķ
à¤ī à¤ľà¤µ
Ġà¤īà¤ªà¤¸ à¤£
Ġà¤Ĩà¤ł à¤¹
Ġà¤Ķ à¤²
à¤ķà¤£ à¤ķà¤µà¤²
à¤Ĺà¤¡ à¤¯
à¤¯à¤° à¤«
Ġà¥Ń à¥©à¥Ń
ĠT ake
ĠI CC
ĠC oun
ĠC abinet
le ge
and a
Ġà¤Ī à¤ľ
Ġà¤ħà¤¦ à¤ĸà¤²à¤ª
Ġs uccess
ur u
Ġc ourt
ĠB A
ĠB ro
Ġà¤¨à¤Ĺà¤° à¤²
Ġn ear
à¤¡à¤° à¤Ł
Ġà¤®à¤ľ à¤µà¤°
ĠL ockdown
ha b
à¤Ĩà¤° à¤ıà¤®
Ġp une
har i
Ġb usiness
Ġà¥§à¥® à¥ª
Ġà¥§à¥® à¥¬
Ġm icro
Ġd on
Ġd uring
à¤¾) \
Ġà¥§à¥¬ à¥Ń
um ent
à¤Ĳ à¤¸
Ġà¥§à¥© à¥¦à¥¦
ĠK i
ĠK on
ĠK had
ĠK KR
Ġà¤¬à¤² à¤µà¤¤
ri p
ag er
ĠJ algaon
ai led
Ġà¤Ĺà¤³ à¤¯
Ġà¥¨à¥§ à¥®
av indra
st ant
ind ows
Ġà¤¬à¤¡ à¤¬
Ġà¤µà¤°à¤ļ à¤·
Ġst and
ill a
ĠY ezid
à¤ķà¤ķ à¤¥
ank aja
Ġwith out
Ġ37 5
ex ual
Ġpro f
Ġpro v
Ġus ed
Ġà¥®à¥® à¥Ń
Ġ197 2
ĠGen eral
Ġà¤¨à¤ķà¤³à¤¤ à¤ªà¤£
Ġà¤ļà¤Łà¤ķ à¤¦
Ġ95 118
ĠWhats app
Ġà¤Ķà¤· à¤§à¤¨
Ġfil m
à¤¸à¤į à¤ªà¤µà¤°
ye es
Ġà¤īà¤¸à¤¨ à¤µ
ĠNav arashtra
à¤Łà¤ħ à¤ªà¤ļ
Chand rakant
Ġà¤Ĩà¤°à¤ıà¤¸ à¤ıà¤¸à¤ļ
Ġ270 50
itiz ens
Ġà¤¤à¤³à¤® à¤³à¤¤
ĠHist ory
ultib agger
4 12
A ir
C ol
D han
F I
L R
M ed
R ec
W HO
e ev
g mail
i i
n à¤®à¤Ĺ
x x
ļ ł
à¤¤ à¤Ŀ
à¤² à¤¦à¤°
à¤² à¤¶à¤¨
à¤² à¤µà¤¯
à¤ķ à¤¸à¤²
à¤ķ à¤¥à¤¨
à¤¹ à¤¸à¤ļ
à¤® à¤¯à¤ļ
à¤® à¤¡à¤Ĺ
à¤¦ à¤°à¤ķà¤°
à¤Ł à¤µà¤¤
à¤ľ à¤®à¤µ
à¤¡ à¤°à¤¶
Ġà¤¨ à¤°à¤ĸ
Ġà¤¨ à¤°à¤Ńà¤ķ
Ġà¤° à¤ĸà¤µ
Ġà¤¬ à¤°à¤µ
Ġà¤¬ à¤¦à¤°
Ġà¤Ĺ à¤ľà¤²
Ġà¤² à¤ĸà¤®
à¤ĸ à¤ľ
à¤ĸ à¤¡à¤ķ
Ġà¤ī à¤¬à¤°
Ġà¥ ł
à¤Ī à¤¸à¤¹
à¤Ī à¤¨à¤²
Ġà¤« à¤¹
Ġà¤« à¤¡à¤¤
Ġà¤Ł à¤³à¤¤
à¤°à¤£ à¤¦
Ġà¤¸à¤° à¤«
Ġà¤¡ à¤«
à¤°à¤¸ à¤ķà¤°
à¤¸à¤° à¤¦
à¤Ĺà¤² à¤¤
à¤ı à¤²à¤²
Ġà¤¨à¤µ à¤Ĺ
à¤Ĩ à¤°à¤²
à¤ªà¤¨ à¤¶
à¤¸à¤² à¤ķà¤°
à¤ĩ à¤ķà¤²
Ġà¤Ĩà¤® à¤¸à¤Ń
à¤¸à¤¨ à¤®
Ġà¤ĳ à¤¨à¤¸
à¤¸à¤¹ à¤µà¤°
Ġà¤®à¤¤ à¤µ
à¤ħà¤° à¤¡
à¤ľà¤¯ à¤µ
Ġà¥¤ "
à¤¨à¤µ à¤Ĺ
ĠM uk
Ġà¤ķà¤¸ à¤®
ĠS akal
.. '
Ġà¤ħà¤ľ à¤¸
or at
Ġà¤ľà¤® à¤¦
ĠP a
ĠP ant
it es
Ġà¤ľà¤Ĺ à¤¨à¤®
ĠN a
ĠN aik
ic y
hi d
is es
à¤ıà¤¸ à¤ĵ
à¤ıà¤¸ à¤ıà¤«
ĠT ianhui
Ġà¥§à¥¯ à¥§à¥ª
Ġà¤Ĩà¤Ĺ à¤®
ĠC har
à¤ľà¤² à¤¦
à¤¶à¤¯ à¤ªà¤£
à¤łà¤ķ à¤¹
à¤Ĥ, '
à¤®à¤£ à¤¶
Ġf r
Ġf in
ĠD C
Ġà¤¨à¤° à¤¬à¤³
Ġà¤®à¤ľ à¤ķà¤¡
à¤ıà¤® à¤µà¤°
et a
Ġà¥¥ '
Ġà¤ħà¤¡ à¤µà¤¤
ĠMar uti
Ġà¤¹à¤¸ à¤µà¤£
Ġw ant
Ġw omen
Ġ10 7
ro c
à¤¤à¤¦ à¤¯
ĠE conom
Ġm umbai
Ġm ost
Ġm ovie
est ion
Ġd ri
à¤Łà¤® à¤µà¤°
ak t
Ġl ove
Ġ12 2
Ġà¥§à¥Ń à¥Ń
ĠH TT
à¤Ĳ à¤¶
à¤°à¤®à¤£ à¤Ń
à¥Ģ? '
à¤ıà¤¨ à¤Ĩà¤°à¤ıà¤ļ
Ġà¤¤à¤³ à¤ª
Ġ11 1
ai ya
Ġ13 4
Ġg ive
Ġà¤į à¤¶
Ġe qu
ate g
th ers
Ġk han
à¤¯à¤Ń à¤Ł
à¤«à¤² à¤Łà¤£
Ġbe ing
Ġà¤Ńà¤µà¤¨ à¤®à¤§
Ġà¤°à¤ĸ à¤°à¤ĸ
nà¤ľ à¤³à¤Ĺ
Ġà¤ĵà¤ªà¤¨ à¤ļ
li x
Ġà¤¢à¤µà¤³ à¤¤
ĠÂ ·
Ġhe art
à¤¾." \
à¤ĭ à¤£
Ġsu icide
!! !
ire ct
Ch hatrapati
Ġ197 5
Ġ197 8
ĠQ R
Ġà¤ķà¤¡à¤µ à¤Ł
app y
Ġcr ore
nS ub
Ġte am
ĠUn l
urr ency
CO VID
ĠSu zuki
ĠSat ara
ĠUs es
Ġvacc ine
ĠComp any
Ġed ucation
Co V
mplo yees
âĸ º
rag on
Acc ident
ĠKul karni
à¤¢à¤°à¤ķ à¤µà¤¡
ļł ï¸ı
) #
9 1
B i
C A
C L
E ST
F armer
G l
K L
L ok
L ockdown
N T
R e
S he
c hed
f lix
m al
n à¤°à¤µ
n à¤¸à¤¹
p ass
u it
w an
w adi
Ã ¢
à¤° à¤¡à¤£
à¤¯ à¤¶à¤ķ
à¤¯ à¤°à¤®à¤¨
à¤¿ à¥Ĵ
à¤¨ à¤Ńà¤°
à¤ļ à¤°à¤¸
à¤¸ à¤¦à¤¤
à¤¸ à¤µà¤°à¤ļ
à¥ĭ ",
à¤® à¤²à¤ļ
Ġà¤¤ à¤³à¤µà¤²à¤ķà¤°
à¤Ĺ à¤¨à¤¨
à¤Ł à¤ĺà¤°
Ġà¤¹ à¤¨à¤¨
à¤§ à¤µà¤²
Ġà¤¨ à¤®à¤ķ
à¤¶ à¤²à¤¨
à¤¶ à¤ªà¤ļ
Ġà¤¦ à¤¸à¤±
Ġà¤¦ à¤ļà¤ķà¤²
Ġà¤¶ à¤¦
Ġà¤Ĺ à¤¹à¤²
à¤ĸ à¤¬
Ġà¤Ń à¤°à¤ļ
Ġà¤®à¤¹ à¤®à¤¦
Ġà¤¤à¤° à¤¹
à¤« à¤°à¤ĸ
Ġà¤¸à¤® à¤Ī
Ġà¤īà¤ª à¤µà¤¨
à¤¯à¤® à¤®
à¤ħ à¤ľà¤¯
à¤ľà¤¨ à¤°à¤²
à¤¯à¤¤ à¤®à¤§
à¤Ĺà¤° à¤¹
à¤°à¤ª à¤³à¤²
à¤¸à¤¨ à¤µ
à¤µà¤¨ à¤ªà¤¦
Ġà¤ĵ à¤¦
à¤¬à¤Ī à¤¬
Ġà¥¨à¥¦ à¥¯
Ġà¤ħà¤® à¤°à¤¤
Ġà¤Ĩà¤¦ à¤³à¤¤
ĠM T
ĠM i
à¤¡à¤ķ à¤ªà¤ļ
Ġà¤¬à¤¹ à¤°à¤¤
à¤ªà¤ķ à¤¨
ĠA ut
as han
ĠT op
ĠC ET
ĠG ram
à¤®à¤£ à¤µ
Ġs on
Ġc ard
ĠL and
à¥Ģà¤Ĥ. '
ha gan
Ġp our
Ġo b
ve y
à¤¹à¤³ à¤¯
Ġà¤ıà¤¨ à¤¬
à¤ıà¤² à¤ª
Ġà¤īà¤¤à¤° à¤µà¤¤
Ġl anguage
Ġà¤Ńà¤°à¤¤ à¤ĸ
ĠF requ
el led
Ġ12 1
Ġà¥§à¥Ń à¥§
os hy
Ġà¤«à¤° à¤«à¤Ł
Ġà¥¨à¥ª à¥«
Ġà¤Ĩà¤¸ à¤ĸ
ĠV is
ĠIn surance
ĠU N
av ed
ĠSt ore
ĠInd ust
Ġâ ļłï¸ı
Ġre port
ish ad
ĠY our
ult ural
Ġj an
à¥¯à¥¯ à¥¦
à¤¾... "
erm an
Ġà¥ªà¥¬ à¥ªà¥ª
ber ries
ell s
Ġà¤¦à¤¡ à¤ªà¤²
Ġex t
Ġà¤ªà¤ª à¤Īà¤ļ
aut y
Ġà¤ĸà¤Ł à¤ķà¤²
Ġà¥§à¥¯à¥¦ à¥¨
Ġà¤īà¤®à¤Ł à¤µà¤£
à¤Ĩà¤ł à¤µà¤¡
Ġà¥§à¥®à¥¯ à¥Ń
Ġim portant
Ġà¤Ŀà¤Ł à¤ķà¤²
ert ific
Ġà¤²à¤ĸà¤¨à¤Ĭ à¤®à¤§
hir d
ĠLok mat
atur al
** **
ĠSu pp
ym pt
ĠPre mi
ĠAT M
à¤°à¤Ĺà¤³ à¤²
ĠBS NL
ĠUP D
aught er
iffer ent
Ġpati ents
atn agiri
ĠKur ulkar
ĠStat us
Ġhist ory
Bal asaheb
Ġow n
oshy ari
% ),
8 6
A V
F IR
L IC
N av
N UM
O micron
W omen
d ev
e j
e er
i ers
n à¤Ĺà¤°
n ail
Ġ }
Ġ ur
à¥į )
à¤¯ à¤ªà¤°à¤²
à¤¯ à¤ĺà¤¡
à¤¿ à¥Ģ
à¤¨ à¤¦à¤°
à¤ļ à¤¤à¤°
à¤ļ à¤®à¤¤
à¤¸ à¤ķà¤²
à¤¸ à¤ıà¤ķ
à¤¹ à¤µà¤²
Ġà¤® à¤Ŀ
Ġà¤® à¤ĸà¤°
à¤ª à¤¸à¤®
Ġà¤¤ à¤²à¤®
à¤¦ à¤Ĺà¤²
à¤¦ à¤ľà¤¨à¤ķ
à¤Ĺ à¤Ńà¤°
Ġà¤µ à¤ª
Ġà¤µ à¤¡à¤ķ
Ġà¤µ à¤¨à¤¹
à¤ľ à¤Ł
Ġà¤¨ à¤°à¤¨
à¤¶ à¤¤à¤µ
à¥ĩ. ....
à¤¬ à¤°à¤¸
Ġà¤° à¤£à¤ķ
Ġà¤¶ à¤¤à¤ª
Ġà¤¶ à¤®à¤µ
Ġà¤ħà¤¸ à¤¨
à¤ł à¤¹
à¤ł à¤Ĺ
à¤ł à¤ªà¤°
Ġà¤Ĺ à¤²à¤¬à¤²
à¤µà¤° à¤Ńà¤ķ
à¤Ń à¤µà¤¸
à¤Ń à¤µà¤ļ
Ġà¤ļ à¤ªà¤Ł
Ġà¤Ń à¤Łà¤¨
Ġà¤ī à¤Łà¤£
Ġà¤ĺ à¤¸à¤ĺ
Ġà¤Ŀ à¤°à¤®
à¥ĩà¤Ĥ à¥¤
à¤°à¤ķ à¤µ
Ġà¤ĸ à¤°à¤®à¤°
à¤Ī à¤¸à¤ļ
Ġà¤« à¤³à¤µ
à¤¢ à¤®
à¤ķà¤° à¤ĸ
à¤°à¤£ à¤¨
Ġà¤ł à¤¶
à¤ħ à¤¨à¤¨
Ġà¤Ĩà¤¤ à¤¤
à¤ľà¤¨ à¤®
à¤ľà¤¨ à¤Ĺà¤°
Ġà¤¨à¤µ à¤Ń
Ġà¤Ĩà¤ľ à¤ħà¤ĸ
à¤°à¤ª à¤³à¤¤
à¤Łà¤¨ à¤°à¤ļ
Ġà¤¤à¤¸ à¤¬
à¤ĩ à¤¸à¤®à¤§
à¤ĩ à¤ļà¤²à¤ķà¤°
Ġà¤Ĩà¤¯ à¤ıà¤¨à¤ıà¤¸
Ġà¤ªà¤¦ à¤¨
ar g
in ed
in ce
an ath
at ic
à¤³à¤¤ à¤ļ
à¤¦à¤¨ à¤¸
Ġà¤®à¤² à¤µ
Ġà¥© à¥©à¥¦
à¤·à¤¯ à¤µ
ĠS ch
ĠS em
à¥¬ à¥¦à¥¦
à¤ī à¤°à¤£
à¤ī à¤¸à¤®à¤§
à¤¬à¤² à¤¸
Ġà¤¬à¤¹ à¤®à¤¨
ĠP an
ĠP art
ĠP rab
it ing
Ġà¤Ķ à¤°à¤ļ
à¤ªà¤ķ à¤ªà¤£
à¤ķà¤£ à¤¸
ĠA urangabad
as an
ĠT omato
Ġà¥§à¥¯ à¥§à¥§
à¤¯à¤ª à¤§
ĠC ode
à¤ķà¤Ł à¤¦
Ġà¤Ńà¤° à¤°à¤¸
Ġà¤ħà¤¦ à¤®
ol ar
Ġc hat
ĠB huj
ĠR OG
ĠD aily
ra in
à¥Ģà¤Ĥ. "
un ny
ha i
à¤Īà¤Ł à¤¸
Ġw ife
à¤ĩà¤Ł à¤¸
Ġà¥§à¥® à¥§
Ġà¤¦à¤² à¤ĺà¤®
el in
Ġ15 5
Ġà¥§à¥Ń à¥©
à¤ĸà¤¨ à¤¶
ĠK ashmir
pp er
à¤ıà¤¨ à¤Ĩà¤¯à¤ı
ai b
à¤£à¤ķ à¤¥
ĠO lymp
Ġà¥¨à¥§ à¥¨
Ġ14 5
Ġ13 2
à¥§à¥¯ à¥ªà¥Ń
à¤ıà¤ļ à¤ĵà¤ļ
ig an
Ġ16 4
han g
à¤Ĭà¤² à¤ĸ
Ġà¤Ńà¤¯ à¤ªà¤Ł
Ġ22 5
Ġà¥©à¥« à¥¦à¥¦
Ġà¤¬à¤¡ à¤¯
Ġ21 0
Ġ21 6
og en
Ġà¥¨à¥¯ à¥«
Ġâ ĨĴ
Ġà¤ªà¤ł à¤¡
Ġ26 0
ction s
Ġà¤ıà¤ħà¤° à¤«
Ġà¤¹à¤Ł à¤ķà¤²
à¤¦à¤¹ à¤¶à¤¤à¤µ
Ġà¤īà¤ķ à¤³à¤µ
à¥ĩ... '
Ġà¤¨à¤³ à¤¯
ĠAl i
Ġ... \
Ġ36 5
hed e
Ġ198 2
Ġ198 3
ame er
com m
Ġ33 3
Ġà¤ªà¤ļà¤¨ à¤¸
Ġpl an
erv ices
Ġle t
Ġà¥§à¥¯à¥© à¥§
cl us
à¤³à¤ķà¤¤ à¤ķà¤°
Ġ197 0
Ġà¤«à¤¡ à¤ķà¤¤
Ġà¤ĺà¤¸à¤° à¤Ĺ
Ġ195 6
wad a
ashi on
ĠArt icle
Ġbec ome
Ġbec ause
ĠAmb ani
ĠHel lo
ĠHind u
On line
urb ar
Ġà¤²à¤ĸà¤² à¤ĸ
minist ration
iabet es
ertific ate
( '
D T
D on
M D
M y
P impri
R el
S er
S ush
S earch
T imes
c hem
d an
g ress
i ents
n à¤ķà¤²
n à¤²à¤ķ
r anti
s ide
à¥ Ħ
à¤¾ ]
à¤¤ à¤¦à¤°
à¤¤ à¤ľà¤¨
à¤¯ à¤²à¤ķ
à¤¨ à¤ľà¤°
à¤¨ à¤Ľà¤¤
à¤ķ à¤¬à¤¦
à¤® à¤Łà¤²
Ġà¤Ĩ à¤Łà¤¤
Ġà¤ª à¤µà¤³
à¤¦ à¤Ī
à¤¦ à¤¸à¤°
à¤Ĺ à¤¡à¤¤
à¤Ĺ à¤Ľà¤Ł
Ġà¤µ à¤łà¤£
à¤Ł à¤¦à¤°à¤®
à¤ľ à¤²à¤ķ
à¤ľ à¤¸à¤ļ
à¤ľ à¤¤à¤ļ
Ġà¤¹ à¤¯à¤Ĺ
Ġà¤¦ à¤¨
Ġà¤¦ à¤ļà¤ķ
Ġà¤° à¤¯
Ġà¤ħà¤¸ à¤®à¤¤
Ġà¤Ĺ à¤¤à¤ķ
Ġà¤ĺ à¤°à¤µ
à¤¾. .\
à¤°à¤ķ à¤¶à¤ķ
à¤Ī à¤ķà¤¸
à¤Ī à¤Łà¤®à¤§
Ġà¤« à¤°à¤¦
à¤°à¤¤ à¤¨
à¥ĩ, \
à¤°à¤£ à¤ľ
à¤°à¤® à¤Ĺà¤¡
Ġ( -
à¤µà¤¤ à¤ªà¤£
à¤ħ à¤µà¤¤
à¤ĥ </
à¤°à¤² à¤²
Ġà¤Ĩà¤ľ à¤Ĺ
à¤Łà¤° à¤°
à¤Łà¤° à¤¡
à¤Łà¤¨ à¤°à¤²
à¤ĩ à¤Ĺ
à¤ĩ à¤²à¤²
Ġà¤Ĩà¤¯ à¤ıà¤¸à¤Ĩà¤¯
Ġà¤Ĩà¤¯ à¤Ĩà¤°à¤ıà¤¸
à¤¸à¤¤ à¤ļ
à¥¨ à¥«à¥¦
Ġà¤ħà¤Ń à¤¦
Ġà¤ªà¤¦ à¤°à¤ļ
à¤¦à¤¨ à¤¨à¤Ĺà¤°
à¤ľà¤° à¤®à¤§
Ġ. ."
ĠS hi
ĠS ystem
à¤°à¤¹ à¤¦
à¤§à¤µ à¤ļ
à¤¡à¤ķ à¤·
Ġà¥ª à¥¯à¥¯
al c
ĠP ublic
ĠP harma
Ġà¤Ĳ à¤Ł
Ġà¤¶à¤° à¤¯
ĠA w
ĠA adhaar
Ġ? ?
à¤¯à¤° à¤¬
à¤ļà¤° à¤°
Ġ) \
ĠI PS
Ġà¤īà¤² à¤¥à¤µ
à¤ķà¤Ł à¤Ĺ
à¤µà¤ľ à¤µà¤³
Ġà¤ĩà¤¨ à¤«
ĠL ad
Ġw hile
il a
Ġb r
Ġb ank
à¤ķà¤®à¤¤ à¤¶
Ġm um
Ġà¤Ĭ à¤ł
Ġà¤§à¤¨ à¤ª
Ġa way
à¤·à¤® à¤¯
ut s
ĠK al
ĠK rus
ot es
à¤ıà¤¨ à¤ıà¤ļ
ĠW i
ĠW atch
ai f
Ġà¥¨à¥§ à¥©
Ġà¥¨à¥§ à¥Ń
Ġh uman
Ġ50 6
ĠU r
Ġà¤ľà¤² à¤§
à¥ĩ! '
im ate
st r
Ġà¤°à¤£ à¤°
Ġà¤ıà¤« à¤¬
Ġst ory
Ġ28 0
Ġ28 8
Ġà¤Ĩà¤ĸ à¤¡à¤¤
Ġj ud
ac a
Ġà¥ªà¥® à¥¦
ear ing
Ġcont raindications
ĠX I
Ġ37 6
ock ing
ĠÂ «
anc ial
Ġà¥§à¥¯à¥© à¥¨
Ġà¤§à¤µà¤¨ à¤²
à¤īà¤ª à¤ķà¤°
ĠPl an
Ġ197 1
ĠPr adeep
out ube
mer ica
hak ti
Ġà¤ħà¤Ŀ à¤°à¤¬
à¤µà¤Ĺà¤£ à¤ļ
stit ut
Ġà¤Ĩà¤Ĭ à¤Łà¤«
Ġà¤Ĩà¤¯à¤ıà¤® à¤¡
ĠÃ Ĺ
Un ion
ĠBh os
isha bh
ffic ial
ĠCap ital
Chi ef
Ġupd ate
Ġhel p
Nar ayan
adan vis
ĠLim ited
ĠUR L
nSub mitted
. -
E F
K er
N ana
O P
U R
W ater
g g
n m
n Last
p hone
u x
y ber
z z
Ã ¶
Ġ à¥ĩ
Ġ order
à¤° à¤¯à¤¨
à¤¤ à¤³à¤¤
à¤¤ à¤¸à¤®
à¤¯ à¤µà¤³à¤£
à¤² à¤¶à¤¹
à¤¨ à¤®à¤°
à¤µ à¤±
à¤¸ à¤°à¤¸à¤¹
à¤¹ à¤ķà¤¡
à¤¹ à¤®à¤¨
à¤¹ à¤ļà¤°
à¤£ à¤ªà¤°
à¤£ à¤®à¤¯
à¥ĭ (
Ġà¤ķ à¤µà¤°
à¤® à¤Ĺà¤°
à¤ª à¤Łà¤¨
à¤¾à¤Ĥ -
Ġà¤ħ à¤¦à¤°
à¤Ĺ à¤ķà¤£
à¤Ĺ à¤Ńà¤²
Ġà¤µ à¤¦à¤¨
Ġà¤µ à¤Łà¤¹
à¤¡ à¤¸à¤¤
à¤¡ à¤µà¤°à¤ļ
Ġà¤¨ à¤³à¤ķ
à¤· à¤¨à¤Ĺà¤°
Ġà¤ķà¤° à¤µà¤¸
Ġà¤ħà¤¸ à¤°
à¤¥ à¤ļà¤ķ
Ġà¤ļ à¤ļ
Ġà¤ļ à¤µà¤°
à¥ĩà¤Ĥ )
Ġà¤ĸ à¤ªà¤¤
à¤Ī à¤¦à¤°à¤®
Ġà¤¤à¤° à¤²à¤¤
Ġà¤ĩ à¤µà¤²
à¤ĺ à¤«
à¥Ģà¤Ĥ à¤Ĥ
Ġà¤¸à¤° à¤µà¤¦
Ġà¤§ à¤°à¤®à¤ª
à¤µà¤² à¤¸
à¤¯à¤® à¤Ń
à¤¦à¤° à¤Ĺà¤¡
à¤ħ à¤°à¤¶
à¤ħ à¤µà¤ĺ
à¤ı à¤ķà¤ļ
à¤Ĺà¤° à¤¶
Ġ- '
à¤°à¤¶ à¤°
à¤ķà¤² à¤µà¤°
à¤²à¤ķ à¤µ
Ġà¤Ĩà¤¯ à¤Ĩà¤¯
Ġà¤ĳ à¤Īà¤²à¤ļ
Ġà¤®à¤¨ à¤¦
à¤°à¤¦ à¤¯à¤µ
ar r
an ies
on ed
à¤¯à¤¨ à¤¯
Ġà¤ħà¤® à¤°à¤§
à¤¹à¤¨ à¤µ
à¥ª à¥¯à¥¯
ĠM atch
ĠS ony
à¤µà¤ļ à¤ľà¤£
à¤µà¤ķ à¤ļ
à¤ªà¤¦ à¤¹
Ġà¤īà¤® à¤ľ
Ġà¤īà¤® à¤²à¤¤
ĠA P
as y
à¤ıà¤¸ à¤ľ
ĠI ss
ĠC H
ĠC entral
Ġà¤ıà¤¸ à¤Ĩà¤°à¤ª
Ġà¤ıà¤¸ à¤ıà¤®à¤ı
Ġs am
Ġs amb
à¥ĩà¤Ĥ. \
ur a
à¤Ĩà¤¯ à¤ľ
Ġf ight
ĠD ate
ĠD iesel
Ġà¤¢ à¤³à¤²
Ġà¤µà¤¡ à¤¸
ĠL anka
et ter
us band
Ġb as
ro om
ro vers
Ġà¤µà¤¨ à¤ľà¤®
ĠE LSS
ĠE chin
Ġa ctor
à¥Ĥ, '
Ġd est
Ġà¤¶à¤¹ à¤ľ
ht i
Ġà¥©à¥¦ à¥©
Ġl i
Ġà¥¨à¥« à¥«
20 23
Ġà¥§à¥¬ à¥¯
Ġà¥§à¥Ń à¥®
ĠK a
ot al
à¤¨à¤¶ à¤°
à¤¬à¤¡ à¤¯
Ġà¤¸à¤ľ à¤Ĺà¤¤
ĠV al
Ġ14 9
ort un
à¤ķà¤®à¤§ à¤²
Ġà¤®à¤¦ à¤¤à¤ļ
ab a
ab rao
rom e
im al
-- -
Ġà¤ķà¤ļ Âºà¤¯
Ġk m
Ġk eep
ov sk
em a
ist ic
iv il
à¤®à¤³ à¤ªà¤£
Ġà¤Ĺà¤² à¤¬à¤¤
ity anath
Ġà¤µà¤ļà¤¨ à¤¨
à¤µà¤¹à¤¨ à¤®
Ġcon f
ĠTV S
ac y
esh war
Ġà¥©à¥® à¥¦
ank hede
Ġth ree
ah chu
Ġpro blem
Ġhe ld
her i
ks hay
Ġsp ecial
Ġà¥§à¥¯à¥¦ à¥Ń
Ġal cohol
Ġà¤«à¤¡ à¤¤à¤°
Ġà¥¨0 à¥§à¥ª
Te ch
Ġcr itic
Ġoff ice
ĠHigh way
Ġà¤ıà¤ıà¤¨ à¤Ĩà¤¯
nivers ary
ĠRel ated
Ġà¤Ĺà¤« à¤²à¤¤
Pol icenama
err or
Ġcal led
kra ine
ĠCent re
Whats App
ĠUl tra
Ġà¤ĺà¤¸à¤ĺ à¤¶
ĠBhuj bal
ĠEchin ops
' (
- \
2 50
9 4
> .
F orm
G ram
H D
H y
N B
R ussia
S R
T rans
f riend
n O
n à¤ħà¤¹à¤®à¤¦à¤¨à¤Ĺà¤°
p ande
v ind
Ġ Ð
à¥ °
à¥Ģ ]
à¤¤ à¤¨à¤²
à¤¨ à¤°à¤ĸ
à¤ķ à¤ļà¤°
à¤ļ à¤°à¤®
à¤ļ à¤ħà¤ĸ
à¤¸ à¤Ī
à¤£ à¤¨à¤Ĺà¤°
à¤® à¤²à¤¬
à¤® à¤®à¤¯
Ġà¤¤ à¤ļ
à¤¦ à¤¬à¤°
à¤¦ à¤¯à¤¤
à¤Ĺ à¤¤à¤²
à¤Ĺ à¤®à¤ļ
à¤Ĺ à¤Łà¤¨
à¤Ĺ à¤°à¤ļà¤¨
à¤Ł à¤µà¤ķ
à¤¡ à¤¸à¤ļ
Ġà¤¹ à¤°à¤¹
Ġà¤¹ à¤¡à¤ķ
à¤§ à¤ĸ
à¤¶ à¤£
à¤¶ à¤°à¤®
à¤³ à¤¢
à¤· à¤·
Ġà¤ľ à¤³à¤²
Ġà¤ľ à¤³à¤ķ
Ġà¤Ĺ à¤Ī
à¤ĸ à¤Ĺ
à¤Ń à¤¹à¤¸
Ġà¤ļ à¤µà¤³
Ġà¤Ń à¤°à¤ľ
Ġà¤Ŀ à¤®
à¤Ī à¤ªà¤Ł
Ġà¤Ĩà¤² à¤Ł
Ġà¤ªà¤° à¤®à¤¹
à¥Ī à¥Ī
Ġà¤ł à¤Ĺ
Ġà¤¸à¤® à¤ª
Ġà¤īà¤ª à¤¤
Ġà¤īà¤ª à¤²
à¤ħ à¤²à¤®
à¤ľà¤¨ à¤¸à¤¹
à¤ı à¤¸à¤²
à¤ı à¤®à¤µ
à¤®à¤ļ à¤ķ
à¤¯à¤¤ à¤®
à¤Ĩ à¤ľà¤ª
à¤ĩ à¤Ŀà¤®
à¤ķà¤² à¤Ĺ
à¥§ à¥¨à¥¦
à¥§ à¥«à¥¦
à¤®à¤¨ à¤Ĺ
Ġà¤ĵ à¤°à¤ĸà¤¡
an l
à¤¦à¤¨ à¤¬
Ġ. "
ĠS y
ĠS ho
à¤ļà¤² à¤ļ
ĠP ort
à¤Łà¤ļ à¤°
ĠA ffair
he at
à¤®à¤¸ à¤¡à¤ķ
à¤ªà¤Ł à¤ª
ĠI D
ĠC urrent
Ġà¤Ĺà¤£ à¤ª
and er
Ġà¤Ī à¤¦à¤Ĺ
om y
Ġs y
Ġc ut
Ġc eleb
ĠB ombay
Ġf ind
Ġn i
ĠD ef
ra ck
à¤ĺà¤° à¤Ĺ
Ġà¤ıà¤® à¤Ĩà¤°
ĠL aw
ĠL ook
Ġà¤ªà¤Ł à¤µà¤²
à¤°à¤¥à¤® à¤ª
re ed
Ġp ri
Ġp oint
Ġà¤ĺà¤¡ à¤¯
Ġo bs
à¤ıà¤² à¤Ĩà¤°
Ġa ge
Ġd ied
Ġà¥©à¥¦ à¥Ń
Ġl ong
Ġà¤īà¤ĺà¤¡ à¤¯
Ġà¤īà¤ĺà¤¡ à¤Ŀ
Ġà¥§à¥¬ à¥§
ri y
ĠJ a
à¤¸à¤³ à¤¯
Ġà¤Ĺà¤¡ à¤¬
ant ha
Ġà¤ıà¤² à¤ıà¤²à¤¬
ĠGo od
ĠIn j
Ġà¤Ĩà¤łà¤µà¤£ à¤¹
Ġà¤į à¤²
Ġà¥¨à¥© à¥ª
im bal
Ġ24 0
Ġà¥¨à¥® à¥Ń
Ġà¥¨à¥¬ à¥¦
Ġà¤īà¤ľ à¤³à¤²
Ġà¥¨à¥Ń à¥¨
ya z
end ulkar
Ġr ed
Ġcon d
Ġà¥©à¥Ń à¥¯
ug a
ith ic
Ġà¥©à¥© à¥¨
à¥ĭ? \
ne ct
ĠAl cohol
ĠCh ina
Ġà¤ªà¤¥ à¤ķà¤°
ry an
Ma ha
Ġà¤¦à¤£ à¤ķà¤Ł
nà¤ħ à¤¤
Ġà¤ħà¤Łà¤² à¤ľ
à¤į à¤²
Ġà¤¬à¤°à¤¸ à¤¤
Ġà¤ıà¤«à¤Ĩà¤¯à¤Ĩà¤° à¤®à¤§
Ġco uld
Ġà¥§à¥®à¥® à¥«
St ate
à¤¸à¤Ĺà¤³ à¤¤
Ġà¤īà¤Ńà¤¯ à¤ªà¤ķ
âĢ Ļ
Ġstate ment
ict ion
Ġà¤ħà¤µà¤¨ à¤¤
ĠUS B
ĠUV LED
haw an
Ġà¤µà¤°à¤£ à¤Ĺ
ĠOr gan
ĠIT R
ĠIr ina
ria ge
ĠSn ap
olk ata
Ġà¤ıà¤®à¤ıà¤ıà¤ļ à¤ļ
Tok yo
ĠProte ction
NUM X
Ġà¤¹à¤¯à¤Ĺ à¤¯
ĠIss ue
, .
3 80
9 00
< <
B ank
G I
P ad
P unjab
S G
S ec
S olapur
T hackeray
T ata
a ar
c ol
c oin
h ra
k ing
l and
m ot
n à¤¸à¤¨
n à¤ħà¤§
t m
u ally
à ¨
â Ĩ
Ġ ~
Ġ ide
à¥ĩ </
à¤² à¤®à¤ļ
à¤² à¤ªà¤ķ
à¤² à¤¡à¤¬
à¤¨ à¤µà¤°à¤ļ
à¤¨ à¤ľà¤£
à¤µ à¤¤à¤²
à¤µ à¤®à¤¨
à¤µ à¤Ĺà¤¨
à¤µ à¤¦à¤ļ
à¤ļ à¤°à¤¤
à¤¸ à¤ĳà¤°
à¤¹ à¤«
à¤¹ à¤²à¤ķ
à¤¹ à¤²à¤¤
à¤£ à¤ķà¤¡
à¥ĭ à¥¤
à¤® à¤®à¤°à¤£
Ġà¤ª à¤¥à¤¸
à¥Ĥ ..
Ġà¤ħ à¤¬à¤°
Ġà¤ħ à¤¯à¤¨
à¤Ĺ à¤¬à¤²
à¤Ł à¤¤à¤®
à¤ľ à¤ĸà¤®
Ġà¤¹ à¤¡
Ġà¤¹ à¤°à¤ĸ
Ġà¤¹ à¤Ĺà¤µà¤£
Ġà¤¨ à¤Ī
Ġà¤¨ à¤²à¤Ĺ
Ġà¤¦ à¤Ĺà¤¦à¤Ĺ
Ġà¤° à¤®à¤¨
à¤ł à¤³à¤ķ
Ġà¤² à¤µà¤Ł
Ġà¤ĸ à¤¯
Ġà¤« à¤²à¤¨
Ġà¤« à¤Łà¤«
à¤ķà¤° à¤¦à¤°
à¤ķà¤° à¤¬à¤°
Ġà¤ªà¤° à¤ļ
à¤¤à¤² à¤µ
Ġà¤§ à¤¡à¤Ĺ
Ġà¤µà¤° à¤²
à¤ħ à¤¥à¤µ
à¤°à¤² à¤ļ
Ġà¤¨à¤µ à¤¬
à¤Łà¤² à¤¸
à¤ķà¤² à¤¶
à¤¸à¤¨ à¤Ĺà¤°à¤ļ
à¤¤à¤ķ à¤¨
Ġà¤ĳ à¤²à¤°
Ġà¤īà¤¦ à¤¯à¤¨
à¤µà¤¨ à¤ªà¤Ł
Ġà¤ªà¤¦ à¤®
an ing
à¤·à¤ķ à¤µà¤°
Ġ. ....
à¤ļà¤¨ à¤µ
à¤£à¤¯ à¤¸
ĠS ource
Ġà¥ª 0
Ġà¥ª à¥©à¥¦
à¤²à¤¬ à¤¸
Ġà¤ħà¤ľ à¤¯à¤¨
Ġt ar
Ġt al
Ġt ak
à¤¤à¤¨ à¤¹
à¤§à¤ķ à¤¹
ĠN and
à¤ķà¤£ à¤Ńà¤°
ĠA L
Ġà¤Ĺà¤° à¤Ĺà¤°
à¤¨à¤° à¤¬
Ġà¤Ĩà¤¨ à¤¦
ĠT hak
Ġà¥§à¥¯ à¥§à¥¦
Ġà¥§à¥¯ à¥¨à¥ª
Ġà¤Ĩà¤Ĺ à¤¸
ĠC enter
Ġ, '
ad igan
om es
à¥ĩà¤Ĥ. "
Ġc er
Ġc ook
ĠB or
ĠR ohit
ĠR iver
à¤ĩà¤¨ à¤¸à¤¹
Ġn ec
ĠD h
ĠD NA
Ġà¤¨à¤° à¤¡
ra pur
Ġà¤ªà¤¡ à¤ĺ
à¤®à¤¹ à¤¸
ĠL og
ĠL eg
ĠL PG
un a
un t
Ġw r
Ġw ar
Ġw hy
Ġp ast
Ġp ositive
Ġo p
Ġo pt
id ney
Ġb ody
à¤ķà¤ª à¤¡
Ġ19 49
Ġà¥§à¥® à¥ªà¥®
Ġm oney
à¤³à¤ķ à¤¨à¤Ĺà¤°
Ġà¤¦à¤² à¤ĺà¤«
Ġl ies
Ġà¤ĺà¤Łà¤ķ à¤ªà¤ķ
ir t
ir an
ĠK oshyari
ĠJ ag
Ġ18 4
od ia
Ġà¥¨à¥¨ à¥®
Ġ16 2
Ġ16 00
our se
Ġà¥¨à¥© à¥¨
Ġà¥¨à¥© à¥«
Ġ17 6
Ġà¥©à¥« à¥©
à¤¤à¤ķà¤± à¤¯
Ġà¤¥à¤ķ à¤µà¤²
à¤Ĺà¤®à¤§ à¤²
Ġk a
all eng
Ġà¤¸à¤°à¤³ à¤¸à¤°à¤³
ang a
à¤¸à¤« à¤°à¤ļ
ho us
à¤¾... '
à¤ķà¤ħà¤ª à¤®à¤§
ail able
à¥Ģ... "
ee ch
Ġà¥§à¥¯à¥« à¥§
ĠPro f
à¥ĩ.' \
Ġ197 7
à¤¸à¤¨à¤Ĺà¤° à¤®à¤§
Ġà¤Ĩà¤ī à¤Łà¤¸
Ġres pons
Ġà¥§à¥®à¥¯ à¥©
der abad
Ġà¤ķà¤¡à¤µ à¤Łà¤ªà¤£
act er
Ġà¤Ŀà¤Ĺ à¤¡à¤£
lic ation
Ġà¥§à¥Ńà¥« à¥¬
HO T
Ġà¤īà¤°à¤ķ à¤£
He avy
nB l
Ġchi ef
Ġcar rots
Ġà¤Ĩà¤¯à¤ıà¤¸ à¤ĵ
ĠAS HA
ĠFe atur
ĠMet ro
ĠSec ret
Ġchan ge
ĠDes ai
Ġret urn
ĠHot star
Ġ____ ____
Ġchild ren
ĠTy pe
Ġthought s
ĠOpp o
ghan istan
ĠKhad se
ympt oms
Ġà¤µà¤¨à¤¹ à¤ķ
- !
7 6
A ll
B BC
E lectric
G roup
H L
M odi
P osted
R ad
d y
j i
l ife
n o
n à¤¸à¤ķ
n à¤Ĩà¤ľà¤ļ
p olice
y ot
Ġ eng
à¤¿ "
à¤ķ à¤µà¤¡
Ġà¤ķ à¤±
à¤® à¤µà¤¤
à¥ģ à¤ģ
Ġà¤¸ à¤¡à¤£
Ġà¤¤ à¤ķà¤²
Ġà¤¤ à¤³à¤ľ
à¤¦ à¤¬à¤¦
à¤Ĺ à¤¬à¤¦
Ġà¤µ à¤³à¤µà¤¤
à¤ľ à¤®à¤¤
à¤ľ à¤ķà¤°à¤£
à¤ľ à¤²à¤ļ
Ġà¤¯ à¤¡
à¤§ à¤Łà¤ªà¤£
Ġà¤¨ à¤¡à¤²
Ġà¤¦ à¤Łà¤ķ
Ġà¤° à¤ĸà¤¡
Ġà¤¶ à¤®à¤²
Ġà¤Ĺ à¤µà¤°
Ġà¤Ĺ à¤®à¤¨
Ġà¤Ĺ à¤Ĺà¤¨à¤ļ
Ġà¤² à¤ªà¤¤
à¤µà¤° à¤°
Ġà¤ĺ à¤¨à¤¸
Ġà¤Ŀ à¤¡à¤²
à¥ĩà¤Ĥ "
à¥ĩà¤Ĥ ?
à¤Ī à¤Ĺà¤¡à¤¬à¤¡
Ġà¤ķà¤°à¤£ à¤ļ
à¤°à¤¤ à¤ª
à¤ķà¤° à¤ªà¤£
Ġà¤Ł à¤¬
à¤°à¤£ à¤¬
Ġà¤ĩ à¤¤à¤¨
à¥Ģà¤Ĥ à¥¤
à¤Ĭ à¤¥à¤ļ
Ġ( =
à¤µà¤² à¤®à¤§
Ġà¤īà¤ª à¤Ĺà¤£
à¤°à¤¸ à¤µ
à¤ħ à¤°à¤ķ
à¤Ĺà¤¤ à¤¹
à¤ı à¤ķà¤²
à¤¬à¤° à¤ħà¤ĸ
à¤ĥ )\
à¥ĭ. ...
à¤Ĩ à¤Ŀ
à¤Ĩ à¤łà¤µà¤²
à¤Ĩ à¤łà¤ļ
à¤¶à¤¨ à¤ªà¤¤
à¤¶à¤¨ à¤ľà¤µà¤³
à¤¹à¤¤ à¤ªà¤£
à¤²à¤¯ à¤¨
à¤²à¤¯ à¤¹
à¤ĩ à¤®à¤¸
à¤¸à¤¨ à¤ķ
Ġà¤īà¤¦ à¤¬à¤¤
Ġà¤ĵ à¤¤à¤¤
à¤°à¤ľ à¤²
à¤ľà¤ª à¤¦
Ġà¥¨à¥¦ à¥ª
Ġà¥¨à¥¦ à¥Ń
Ġà¤Ľ à¤³à¤¤
à¤§à¤¨ à¤®
à¤ļà¤¨ à¤ª
ĠM on
à¤ķà¤°à¤£ à¤µ
Ġà¥« à¥§à¥¨
à¤µà¤ļ à¤£
à¤ī à¤Ĺ
or b
Ġ3 20
à¤µà¤ķ à¤¹
Ġt iv
à¤Łà¤¤ à¤¯
ĠN ail
ĠN FT
ĠA B
Ġà¤¯à¤¶ à¤¹
Ġà¤®à¤Ĺ à¤§
à¤¶à¤ķ à¤ªà¤£
ĠC AA
le v
à¤µà¤°à¤£ à¤¹
ĠG mail
ĠG ames
Ġs n
ol ution
Ġc itizens
ing er
Ġf ield
Ġn a
Ġà¤¸à¤¨ à¤¦à¤¶
à¤ľà¤µà¤³ à¤ľà¤µà¤³
ĠL ist
ĠL ead
et ition
Ġà¤¹à¤¸ à¤µà¤¤
Ġw ent
Ġw here
Ġp ur
Ġb and
ĠE PFO
Ġm u
à¤Łà¤µà¤° à¤¹
Ġd own
Ġà¤ķà¤¦ à¤®à¤µ
Ġl a
ĠF irst
ĠF IR
ch ini
ul s
ul ations
ĠK ol
ĠK ay
ri f
ri m
à¥ĩ) ;
Ġà¤· à¤£
à¥¨à¥¦ à¥§à¥¨
os ter
Ġà¤µà¤ľà¤¨ à¤¹
Ġà¤ħà¤µà¤ĺ à¤¡à¤²
Ġà¥¨à¥ª à¥¯
Ġ18 5
Ġ30 7
ĠO pen
Ġà¥¨à¥§ à¥¯
à¤ĳ à¤«à¤ļ
Ġà¤«à¤¸ à¤Ĺà¤¤
Ġà¤į à¤Ł
Ġà¤į à¤«
Ġà¥¨à¥© à¥§
Ġ17 4
ap ar
Ġà¤ķà¤¡à¤ķ à¤¨
Ġà¤Ĺà¤µ à¤Ĺà¤µ
Ġat t
ec ut
Ġre ce
ep ak
Ġst ation
Ġà¤¹à¤Ł à¤µà¤¤
uc chini
à¤¬à¤¦à¤² à¤¤
Ġà¥©à¥ª à¥§
ne et
iz es
Ġà¤ļà¤°à¤£ à¤ľ
ĠAg ainst
ash es
à¥ĩ... "
Ġà¥§à¥¯à¥ª à¥§
Ġà¥§à¥¯à¥ª à¥©
ĠCh rist
ĠCh inchwad
ell ing
anc y
Ġpl ace
Ġà¤®à¤¦à¤¨ à¤®
ĠQ ual
hah al
à¤°à¤ĺà¤° à¤®à¤§
à¤²à¤¸à¤° à¤ªà¤£
Ġà¤Ĩà¤Ĭ à¤Łà¤²
Ar t
PC R
ĠCont rol
ĠCont raindications
Ġacc ount
Ġac id
ĠEV M
Ġà¤ħà¤µà¤ļ à¤Ł
ĠCol lege
Ġà¤Ńà¤°à¤ķ à¤Łà¤¤
nI f
ĠNet flix
Ġà¤¡à¤Ĺà¤® à¤Ĺà¤¤
ĠVacc ination
Ġprot ected
uild ing
oper ative
ĠSom aiya
Ġà¤¥à¤¬ à¤ķà¤²
ĠExp ansion
ĠHous e
Ġmum kin
1 50
8 1
> [
? ,
A z
A ct
A dd
C R
E A
E P
H ar
H ind
J al
J io
M uk
M oh
M PSC
P ermalink
S an
S ha
T r
c ont
d ragon
l am
m as
n s
p oll
u ation
Ð ¾
Ù Ħ
Ù Ī
â Ķ
Ġ arm
à¤¾ à¤¾à¤Ĥ
à¤° à¤¡à¤ķà¤°
à¥ĩ à¥ĳ
à¤¤ à¤®à¤¤
à¤¤ à¤³à¤µ
à¤² à¤Ĺà¤²
à¤Ĥ ",
à¤ķ à¤¨à¤°
à¤ļ à¤²à¤¤
à¤£ à¤¯à¤ķ
Ġà¤ķ à¤ªà¤¨
Ġà¤ķ à¤µà¤¨
Ġà¤¤ à¤¹à¤¨
à¤Ł à¤ķà¤²
à¤Ł à¤°à¤¸à¤¨
à¤ľ à¤¶à¤¹
Ġà¤¯ à¤¯
Ġà¤¨ à¤ĸà¤°
à¤¶ à¤°à¤£
à¤¶ à¤²à¤ļ
à¤· à¤®à¤¸
Ġà¤¬ à¤ª
Ġà¤ķà¤° à¤µà¤²
Ġà¤¶ à¤°à¤¸
à¤ł à¤®à¤§
Ġà¤² à¤¡à¤ķ
à¤¥ à¤°à¤¨
Ġà¤ļ à¤¶
Ġà¤ļ à¤²à¤¬
Ġà¤ī à¤¸à¤Ĺ
à¥Ģ. .\
à¥Ģ. ....
à¥ĩà¤Ĥ !
à¤°à¤ķ à¤°à¤µ
Ġà¤ĸ à¤µà¤£
à¤Ī à¤¨à¤¸
à¤°à¤¤ à¤¸
à¤¢ à¤Ī
Ġà¤Ł à¤³à¤£
à¤Ĭ à¤¸à¤¨
à¤Ĺà¤² à¤²
à¤Ŀ à¤°à¤²
à¤ħ à¤Łà¤²
à¤·à¤£ à¤Ńà¤°à¤¹
à¤ı à¤ıà¤²
à¤¯à¤¤ à¤¸
à¤Ĩ à¤ķà¤¡
Ġ1 18
Ġ: --
à¤¸à¤¨ à¤ª
à¤¤à¤ķ à¤¹
Ġà¤¥ à¤²
Ġà¤ħà¤Ń à¤¯à¤¸
Ġà¤ĺà¤° à¤¹
à¤µà¤¨ à¤¹
an es
an kar
at al
at ta
Ġà¤ľà¤¨ à¤Ĩà¤¶
Ġà¤ħà¤® à¤°à¤ľ
Ġà¤Ľ à¤³à¤£
à¤§à¤¨ à¤µ
à¤¦à¤¤ à¤ĸ
ĠM ain
à¤¤à¤µ à¤¹
ĠS AR
al is
à¤ī à¤ľà¤°
Ġà¤ħà¤ľ à¤®à¤²
à¤µà¤ķ à¤ªà¤¦
à¤¹à¤® à¤¦
à¤¬à¤² à¤²
à¤¤à¤¨ à¤®
it is
Ġà¤ľà¤Ĺ à¤µà¤£
ic hi
ic ha
Ġà¤Ĺà¤°à¤ľ à¤¹
as i
as w
as kar
is c
ĠC ertificate
ĠC hahal
le ts
à¤ķà¤Ł à¤ªà¤£
Ġà¤Ī à¤¨
Ġà¤īà¤ļ à¤ķ
ĠG ujarat
Ġc urrent
Ġc andidates
à¤ķà¤¦ à¤®
ĠB us
ĠB igg
Ġf ew
Ġf ood
Ġn on
ĠD em
ĠD osage
Ġ6 50
ĠL ab
re c
Ġp ath
har e
har pur
il i
Ġà¤µà¤¨ à¤ķà¤°
Ġ19 40
Ġ19 48
à¤¡à¤ķà¤° à¤µ
Ġm ain
Ġa he
Ġa ir
à¤Łà¤® à¤¯
Ġà¤ªà¤¥à¤ķ à¤¹
Ġà¤Ńà¤°à¤¤ à¤ķ
Ġà¥¨à¥« à¥Ń
ĠF actor
Ġà¤Ĳà¤ķ à¤µà¤¤
el i
Ġ15 2
Ġ12 3
Ġà¥«à¥¦ à¥ª
um er
um rah
à¤¾à¤ĥ \
ĠH air
ĠK art
à¤°à¤®à¤£ à¤®
ot ing
pp ers
à¤ıà¤¨ à¤Ĩà¤¯
os es
à¤¸à¤µà¤° à¤¹
Ġà¥¨à¥ª à¥¨
ĠO P
ĠV ikas
Ġ14 6
Ġ14 00
Ġ13 00
Ġà¥¨à¥¨ à¥§
Ġà¥¨à¥¨ à¥¯
ĠU G
ric es
Ġà¥¨à¥® à¥©
Ġà¥¨à¥¬ à¥¯
Ġ17 7
Ġà¤§à¤¡ à¤ķà¤¤
à¤ļà¤µà¤¡ à¤ķà¤°
Ġà¤¦à¤ĸà¤² à¤ª
Ġà¥©à¥§ à¥«
Ġe ffect
à¤Īà¤¡ à¤Ł
Ġà¤ıà¤ļ à¤ıà¤®à¤Ł
à¤®à¤°à¤£ à¤ªà¤¤
em ail
em ber
iv ed
à¤ħà¤® à¤³à¤¨
Ġà¤¹à¤²à¤ķ à¤Ł
Ġà¤¸à¤¬ à¤§
Ġà¤°à¤ĸ à¤¡à¤£
ev a
iz er
Ġà¤ĵà¤ªà¤¨ à¤°
ĠThe y
ah u
Ġà¤²à¤ĸà¤¨ à¤Ĭà¤ļ
ĠCh opra
ĠX iaomi
ĠAs us
Ġà¤«à¤¡à¤ķ à¤µà¤£
ens ity
Ġà¤Ĺà¤Ĺà¤¨ à¤¬
ĠCom ments
ĠAn il
Ġà¤Ńà¤¡à¤ķ à¤µà¤£
à¦ ¿
olog ist
Ġ197 3
Ġà¤²à¤Łà¤ķ à¤µ
Ġà¥§à¥®à¥¯ à¥«
Ġpr esident
Ġse ason
Ġà¤®à¤¦à¤° à¤¬
Ġà¥§à¥®à¥Ń à¥¬
oot h
à¤Ńà¤Ĺà¤µ à¤¦
Ġper cent
Ġdec or
ĠWe ight
Ġà¤µà¤¤à¤¨ à¤¦
ĠResult s
aik wad
Ġà¤¦à¤« à¤¨à¤Ń
ĠIM D
ĠIND IA
eal and
Ġà¤¡à¤Ĺà¤® à¤Ĺà¤²
Ġri ver
ĠMah indra
ĠVacc ine
Ġapplic ation
ĠInteraction s
ĠGaut ami
Ġnt aw
ĠWarn ings
ĠBhat t
Ġbul bs
ĠTik hon
Ġà¤¸à¤³à¤¸ à¤³à¤¤
ĠFrequ ently
ĠAffair s
* )
1 20
M W
N P
N awab
O O
P ay
R es
T B
T S
b an
c m
c s
d f
d es
d ated
i od
m en
m ob
n à¤²à¤Ĺ
n ad
n à¤²à¤¹
n à¤ĩà¤¥
o ch
p an
p ute
Ù Ĩ
Ġ est
à¥ Ĭ
à¤¤ à¤±
à¤¤ à¤Ĺà¤¡
à¤¤ à¤®à¤§à¤²
à¤¤ à¤Ĩà¤²
à¤¯ à¤Ŀà¤¨
à¤² à¤ł
à¤² à¤Łà¤¤
à¤² à¤Ĩà¤°
à¤¨ à¤®à¤¯
à¤ķ à¤ªà¤ļ
à¤µ à¤¯à¤¨
à¤µ à¤ķà¤¤
à¤ļ à¤³
à¤¸ à¤°à¤®
à¤¸ à¤ľà¤¨
à¤¹ à¤°à¤ķà¤¤
à¤£ à¤¬à¤¦
Ġà¤ķ à¤¡à¤²
à¤® à¤¬à¤¹
à¤® à¤«à¤²
Ġà¤¸ à¤¬à¤°
à¤¦ à¤¸à¤¹
à¤¦ à¤¯à¤¨
à¤¦ à¤¸à¤®
à¤¦ à¤°à¤ļà¤¨
à¥Ĥ à¥į
Ġà¤ħ à¤¬à¤²
à¤Ĺ à¤ľà¤¨à¤ķ
à¤ľ à¤Ĺà¤¦
à¤ľ à¤¸à¤®
à¤¡ à¤¤à¤°
à¤¡ à¤¨à¤¹
Ġà¤¹ à¤®à¤¸
Ġà¤¯ à¤®à¤¨
Ġà¤¯ à¤µà¤Ĺ
à¤§ à¤®à¤§
Ġà¤¨ à¤Ŀ
Ġà¤¨ à¤°à¤µà¤¡
Ġà¤¦ à¤®à¤£
Ġà¤ľ à¤¥
Ġà¤° à¤¸à¤¨
Ġà¤° à¤¡à¤ķ
Ġà¤¶ à¤ļ
à¤ł à¤µà¤¡à¤Ĺ
Ġà¤Ĺ à¤°à¤Ń
Ġà¤Ĺ à¤¡à¤ª
à¤¥ à¤µà¤¡
à¤ĸ à¤¡à¤¸
Ġà¤ļ à¤Łà¤ªà¤Ł
Ġà¤ı à¤ªà¤ļ
Ġà¤Ŀ à¤¬
Ġà¤ĸ à¤£à¤£
à¤¤à¤° à¤ĸ
à¤¤à¤° à¤§à¤°
à¤Ī à¤®à¤²
à¤¢ à¤¹
Ġà¤Ł à¤¯
Ġà¤Ł à¤°à¤«à¤²
à¥Ī !
à¥Ī ',
à¤°à¤® à¤®
à¤°à¤® à¤Ī
à¤Ĭ à¤¤à¤ļ
à¤Ĭ à¤²à¤®à¤§
à¤« à¤Łà¤ķ
Ġà¤¡ à¤µà¤°
Ġà¤¡ à¤Ĺà¤²
à¤°à¤µ à¤ļ
à¤°à¤µ à¤ª
Ġà¤§ à¤ª
Ġà¤§ à¤°à¤®
à¤Ŀ à¤¤
à¤ħ à¤¨à¤²
à¤¡à¤² à¤®à¤§
Ġà¤¨à¤µ à¤ķà¤²
à¤Ĩ à¤µà¤°
à¤Ĩ à¤µà¤¡
à¤Łà¤¨ à¤¹
à¤Īà¤² à¤¹
à¤ĩ à¤¯
à¤ĩ à¤®à¤ª
Ġà¤¸à¤°à¤ķ à¤µ
à¤¯à¤ļ à¤¯
Ġà¤Ĩà¤¯ à¤Ŀ
Ġà¤ĳ à¤¯à¤¸
Ġà¤ĳ à¤°à¤Ĺ
à¤Ĥ. ...
à¤µà¤¨ à¤¨
à¤µà¤¨ à¤ķà¤°
Ġà¤ĵ à¤Łà¤ļ
Ġà¤ĵ à¤ıà¤¨à¤ľ
in agar
à¤¯à¤¦ à¤¤
à¤¯à¤¦ à¤¯
Ġà¥¨à¥¦ à¥®
er o
à¤ľà¤ķ à¤ª
Ġà¥¤ \
à¤ĵ à¤«
à¤ĵ à¤ªà¤¨
ĠS ank
ĠS ign
or ry
ĠP ed
ĠP PF
à¤µà¤¶ à¤¤
it ions
it coin
Ġà¤ľà¤Ĺ à¤ļ
ĠN ester
à¤ªà¤ķ à¤ļ
Ġà¤ħà¤µ à¤®à¤²
à¤¨à¤ķ à¤³à¤¤
is on
Ġà¥§à¥¯ à¥§à¥©
à¤ķà¤Ł à¤µà¤²
Ġà¤ĩà¤¤ à¤ªà¤¤
ĠG av
ĠG DP
om in
à¤®à¤£ à¤ķà¤°
à¥ĩà¤Ĥ. '
à¤µà¤ľ à¤µ
ĠB AN
ĠB udget
à¤ľà¤¤ à¤Ĺ
ĠR SS
à¤ĩà¤¨ à¤¦
ĠD in
ĠD hawan
Ġà¤¸à¤¨ à¤Ī
Ġà¤¢ à¤¬
Ġà¤µà¤¡ à¤¨
ĠL iter
Ġ8 50
Ġo per
il er
ro g
à¤ĸà¤® à¤¯
Ġà¥§à¥® à¥§à¥®
à¤°à¤®à¤§ à¤°
Ġd eb
Ġd epartment
à¤¾) :
Ġl og
ĠF ound
Ġ15 1
ut ual
ĠH is
ĠH and
ĠK n
ĠK ings
Ġà¤µà¤ľà¤¨ à¤ķ
ĠW al
ĠW hen
ĠW eek
ĠW indows
ĠW ankhede
Ġ11 6
ĠO il
Ġà¤ıà¤² à¤«
Ġà¥¨à¥§ à¥§
ver se
à¤ıà¤ļ à¤¸
up tion
ĠU nder
han kar
ab ai
Ġv ichar
à¤¯à¤°à¤¸ à¤µà¤°
Ġ24 5
umb ers
Ġ17 00
ĠSt ar
à¥Ģà¤ĥ \
Ġe p
ap t
à¤ħà¤Ń à¤¯
Ġ100 00
Ġà¤¸à¤¹à¤¸ à¤°à¤ķ
Ġà¤ıà¤« à¤Ĩà¤¯
Ġk n
Ġk er
Ġk ase
em y
Ġre qu
aw a
ĠY oga
ang er
Ġà¥©à¥Ń à¥«
à¤¨à¤Ī à¤ķà¤¡
Ġà¤Ńà¤Ł à¤ķà¤²
Ġà¤°à¤ĸ à¤¡à¤¤
ress ure
ink ing
Ġà¥ªà¥ª à¥¦
Ġà¥ªà¥¬ à¥¦
Ġth ose
à¤¯à¤¨à¤² à¤ļ
ĠX L
ry pt
oun tain
Ġà¤ĵà¤Ŀ à¤°à¤¤
Ġpro cess
à¤«à¤°à¤¨ à¤Ĺà¤°
Ġà¥§à¥¯à¥¦ à¥§
led ge
ater ial
Ġ195 7
Ġà¤¨à¤¯à¤¨ à¤¤
ition al
hay i
IM D
ĠPar ishad
ĠSe vere
reat ment
à¥¯à¥¬ à¥«à¥Ń
Ġcomp any
ĠAss oci
chn ology
Ġoff icer
Ġà¤ĸà¤µ à¤ĸà¤µà¤£
Ġdec ision
Ġacc ident
ĠMot o
ĠMot ors
ĠHel io
ĠDis ney
à¤¨à¤ī à¤ĺà¤¡à¤£
Inter national
Ġser ies
amm ad
Ġinvest ment
Ġvar an
Ag riculture
Ġà¤ħà¤¡à¤ĸ à¤³à¤¤
Ġmeet ing
Ġexper ience
Bhar at
ĠKad am
á¹ £
urt hi
Ġword s
Hard ik
Ġthi ab
ĠGad kari
Ġà¥®à¥®à¥Ń à¥¯à¥¬à¥«à¥Ń
ĠHTT PS
Ġà¤ıà¤¸à¤ıà¤®à¤ı à¤¸à¤¦
Ġsamb andh
Ġà¤Ńà¤°à¤ľ à¤°
ĠSnap dragon
' -
' ?
2 000
4 99
7 9
A W
A mb
B usiness
C han
C BI
C ancer
E G
F l
F armers
K S
O BC
R ishabh
S uper
S amsung
T G
T o
W atch
X X
_ '
a ish
n à¤ĳà¤Ĺà¤¸
n Up
p at
r t
r ated
u f
v al
y er
à ±
Ġ Õ
Ġ Ø
à¤° à¤Ī
à¤° à¤¯à¤¦
à¤¤ à¤¯à¤¶
à¤¯ à¤ľà¤¨à¤ķ
à¤² à¤µà¤¨
à¤ķ à¤µà¤ļ
à¤ķ à¤¬à¤³
à¤ļ à¤¨à¤²
à¤£ à¤ªà¤ķ
à¤® à¤¸à¤¨à¤¨
Ġà¤Ĩ à¤¡à¤¸
Ġà¤¸ à¤Īà¤ļ
Ġà¤¸ à¤£à¤µ
Ġà¤¤ à¤¦à¤°
à¥Ĥ /
Ġà¤ħ à¤¹à¤°
à¤Ĺ à¤®à¤¤
Ġà¤µ à¤Ĺà¤¨
Ġà¤µ à¤²à¤¸
Ġà¤µ à¤³à¤µà¤³
Ġà¤¹ à¤²à¤Ĺ
Ġà¤¦ à¤°à¤ªà¤¤
à¥ĩ. (
Ġà¤¬ à¤ķà¤²
Ġà¤¶ à¤Ĺ
Ġà¤ħà¤¸ à¤«à¤²
Ġà¤² à¤¸à¤ļ
à¤ĸ à¤°à¤ķà¤°
à¤µà¤° à¤ľ
à¤Ń à¤¯à¤¤
Ġà¤ļ à¤¦
Ġà¤ļ à¤µà¤¤
Ġà¤ļ à¤Łà¤°
Ġà¤Ń à¤£
Ġà¤ı à¤¹
à¤¤à¤° à¤ļà¤¨
à¥Ī à¤Ĥ.
à¤ĺ à¤°à¤²
à¤°à¤® à¤¶à¤ķ
à¤µà¤¸ à¤ªà¤°
Ġ( ?
Ġà¤¡ à¤°à¤ķ
Ġà¤¸à¤® à¤®
Ġà¤¸à¤® à¤¤à¤²
Ġà¤§ à¤µà¤¡
Ġà¤§ à¤¨à¤µà¤Ł
à¤¼ à¤Ĥ
à¤ħ à¤¹à¤µ
à¤¡à¤² à¤²
à¤¡à¤² à¤¸
à¤Ĩ à¤ĸ
à¤¤à¤ķ à¤¨à¤Ĺà¤°
à¤¯à¤ļ à¤°
Ġà¤Ĩà¤¯ à¤Ĩà¤¯à¤ıà¤®
à¥¨ à¥¦à¥¦à¥¦
Ġà¤ĸà¤° à¤¤à¤°
à¤ªà¤¤ à¤¨
à¤°à¤ľ à¤¹
à¤²à¤¨ à¤¨
à¤ĸà¤² à¤«
Ġà¥© à¥¯à¥¯
Ġà¤ľà¤¨ à¤ª
Ġà¤ķà¤² à¤µ
er jee
à¤¹à¤¨ à¤¦
à¤¤à¤ļ à¤²
à¥Ĥà¤Ĥ '
ĠS hir
ĠS SL
ĠS ervices
à¤°à¤¹ à¤ª
à¤°à¤¹ à¤°à¤£
al ar
al ore
à¤ī à¤ķ
Ġt erm
Ġt ry
Ġà¤¬à¤¸ à¤¥
ĠP uj
it endra
à¤¾- -
à¤²à¤µ à¤§
ĠA y
ĠA uction
à¤ıà¤¸ à¤Ĩà¤¯à¤Ł
ĠT L
ĠC old
ĠC EO
ĠC ond
à¤łà¤² à¤ª
Ġà¤īà¤ļ à¤ķà¤Ł
ĠG or
ĠG aikwad
am ner
Ġs at
Ġs elf
ĠB aj
ĠB ollywood
ĠR up
ĠR ules
Ġf e
Ġn ar
ĠD han
ĠD ance
à¤ªà¤ļ à¤ķ
Ġ9 000
Ġin j
et er
Ġp arty
Ġb us
Ġb ab
Ġà¤µà¤¨ à¤Ń
Ġà¤¨à¤® à¤µà¤²
ĠE U
Ġà¥§à¥® à¥¬à¥¦
Ġm uch
Ġà¤ıà¤¨ à¤ıà¤®
Ġà¤§à¤¨ à¤ĸà¤¡
à¤ıà¤² à¤¡
Ġa p
Ġa har
Ġd iv
Ġd hya
Ġà¤¶à¤°à¤¦ à¤¬
à¤¾) ;
Ġl ine
Ġl oan
ĠF D
ĠF ort
ĠF ollow
20 10
ir ed
à¤Ĳ à¤¨
ot ic
à¥¨à¥¦ à¥§à¥¦
à¥¨à¥¦ à¥§à¥§
ĠJ our
ĠJ oshi
ĠW ho
à¤ļà¤ª à¤¡à¤¤
Ġ18 1
à¤ħà¤¸ à¤ªà¤°
', '
Ġ13 8
Ġà¤ĺà¤Ł à¤ķà¤°
ĠIn spector
up s
Ġv apar
Ġà¤°à¤£ à¤ª
Ġà¤Ĺà¤® à¤Ľ
ind h
hat Äģ
Ġà¥©à¥« à¥«
ap ish
if ts
ok es
Ġst ock
ip l
Ġr is
Ġà¥©à¥¨ à¥«
Ġà¥©à¥Ń à¥Ń
ath wada
Ġbe g
iz ing
Ġà¤¦à¤® à¤¬
Ġà¥ªà¥Ń à¥§
ĠAl to
hik a
oun ts
ru ff
?" \
Ġit ar
pr it
ĠZ h
Ġle d
ĠPro ject
AT H
ire ment
Ġà¥§à¥¯à¥¦ à¥®
à¦ ®
Ġal ways
ĠMin istry
ĠSc am
Ġres earch
Ġà¥§à¥®à¥¯ à¥¬
ove ment
à¥¨à¥¦à¥¦ à¥®
Ġsh ort
Ġ195 2
act ive
Ġpr ashan
nA tor
Ġro ad
af i
Im icrit
Ġcl ass
Ġrec ipe
has kar
Ġpol itical
Ġà¤ıà¤ıà¤¨ à¤Ĩà¤¯à¤¨
Ad itya
Ġà¤ıà¤¨à¤Ĩà¤¯à¤ı à¤ķà¤¡
CS K
Ġelection s
---------------- ----------------
Ġvis hayi
We ight
à¤īà¤ªà¤¨ à¤Ĺà¤°
ĠAk ola
duct s
nG lipi
à¤Ĩà¤Ĭ à¤Łà¤®à¤§
ĠSun il
Ġanal og
Ġpres ent
ĠChat urthi
Ġà¤¹à¤³à¤¹ à¤³à¤²
ĠCoun cil
Ġjan are
ĠUPD ATE
Ġalcohol sah
Ġni á¹£
ĠOP PO
Ġvichar ley
Ġvaran var
Ġsambandh it
Ġdhya ve
nAtor ec
Ġniá¹£ id
8 4
A F
A ddress
C ont
D D
D ev
D iesel
G en
I s
L AT
M o
M on
T his
V as
V acc
X enotril
a ff
b ir
c oronavirus
k y
n à¤Ĩà¤Ĺ
n Imicrit
o z
t witter
Ö Ĥ
Ġ ay
à¤¾ à¥Ĵ
à¤¯ à¤µà¤¨
à¤¯ à¤°à¤¹
à¤¯ à¤Ńà¤ķ
à¤² à¤®à¤£
à¤¿ à¥ĩ
à¤¿ à¥¤
à¤¨ à¤®à¤µ
à¤¨ à¤µà¤°à¤¹
à¤ķ à¤¤à¤®
à¤ķ à¤ľà¤µà¤³
à¤µ à¤¯à¤®
à¤ļ à¤²à¤ķ
à¤¸ à¤ķà¤¤
à¤¹ à¤§
Ġà¤¸ à¤ĺ
Ġà¤¸ à¤Īà¤¨
Ġà¤ª à¤ļà¤¤
Ġà¤® à¤«
à¤ľ à¤ĺ
à¤ľ à¤µà¤°à¤ļ
à¤¡ à¤®à¤ļ
Ġà¤¹ à¤ķà¤¨
à¤§ à¤ľ
Ġà¤¨ à¤°à¤µà¤£
à¥ĩ. )\
Ġà¤ľ à¤¯à¤ļ
Ġà¤¶ à¤®à¤¨
à¤ł à¤¬
Ġà¤Ĺ à¤¢à¤µ
Ġà¤² à¤¦
Ġà¤² à¤Łà¤ªà¤Ł
Ġà¤² à¤«à¤¡
à¤¥ à¤°à¤¸
à¤ĸ à¤¤à¤°
Ġà¤ļ à¤°à¤¤
Ġà¤Ń à¤ľà¤¤
Ġà¤ĺ à¤³
Ġà¤ı à¤·
Ġà¤ı à¤¡à¤¨
à¤Ī à¤«à¤²
à¤°à¤¤ à¤¤
à¤¯à¤ķ à¤¨
Ġà¤ħà¤§ à¤®
à¥Į ,
à¤ħ à¤®à¤µà¤°
à¤ħ à¤łà¤°
à¤ı à¤ķà¤Ł
à¤ı à¤Łà¤®à¤§
à¤ı à¤¶à¤¨à¤²
à¤¡à¤² à¤¨
Ġ- *
Ġ- >
à¤ģ à¤Ĥ
à¤°à¤ª à¤²
à¤°à¤¶ à¤¹
à¤Łà¤¨ à¤ķà¤°
à¤¹à¤° à¤¨à¤Ĺà¤°
à¤ĩ à¤¥à¤²
à¤ĩ à¤ķà¤®à¤§
Ġà¤¸à¤¹ à¤ļ
Ġà¤ķà¤® à¤µà¤²
à¤¯à¤² à¤¸
Ġà¤ĺà¤° à¤¡
ar kar
an ve
à¤£à¤¤ à¤¹
à¤·à¤ķ à¤¦
Ġà¤®à¤² à¤ª
Ġà¤ľà¤¨ à¤Ń
Ġà¤ľà¤¨ à¤Ĩà¤°
Ġà¤ķà¤² à¤ļ
Ġà¤¸à¤¤ à¤ª
à¤ħà¤° à¤°
Ġ20 7
Ġà¤Ľ à¤¨
à¤®à¤ķ à¤ªà¤£
à¤¾à¤ģ .
ĠM ur
Ġà¤°à¤¸ à¤µ
ĠS i
ĠS ale
al yt
à¤ī à¤ĺà¤¡
Ġà¤Ĩà¤ł à¤°
Ġt anl
ĠP F
ĠP UB
à¤¤à¤¨ à¤¨
à¤¤à¤¨ à¤§
à¤§à¤ķ à¤¬
Ġà¤ľà¤Ĺ à¤®
ĠN PS
à¤ķà¤£ à¤ªà¤Ł
à¤Ĺà¤¡ à¤ķà¤°
ic ally
ĠA CB
Ġà¤Ĺà¤° à¤³
as m
Ġà¤¯à¤¶ à¤¶
Ġ) :
à¤®à¤¸ à¤°à¤ķ
is ation
ĠT emple
ĠC P
ĠC a
le ep
à¤®à¤° à¤Ĺ
Ġà¤ĩà¤¤ à¤¸
à¤¬à¤¸ à¤ª
Ġà¤ıà¤ķà¤¦ à¤®à¤ļ
à¤®à¤£ à¤ļ
Ġs an
Ġs ervice
Ġà¥¯ à¥«à¥¦
à¤ķà¤¨ à¤Ĺ
à¤Ĩà¤¯ à¤Ĩà¤¯à¤Ł
Ġc yc
Ġc ricket
ĠB at
ĠB ig
ĠB umrah
ĠR ob
ĠR ukh
ĠR ole
ing le
Ġf un
Ġn ational
ĠD al
ĠD ri
Ġà¤µà¤¡ à¤µà¤£
Ġin cl
ĠL ocal
ĠL ond
à¤ıà¤® à¤Ĩà¤¯à¤¡
et y
à¤Ĩà¤° à¤ĵ
Ġw hats
re l
à¤Ĭà¤¸ à¤ª
Ġp age
Ġp hoto
Ġb i
Ġb ig
Ġb oth
Ġà¤Ńà¤µ à¤¨à¤ļ
Ġà¤µà¤¨ à¤¶
Ġ19 46
ĠE NG
à¤ıà¤² à¤ı
est on
Ġa k
Ġà¤²à¤¢ à¤¯
à¤¶à¤® à¤¯
Ġd ep
à¤Łà¤® à¤³à¤¤
Ġà¤«à¤² à¤¶
Ġà¥¨à¥« à¥¯
ch ange
Ġ12 9
ri wal
ai gad
à¥Īà¤Ĥ '
Ġà¥¨à¥ª à¥Ń
Ġà¥¨à¥ª à¥¦à¥¦
à¤¦à¤³ à¤ķà¤°
à¤¨à¤¯ à¤¶
Ġà¥¨à¥§ à¥ª
Ġ14 8
à¥§à¥¯ à¥©à¥¯
Ġh ours
ig or
ig ation
Ġ16 9
han i
Ġà¤į à¤°
av al
our ces
Ġ17 1
Ġà¥¨à¥Ń à¥¯
Ġà¥©à¥§ à¥¦
ind ow
Ġ22 7
ap ers
if ty
à¤Ĩà¤ľ à¤ªà¤°
à¤Ļ à¤¯
Ġ23 0
Ġre action
Ġà¤ľà¤¡ à¤ªà¤£
ish ing
ĠY es
ĠY ork
Ġà¥©à¥¨ à¥¬
à¤łà¤£ à¤ķà¤°
ac hed
Ġà¥©à¥© à¥®
und ay
ef f
Ġdo ub
ID AI
Ġpro per
à¤¨à¤ľ à¤¡
ys is
ord ing
nà¤ħ à¤µ
nà¤ħ à¤Ĺà¤¦
ĠZ ealand
Ġà¥§à¥¯à¥© à¥©
Ġad v
Ġ38 0
Ġà¤«à¤²à¤Łà¤£ à¤ļ
ime lek
Ġ197 9
Ġà¤²à¤Łà¤ķ à¤µà¤²
Ġ196 9
pl es
ĠSc ience
ich and
Ġà¤Ĺà¤ł à¤¨
Ġra ut
ĠBy poll
med ies
à¤ľà¤¯à¤¨ à¤Ĺà¤°à¤ļ
ĠRaj put
Ġà¥¨0 à¥§à¥«
eng th
Ġsc r
Ġsc heme
à¤ıà¤®à¤Ĩà¤¯ à¤ıà¤®
oin ts
Ġà¤ıà¤ķà¤² à¤¹à¤°
à¤ķà¤ħ à¤ªà¤¨
ĠPar ab
rat ri
ĠMaha jan
ĠSe ason
AS A
nS imvax
hon es
Ġà¤ĩà¤¯à¤° à¤«
ble ms
rav ati
Mar atha
omb iv
Ġà¤ľà¤²à¤¤à¤°à¤£ à¤ªà¤Ł
Ġpol itics
ĠAb imelek
yl inder
Man n
uck now
ran ch
ĠAN I
Ġvis it
nD airo
vid on
Ash ok
Nit in
ultiv ar
ultiv ation
ĠBa at
Ġannoun ced
Su icide
nE toridas
Ġpour ed
ej riwal
ecut ive
7 50
B ook
C ap
D hule
G aut
K irit
M B
N ext
R o
R avi
R avindra
T E
U PSC
V IDEO
W D
W ho
a ult
b har
b el
e lection
f ung
j eet
k al
l og
n à¤ıà¤ķà¤¦
n Xenotril
p al
r ate
y am
¥ ÖĤ
à¤¾ `
à¤¤ à¤¬à¤²
à¤¤ à¤ľà¤²
à¤¯ à¤¸à¤¹
à¤¯ à¤¡à¤¸
à¤² à¤Ńà¤°
à¤ķ à¤®à¤ļ
à¤ķ à¤³à¤µ
à¤¸ à¤ľà¤®
à¤¹ à¤®à¤ļ
à¤¹ à¤¸à¤¤
à¤¹ à¤³à¤¤
Ġà¤ķ Âºà¤¹
à¤® à¤³à¤£
à¤® à¤ªà¤¦
à¤® à¤²à¤µ
Ġà¤¸ à¤²à¤¤
Ġà¤ª à¤°à¤ķà¤°
Ġà¤® à¤ķà¤¸
à¤ª à¤Ľ
Ġà¤ħ à¤ĺà¤Ł
à¤Ĺ à¤¬à¤°
à¤Ĺ à¤°à¤ķà¤¡
Ġà¤µ à¤ªà¤¨
Ġà¤µ à¤¨à¤Ĺ
à¤¡ à¤Īà¤ļ
à¤¡ à¤ĵà¤³à¤ĸ
Ġà¤¹ à¤®à¤°
à¤§ à¤°à¤ª
Ġà¤¦ à¤µà¤¡
Ġà¤¦ à¤²à¤µ
Ġà¤¦ à¤µà¤¡à¤¤
à¤· à¤µà¤£
à¤· à¤¸à¤µ
Ġà¤ľ à¤²à¤¨
Ġà¤ľ à¤¨à¤²
à¤¬ à¤¸à¤²
à¤¬ à¤¸à¤ļ
Ġà¤¬ à¤«
à¤ł à¤£à¤ļ
Ġà¤Ĺ à¤¶
Ġà¤² à¤Ń
Ġà¤² à¤ªà¤£
à¤¥ à¤°à¤ļà¤¨
à¤ĸ à¤³à¤²
à¤µà¤° à¤¨à¤Ĺà¤°
à¤Ń à¤ķà¤°
Ġà¤ī à¤¡à¤²
Ġà¤ı à¤¨à¤µ
Ġà¤ı à¤ıà¤¸à¤Ĩà¤¯
Ġà¤ıà¤ķ à¤°à¤ļ
à¤¤à¤° à¤µà¤°
à¤¤à¤° à¤Ń
Ġà¤®à¤¹ à¤¦
Ġà¤ªà¤° à¤¸à¤¬
Ġà¤Ł à¤ķà¤°
Ġà¤Ł à¤ªà¤²
à¤°à¤£ à¤ķà¤°
à¤µà¤¸ à¤¨à¤®
à¤« à¤µà¤°
à¤« à¤¤à¤ļ
Ġà¤ħà¤¸à¤² à¤®
à¤°à¤µ à¤Ĺ
Ġà¤¸à¤® à¤µà¤¯à¤¸
à¤¤à¤² à¤¤
Ġà¤ħà¤¨ à¤«
à¤µà¤² à¤¯
à¤µà¤² à¤¨à¤¶
Ġà¤īà¤ª à¤ªà¤¦
à¤¯à¤® à¤Ĺà¤¤
à¤ľà¤¨ à¤°
à¤ľà¤¨ à¤¦
Ġà¤¨à¤µ à¤¨à¤Ĺà¤°
à¤¶à¤¨ à¤¬à¤¦
Ġà¤Ĩà¤ľ à¤¸
à¤°à¤ª à¤ļ
Ġà¤¸à¤¹ à¤Ĩà¤°
Ġà¤Ĩà¤¯ à¤ı
Ġà¤Ĩà¤¯ à¤Īà¤¡
Ġà¤®à¤¨ à¤ļ
Ġà¤®à¤¨ à¤¹
à¤µà¤¨ à¤ĸ
Ġà¤ĵ à¤¬à¤¡
in ated
an na
Ġà¤ħà¤ª à¤¶
à¤¨à¤² à¤¸
Ġà¤ħà¤¤ à¤ıà¤µ
Ġà¥¨à¥¦ à¥«à¥¦
er c
à¤¯à¤¨ à¤®
Ġà¤Ľ à¤³à¤²
à¤¹à¤¨ à¤®
à¤§à¤¨ à¤¶
ĠM r
Ġà¤ķà¤¸ à¤£
Ġà¤ķà¤¸ à¤¦
ĠS H
ĠS ens
ĠS olapur
ĠS ociety
à¤ļà¤² à¤®à¤§
Ġà¥ª à¥§à¥Ń
à¤ī à¤¸à¤ļ
à¤¡à¤ļ à¤¡
à¤¬à¤² à¤°
ĠP al
ĠP ande
ĠN ag
ĠN ord
ĠA le
ĠA lex
à¤Īà¤¨ à¤¦
à¤ıà¤¸ à¤ıà¤«à¤ļ
ĠT endulkar
à¤ķà¤¶ à¤ķ
ĠI V
Ġà¥§à¥¯ à¥§à¥«
à¤ķà¤Ł à¤®
Ġà¤Ī à¤²
Ġà¤Ī à¤¡à¤¬
ĠG ill
à¤¬à¤¸ à¤¡à¤ķ
om p
om et
Ġs ide
Ġs uper
ol y
Ġc ov
ĠB U
ĠB en
Ġà¤¬à¤ĺ à¤¤à¤ļ
à¤ľà¤¤ à¤®à¤§
ĠR R
ĠD O
ĠD i
ĠD ata
ĠD LSS
ĠD irector
ĠD isease
ra z
Ġ9 50
Ġà¤ħà¤Ĺ à¤®
à¤ľà¤Ĺ à¤¨
Ġo x
Ġb ill
Ġb reaking
Ġb jp
ro s
ro y
ro ach
Ġm us
Ġm aj
Ġm atch
Ġm iss
Ġà¤ıà¤¨ à¤Ĩà¤¯à¤¸
Ġa ush
à¤Łà¤¸ à¤ħà¤ª
Ġà¥©à¥¦ à¥®
Ġà¥¨à¥« à¥§
Ġà¥¨à¥« à¥¨
ĠF r
ĠF adanvis
20 11
Ġà¤ķà¤³ à¤®à¤ķà¤°
ut t
ut ed
Ġ12 6
à¤¦à¤£ à¤ķà¤°
Ġà¥§à¥Ń à¥¯
Ġà¤¬à¤² à¤¶
à¤¯à¤Ł à¤¯
à¥¨à¥¦ à¥¨à¥©
ĠJ ohn
Ġà¤Ĩà¤¦à¤° à¤ª
Ġ11 9
Ġà¥¨à¥ª à¥ª
Ġ30 2
ĠO x
à¤°à¤Ĺà¤¤ à¤¶
Ġà¤ħà¤« à¤¸à¤°
Ġà¤ħà¤« à¤Ŀ
Ġà¥¨à¥§ à¥¦à¥¦
ĠV ijay
Ġ13 3
up le
ab elled
Ġà¤į à¤¡à¤µ
Ġà¥¨à¥© à¥¯
Ġv ac
Ġà¤°à¤£ à¤Ń
à¤¯à¤°à¤¸ à¤²
Ġà¥¨à¥® à¥ª
Ġ17 3
Ġà¤¦à¤ĸà¤² à¤¹
Ġà¤īà¤ľ à¤³à¤¤
Ġe y
Ġà¤ķà¤³à¤¤ à¤ļ
à¤®à¤ľ à¤¬
Ġà¤ıà¤« à¤ıà¤®à¤¸
th ing
em on
em per
à¤°à¤¹à¤£ à¤ķ
ep t
à¤Ĥ? \
Ġà¤¸à¤¬ à¤ľ
à¥§à¥¦ à¥©
Ġà¤¸à¤°à¤³ à¤ªà¤£
Ġr est
Ġà¥©à¥¨ à¥ª
Ġà¥©à¥Ń à¥®
Ġà¥©à¥Ń à¥¬
Ġà¥©à¥ª à¥¦
Ġà¤ħà¤Ĺà¤° à¤¬à¤¤
Ġà¤¹à¤¸à¤¤ à¤ļ
Ġà¤¨à¤µà¤² à¤ķà¤°
ĠCh amp
à¤°à¤£à¤¤ à¤¯
Ġà¤¨à¤ĸ à¤¶
Ġex c
à¤Īà¤« à¤ļ
Ġà¤ªà¤ļà¤¨ à¤¶à¤ķ
Ġà¥§à¥¯à¥« à¥©
à¤ĩà¤« à¤ļ
à¤Łà¤ħà¤ª à¤®à¤§
Ġà¤ĺà¤¨ à¤ĺ
à¤¨à¤Ł à¤¸à¤®
ari us
In f
Ġare a
Ġà¤²à¤Łà¤ķ à¤¤
à¤µà¤¨à¤ļ à¤°
mer ic
mer ce
its a
Raj asthan
Ġà¤«à¤¡ à¤ķà¤²
Ġà¤«à¤¡ à¤¨à¤µ
Ġ195 5
Ġsc ient
vi ews
Ġà¥§à¥®à¥Ń à¥¨
Ġz ucchini
rop hy
ĠCred its
ĠAct ive
ĠAct ress
Ä± k
raj e
Ġrec ruitment
ĠShiv aji
ĠDesh pande
fl ation
nC efurica
Ġact ress
ĠHind i
nT ags
nI pratop
ĠCap s
ĠSec ond
ĠMed ic
Ġstud ent
requ ency
Ġ____ _
ĠNE ET
Ġ[â Ł¶
Amit abh
Ġapplic ations
Ġbel ow
ĠVik he
eak er
sy ch
dhan sah
ĠMuk her
ĠUnl abelled
ĠSem alt
ĠAw had
Ġà¤«à¤Łà¤« à¤Ł
nBl isulide
Ġtiv r
nIf en
Ġdecor ated
Ġker ak
nUp dated
ĠÕ ¥ÖĤ
Ġaush dhansah
0 40
A G
A f
A y
A ustralia
B o
C r
D om
H el
I t
J as
K KR
N IA
O ff
P at
V ijay
c are
c nicin
e i
g ing
h es
l adesh
m ailed
n ar
n à¤¨à¤Ĺà¤°
p i
p ay
p une
p oned
r ina
s he
s hiv
u a
u el
Û Į
Ġ id
Ġ und
Ġ enc
Ġ udd
Ġ Ä°
Ġà¤ Ĥ
à¥į "
à¤° à¤¢
à¤¤ à¤µà¤¡
à¤¯ à¤¡à¤²
à¤¯ à¤ķà¤°à¤£
à¤¨ à¤°à¤¤
à¤¨ à¤¸à¤¤
à¤¨ à¤µà¤¸à¤¨
à¤¨ à¤Ĭà¤ļ
à¤¨ à¤µà¤¸à¤®
à¤ķ Âºà¤¯
à¤ķ à¤¬à¤¡
à¤ķ à¤Ĩà¤ī
à¤µ à¤¹à¤¸
à¤¸ à¤¬à¤¸
à¤¹ à¤°à¤¶
à¤¹ à¤²à¤²
à¥ĭ ".
Ġà¤ķ à¤¸à¤¤
à¤® à¤°à¤²
Ġà¤¤ à¤¡à¤¤
à¤¦ à¤®à¤§à¤²
à¥Ĥ ),
à¥Ĥ ?"
Ġà¤µ à¤°à¤®
Ġà¤µ à¤¦à¤²
à¤ľ à¤²à¤¯
Ġà¤¯ à¤¨
à¤¬ à¤«
à¤¬ à¤¬à¤²
Ġà¤° à¤¡à¤Ĺ
Ġà¤° à¤¸à¤°à¤¶
Ġà¤¶ à¤®à¤¶
à¤ł à¤°à¤²
Ġà¤Ĺ à¤Ĺà¤°
Ġà¤² à¤µà¤ķ
à¤¥ à¤Ń
à¤¥ à¤¨à¤ļ
à¤Ń à¤°à¤µà¤¶
Ġà¤ļ à¤¹à¤°à¤¨
Ġà¤Ń à¤µà¤¸
Ġà¤Ń à¤ªà¤ķ
Ġà¤Ń à¤µà¤Ń
à¤Ī à¤ĸ
à¤Ī à¤ªà¤ļ
à¥ī à¤¼
Ġà¤®à¤¹ à¤µ
Ġà¤ĩ à¤°à¤¶
Ġà¤Ĩà¤ª à¤¦
Ġà¤Ĩà¤ª à¤Łà¤¤
Ġà¤ł à¤¸à¤ķ
à¤« à¤°à¤²
Ġà¤¡ à¤µà¤²
Ġà¤¡ à¤«à¤¡
à¤ªà¤° à¤¬
à¤¤à¤² à¤ļ
Ġà¤§ à¤¨à¤Ĺà¤°à¤µ
Ġà¤ħà¤¨ à¤¬
à¤¼ .
à¤¼ à¥Ģà¤Ĥ
à¤µà¤¤ à¤³
à¤¸à¤° à¤Ĺ
à¤µà¤£ à¤¹
à¤¯à¤® à¤¤
à¤ħ à¤¸à¤¨
à¤ħ à¤°à¤¦
à¤ı à¤Īà¤ļ
à¤ı à¤ıà¤ļ
à¤ĥ "
à¤Ĺà¤° à¤Ł
à¤Ĩ à¤¯à¤°
à¤Ĩ à¤ªà¤Ł
à¤Łà¤² à¤°à¤¨
à¤µà¤³ à¤¯
à¤Īà¤² à¤²
à¤¸à¤² à¤¨
à¤¹à¤° à¤Ĺà¤¡
à¤ķà¤² à¤µ
à¥§ à¥¦à¥¦à¥¦
Ġà¤¥ à¤¯à¤¥
Ġ" ,"
à¤µà¤¨ à¤¤
in ay
an o
Ġà¤ħà¤ª à¤¶à¤ķ
à¤¤à¤® à¤²
à¤Ľ à¤ķ
à¤¯à¤¨ à¤®à¤¸
Ġà¤Ľ à¤²
Ġ. ......
à¤²à¤¤ à¤¹
à¤§à¤¨ à¤ªà¤°
Ġà¤¬à¤° à¤Ĺ
Ġà¤¬à¤° à¤Ĺà¤¡
ĠM oh
à¤ķà¤¸ à¤¬
à¤£à¤¯ à¤ª
ĠS andeep
Ġà¥ª à¥§à¥¬
à¤ī à¤¦à¤¯
Ġt hous
ĠP erson
it amin
Ġà¤ħà¤² à¤®à¤Ł
à¤¾- "
Ġà¤īà¤® à¤ľà¤²
ĠN it
ĠN ex
ĠN ext
à¤Ĺà¤¡ à¤¹
à¤²à¤µ à¤ķà¤°
ĠA re
ĠA way
Ġà¤¯à¤¶ à¤ª
is is
à¤ıà¤¸ à¤Īà¤¨
ĠT P
ĠI F
à¤ľà¤² à¤ª
Ġà¤ĳà¤« à¤°à¤®à¤§
ed ic
ĠG T
ĠG reet
am ata
Ġà¤ıà¤¸ à¤ıà¤¸
Ġà¤ıà¤¸ à¤ĵà¤ª
Ġs it
Ġs um
Ġs now
Ġs ociety
ur i
ol id
Ġà¤ĩà¤¨ à¤¬
ĠB ec
ĠB uy
à¤ķà¤ļ à¤³à¤µà¤³
ĠR RR
ĠD as
ĠD im
ĠD ays
Ġà¤¸à¤¨ à¤®
Ġà¤µà¤¡ à¤ĸà¤³
à¤ıà¤® à¤ıà¤®
à¤°à¤¥à¤® à¤µà¤°
à¤Īà¤Ł à¤µ
Ġp ut
Ġp ublic
id el
id ence
Ġb u
à¤ķà¤µ à¤ļà¤¨
ĠE nd
ĠE lectron
Ġm unicipal
Ġà¤ľà¤¯ à¤¹
Ġd one
Ġd ifferent
à¤¦à¤¯ à¤ªà¤£
ak ed
Ġà¥©à¥¦ à¥ª
Ġl ik
ĠF arming
Ġà¤ķà¤³ à¤¸à¤ķà¤°
ut ers
ul ate
à¤¯à¤£ à¤ª
Ġto p
Ġà¤¤à¤³ à¤ªà¤¤
Ġà¤ħà¤µà¤ĺ à¤¡à¤ļ
ĠW edding
Ġ18 6
ĠV ar
ĠV ir
ĠV irat
Ġ14 2
Ġ13 1
Ġà¤¦à¤Ĺà¤¡ à¤ĸ
à¥§à¥¯ à¥¯à¥¯
à¥§à¥¯ à¥©à¥®
Ġh old
Ġ50 4
oc ument
à¤°à¤« à¤Ł
ab l
ab ol
Ġà¥¨à¥© à¥®
Ġà¥¨à¥© à¥¬
Ġà¤ļà¤¹ à¤²à¤ļ
Ġ17 2
Ġe k
Ġ22 3
ers hip
ov ies
em p
Ġà¥¨à¥¯ à¥ª
ĠSa f
Ġy e
Ġy oung
à¤Ļ à¤®à¤¯
à¤¬à¤ķ à¤³à¤¤
Ġre pl
à¤ªà¤®à¤§ à¤²
Ġr up
Ġr ate
Ġà¥©à¥¨ à¥®
Ġcon c
Ġà¤ħà¤µà¤ķ à¤³
ud s
ma harashtra
Ġj algaon
Ġà¤Ŀà¤Łà¤ķ à¤¤
ac es
ho use
Ġà¥ªà¥¬ à¥«
Ġà¤ªà¤µà¤¨ à¤ķ
Ġpro vid
Ġhe ar
ĠEx per
ush es
Ġso on
ĠAr my
à¤ľà¤³ à¤ªà¤£
ations hip
AN D
Ġà¥§à¥®à¥¯ à¥®
à¥¨à¥¦à¥¦ à¥«
Ġsh inde
Ġ195 9
Ġse en
Ġà¥§à¥®à¥® à¥®
ĠBl ack
ĠPar k
Ġà¥§à¥®à¥Ń à¥§
Ġà¤¹à¤°à¤Ń à¤ľà¤¨à¤¨
ĠRec ord
ĠCl ass
Ġ` `
ĠAss istant
rav in
Ġà¤ıà¤¨à¤ıà¤¸ à¤¡
ward s
ĠMe hta
à¤Ĩà¤¯à¤ıà¤® à¤¡
à¤¡à¤°à¤¸ à¤¨à¤¨
nN aprodom
ful ly
haw ale
riv ate
Ġreg ister
nR ancycline
eth ing
ĠChand rakant
ĠBan erjee
Ġdes ign
ĠMeet ing
Ġà¤īà¤²à¤Łà¤¤ à¤ª
Nit esh
Ġà¤Ĩà¤ĩ à¤¸à¤²
tr l
Ġstullar ni
Ne ha
ĠYezid is
rovers y
ĠThak ur
ĠMukher jee
A am
A adhaar
B eed
B lood
C he
F A
L IN
M ang
P re
P rakash
P riy
R em
S ur
S enior
U G
V i
V ar
V id
c ap
c ond
g i
h am
j oy
k as
l or
n à¤ľà¤®
n ov
n You
o oj
r k
s am
Ã ľ
â ĺħ
Ġ ir
à¤° à¤¨à¤ļ
à¤° à¤³à¤²
à¤° à¤łà¤²
à¤¤ à¤ĭà¤¤
à¤² à¤°à¤¹
à¤² à¤¦à¤°à¤®
à¤² à¤¡à¤ª
à¤ķ à¤¦à¤°
à¤ķ à¤®à¤°
à¤µ à¤Ľ
à¤µ à¤Ĺà¤£à¤¨
à¤¸ à¤°à¤ķà¤¡
à¤¹ à¤°à¤µ
à¤¹ à¤²à¤°
à¤£ à¤¹à¤¤
Ġà¤Ĩ à¤°à¤µ
à¥ģ ;
Ġà¤¸ à¤Ļ
Ġà¤® à¤¸à¤°
Ġà¤® à¤ľà¤°
à¤ª à¤¸à¤£
à¤¾à¤Ĥ ;
à¤¾à¤Ĥ ?
Ġà¤¤ à¤£à¤¨
à¤¦ à¤«
à¤¦ à¤µà¤ķ
à¤Ĺ à¤°à¤¸
à¤Ĺ à¤¸à¤¤
à¤Ĺ à¤®à¤µ
Ġà¤µ à¤¦à¤µ
à¤Ł à¤¤à¤ļ
à¤ľ à¤¸à¤¨
à¤ľ à¤ĺà¤Łà¤ķ
à¤¡ à¤ĩà¤¨
à¤¡ à¤¦à¤³
Ġà¤¹ à¤°à¤ľ
Ġà¤¯ à¤µ
à¤§ à¤ªà¤¤
à¤¶ à¤¯à¤ļ
à¤³ à¤¸à¤¦
à¤· à¤°à¤¹
à¤¬ à¤¸à¤¹
à¤¬ à¤°à¤µà¤£
Ġà¤ķà¤° à¤°
Ġà¤ķà¤° à¤²
Ġà¤ķà¤° à¤®à¤³
Ġà¤ķà¤° à¤Ĩà¤ķ
Ġà¤¶ à¤µà¤ª
à¤ł à¤²à¤µ
à¤¥ à¤ķà¤¤
Ġà¤ļ à¤ĺà¤³
Ġà¤Ń à¤°à¤Ńà¤ķ
Ġà¤ĺ à¤°à¤²
Ġà¤ı à¤°à¤°
Ġà¤Ŀ à¤²
Ġà¤Ŀ à¤µ
à¤°à¤ķ à¤ļà¤°
Ġà¤ķà¤°à¤£ à¤µ
Ġà¤Ĩà¤² à¤¯
Ġà¤Ł à¤¸
Ġà¤ĩ à¤®à¤²
à¤ĺ à¤°à¤µ
à¥Ģ, \
à¥Ģà¤Ĥ )
à¤°à¤µ à¤¡à¤µà¤²
Ġà¤ħà¤¶ à¤°à¤«
Ġà¥§ 00
à¤Ĺà¤² à¤°
à¤Ŀ à¤µà¤²
à¥Į à¥Ī
à¤ħ à¤µà¤ķ
à¤·à¤£ à¤¦
à¤Ĺà¤¤ à¤¸
à¤ı à¤£
à¤ı à¤¸à¤¦
Ġà¤¨à¤µ à¤¹
Ġà¤¨à¤µ à¤īà¤¦
à¤Ĩ à¤¡à¤µ
à¤ªà¤¨ à¤ļ
à¤µà¤³ à¤®à¤§
à¤°à¤¶ à¤ļ
à¤ªà¤£ à¤ļ
à¤¯à¤ļ à¤³
à¤Łà¤ķ à¤µ
Ġà¤ĳ à¤ĩà¤²à¤ļ
à¤®à¤¤ à¤ķà¤°
Ġ" '
à¤®à¤¨ à¤ķ
à¤®à¤¨ à¤®à¤§
à¤¨à¤ļ à¤ķ
Ġà¤ĵ à¤µà¤°
Ġà¤ªà¤¦ à¤°à¤®
à¤°à¤ľ à¤¬
Ġà¤®à¤¤ à¤®à¤¤
Ġ20 5
à¤®à¤ķ à¤ļ
Ġ. ........
à¤·à¤¯ à¤ªà¤¤
ĠM as
ĠM ass
ĠM ission
à¤ī à¤£
Ġà¤¬à¤¦à¤² à¤¹
Ġà¤µà¤¸ à¤µà¤²
à¤µà¤ķ Âºà¤¯
Ġt ill
Ġt aking
Ġt hackeray
ĠP O
ĠP ain
ĠP op
à¤³à¤µ à¤¦
Ġà¤Ĳ à¤¸à¤ª
ĠN ik
he k
Ġà¥Ń à¥¦à¥¦à¥¦
ĠI B
ĠI d
ĠI IT
ĠI dea
ĠC I
ĠC oll
ĠC LAT
Ġà¤īà¤² à¤Łà¤£
ad har
Ġà¤Ī à¤¯à¤°
ĠG ard
ĠG reen
am med
om ent
Ġs av
Ġs ingh
Ġc ovid
ĠB E
ĠB as
ĠB ad
ĠB ody
Ġà¤¨à¤Ĺà¤° à¤¨
ĠR est
ĠR aid
ĠR ashi
à¥Ģ) ;
Ġf oot
Ġf ull
ĠD ad
ĠD av
ĠD ue
Ġà¤Ĩà¤Ī à¤¸à¤¹
à¤¡à¤° à¤¬
ra ft
Ġà¥§à¥¨ à¥¦à¥¦à¥¦
ha ya
à¤¡à¤¸ à¤ĩ
Ġà¤ĵà¤³à¤ĸ à¤¹
Ġw ood
Ġw orks
har y
Ġà¤ļà¤µ à¤¹
Ġb ar
ro ps
Ġà¥§à¥® à¥¯à¥¯
Ġm o
Ġm ess
Ġm urder
Ġà¤ıà¤¨ à¤Ĩà¤°à¤Ĩà¤¯
à¤¾) -
Ġl ow
Ġl if
Ġl ives
Ġl aunch
Ġà¥¨à¥« à¥©
à¤¸à¤¬ à¤ķ
ĠF it
ĠF ed
ĠF armers
à¤¨à¤ª à¤¥à¤ķ
à¤°à¤¡ à¤¯
ĠK or
ĠK har
à¤¾! !
Ġto ur
à¤²à¤ķà¤° à¤²
ĠJ ade
Ġ11 00
à¤¨à¤¶ à¤¹
à¤¸à¤³ à¤ª
Ġ25 000
Ġ14 1
à¥§à¥¯ à¥¨à¥¦
ĠRe f
Ġh ospital
ig er
Ġ16 5
Ġ16 6
Ġà¤į à¤Ĺ
Ġà¤¹à¤¦ à¤Ĺ
Ġà¥¨à¥© à¥Ń
im um
à¤ĸà¤¡ à¤¯
Ġà¥¨à¥¬ à¥¨
Ġà¥¨à¥¬ à¥«
Ġà¥¨à¥¬ à¥¬
Ġ17 8
Ġà¥©à¥§ à¥©
Ġe at
Ġe lect
Ġe arth
Ġ22 4
Ġà¤¬à¤¡ à¤¦
ap il
Ġà¤ıà¤« à¤ª
og o
Ġk ind
ĠEn ergy
em or
Ġà¥¨à¥¯ à¥¯
all a
à¤Ĺà¤µà¤¤ à¤§à¤°
ip ur
à¥§à¥¦ à¥¨
Ġà¤ļà¤®à¤ķ à¤µà¤£
ac hi
Ġà¤ĸà¤¡à¤ķ à¤ª
à¤½ à¤¹
à¥§à¥§ à¥§
Ġà¥ªà¥® à¥«
Ġ45 00
Ġà¤¨à¤µà¤² à¤ļ
Ġcont rol
à¤°à¤ĺ à¤³à¤µ
ans k
ĠX UV
ens ive
99 0
Ġà¥«à¥¬ à¥«
li ament
Ġhe ad
à¤Ĥ' .
In come
!! \
Ġun ivers
à¤īà¤ª à¤²à¤¬
ĠAn sw
Ġ197 6
ðŁ Ĵ
à¤ıà¤¨à¤ı à¤²à¤¨
200 9
Ġde velopment
ft ware
ert il
nA cnicin
à¤īà¤Ŀ à¤°à¤®à¤§
Ġà¤Ĩà¤īà¤Ł à¤¡
Mar uti
Ġmin ced
ĠBo x
DR F
Ġtra vel
nM eb
De ath
Al ia
ĠKar elin
ĠHy derabad
Ġexam ination
Ġà¤ĩà¤ħà¤° à¤¬à¤¡
Ġstr ong
ĠMC LR
ĠNE WS
raw berries
Ġvar ious
add afi
Bl ack
ĠChe ck
Ass embly
Or ange
Nand urbar
Ġet c
Ġgrow s
ĠJay anti
Ġà¤Ĺà¤¡à¤¬ à¤¡à¤²
ĠSAR S
ĠZh uk
emper ature
Ġà¤¥à¤¯à¤¥ à¤¯
- "
3 50
: @
> #
> *
A mazon
B B
C lick
D istrict
D iwali
F in
G op
G ujarat
H P
J an
K ar
K YC
M Z
M or
P ush
P lease
R K
R CB
R ape
S A
S I
S m
S ri
S BT
] ,
a ug
c ode
e or
f ish
g har
j ud
n H
n à¤¸à¤¤
n ails
o fficial
p rab
u ctor
v es
v endra
w in
w ala
à¤¤ à¤ªà¤ķ
à¤¯ à¤°à¤ª
à¤¯ à¤ĵà¤µ
à¤² à¤°à¤®
à¤² à¤®à¤¸
à¤¨ à¤Ĺà¤µ
à¤¨ à¤ĸà¤°
à¤µ à¤¹à¤°
à¤µ à¤¯à¤²
à¤£ à¤¬à¤°
à¤® à¤¬à¤¦
Ġà¤Ĩ à¤³à¤µà¤£
Ġà¤¸ à¤ķà¤°
Ġà¤¸ à¤¶à¤¯
Ġà¤ª à¤ĩ
Ġà¤® à¤ľà¤ª
à¤ª à¤¬à¤¦
Ġà¤¤ à¤³à¤¤
Ġà¤¤ à¤®à¤ķ
à¤¦ à¤Ĺà¤¤
à¤¦ à¤ªà¤¦
Ġà¤ħ à¤°à¤¸
Ġà¤ħ à¤īà¤°
à¤Ĺ à¤¤à¤°
à¤Ĺ à¤®à¤¸
Ġà¤µ à¤łà¤µ
à¤ľ à¤°à¤µ
à¤ľ à¤µà¤¨
à¤ľ à¤¦à¤ļ
à¤¡ à¤°à¤®
Ġà¤¹ à¤Łà¤¤
Ġà¤¹ à¤¤à¤¨
à¤§ à¤°à¤ļ
Ġà¤¨ à¤Īà¤®
à¤³ à¤ĺà¤°
à¥ĩ. ]
à¤¬ à¤µà¤¡
à¤¬ à¤®à¤ļ
à¤¬ à¤®à¤®à¤§
Ġà¤° à¤¹à¤¤
Ġà¤¬ à¤ķà¤ļ
Ġà¤Ń à¤Ĺà¤°
Ġà¤ı à¤°à¤¸
Ġà¤ı à¤¥à¤²
à¤¾. .'
Ġà¤ıà¤ķ à¤²à¤ķ
à¤Ī à¤ľà¤ļ
Ġà¤« à¤¡à¤µà¤£
à¤¢ à¤ªà¤£
à¥ĩ, .
Ġà¤ĩ à¤¸à¤ķ
à¤°à¤® à¤Ĺ
à¥Ģà¤Ĥ ?
à¤Ĭ à¤¸à¤¹
à¤µà¤¸ à¤Ń
Ġà¤¸à¤° à¤§
Ġà¤¡ à¤¨à¤¹
Ġà¤ħà¤¨ à¤¤
Ġà¤ħà¤¨ à¤Ł
à¥ģà¤Ĥ .
à¥ģà¤Ĥ à¤Ĥ
Ġà¤īà¤ª à¤¬
Ġà¤īà¤ª à¤®à¤°
à¤Ĺà¤² à¤¦
à¤ħ à¤Łà¤ķ
à¤ħ à¤²à¤°
à¤·à¤£ à¤¤
à¤¬à¤° à¤°
à¤¬à¤° à¤ĸ
Ġà¤Ĩà¤° à¤Ń
à¤Ĩ à¤ªà¤¤
à¤ªà¤¨ à¤¹
à¤Łà¤² à¤ªà¤°
à¤µà¤³ à¤ķ
à¤Īà¤² à¤®
à¤ĩ à¤ľà¤°
à¤ĩ à¤ĵ
à¤ĩ à¤¡à¤¸
Ġà¤¸à¤¹ à¤®
Ġà¤¸à¤¹ à¤ļà¤°
à¤²à¤ķ à¤¨
à¤¦à¤² à¤ķà¤°
à¤¯à¤² à¤Łà¤²
à¤¯à¤² à¤Łà¤ļ
à¤®à¤¤ à¤ª
à¤®à¤¨ à¤¬
Ġà¤ĵ à¤ļ
Ġà¤ĵ à¤µà¤³
Ġà¤ĵ à¤ķà¤¤
at ory
à¤£à¤¤ à¤¯
à¤¯à¤¨ à¤ª
Ġ20 3
Ġ. à¥į
à¤ĵ à¤³
ĠM it
ĠM ant
ĠM NS
ĠM icro
Ġà¥« à¥¨à¥¦
ĠS en
ĠS qu
ĠS ambhaji
à¤°à¤¹ à¤µ
Ġà¥ª à¥¨à¥¨
al f
or ity
Ġ3 18
Ġt u
Ġà¤ªà¤µ à¤Īà¤¤
à¤§à¤¤ à¤¹
ĠP et
it ude
Ġà¤Ĳ à¤Łà¤¬
Ġà¤īà¤® à¤²à¤²
Ġà¤²à¤Ĺ à¤¡
à¤Ĺà¤¡ à¤®
ic i
Ġ5 12
Ġà¤Ĺà¤° à¤¡
Ġà¤ľà¤µà¤³ à¤Ĺ
à¤®à¤¸ à¤µ
is l
ĠT hat
Ġà¤Ĩà¤Ĺ à¤¬
and ay
Ġà¤Ī à¤ıà¤®
à¤µà¤°à¤£ à¤¨
à¤µà¤°à¤£ à¤¸
ĠG i
ĠG addafi
Ġà¤ıà¤¸ à¤Ĩà¤°à¤ı
à¤¬à¤³ à¤®
ol ence
ol ithic
Ġc ame
ĠB et
ĠB est
ĠR en
ĠD eb
Ġà¤Ĩà¤Ī à¤¬à¤°
à¤²à¤° à¤ªà¤°
Ġin sp
ĠL o
ĠL ove
à¤ıà¤® à¤Ĩà¤°à¤ļ
Ġà¤¸à¤ļ à¤¦
à¤Īà¤Ł à¤¹
us han
à¤Īà¤ķ à¤®à¤§
Ġà¤īà¤¡ à¤¦
il way
Ġà¤¹à¤° à¤¡
ĠE mail
Ġà¥§à¥® à¥®à¥¦
Ġà¥§à¥® à¥¬à¥Ń
Ġm other
à¤ıà¤² à¤ıà¤¸
à¤ıà¤² à¤Īà¤¡
Ġà¤¸à¤µ à¤¯à¤ļ
Ġa ut
Ġa ud
à¥Ĥ, "
Ġà¥©à¥¦ à¥§
ĠF ind
ĠF oot
à¤°à¤µà¤° à¤¹
el a
Ġ15 8
ch it
ut rit
ir ing
Ġà¤ĭ à¤ľ
à¤ıà¤¨ à¤Ĩà¤¯à¤µ
Ġà¤Ĩà¤¦à¤° à¤Ń
ĠW inter
ess or
Ġ18 2
à¤ıà¤« à¤¬
à¤ıà¤« à¤ıà¤ķ
ĠO TP
Ġà¤ıà¤² à¤ıà¤¸
Ġà¥¨à¥§ à¥«
ĠV o
od af
Ġ13 7
ĠRe view
ĠRe medies
à¤ıà¤ļ à¤ĵà¤¨
Ġà¤ªà¤³ à¤ª
Ġà¤ªà¤³ à¤¸à¤Ĺ
Ġg as
ab an
Ġv o
Ġv illage
à¤¸à¤± à¤¯
Ġà¥¨à¥® à¥¬
nà¤¸ à¤Ĺà¤³
ĠInd ies
Ġà¥¨à¥Ń à¥®
Ġà¥¨à¥Ń à¥¬
Ġà¥¨à¥Ń à¥¦à¥¦
Ġà¥©à¥§ à¥ª
hat ma
op es
à¤Īà¤¡ à¤ªà¤Ł
Ġà¤¬à¤¡ à¤¬à¤¡à¤¤
Ġ21 2
à¤¦à¤® à¤°à¤²
Ġà¤¥à¤ķ à¤µà¤£
end s
Ġà¤ıà¤ļ à¤Ł
Ġà¤ıà¤ļ à¤Ĩà¤°
Ġà¥¨à¥¯ à¥¬
iv a
ok e
Ġst ill
Ġr ad
à¤¹à¤ľ à¤¹
ath y
Ġj i
Ġj ob
are ena
à¤¹à¤ļ à¤µà¤¤
ast ic
ac he
ac ha
Ġà¥©à¥© à¥¬
à¤½ à¤§
à¤¾... !
à¥§à¥¬ à¥¦
bo ve
ash ant
ĠSh ri
ĠAl t
ĠCh rome
ach ers
Ġ32 3
ru ct
Ġà¥ªà¥¯ à¥®
Ġà¤Ĩà¤¸à¤¨ à¤ķ
ĠInter est
PS I
IN E
à¤īà¤ª à¤®à¤¹
Ch ennai
rit i
Ġà¥§à¥¯à¥¦ à¥ª
oll ar
Ġà¥¯à¥¯ à¥¦
Ġà¤ıà¤®à¤ıà¤¸ à¤ª
ĠMin i
ni que
Ġà¥§à¥®à¥¯ à¥¨
Raj ya
ie ce
SS C
Ġse qu
SC O
uld hana
Ġà¥§à¥Ńà¥« à¥ª
ĠEngl and
Ġà¥§à¥®à¥¦ à¥©
Ġpost s
He art
ĠUn ion
PC L
AC K
ĠÃ ľ
ĠWe ather
ĠShiv sena
Ġqu estion
à¤¡à¤°à¤¸ à¤¨à¤ļ
As hish
ots av
ĠShe lar
Ġvacc ination
Ram das
ĠMed ical
ĠDes ign
Ġiss ued
orr uption
Ġstud ents
uz vendra
Ġrem ain
ĠInc ome
nik ov
Ġins oles
olt age
For ce
iff ic
Ġà¤ħà¤«à¤ľà¤² à¤ĸ
Sat ara
Ġfriend s
ĠInvest ment
Ġvari ant
Ġà¤¬à¤¡à¤¬ à¤¡à¤Ĺ
ĠBhos ale
ĠInj ection
ĠLead er
ĠNester ov
ĠPUB G
ĠLond on
ĠPande y
ĠCaps ule
ĠJade ja
odaf one
' m
, )
. )\
; \
B est
B ang
G ov
M E
N et
N CB
O H
P e
R ed
R ep
V P
W E
b all
b jp
c r
d ul
f ield
h un
i ber
k er
k umar
l on
l ok
n u
n à¤ľà¤Ĺà¤Ńà¤°
o os
p aper
r ew
r ukh
s hir
v s
v v
w ide
} }
à¤° à¤°à¤¤
à¤° à¤°à¤¹
à¥ĩ à¥Ĵ
à¥Ģ +
à¤¯ à¤¯à¤ķ
à¤¯ à¤¸à¤²
à¤² à¤®à¤¹
à¤¨ à¤ķà¤£
à¤ķ à¤µà¤°à¤ļ
à¤ļ à¤«
à¤ļ à¤¤à¤¤
à¤¸ à¤¦à¤¨
à¤¸ à¤¡à¤ķ
à¤¸ à¤ĳà¤«
à¤¹ à¤ªà¤£
à¤¹ à¤°à¤¸à¤¹
à¤£ à¤ªà¤¨
à¤£ à¤²à¤¯
à¤£ à¤¸à¤¤
Ġà¤ķ à¤µà¤²
Ġà¤ķ à¤µà¤£
Ġà¤ķ à¤¸à¤ļ
à¤® à¤¢
à¤® à¤ĺà¤°
Ġà¤Ĩ à¤µà¤²
Ġà¤Ĩ à¤ı
Ġà¤Ĩ à¤ĩà¤¨
Ġà¤Ĩ à¤³à¤µà¤²
Ġà¤¸ à¤¹à¤°
Ġà¤¸ à¤¦à¤¤
Ġà¤¸ à¤²à¤µ
Ġà¤¸ à¤¬à¤µ
Ġà¤ª à¤®
Ġà¤ª à¤Ŀ
Ġà¤ª à¤¸à¤¤
Ġà¤ª à¤ļà¤µà¤¤
à¤ª à¤¸à¤¤
à¤¦ à¤µà¤¸
à¤¦ à¤ĸà¤²
à¤Ĺ à¤¡à¤£
Ġà¤µ à¤²à¤¨
Ġà¤µ à¤łà¤²
à¤¡ à¤¬à¤²
à¤¡ à¤ħà¤ª
à¤§ à¤°à¤µ
à¤§ à¤®à¤ķ
à¤³ à¤Ī
à¤· à¤°à¤ķ
à¤· à¤µà¤¤
à¤¬ à¤²à¤¨
Ġà¤° à¤¡à¤µ
Ġà¤¬ à¤¸à¤°
Ġà¤¬ à¤°à¤ķà¤¤
à¤ĸ à¤°à¤µ
à¤ĸ à¤°à¤ľ
à¤µà¤° à¤ķà¤¡
Ġà¤ļ à¤³
à¤¾. ....
Ġà¤Ŀ à¤Ĺà¤®
à¤°à¤ķ à¤Łà¤²
Ġà¤ĸ à¤µà¤³
à¤Ī à¤¦à¤²
à¤°à¤£ à¤¶
Ġà¤ĩ à¤Łà¤¨à¤ķà¤°
à¥Ģà¤Ĥ à¤ĥ
à¤« à¤ľ
Ġà¤¡ à¤¨
Ġà¤¡ à¤µ
Ġà¤¡ à¤ĸ
à¤ķà¤¡ à¤ķ
Ġà¤µà¤° à¤¹
à¤¼à¥į à¤¾
à¤°à¤¸ à¤®à¤§
à¤µà¤£ à¤Ĺ
à¤µà¤£ à¤¬
à¤Ŀ à¤²à¤µ
à¤°à¤ļ à¤°
à¤¦à¤° à¤Ĺ
à¤¦à¤° à¤«
à¤Ĺà¤¤ à¤µà¤°
à¤ľà¤¨ à¤¯
à¤ĥ à¤ĥ
à¤°à¤² à¤¯à¤ķ
à¤Ĭà¤¨ à¤ª
à¤Ĭà¤¨ à¤¦
à¤Ĭà¤¨ à¤¶
Ġ- (
à¤Īà¤² à¤¦
à¤¹à¤° à¤°
à¤ĩ à¤°à¤«
à¤ķà¤² à¤¬
à¥ĭà¤Ĥ '
Ġà¤¥ à¤®
à¤¯à¤² à¤Łà¤¨
Ġà¤ĺà¤° à¤Ńà¤°
à¤µà¤¨ à¤ªà¤°
à¤µà¤¨ à¤Ńà¤°
Ġà¤ĵ à¤ĸ
Ġà¤ĵ à¤¢à¤µà¤£
Ġà¤ªà¤¦ à¤¹
ar ly
an ush
à¤ŀ à¤®
à¤°à¤ľ à¤ª
à¤°à¤ľ à¤Ĺ
Ġà¤¦à¤° à¤Ń
à¤¦à¤¨ à¤¨
Ġà¤®à¤² à¤Īà¤ļ
à¤Ľ à¤ªà¤£
Ġà¤ķà¤² à¤°à¤®à¤§
à¤¾à¤ģ '
à¤ļà¤¨ à¤®
à¤¨à¤µ à¤Ń
ĠM ank
ĠM onsoon
à¤ķà¤°à¤£ à¤ª
à¤¨à¤¸ à¤µà¤°
à¤°à¤Ń à¤¨
ĠS it
Ġà¥ª à¥§à¥¦
à¤ī à¤¶
Ġ3 30
en in
Ġà¤Ĩà¤ł à¤²
Ġt um
Ġt urn
à¤ªà¤¦ à¤ª
ĠP impri
à¤¤à¤¨ à¤®à¤§
Ġà¤īà¤® à¤²
Ġà¤īà¤® à¤ª
ĠN ame
ĠN ifty
à¤¤à¤ª à¤¶
à¤¤à¤ª à¤¡à¤¤
ĠA BS
Ġà¤ħà¤µ à¤¤à¤°à¤¤
à¤Īà¤¨ à¤®
Ġ4 10
Ġ4 25
Ġà¥Ń à¥§à¥§
ĠT rap
ĠT ET
ĠC hak
à¤¿. )
ad es
à¥Ģ' \
Ġà¤īà¤ļ à¤Ĺ
om er
Ġs om
Ġs ens
à¤Ĩà¤¯ à¤¯
à¤Ĩà¤¯ à¤«
à¤Ĩà¤¯ à¤Ĩà¤¯à¤ļ
Ġc lean
ĠB ack
ĠB ridge
Ġf adnavis
Ġf ather
Ġf actor
Ġn uc
ĠD ar
ĠD on
ĠD et
ĠD ig
ĠD iet
à¤¨à¤¨ à¤¨
ĠL a
ĠL al
ĠL ava
ĠL ocation
ha u
Ġ8 000
à¤ľà¤Ĺ à¤ľ
à¤Īà¤ķ à¤¹
re es
à¤ĩà¤Ł à¤¦
Ġp h
Ġp rom
id ed
il esh
Ġb ed
Ġb enefits
ro t
Ġ19 29
Ġ19 45
ĠE ast
ĠE WS
Ġm al
Ġm odi
Ġà¤ıà¤¨ à¤Ĩà¤°
ay er
Ġa uthor
Ġa bove
Ġd ata
ak umar
Ġl and
Ġl ot
Ġl ockdown
ch er
ter n
à¤®à¤µà¤° à¤¹
Ġà¥«à¥¦ à¥«
ment ation
ri min
Ġto w
Ġto ok
... ?
os a
ĠJ aved
ĠW agh
ai gn
Ġà¥¨à¥ª à¥¬
ĠO s
ĠO micron
ĠV ol
Ġ14 3
à¥§à¥¯ à¥¯à¥§
Ġà¥¨à¥¨ à¥©
ĠIn g
Ġà¥ªà¥¦ à¥§
Ġg re
Ġg ot
Ġ16 3
Ġà¤ħà¤¹à¤® à¤¦à¤ª
av at
Ġà¥¨à¥® à¥¨
ĠSt ates
à¤³à¤¸ à¤ªà¤£
Ġ22 2
ya p
à¤ļà¤¸ à¤ĸà¤²
Ġ21 1
if er
Ġà¤ķà¤ļ à¤°à¤¤
Ġà¤ıà¤« à¤ıà¤®
Ġk id
Ġk ev
Ġk Wh
Ġ40 3
em ale
Ġis hl
Ġ23 4
Ġà¤īà¤§ à¤³à¤¤
à¤¬à¤Ł à¤ªà¤£
Ġre f
Ġà¥©à¥Ń à¥§
Ġcom m
Ġj oy
Ġà¥©à¥ª à¥©
Ġà¥©à¥ª à¥¬
ard s
à¤ıà¤¶à¤¨ à¤¤à¤°
à¤½ à¤°
Ġà¤¦à¤® à¤¡
Ġà¥ªà¥¬ à¥®
ram od
Ġha irst
à¥Ģ... '
ĠCh alleng
ach ine
ĠX NUMX
ĠAs ia
ru ck
Ġpro gram
Ġà¤Ĩà¤¸à¤¨ à¤µ
à¤¾.. !
anj i
ĠPro gram
Ġà¥«à¥¯ à¥¦
Ġà¥Ńà¥Ń à¥Ń
ctor s
ĠAn niversary
Ch inchwad
ĠAr ora
Ġ197 4
Ġal ert
Ġal leg
rib ution
à¤¾?" \
à¤µà¤¨à¤ļ à¤ķ
te g
Ġà¥§à¥®à¥¯ à¥¦
Ġà¥§à¥®à¥¯ à¥ª
amb e
à¥¨à¥¦à¥¦ à¥Ń
Ġà¤¤à¤Ĺ à¤®à¤Ĺ
An ti
gaon kar
Ġà¥¨0 à¥§à¥¬
à¤¯à¤ªà¤° à¤Ł
epend ence
ke y
IM S
à¤ķà¤ħ à¤ªà¤¸
sc ribe
ĠIN S
Ġà¤ħà¤Ŀ à¤¹à¤°
IP v
stit ution
Ġà¤Ĩà¤Ĭ à¤Łà¤¸
amp aign
Ġà¤ıà¤¨à¤ıà¤¸ à¤ľ
ĠThan e
put er
Ġunder stand
leg al
ĠAC T
vis ed
irc uit
Ġà¤¬à¤Łà¤² à¤°à¤ļ
Ġà¤²à¤ķà¤¡ à¤Ĺ
Ġà¤¬à¤°à¤¬ à¤Łà¤²
à¤®à¤¸à¤® à¤Ń
Ġsm all
ĠRana ut
Ġ< !
ĠMod ified
rown ed
Ġà¤ħà¤¡à¤ĸ à¤³à¤²
Ġstart ed
ĠGaut am
Ġà¤¢à¤³ à¤¢à¤³
ĠBang alore
Ġà¤¸à¤£à¤¸ à¤µ
ĠCC TV
Ġincre ase
hys ical
ĠShet ty
Med ical
ĠPremi er
Ġchat ting
ĠOlymp ics
ĠCapital s
âĨ Ĳ
Ġcook ies
Az ur
Ġntaw m
ĠAle ks
inay ak
ĠGreet ings
Priy anka
ĠZhuk ovsky
utrit ion
1 000
A j
A ryan
B O
B el
F O
F acebook
G u
G ST
J itendra
K aj
K arnataka
L PG
M ore
P anj
S hik
S ex
S mart
T DA
U PI
W hy
Y ogi
] ]
b ells
c ovid
d om
d ha
e ch
g m
h ash
i h
l an
l it
l ive
l ig
l ari
n K
n à¤°à¤¸
n à¤Ĺà¤£
n à¤¨à¤ķ
n à¤¦à¤ķ
n ot
n à¤ħà¤ĸ
n à¤Ĩà¤¯à¤ª
p orts
r s
r ill
t ap
u aw
y les
Ð ¸
â Ī
Ġ Î
à¤¤ à¤®à¤¨à¤Ĺà¤°
à¤² à¤¡à¤®à¤§
à¤² à¤Ĺà¤£à¤¨
à¤¿ \
à¤¿ à¥ĳ
à¤¨ à¤ķà¤²
à¤¨ à¤ľà¤µà¤³
à¤¨ à¤ħà¤ĸ
à¤ķ à¤¬à¤°
à¤ķ à¤²à¤¯
à¤µ à¤®à¤Ĺ
à¤ļ à¤ľ
à¤ļ à¤ľà¤¨
à¤ļ à¤¤à¤ļ
à¤¸ à¤¸à¤ļ
à¤¸ à¤µà¤ª
à¤£ à¤ĸà¤¨
à¥ĭ à¥ĳ
à¤® à¤°à¤¹
à¤® à¤²à¤Ĺ
à¤® à¤¸à¤¨à¤²
à¤® à¤¸à¤¨à¤ļ
à¥ģ \
à¥ģ à¥¥
Ġà¤¸ à¤Īà¤¬
Ġà¤ª à¤¬à¤®à¤§
Ġà¤® à¤¸à¤£
Ġà¤® à¤¸à¤°à¤¬
à¤ª à¤¸à¤ļ
Ġà¤¤ à¤¹à¤°
à¤¦ à¤Ł
à¤¦ à¤³à¤Ĺ
Ġà¤ħ à¤Ļ
à¤Ĺ à¤Ĺà¤¡
à¤Ĺ à¤ĩà¤¨
à¤Ĺ à¤®à¤¯
à¤Ĺ à¤Ŀà¤°
Ġà¤µ à¤ĺ
Ġà¤µ à¤¸à¤¨
à¤Ł à¤¦à¤°
à¤Ł à¤¸à¤®à¤§
Ġà¤¹ à¤®à¤²
Ġà¤¹ à¤¸à¤µ
Ġà¤¹ à¤¶à¤®
Ġà¤¯ à¤®à¤°
à¤§ à¤°à¤ķ
à¤§ à¤°à¤¤
à¤¶ à¤°à¤ļà¤¨
à¥ĩ. .'
à¤¬ à¤°à¤ķ
à¤¬ à¤°à¤ķà¤°
Ġà¤° à¤¤à¤²
Ġà¤¬ à¤ķà¤¨
Ġà¤ķà¤° à¤Ĺ
Ġà¤ķà¤° à¤µà¤£
Ġà¤ķà¤° à¤®à¤²
Ġà¤ħà¤¸ à¤Ĺà¤°
Ġà¤Ĺ à¤°à¤ķ
Ġà¤² à¤µà¤¤
à¤ĸ à¤¹à¤°
à¤ĸ à¤Ńà¤°
à¤ĸ à¤³à¤ķà¤°
Ġà¤ļ à¤°à¤ķ
Ġà¤ĺ à¤¨à¤°
Ġà¤ı à¤ıà¤¸
à¤¾. ."
à¤°à¤ķ à¤ķ
Ġà¤ĸ à¤¬
Ġà¤ĸ à¤ļà¤£
Ġà¤ĸ à¤ļà¤¤
Ġà¤ĸ Âºà¤¯
à¤Ī à¤ı
à¤Ī à¤®à¤¤
à¤Ī à¤¡à¤¨
Ġà¤« à¤¯
Ġà¤« à¤°à¤ªà¤Ł
Ġà¤« à¤¸à¤£
à¤¯à¤ķ à¤²à¤µ
Ġà¤¤à¤° à¤Ł
Ġà¤¤à¤° à¤¡à¤Ĺ
Ġà¤Ĩà¤ª à¤®
à¥Ģà¤Ĥ "
à¤Ĭ à¤¤à¤¨
à¤« à¤¹
Ġà¤¸à¤° à¤¸à¤°
Ġà¤¸à¤° à¤ªà¤£
Ġ( (
Ġà¤¡ à¤Ĺà¤³
à¤¤à¤² à¤ķ
à¤¼ à¥ĩà¤Ĥ
à¤°à¤¸ à¤¬
à¤Ĺà¤² à¤ķà¤¡
à¤¯à¤® à¤ķ
à¤¯à¤® à¤Ĺ
à¤ħ à¤Ĺà¤°
à¤ħ à¤°à¤¸à¤¹
à¤·à¤£ à¤Ĺ
à¤ı à¤Łà¤ļ
à¤ı à¤µà¤ľ
Ġà¤¨à¤µ à¤ª
à¤¶à¤¨ à¤²à¤ļ
à¤°à¤ª à¤µ
à¤Łà¤° à¤µà¤°à¤ļ
à¤Łà¤° à¤µà¤°à¤¹
à¤Ĺà¤£ à¤ļ
à¤ĩ à¤¦
à¤ĩ à¤µà¤°
à¥§ à¥§à¥¦
à¤ªà¤£ à¤¹
Ġà¤¥ à¤³
Ġà¤Ĩà¤¯ à¤Ĩà¤°à¤Ĩà¤°
à¥¨ 0
Ġà¤ĵ à¤¨à¤°
ar ant
ar aj
ar ge
à¤ŀ à¤¹
à¤²à¤¨ à¤µ
à¤²à¤¨ à¤ľ
Ġà¤¦à¤° à¤¡à¤Ĺ
à¤¤à¤® à¤¬
Ġà¤ľà¤¨ à¤¨à¤ª
Ġà¤ķà¤² à¤¤
Ġ20 4
Ġ20 9
à¤®à¤ķ à¤¥à¤¨
à¤²à¤¤ à¤Ń
à¤§à¤¨ à¤Ĺà¤°
à¤·à¤¯ à¤Ń
à¤¨à¤µ à¤®
ĠM A
ĠM ond
ĠM eg
Ġà¤°à¤¸ à¤Ńà¤°
à¤°à¤Ń à¤ļ
à¤°à¤Ń à¤¸
Ġà¥« à¥ªà¥¦
ĠS A
ĠS R
ĠS et
ĠS ud
ĠS ev
al ib
à¤ī à¤Łà¤°
à¤ī à¤¨à¤¨
à¤²à¤ļ à¤ķ
or al
or ed
à¤µà¤ķ à¤¨
Ġt x
Ġt ips
Ġà¤¬à¤¸ à¤ªà¤ļ
ĠP hil
ĠP unjab
à¤Ĺà¤µ à¤Ĺ
Ġà¤īà¤® à¤ľà¤¤
Ġà¤ľà¤Ĺ à¤µà¤²
ĠN I
ĠN T
ĠN orth
Ġà¤²à¤Ĺ à¤Ł
ĠA R
ĠA udi
hi st
00 1
as a
Ġ4 99
Ġà¥Ń 0
à¤¾? ?
à¤ıà¤¸ à¤¡à¤¬
à¤¤à¤³ à¤¯
ĠT it
ĠI TI
ĠI yer
ĠC B
ed ar
ĠG row
am al
à¤®à¤£ à¤¨
Ġs un
Ġs hiv
Ġs ession
Ġs ource
Ġs ugg
à¤¬à¤³ à¤ªà¤Ł
à¤Ĩà¤¯ à¤ķà¤°
à¤Ĩà¤¯ à¤ıà¤«
Ġc ur
Ġc uc
Ġc entral
Ġc rack
ĠB Y
ĠB er
ĠB ranch
à¤¹à¤ķ à¤¹
Ġf ar
Ġf ire
Ġf inal
Ġf iled
Ġn eg
ĠD el
ĠD og
ĠD igital
ĠD eputy
Ġ6 60
Ġà¤ıà¤® à¤Ĩà¤°à¤Ĩà¤¯
Ġà¤ħà¤Ĺ à¤¢
à¤ıà¤® à¤Ĩà¤°à¤¨
ĠMar t
à¤°à¤¥à¤® à¤¶
us se
re asing
Ġp ic
Ġp ul
Ġp ort
Ġp hone
Ġp oss
Ġp aper
Ġp ract
Ġo d
il ak
à¤¡à¤¨ à¤µà¤°
Ġb ra
Ġb il
ro ke
Ġà¥¨à¥¦à¥¨ à¥¬
ĠE N
ĠE arth
Ġà¥§à¥® à¥Ńà¥«
Ġm el
Ġà¤ıà¤¨ à¤ĵà¤¸
à¤ıà¤² à¤Ĩà¤¯à¤¸
Ġd i
Ġd igital
ak i
Ġà¥©à¥¦ à¥«
Ġl ink
Ġl ight
Ġà¥¨à¥« à¥®
ĠF OR
Ġ15 7
Ġof fer
à¤ĩà¤² à¤®
ul abrao
à¤¯à¤£ à¤ļ
Ġà¤¹à¤³ à¤¦à¤£à¤ķà¤°
Ġà¥§à¥Ń à¥¯à¥«
ĠH on
ĠK und
ĠK GF
ĠK arnataka
Ġà¤Ĩà¤ķà¤¡ à¤¯
à¥¨à¥¦ à¥§à¥©
os op
ĠJ ai
ĠW hy
à¤²à¤ª à¤Ĺ
ess ary
à¤ıà¤« à¤ıà¤¸à¤Ĩà¤¯
ĠO per
à¤¥à¤² à¤¹
ob e
Ġà¤ıà¤² à¤¡
Ġà¤ªà¤² à¤Łà¤²
od h
od s
à¥§à¥¯ à¥ªà¥¬
Ġà¤ĺà¤Ł à¤µà¤£
Ġh ot
Ġà¤¦à¤°à¤µ à¤³à¤¤
av es
our av
Ġà¥¨à¥¬ à¥Ń
Ġ17 9
à¤ļà¤µà¤¡ à¤Ĺ
Ġà¥©à¥§ à¥¨
Ġà¤¶à¤¤ à¤¶
Ġà¥©à¥« à¥¨
Ġ21 5
if t
og n
Ġk h
Ġk ahchu
ĠEn vironment
ov ed
Ġà¥¨à¥¯ à¥¨
Ġat rial
Ġy et
Ġà¥ªà¥« à¥¦à¥¦
ep s
Ġst ay
Ġst ems
ish ori
Ġà¤Ĺà¤² à¤Ĺà¤²
aw s
à¥§à¥¦ à¥«
à¥§à¥¦ à¥®
Ġà¤ħà¤µà¤ĺà¤¡ à¤ªà¤£
Ġà¥©à¥¨ à¥Ń
Ġcom mission
Ġà¤®à¤ķ à¤¬à¤°
Ġà¥©à¥ª à¥«
à¥§à¥Ń à¥¯à¥®
à¥§à¥¨ à¥«
Ġà¤ħà¤¡à¤ķ à¤µà¤¤
à¤¸à¤ķà¤¡ à¤µ
Ġà¥©à¥® à¥®
ĠApp lication
Ġ; -
à¤¸à¤ħ à¤ªà¤ļ
à¤¯à¤« à¤²à¤ļ
Ġà¥ªà¥Ń à¥¯
Ġà¥ªà¥Ń à¥®
ail ure
ear s
Ġ... ...
Ġi he
Ġi Pad
ru ise
com ing
Ġà¥«à¥® à¥¦
ĠÂ £
BI L
Ġ34 0
ous s
IC ATION
Ġus ing
ĠPro test
ĠRes ume
Ġà¤ķà¤°à¤® à¤³à¤ķà¤°
htt p
ale gaon
Ġsp ec
orp io
Ġà¤Ńà¤¡à¤ķ à¤µ
ss s
ĠTe j
Ġ196 3
Ġ196 5
red it
sk aya
oy al
ðŁ ĵ
Raj esh
200 3
200 8
ĠAd ani
ĠAd ityanath
Ġ195 1
Ġà¤²à¤ĸ à¤ªà¤¤
à¤ıà¤¸à¤ıà¤¸ à¤Ĩà¤°
act s
Ġpe ppers
mb ol
ĠBl og
ER T
Te j
Ġshar ma
ĠTh en
ĠTh orat
à¤¸à¤ħà¤ª à¤µà¤°
Ġà¤ķà¤°à¤¡ à¤Ī
Ġà¥§à¥®à¥Ń à¥¯
ĠMan agement
à¤½à¤½ à¤½
emb ers
Ġma ha
Ġrec ord
Ġwork ers
à¤ħà¤¡ à¤¥à¤³
ĠSu icide
ild life
ycl one
ix el
ĠRam abai
ĠAm ol
Ġact iv
à¤ıà¤¸à¤ı à¤²à¤µ
ĠFe es
ĠTrans port
Ġhar d
ras he
ĠNar zo
ĠRet urn
ĠBook s
Ġpat il
ĠPad alkar
ĠCr ash
ird za
Tra ffic
ĠEngineer ing
stru ction
à¤ķà¤ľà¤¨ à¤¶à¤ķ
Qu ery
Ġdisc uss
ĠKer ching
mploy ment
ĠGang uly
Engl and
Dhan anjay
Bi har
ĠVis it
Rel iance
Ker ala
nO ct
Ġtak en
ĠFound ation
ĠAssoci ation
indh ud
Ġincl ud
Ġà¤ĵà¤¬à¤¡ à¤§
Ġthous and
LIN K
iffic ult
Ġà¤Ŀà¤Ĺà¤® à¤Ĺà¤¤
uaw ei
7 37
A aditya
C E
C are
D ilip
D iabetes
G L
G irish
I PS
I dea
K al
K angana
K olkata
M us
M obile
N a
P an
P res
P ankaja
S hi
S um
S ant
T ML
U day
V ig
W ork
b ig
b ollywood
c er
c ial
f all
f ect
f armers
h it
i ment
j e
m o
m ak
n à¤¦à¤°
n à¤¹à¤°
n à¤®à¤¸
n à¤ĩà¤¸
n à¤ĩà¤¤à¤ķ
n The
r ing
t ron
u et
u ct
v in
y d
z i
Ù Ĭ
Ġ à²
à¤° à¤ħà¤²
à¥ĩ ]
à¤¤ à¤§à¤¨
à¤¯ à¤ħà¤§
à¤² à¤µà¤¶
à¤¨ à¤°à¤¶
à¤Ĥ à¥Ĥ
à¤ķ à¤ĸ
à¤ķ à¤Ŀ
à¤ķ à¤¶à¤¨
à¤ķ à¤¨à¤²
à¤ķ à¤°à¤ķà¤¡
à¤ļ à¤§
à¤¸ à¤¡à¤²
à¤¸ à¤µà¤²à¤¤
à¤¸ à¤ĵà¤µ
à¤£ à¤ªà¤¦
à¤£ à¤ķà¤¨
à¥ĭ à¥ĭ
Ġà¤ķ à¤Łà¤²à¤°
à¤® à¤¡à¤³
à¤® à¤¯à¤¸
Ġà¤Ĩ à¤Ĺà¤¡
Ġà¤Ĩ à¤¡à¤ķà¤°
Ġà¤ª à¤¤à¤ķ
à¤ª à¤«
à¤ª à¤Łà¤¤
à¤Ĺ à¤¸à¤°
à¤Ĺ à¤¡à¤²
à¤Ĺ à¤¨à¤²
Ġà¤µ à¤²à¤Ĺ
Ġà¤µ à¤łà¤µà¤²
à¤ľ à¤¤à¤°
Ġà¤¹ à¤£
à¤§ à¤¸à¤¤
Ġà¤¨ à¤¤à¤°
Ġà¤¨ à¤ľà¤®
à¤¶ à¤¸à¤ļ
à¤¶ à¤µà¤¨à¤Ĺà¤°
Ġà¤¦ à¤§
Ġà¤ľ à¤Ŀ
Ġà¤ľ à¤¦à¤¯
Ġà¤ľ à¤ĸà¤¡
Ġà¤¬ à¤¸à¤®
Ġà¤ķà¤° à¤°à¤ļà¤¨
à¤ł à¤§
à¤¥ à¤°à¤µà¤Ł
à¤ĸ à¤µà¤°
à¤ĸ à¤¨à¤¸
à¤ĸ à¤¨à¤¹
à¤Ń à¤Łà¤ķ
Ġà¤ļ à¤ķà¤²
Ġà¤ĺ à¤°à¤£
Ġà¤ı à¤Ĩà¤¯à¤¸
à¥ĩà¤Ĥ à¤Ĥ
Ġà¤ĸ à¤¦à¤ĸ
Ġà¤ıà¤ķ à¤ıà¤ķ
à¤Ī à¤¨à¤°
à¤¢ à¤Ĺ
à¤ķà¤° à¤¸à¤¹
à¥ĥ à¥į
Ġà¤ĩ à¤Łà¤ķà¤°
à¤ĺ à¤ľ
à¤Ĭ à¤¸à¤²
à¤Ĭ à¤²à¤µ
à¤Ĭ à¤ļà¤°
à¤« à¤®
à¤ķà¤¡ à¤¨
à¤°à¤µ à¤ķà¤°
Ġà¤¸à¤® à¤¯à¤¸
Ġà¤ħà¤¨ à¤µà¤§
à¤¾, \
à¤µà¤² à¤¦
Ġà¤īà¤ª à¤®à¤§
à¤µà¤¤ à¤ª
à¤µà¤¤ à¤ķà¤°
à¤Ŀ à¤¨à¤¸
à¤¯à¤® à¤µ
à¤ħ à¤¨à¤¸
à¤·à¤£ à¤¨
à¤Ĺà¤¤ à¤µ
à¤ľà¤¨ à¤ķà¤°
à¤ı à¤ļà¤ķ
à¤¯à¤¤ à¤µ
à¤¡à¤² à¤µ
à¤Ĩ à¤Īà¤¨
à¤Ĩ à¤łà¤µ
à¤ĩ à¤²à¤¦
à¤ķà¤² à¤ķà¤¤
Ġà¤¸à¤¹ à¤ķà¤°
Ġà¤Ĩà¤® à¤ĸ
à¥§ à¥©à¥¦
à¤¤à¤ķ à¤¤
à¤ªà¤£ à¤ķ
à¤²à¤ķ à¤µà¤°
Ġà¤¥ à¤ª
Ġ" ...
à¥¨ à¥§à¥¦
à¤®à¤¨ à¤¤
Ġà¤ĵ à¤ķà¤£
Ġà¤ĵ à¤·à¤§
à¤¬à¤Ī à¤ªà¤°
in stagram
at an
à¤¸à¤¹ à¤²
on line
Ġà¤®à¤¤ à¤ķà¤°
à¤Ľ à¤°à¤¦
à¤ľà¤ķ à¤®à¤²
à¤¹à¤¨ à¤ľ
à¤ľà¤¯ à¤¹
à¤¨à¤µ à¤ļ
à¥© à¥«à¥¦
à¤ķà¤¤ à¤¹
ĠM c
ĠM ultibagger
à¤ķà¤°à¤£ à¤¶
à¤¨à¤¸ à¤ª
ĠS ad
ĠS ri
ĠS AT
ĠS ize
Ġà¤ľà¤® à¤µà¤¤
en ko
Ġà¤Ĩà¤ł à¤ª
à¤¬à¤² à¤µ
Ġ! -
ew ers
Ġà¤¸à¤®à¤ľ à¤µà¤£
Ġà¤Ķ à¤°à¤¸
ĠN umber
ĠA st
hi a
à¤¡à¤µ à¤ķà¤°
Ġ4 40
à¤®à¤¸ à¤¦à¤¨
à¤ıà¤¸ à¤¯
à¤ıà¤¸ à¤ıà¤¨à¤ıà¤²à¤¨
ĠT R
ĠT ana
ĠT ope
ĠT CD
ĠC am
ĠC rop
Ġà¤īà¤² à¤Ŀ
Ġà¥® à¥¦à¥¦à¥¦
à¤ķà¤Ł à¤£
à¤¿. ,
Ġà¤ķà¤ª à¤¸
Ġà¤Ńà¤° à¤Ĺ
ad hi
Ġà¤ĳà¤« à¤®à¤§
Ġà¤Ĺà¤Ł à¤¹
ĠG W
am ed
Ġs ent
Ġs mart
Ġà¥¯ à¥¬à¥¦
ur ope
à¤Ĩà¤¯ à¤µà¤°
Ġc ross
Ġc orrect
ĠB u
ĠB MC
ĠB MW
ĠR SP
Ġf ac
Ġf ruit
Ġn ation
Ġn orm
Ġn ta
à¤°à¤¯ à¤¶à¤ķ
Ġà¤¨à¤° à¤Ĺ
à¤®à¤¹ à¤µà¤¨
Ġ9 22
à¤Ĺà¤¸ à¤ªà¤£
Ġin st
Ġin fl
ent y
Ġà¤®à¤ľ à¤¸
Ġà¤®à¤ľ à¤ľà¤µà¤³
ĠL ord
ĠL ax
un i
us ion
Ġw oman
re g
Ġp le
Ġp red
Ġp cs
à¤Łà¤ª à¤¹
id y
har th
il s
Ġà¤¹à¤° à¤Ĺ
Ġb ur
Ġb ased
Ġ19 3
à¤¡à¤ķà¤° à¤¨à¤Ĺà¤°
Ġà¥§à¥® à¥ªà¥«
Ġà¥§à¥® à¥Ńà¥¦
Ġm er
Ġm ot
Ġm ana
Ġm ight
Ġà¤ıà¤¨ à¤ıà¤¸à¤Ī
à¤ıà¤² à¤ľ
à¤Ĺà¤¨ à¤Ĩà¤°
Ġà¤ķà¤ł à¤ª
à¤¸à¤Ĺ à¤Ł
à¤Łà¤« à¤³
Ġd am
Ġd umb
ak ya
Ġà¥©à¥¦ à¥¬
Ġl ess
Ġl iving
ĠF an
ĠF ather
Ġà¤ķà¤³ à¤¶
Ġ15 9
Ġà¤«à¤³ à¤§
à¤°à¤¡ à¤®
Ġà¥§à¥Ń à¥¬à¥¦
ĠH z
ĠH all
ĠH appy
Ġà¤¬à¤² à¤®
à¤²à¤® à¤®à¤§
Ġto x
à¥¨à¥¦ à¥§
Ġà¤¤à¤³ à¤ªà¤¦
ĠJ i
ĠJ ava
ĠW as
ĠW rit
ĠO R
à¤®à¤¶ à¤¹à¤°
Ġà¤ħà¤« à¤ľ
ĠV en
à¤¯à¤¬ à¤²à¤ļ
Ġ14 7
od ies
od hya
à¥§à¥¯ à¥ªà¥®
à¥§à¥¯ à¥«à¥¬
Ġh u
à¤ıà¤ļ à¤ıà¤¸
ig ious
ig ible
ik h
Ġg ain
oc aine
à¥Ģ! '
Ġà¤°à¤£ à¤°à¤£à¤¤
Ġ24 3
Ġ24 4
Ġà¥¨à¥¬ à¥©
ĠInd ex
Ġà¥¨à¥Ń à¥©
Ġe ach
Ġe lectric
Ġà¥©à¥« à¥¬
à¤µà¤¹ à¤¨à¤ļ
à¤²à¤µà¤£ à¤ļ
Ġk al
Ġà¥¨à¥¯ à¥©
Ġre le
Ġà¤¸à¤« à¤²à¤¤
ure au
lo alk
ip le
à¤¯à¤¬à¤° à¤¯
à¥§à¥¦ à¥§
ĠY e
ĠY atra
à¥§à¥® à¥¦
Ġcon duct
uc ational
Ġà¤ľà¤¨à¤°à¤² à¤ļ
Ġà¥©à¥ª à¥¨
Ġà¥©à¥ª à¥¯
ast ing
ast ra
30 2020
ard ha
à¤½ à¤¤
à¤¾... ?
ne ction
Ġà¥©à¥® à¥ª
Ġà¤ıà¤ķà¤µ à¤Łà¤¤
Ġ> >>
Ġà¤®à¤³ à¤Ń
Ġà¥©à¥¯ à¥§
à¤°à¤ĺ à¤¡
Ġnot hing
Ġ198 1
hik esh
Ġà¥«à¥¬ à¥¦
li ed
Ġà¥ªà¥¯ à¥¦
BI TDA
anc ing
anc ies
hot ography
Ġle g
ĠCom ment
Ġad min
Ġà¤ĵà¤ĺ à¤³
Ġà¤ĵà¤ĺ à¤µà¤¤
Ġà¤ķà¤°à¤® à¤°à¤ķà¤°
Ġà¥§à¥¯à¥¦ à¥©
hy l
Ġà¤²à¤¯ à¤¬à¤¦
26 2
Ġà¤īà¤°à¤£ à¤ļ
red ients
Ġà¤īà¤®à¤Ł à¤µà¤¤
Ġ46 8
Ġres ervation
Ġà¥§à¥®à¥¯ à¥§
à¥¨à¥¦à¥¦ à¥¯
Ġsh all
de ep
Ġ195 3
Ġme ans
Ġà¥§à¥®à¥® à¥Ń
à¤ıà¤®à¤Ĩà¤¯ à¤ıà¤®à¤ļ
ER S
Ġà¥§à¥Ńà¥« à¥®
ĠTh ese
Ġcr isis
ny e
à¤ļà¤ĸ à¤³à¤Ĺ
Ġà¤īà¤ķà¤² à¤£
à¤°à¤ł à¤®à¤§
rav id
ĠCont ent
Com ment
nF eb
ĠPand it
Ġsub ject
Ġà¤«à¤£ à¤«
ĠNot hing
ĠFil es
Ġfl at
As ia
Ġà¤¸à¤³ à¤Ī
à¤Łà¤ħ à¤ªà¤²
Ad v
ĠCol lection
aun ched
ĠSec urity
ĠPay tm
ĠRet irement
ĠTechn ologies
Ġenter ed
andid ate
Ġprot est
ett ings
Ġpati ent
Ġstullar ini
anp ati
Ġannoun ce
ĠAward s
rut a
Ġfollow ing
Ġhapp y
Ġà¤«à¤¡à¤« à¤¡
ilit ary
irm ala
Sal man
quir y
Ġqil ish
Ġprov ide
Form er
Ġà¤ķà¤± à¤£
ĠKol he
âĶ Ģ
ĠFactor y
mob iles
ĠSank ranti
Ġinj ured
Ġanalog ues
ĠChamp ions
Jas prit
ĠNex on
Ġconc ern
anush kas
Ġhairst yles
ĠChalleng ers
Vig ant
ĠTCD D
Ġdumb bells
) "
. ),
2 20
> ...
A me
A merica
A kshay
B jp
C ov
C ons
C rop
E V
G A
L ine
L ove
M al
M ot
M ost
N m
O V
P D
P h
P ra
P rime
R ail
R eal
R aigad
S kin
U T
V ed
W heat
X i
Y ash
d r
e k
e ign
f it
f il
f ace
h n
h s
h or
i el
m esh
n g
n à¤µà¤¯
n à¤ķà¤¨
n à¤ħà¤ª
n à¤Ĩà¤Ī
n à¤īà¤ļ
n à¤Ĩà¤£à¤ĸ
o very
p ter
t ag
u ce
w ater
y og
Ç Ĳ
Ġ ast
Ġ à°
à¤¾ à¥Īà¤Ĥ
à¤¤ à¤¦à¤¨
à¤¤ à¤Ĺà¤Ł
à¤¯ à¤ªà¤ķ
à¤¯ à¤°à¤ķà¤¡
à¤² à¤µà¤°à¤ļ
à¤¿ à¤¿
à¤¨ à¤¯à¤ķ
à¤¨ à¤°à¤¹
à¤¨ à¤®à¤²
à¤¨ à¤Īà¤¸
à¤Ĥ /
à¤ķ à¤®à¤¨
à¤µ à¤«à¤³
à¤¸ à¤Ńà¤ķ
à¤¹ à¤°à¤¤
à¤¹ à¤µà¤£
à¤£ à¤Ŀ
à¤£ à¤¶à¤ķ
Ġà¤ķ à¤Ī
Ġà¤ķ à¤£à¤µ
à¤® à¤¤à¤°
à¤® à¤ľà¤¯
Ġà¤Ĩ à¤°à¤£
Ġà¤Ĩ à¤¯à¤®
Ġà¤Ĩ à¤Łà¤µ
à¤ª à¤ľà¤µà¤³
à¤Ĺ à¤¸à¤²
à¤Ĺ à¤ĵà¤µ
Ġà¤µ à¤¦à¤¤
Ġà¤µ Âºà¤¹
à¤Ł à¤Ľ
à¤ľ à¤°à¤¤
à¤ľ à¤°à¤¸à¤¹
à¤¡ à¤¬à¤¦
à¤¡ à¤Īà¤®à¤§
Ġà¤¯ à¤®à¤§à¤°
à¤¶ à¤°à¤¥
Ġà¤ľ à¤¯à¤®
Ġà¤° à¤£à¤¤
Ġà¤° à¤¨à¤µà¤°
Ġà¤¬ à¤Ń
Ġà¤¬ à¤°à¤ķ
Ġà¤¶ à¤ķà¤°
à¤ł à¤µà¤¡
Ġà¤Ĺ à¤ı
Ġà¤Ĺ à¤²à¤¤
Ġà¤Ĺ à¤¤à¤ª
Ġà¤² à¤ļ
Ġà¤² à¤£
Ġà¤² à¤²à¤ķ
Ġà¤² à¤¯à¤²
Ġà¤² à¤²à¤¨
à¤¥ à¤ĸ
à¤ĸ à¤ªà¤Ł
Ġà¥ ¶
Ġà¤ĺ à¤¬
Ġà¤ĺ à¤¤à¤²
Ġà¤ı à¤²à¤®
Ġà¤ı à¤ıà¤«à¤ª
à¥Ģ. ."
à¥Ģ. )\
Ġà¤ĸ à¤£à¤²
Ġà¤ıà¤ķ à¤®à¤§
à¤Ī à¤®à¤ļ
à¤Ī à¤¬à¤¦
à¤Ī à¤ıà¤ļ
à¤Ī à¤ªà¤®à¤§
à¤°à¤¤ à¤¡
à¤¹à¤£ à¤µà¤²
Ġà¤ªà¤° à¤ļà¤ķ
Ġà¤Ł à¤µà¤ķ
à¤°à¤£ à¤²
à¤¯à¤ķ à¤ķ
à¤¯à¤ķ à¤¹
Ġà¤¤à¤° à¤³à¤²
à¤Ĭ à¤Ŀà¤°
Ġà¤¡ à¤Ŀ
Ġà¤¡ à¤®à¤°
Ġà¤¡ à¤¬à¤¡
à¤¤à¤² à¤¯
Ġà¤µà¤° à¤¸à¤Ĺ
à¤¼ à¥ī
à¤µà¤¤ à¤¹
à¤Ŀ à¤°à¤¤
à¤¯à¤® à¤¸à¤¨à¤¨
à¤ħ à¤«
à¤ħ à¤ªà¤¨
à¤ħ à¤ķà¤²
à¤ħ à¤ļà¤²
à¤ħ à¤¥à¤°
à¤ľà¤¨ à¤Ĺà¤¡
à¤ı à¤¥
à¤ı à¤ķà¤°
à¤ı à¤°à¤²
à¤ı à¤Īà¤¤
à¤ı à¤Ĩà¤¯à¤¨
à¤ĥ )
Ġà¤Ĩà¤° à¤Ĺà¤¡
à¤Ĩ à¤Ł
à¤Ĩ à¤ľà¤°
à¤ªà¤¨ à¤ķ
Ġà¤Ĩà¤ľ à¤¦
à¤Łà¤¨ à¤°à¤¸
à¤ĩ à¤¸à¤¸
à¤ķà¤² à¤£
Ġà¤¸à¤¹ à¤ªà¤°
Ġà¤Ĩà¤® à¤°à¤¸
Ġà¤ħà¤° à¤Ĺà¤¡
Ġà¤Ĩà¤¯ à¤Ĩà¤°
Ġà¤Ĩà¤¯ à¤ıà¤®à¤ıà¤ļ
Ġà¤ĵ à¤ķà¤°
Ġà¤ĵ à¤Ĺà¤²
Ġà¤ĵ à¤Ĩà¤°à¤ıà¤«
ar ies
in ity
at rina
Ġà¤¹à¤ľ à¤°à¤ľà¤¬
à¤¦à¤¨ à¤ĸ
à¤·à¤ķ à¤¤
Ġà¤²à¤ķ à¤µ
Ġà¥© à¥§à¥¯
Ġà¤ķà¤² à¤°à¤«
es k
es ha
es us
à¤°à¤¨ à¤µà¤°
ĠM el
ĠM ill
Ġà¥« 00
Ġà¤ķà¤¸ à¤ªà¤Ł
ĠS us
ĠS ir
ĠS ong
ĠS ilver
à¤¡à¤ķ à¤Ł
Ġà¥ª à¥§à¥ª
al y
à¤ī à¤¬à¤°
or row
en ge
en ovo
Ġt hird
Ġt otal
Ġà¤¦à¤°à¤® à¤ľà¤²
ĠP en
ĠP TI
à¤¤à¤¨ à¤¤
à¤¤à¤¨ à¤¯
à¤§à¤ķ à¤¥
Ġà¤¸à¤¦ à¤¸à¤¦
Ġà¤¸à¤®à¤ľ à¤¦
Ġà¤Ĳ à¤¦
ĠN C
ĠN D
ĠN H
ĠN ana
ic ation
ĠA F
Ġ5 40
Ġà¤ħà¤µ à¤¤à¤°
Ġà¤ħà¤µ à¤ĸà¤³
à¤¯à¤¸ à¤¸
Ġà¥¬ à¥§à¥¦
as ure
he el
he alth
à¤ıà¤¸ à¤ıà¤®
ĠT CS
ĠT api
ĠI de
Ġà¤Ĩà¤Ĺ à¤µà¤£
ĠC R
ĠC V
ĠC eleb
ad et
ĠG hat
Ġà¤ħà¤¦ à¤Ń
à¤®à¤² à¤®
Ġà¤ıà¤¸ à¤Ĩà¤¯
Ġs end
Ġs ix
ol ester
à¤®à¤¦ à¤¯
ĠB hagat
ĠR id
ĠR ural
à¤ĩà¤¨ à¤¬
Ġf amil
Ġn et
ĠD a
ĠD y
à¤ķà¤³ à¤ķà¤°
à¤ıà¤® à¤ıà¤²à¤ļ
un al
un ch
ha kar
Ġà¥¥ "
ĠMar atha
Ġw a
à¤ĩà¤Ł à¤¹
Ġp ain
Ġp op
Ġ10 80
Ġb irth
ĠE BITDA
Ġm ad
Ġm ult
Ġm ountain
Ġm ovement
Ġà¤ıà¤¨ à¤Ĩà¤¯à¤Ł
Ġà¤ıà¤¨ à¤Ĩà¤¯à¤µ
à¤¹à¤°à¤£ à¤ļ
Ġd il
Ġd irector
Ġd isease
ak sh
Ġl l
Ġl es
Ġl ub
ĠF Y
ĠF in
ĠF raud
Ġà¤Ĳà¤ķ à¤µà¤£
Ġ15 6
ir man
à¤¤à¤°à¤£ à¤¤à¤°
ĠK wa
à¥Ģ? ,
à¤ıà¤¨ à¤ıà¤¨
Ġto o
ag ala
ĠJ ust
à¥Ĥ. '
Ġà¤Ĩà¤¦à¤° à¤¯
ĠW ay
ĠW ave
à¤¤à¤¡ à¤¯
ĠPol icy
Ġà¥¨à¥ª à¥®
Ġ18 7
Ġ30 6
à¤ıà¤« à¤ıà¤²
à¤ıà¤« à¤ĵà¤ļ
à¤¨à¤¯ à¤ľ
à¤²à¤Ń à¤ªà¤£
ĠO K
ĠO ver
ow ing
Ġà¤ħà¤« à¤Ŀà¤²
ĠV ari
à¤ĳ à¤¸à¤«
Ġà¤ľà¤µ à¤ĸ
à¥§à¥¯ à¥¯
à¥§à¥¯ à¥¯à¥¦
Ġà¥¨à¥¨ à¥¬
Ġh am
à¤ıà¤ļ à¤Ĩà¤°
ig ion
Ġà¤ªà¤³ à¤µà¤¤
ort ion
Ġà¥ªà¥¦ à¥«
Ġg hat
ĠU AE
ĠU kraine
ĠU IDAI
oc us
ric ultural
ab ric
Ġà¤°à¤£ à¤µà¤°
à¤¯à¤°à¤¸ à¤ª
Ġà¤¹à¤® à¤°à¤¸
Ġà¤ļà¤¹ à¤°à¤ļ
Ġà¥¨à¥¬ à¥®
à¤ļà¤µà¤¡ à¤²
Ġe S
Ġe arn
Ġe conom
Ġ22 00
op l
ap n
ap y
em ony
Ġà¤ĵà¤¢ à¤µà¤¤
Ġâ Ī
Ġy u
.... \
ou ch
Ġre ason
Ġst at
à¥§à¥¦ à¥Ń
ma h
Ġà¥©à¥¬ à¥©
ith vi
Ġà¤Ŀà¤Łà¤ķ à¤£
ast ri
Ġà¥©à¥© à¥§
ef ore
à¥ĭ? "
ne kar
ism s
ink les
ĠAg ar
Ġà¥ªà¥ª à¥Ń
erm ission
ĠSh ort
Ġà¤®à¤³ à¤ķà¤Ł
ank sha
Ġà¥ªà¥Ń à¥«
Ġth reat
à¥Ģ... !
Ġà¤ıà¤ķà¤¸ à¤·
Ġà¤¹à¤¸à¤¨ à¤¨
ĠEd ition
ĠHe art
Ġex pect
anc es
Ġas p
IC S
ari um
Ġor ig
à¤¸à¤Ł à¤¶
Ġsp eed
Ġsp irit
à¤ıà¤®à¤ıà¤¸ à¤ıà¤®à¤Ī
Ch hagan
Ġà¥§à¥¯à¥¦ à¥¯
à¤³à¤ķà¤¤ à¤§
ĠPr at
ani y
Ġà¤īà¤°à¤£ à¤®à¤§
ĠSc hed
te ch
Ġra ilway
Ġde ad
Ġde ep
Ġà¥§à¥®à¥® à¥¨
Go vernor
IS F
ĠMay or
ke ep
ĠRec ipe
ris hikesh
ĠUn ited
Ġcomp anies
Ġà¤Ĩà¤Ĭ à¤Łà¤ª
âĢ Ŀ
kin o
Ġà¤Ķà¤· à¤§à¤µ
Ġoff icial
,, ,,
Com mon
ĠPand emic
we alth
Ġà¤¶à¤¹à¤¨ à¤µ
ĠMe aning
Ġà¤¬à¤³à¤µ à¤¤à¤°
à¤Ĩà¤¯à¤ıà¤® à¤ı
ĠCon f
hil pa
ĠAb hi
à¤īà¤ªà¤¸ à¤Ń
Ġbl og
Ġsk ewers
ĠStock s
ĠTr ump
Am ol
ĠBal asaheb
ĠRT X
ĠDev gan
Chi ld
amm u
ĠTw o
kra ft
ĠMus ic
plain t
Ġupd ated
Sun il
ĠMang esh
Nand ed
ĠDz h
Ġlearn ing
Min ister
inf o
Ġà¤«à¤°à¤¸ à¤¬
Mad hya
Sang amner
ĠSL I
Ġà¤ıà¤¸à¤ıà¤® à¤ıà¤¸à¤ļ
Engl ish
clus ive
Ser ver
Sush ant
Ġwr ong
Ð¾ Ð
ĠPed nekar
Ġrequ est
Vacc ination
Ġtanl ash
040 8
Ġsnow mobiles
idel ines
ĠGi ants
ĠMank ind
anushkas en
Vigant ol
olester ol
. ).
A ut
B H
B L
B ig
B AI
B udget
B hagat
B haskar
C I
C har
C ricket
C lean
F L
F DA
H om
H appy
I IT
K now
M od
M unicipal
M ultibagger
O p
O pp
P and
R ash
S o
S and
S id
S hir
S ugar
S ambhaji
T re
T oo
U nder
V I
V eb
W eb
Z en
] .\
` `
b ur
b ps
d uc
i q
k en
l u
l ik
l ines
n à¤ķà¤®
n à¤¦à¤¹
n kraft
p hones
t ies
u ate
w ag
y v
z ak
Ã ³
Ê »
Ð µ
à «
â Ĺ
â ľ
ð Ŀ
Ġ er
Ġ ic
Ġ ang
Ġ anti
à¥ ł
Ġà¤ İ
à¥į à¥ī
à¥į à¥¤
à¤° à¤¶à¤¨
à¤° à¤Ľ
à¥ĩ [
à¤¤ à¤ľà¤£
à¤¯ à¤¤à¤²
à¤¯ à¤ªà¤¨
à¤¯ à¤Ĺà¤£
à¤¯ à¤ªà¤°à¤¸
à¤¨ à¤°à¤ķ
à¤¨ à¤°à¤µ
à¤¨ à¤®à¤¹
à¤ķ à¤Ĺà¤£
à¤ļ à¤°à¤µ
à¤ļ à¤®à¤ļ
à¤ļ à¤°à¤¸à¤¹
à¤¸ à¤ªà¤ļ
à¤¹ à¤¸à¤¨
à¤£ à¤¤à¤ķ
à¥ĭ à¤¿
à¥ĭ à¤¼
Ġà¤ķ à¤¨à¤µ
à¤® à¤¬à¤²
Ġà¤Ĩ à¤ļà¤²
Ġà¤¸ à¤ªà¤°
Ġà¤¸ à¤¤à¤²
Ġà¤¸ à¤¡à¤¤
à¤ª à¤ı
à¤ª à¤²à¤¤
à¤¦ à¤¶à¤ķ
à¤¦ à¤Īà¤ļ
Ġà¤ħ à¤µà¤¡
Ġà¤ħ à¤²à¤¬
à¤Ĺ à¤¸à¤¨
à¤Ĺ à¤¨à¤°
Ġà¤µ à¤¡à¤µ
à¤Ł à¤³
à¤Ł à¤¯à¤ª
à¤¡ à¤Ĺà¤³
à¤¡ à¤¨à¤¸
à¤¡ à¤°à¤¹
à¤¡ à¤ľà¤¸
à¤¡ à¤°à¤ķà¤¡
à¤¡ à¤°à¤¸à¤¹
Ġà¤¹ à¤¡à¤ªà¤£
Ġà¤¯ à¤®à¤¸à¤¦à¤¨
à¤§ à¤®à¤¨
Ġà¤¨ à¤¨à¤µà¤°
Ġà¤¦ à¤°à¤ķ
à¥ĩ. ,
Ġà¤ľ à¤¯à¤ķà¤°
à¤¬ à¤°à¤µà¤¤
Ġà¤° à¤¨à¤¨
Ġà¤° à¤Ĺà¤Ń
Ġà¤¬ à¤¡à¤ķ
Ġà¤¬ à¤ļà¤ķ
Ġà¤¶ à¤Ł
Ġà¤² à¤µà¤¡
à¤¥ à¤°à¤£
à¤¥ à¤ķà¤ļ
à¤¥ à¤Łà¤¬
à¤Ń à¤¡
à¤Ń à¤°à¤µ
Ġà¤Ń à¤°à¤®
Ġà¤Ń à¤Łà¤ļ
Ġà¤ĺ à¤Łà¤ª
Ġà¤ı à¤ı
Ġà¤ı à¤¸à¤ķ
Ġà¤ı à¤ħà¤°à¤ļ
à¤¾. ]
Ġà¤Ŀ à¤±
à¤°à¤ķ à¤¸à¤ªà¤£
Ġà¤ĸ à¤°à¤®
Ġà¤ıà¤ķ à¤Ľà¤¤
Ġà¤ıà¤ķ à¤¸à¤®à¤¯
à¤Ī à¤¬à¤°
à¤ķà¤° à¤Ĺ
à¤ķà¤° à¤Ń
Ġà¤ªà¤° à¤¸à¤°
Ġà¤Ł à¤«
à¤ĺ à¤°à¤ķ
à¤°à¤® à¤¬
à¥Ģà¤Ĥ ...
Ġà¤ł à¤¸à¤µ
à¤Ĭ à¤¦à¤¶
à¥ħ à¤¾.
à¤µà¤¸ à¤¨à¤ķ
à¤ªà¤° à¤¸à¤¹
Ġà¤§ à¤°à¤¸
Ġà¤ħà¤¨ à¤ªà¤Ł
Ġà¤µà¤° à¤¸
à¤¾, </
Ġà¤ħà¤¶ à¤¨
Ġà¤īà¤ª à¤µà¤°
à¤ħ à¤¤à¤°
à¤ħ à¤²à¤ļ
à¤ħ à¤ªà¤®
à¤µà¤¡ à¤¶
à¤ı à¤°à¤µ
à¤ı à¤Łà¤¸
à¤®à¤ļ à¤¨
Ġà¤Ĩà¤° à¤ıà¤¨à¤ı
à¤¡à¤² à¤ķà¤°
à¤¶à¤¨ à¤°à¤ļ
à¤¶à¤¨ à¤ħ
à¤¶à¤¨ à¤µà¤°à¤ļ
à¤Łà¤² à¤¦
à¤Ĺà¤£ à¤ķà¤°
à¤Łà¤¨ à¤Ĺà¤°
à¤¹à¤° à¤¨à¤°
à¤ĩ à¤Łà¤°
à¤ĩ à¤¸à¤²
à¤¸à¤¨ à¤¦à¤°à¤¬
à¤¤à¤ķ à¤¯
à¤¤à¤ķ à¤ª
Ġà¤Ĩà¤¯ à¤¨à¤¦
Ġà¤Ĩà¤¯ à¤ĵà¤¸
à¤Łà¤ķ à¤¹
Ġà¤ĳ à¤ķà¤²
Ġà¤ĵ à¤¯
Ġà¤ĵ à¤¡à¤µ
Ġà¤ĵ à¤ıà¤¸à¤¡
in y
in ath
an bir
at ers
at ives
à¤°à¤ĸ à¤¤
à¤°à¤ĸ à¤§
à¤¦à¤¨ à¤ª
Ġà¤ħà¤ª à¤µà¤°
Ġà¤ħà¤ª à¤¸à¤®à¤ľ
Ġà¤²à¤ķ à¤¬
à¤ľà¤ª à¤¬à¤°
à¤®à¤ķ à¤£
à¤§à¤¨ à¤¨
à¤§à¤¨ à¤ª
à¤ļà¤¨ à¤¹
à¤ĵ à¤²à¤ļ
à¤¨à¤µ à¤¦
ĠM u
ĠM MP
ĠM irdza
Ġà¤ļà¤° à¤«
Ġà¥« à¥§à¥¦
Ġà¥« à¥§à¥§
ĠS in
ĠS ameer
à¤°à¤¹ à¤¸à¤¨
à¤§à¤µ à¤Łà¤°
.. ?
Ġà¥ª à¥§à¥®
al ing
à¤ī à¤µ
à¤ªà¤² à¤µ
or ning
Ġà¤ľà¤® à¤ĸ
Ġ3 99
Ġt end
Ġt alk
ĠP ankaja
ĠP DT
it esh
Ġà¤īà¤Ń à¤¯à¤ļà¤°
Ġà¤ħà¤² à¤«
ĠN Z
ĠN ad
à¤¤à¤ª à¤¸
ic ks
ic aine
ĠA x
ĠA ctor
hi b
hi gh
à¤ıà¤¸ à¤ıà¤ļ
ĠT icket
Ġà¥§à¥¯ à¥§à¥¬
à¤¯à¤ª à¤ļ
ĠC all
ĠC urrency
and ra
à¥Ģ' !
à¤µà¤Ł à¤ªà¤£
om a
Ġà¤ıà¤¸ à¤µ
Ġà¤ıà¤¸ à¤ıà¤¸à¤ª
à¤®à¤£ à¤ķ
à¤®à¤£ à¤Ń
Ġs ar
Ġs and
Ġs il
Ġs erv
Ġs ave
ur am
ur ved
ol est
à¤¸à¤µ à¤¹
à¤Łà¤£ à¤ļ
Ġà¤ĩà¤¨ à¤°à¤µ
Ġc m
Ġc or
Ġc hu
Ġc oronavirus
Ġc ause
Ġc lear
ĠB H
ĠB L
ĠB rit
ĠB ureau
ĠR atnagiri
Ġf all
Ġf armers
Ġn ature
ĠD E
Ġà¤ıà¤® à¤¯
Ġ7 20
ĠL CD
à¤ıà¤® à¤ıà¤®à¤Ĩà¤°à¤¡
Ġà¤ĩà¤¥ à¤°
ha ve
re al
Ġp and
Ġp ack
Ġp oll
Ġà¤Ķà¤·à¤§ à¤¸
Ġo xygen
har aman
Ġb at
Ġb ir
Ġb oss
Ġb oy
Ġb uck
Ġb uy
à¤¶à¤µ à¤¹à¤¨
Ġ19 2
Ġ19 00
Ġ19 42
ĠE s
ĠE qu
Ġà¥§à¥® à¥¨à¥¨
Ġà¥§à¥® à¥ªà¥¦
Ġà¥§à¥® à¥¬à¥¬
Ġm r
Ġm obile
Ġm aking
Ġm aterial
Ġà¤Ĭ à¤·
à¤°à¤Ĺ à¤®à¤¨
Ġà¤§à¤¨ à¤§
à¤ıà¤² à¤ıà¤²
Ġà¤ľà¤¯ à¤Ń
Ġa bs
Ġa ble
à¤ļà¤ķ à¤¹
Ġl ater
ĠF at
ĠF ull
ut er
ut ions
à¤³à¤ļ à¤Ł
à¤¨à¤ª à¤ļà¤¨
Ġà¤ĩà¤¶ à¤°à¤¤
à¤¯à¤£ à¤®
à¤¤à¤°à¤£ à¤®à¤§
um i
um ents
ĠK rishna
ĠK ejriwal
ot ton
à¤ıà¤¨ à¤ıà¤²
Ġto get
à¤ªà¤¡ à¤¦
ag n
ĠW all
ĠW ire
ĠPol l
ĠPol y
Ġ18 3
Ġ30 4
à¤²à¤Ń à¤¡à¤ķ
ant h
ĠV ish
ĠV ideos
Ġà¤°à¤® à¤Ŀ
à¥§à¥¯ à¥©à¥¦
à¥§à¥¯ à¥¬à¥¦
à¥§à¥¯ à¥®à¥¦
à¥§à¥¯ à¥¯à¥¨
Ġà¤ĺà¤Ł à¤µà¤²
ĠRe uters
Ġà¥¨à¥¨ à¥¦à¥¦
à¤ıà¤ļ à¤Ł
à¤¦à¤¶ à¤¹à¤°
ĠU AN
oc yt
à¥Ģ! !
Ġà¤ľà¤² à¤¶à¤ķ
Ġà¤°à¤¤ à¤¨à¤²
ab i
Ġà¤į à¤£
Ġà¥¨à¥© à¥¦à¥¦
Ġv ill
st ick
à¤¯à¤°à¤¸ à¤¬
Ġà¥¨à¥® à¥«
Ġà¥¨à¥® à¥¯
umb s
ĠSt rike
à¤¡à¤µà¤² à¤µ
Ġà¥¨à¥Ń à¥§
Ġ[ [
à¤·à¤ªà¤¦ à¤¹
à¤¯à¤ľ à¤°à¤ļ
Ġà¤ıà¤ļ à¤ı
Ġk wa
Ġà¥¨à¥¯ à¥®
ist a
ist ance
Ġâ ĸ
Ġà¤¬à¤ķ à¤±
ok er
.... ...
Ġ23 5
à¤ĩà¤¸ à¤ľ
Ġ27 8
ĠY ash
ĠY OU
Ġà¤ħà¤ľà¤¯ à¤¸
Ġà¥©à¥Ń à¥ª
ud hary
ma z
Ġà¥©à¥¬ à¥¨
Ġà¥©à¥¬ à¥®
Ġà¥©à¥¬ à¥¬
Ġà¥©à¥ª à¥ª
ac hel
Ġà¥©à¥© à¥«
Ġà¥©à¥© à¥Ń
ard ing
à¥§à¥¬ à¥ª
Ġà¤Ĩà¤¯à¤Ł à¤®à¤ļ
Ġà¤«à¤²à¤ķ à¤¹
Ġà¥ªà¥¨ à¥©
Ġà¥ªà¥ª à¥§
ash ing
ĠSh ub
Ġà¤®à¤³ à¤®à¤³à¤£
Ġwith stand
Ġà¥ªà¥Ń à¥¦
Ġà¥ªà¥Ń à¥ª
ID C
27 00
ĠCh ow
ĠCh ennai
---- -
ach ing
oun ter
Ġ33 2
ock ey
Ġex tra
ord in
anc ed
nà¤ħ à¤®à¤°
Ġà¥®à¥« à¥«
Ġà¤łà¤¸ à¤łà¤¶
ream s
pr il
Ġam ino
Ġus hl
ĠPro blem
40 6
In vest
Ġà¤Ńà¤¡ à¤ķà¤¤
Ġgo ing
ĠEx ecutive
ĠAn g
ĠAn t
ĠAr rested
ĠAr jun
à¤Ńà¤³ à¤Ł
à¥©à¥Ń à¥¦
Ġà¤ıà¤®à¤ıà¤¸ à¤ıà¤®
adi um
à¥į' à¤¾
Ġind ust
Ġà¤ªà¤¸à¤° à¤Ł
Ġ196 4
Ġ196 7
Ġà¤£ à¤¤
pl ay
à¥¨à¥¦à¥¦ à¥ª
à¥¨à¥¦à¥¦ à¥¬
ĠBy e
200 6
200 7
Ġ195 4
ĠRaj asthan
): -
eng er
Ġà¥§à¥®à¥® à¥ª
Ġà¥§à¥®à¥® à¥¯
Ġim m
90 4
IT R
Ġà¥§à¥Ńà¥« à¥©
ĠApple à¤ªà¤²
nA ug
Ġar rest
Ġà¤ħà¤Ŀ à¤°à¤ļ
chi ve
Ġu a
nS ep
stit u
âĢ İ
Ar vind
ĠÃ ĩ
ĠÃ ĸ
Ġinter national
Ġà¤ķà¤ªà¤² à¤ļ
rid ay
rad ing
rad dha
Ġsho ots
...... ...
à¤®à¤« à¤²à¤ķ
Ġà¤ħà¤®à¤¨ à¤®à¤£
Ġà¤¬à¤Ĺà¤² à¤¬à¤ļ
ĠCS GO
Ġtra in
ĠArt icles
II I
ĠRo ver
Ġà¤ıà¤®à¤ı à¤¯
Ġinc orrect
ĠRel iance
ĠTr ust
UM BAI
ĠHot el
ĠVi ews
Ġve h
Ġbro ther
Ġplay er
Ġtr uth
nJ an
Ġins ul
ambhaj inagar
ĠTw eet
Ġmill ion
Ġà¤§à¤¡à¤§ à¤¡à¤¤
Ġne ur
à§ ĩ
aur us
Ġcare er
:::::::: ::::::::
ĠTal uka
ĠBand han
Ġgen eral
Ġvi ew
Ġopp ortun
Ġav ailable
itt le
ĠWh ich
ĠSup reme
Col lector
Ġfin ancial
ĠSupp ly
Don ald
ĠKrus hi
stitut es
Ġdest roy
ovsk iy
reed om
Ġtal uka
ĠJag tap
Muk esh
Ġpath ologies
Ġà¤ķà¤¡à¤² à¤Ĺ
Ġwhats app
Ġlik ely
Ġrup ees
Ġwood ruff
Ġunivers ity
Ġaud ience
ĠIng redients
Ġcuc umbers
usse hra
indhud urg
Ġà¤ĸà¤¦à¤ĸ à¤¦à¤¤
Ġtox ins
loalk anes
Ġtoget her
' </
/ )
5 37
A CB
B oy
C het
E B
E PFO
F ire
G reen
H air
L D
L L
L ucknow
N PS
O per
O xygen
P ress
P AN
P rat
S D
S ud
T F
V ir
b ed
b ing
c os
d ate
h ind
h op
i as
i ate
l us
m ad
n V
n à¤°à¤ķ
n à¤µà¤¸
n in
n à¤ªà¤¦
n ew
n am
n à¤Ĩà¤¨
n à¤Ĩà¤¦
n à¤ĳà¤¨à¤²
n Mar
p re
p erson
r um
r up
r ange
s a
s elf
s idy
t w
t is
u ous
v ashi
y al
Ã ł
Ð °
Ø ±
Ġ ens
à¤° à¤³à¤£
à¤° à¤Ĳà¤µà¤ľ
à¥Ģ `
à¤¤ à¤µà¤³
à¤¯ à¤¸à¤°
à¤¯ à¤Ĺà¤¤
à¤¯ à¤ıà¤¸à¤Ĩà¤°
à¤¯ à¤¹à¤¨à¤¨
à¤² à¤Ĺà¤°
à¤² à¤¸à¤¤
à¤² à¤Ľ
à¤¨ à¤ĺà¤°
à¤¨ à¤¬à¤¹
à¤¨ à¤°à¤ļà¤¨
à¤¨ à¤¬à¤¦à¤²
à¤ķ à¤ı
à¤ķ à¤ªà¤¦
à¤ķ à¤ªà¤ķ
à¤µ à¤¦à¤¨
à¤¸ à¤Łà¤£
à¤¹ à¤²à¤µ
à¤£ à¤µà¤¸
à¤£ à¤¨à¤µ
à¤£ à¤ķà¤¸
Ġà¤ķ à¤Ĺ
Ġà¤ķ à¤Ľ
Ġà¤ķ à¤£à¤Ĺ
à¤® à¤ľà¤ķ
à¤® à¤¦à¤µ
à¤® à¤ªà¤Ł
à¤® à¤¯à¤ª
à¤® à¤®à¤¹
Ġà¤Ĩ à¤µà¤¸
à¥ģ !
à¥ģ à¥ĳ
à¥ģ à¥Ĵ
Ġà¤¸ à¤¨à¤Ĺ
Ġà¤¸ à¤Łà¤µ
Ġà¤® à¤°à¤¸
Ġà¤® à¤ľà¤¨
Ġà¤® à¤Ľà¤²
à¤ª à¤Ńà¤°
à¤ª à¤ľà¤²
à¤ª à¤ľà¤¤
à¤¾à¤Ĥ !
à¤¦ à¤·
à¤¦ à¤³à¤£
à¥Ĥ ",
à¤Ł à¤ĩ
à¤Ł à¤¸à¤ķ
à¤Ł à¤¸à¤¨à¤¨
à¤Ł à¤®à¤¨à¤ļ
à¤ľ à¤°à¤ķà¤°
à¤ľ à¤¬à¤°à¤¦à¤¸
à¤¡ à¤µà¤¸
Ġà¤¹ à¤Łà¤ķà¤°
Ġà¤¨ à¤°à¤®à¤²
à¤¶ à¤¯à¤¨
à¤³ à¤¨à¤Ĺà¤°
Ġà¤¦ à¤µà¤£
Ġà¤¦ à¤±
à¤· à¤ªà¤°
Ġà¤ľ à¤¦
à¤¬ à¤ªà¤°
à¤¬ à¤¹à¤²
Ġà¤° à¤¨à¤µ
Ġà¤ķà¤° à¤¬
Ġà¤ķà¤° à¤ªà¤¤
Ġà¤ķà¤° à¤Ńà¤°à¤£
Ġà¤ħà¤¸ à¤µ
Ġà¤ħà¤¸ à¤µà¤²
à¤ł à¤°à¤µ
à¤ł à¤łà¤²
Ġà¤Ĺ à¤¦à¤°
Ġà¤Ĺ à¤²à¤ķ
Ġà¤² à¤¬à¤¡
à¤¥ à¤ķà¤¡
à¤ĸ à¤³à¤£
à¤Ń à¤®à¤²
Ġà¤ı à¤ļà¤µ
Ġà¤ıà¤ķ à¤°à¤µà¤°
à¤¤à¤° à¤Ĺ
à¤Ī à¤¤à¤²
à¤Ī à¤®à¤¹
Ġà¤« à¤ĸà¤°
à¤ķà¤° à¤µà¤¡
Ġà¤ªà¤° à¤¡
Ġà¤ªà¤° à¤µà¤²
Ġà¤¤à¤° à¤³
à¥Ī ?
à¥Ī ...
Ġà¤ĩ à¤§
Ġà¤ĩ à¤¨à¤²
Ġà¤ĩ à¤¨à¤°
Ġà¤ĩ à¤²à¤¸
à¤ĺ à¤ª
Ġà¤Ĩà¤ª à¤¬
à¤Ĭ à¤¦à¤²
à¥ħ à¥į
Ġà¤¸à¤° à¤Ĺ
Ġà¤¸à¤° à¤µà¤ľ
Ġ( +
à¤°à¤µ à¤¦
à¤°à¤µ à¤³à¤ķà¤°
Ġà¤¸à¤® à¤°à¤µ
à¤ªà¤° à¤ĸà¤³
Ġà¤ħà¤¶ à¤ª
Ġà¤īà¤ª à¤Łà¤²
Ġà¤īà¤ª à¤°à¤ķà¤°
à¤µà¤¤ à¤¶
à¤µà¤£ à¤¯
à¤Ŀ à¤¬à¤°
à¤¯à¤® à¤µà¤¯
à¤¦à¤° à¤¦
à¤ħ à¤ªà¤ļ
à¤·à¤£ à¤¬
à¤ı à¤¨à¤¤
à¤ı à¤ıà¤¨
à¤ı à¤¬à¤¨
à¤¬à¤° à¤Ł
à¤¯à¤¤ à¤¨à¤Ĺà¤°
à¤Ĩ à¤ªà¤¸
à¤¶à¤¨ à¤¦à¤°à¤®
à¤¹à¤¤ à¤ķ
à¤ĩ à¤ªà¤°
à¤ĩ à¤²à¤¸
à¤ĩ à¤®à¤®à¤§
Ġà¤¸à¤¹ à¤¶
à¥§ 0
à¥§ à¥§à¥¨
Ġà¤¸à¤°à¤ķ à¤Ł
Ġà¤ħà¤° à¤¨
à¤²à¤ķ à¤£
Ġà¤¥ à¤¨à¤¬à¤°
Ġà¤¥ à¤¡à¤ķà¤²
Ġà¤Ĩà¤¯ à¤¡à¤²
Ġà¤Ĩà¤¯ à¤ıà¤²
à¤Ĥ. )
Ġà¤īà¤¦ à¤°à¤¤
Ġà¤īà¤¦ à¤°à¤¤à¤²
à¥¨ à¥©à¥¦
Ġà¤®à¤¨ à¤¶
à¤°à¤¦ à¤®
à¤ªà¤¯ à¤°
à¤ŀ à¤µ
à¤ŀ à¤¶
à¤ŀ à¤ķà¤°
à¤°à¤ĸ à¤Ĺà¤¡
à¤²à¤¨ à¤²
Ġà¤ħà¤ª à¤®à¤§
à¤·à¤ķ à¤¨
Ġà¤ªà¤¤ à¤ķà¤°
à¤¨à¤² à¤ķà¤¡
à¤¬à¤¦ à¤¦
à¤Ľ à¤¯
Ġà¥¨à¥¦ à¥¬
er ation
à¤ħà¤° à¤Ł
Ġ20 50
à¤¹à¤¨ à¤ķà¤°
à¤ļà¤¨ à¤ķ
à¥ª à¥®à¥¦
à¤·à¤¯ à¤ª
Ġà¤¬à¤° à¤³à¤¤
à¤ĵ à¤ı
ĠM es
ĠM ord
ĠM ane
Ġà¤°à¤¸ à¤¸
Ġà¤°à¤¸ à¤®
ĠS im
ĠS anta
Ġà¥ª à¥§à¥©
à¤ī à¤ł
à¤ī à¤¡à¤¸
à¤ī à¤ªà¤¶
à¤¯à¤µ à¤ļà¤¨
Ġà¤¤à¤ª à¤ĺ
à¤¸à¤® à¤¹
en ess
à¤µà¤ķ à¤·
Ġt rig
ew all
ĠP A
ĠP C
ĠP ress
ĠP ush
ĠP oon
ĠP eel
ĠP rakash
ĠP NB
à¤µà¤¶ à¤°à¤£
à¤¤à¤¨ à¤µà¤°
Ġà¤Ĳ à¤·
Ġà¤ħà¤² à¤¸
Ġà¤ľà¤Ĺ à¤¹
Ġà¤ľà¤Ĺ à¤¬
ĠN m
ĠN RI
ic ense
ĠA K
ĠA ks
Ġ5 30
as ha
Ġà¤ľà¤µà¤³ à¤ķà¤°
à¤ļà¤° à¤¬
Ġà¥Ń à¥¨à¥«
is ing
à¤¸à¤¦ à¤°à¤®
ĠT ilak
à¤¾' !
ĠI II
à¤¯à¤ª à¤¶
ĠC al
ĠC trl
à¤ķà¤Ł à¤ª
Ġà¤ķà¤ª à¤¬à¤¶
ad o
ad emy
Ġà¤Ī à¤¤
Ġà¤Ī à¤¦à¤²
Ġà¤ĩà¤¤ à¤¬
ĠG ar
ĠG as
ĠG re
ĠG PS
ĠG reat
am et
à¤µà¤Ł à¤¹
Ġà¤ħà¤¦ à¤¬
Ġs if
Ġs aw
Ġs ince
Ġà¥¯ 0
ol an
à¤Ĩà¤¯ à¤ıà¤ļ
à¤µà¤ľ à¤¸
Ġc a
Ġc am
Ġc up
Ġc ho
Ġc ost
Ġc ust
Ġc ode
Ġà¥§à¥¦ à¥®à¥¦
ĠB ay
ĠB az
ĠR ak
ĠR ang
Ġf el
Ġf our
Ġf ill
Ġf ans
Ġn r
Ġn irc
ĠD R
ĠD il
ĠD iwali
ĠD ravid
Ġà¤Ĩà¤Ī à¤µ
à¤¡à¤° à¤°à¤ļ
à¤¡à¤° à¤¬à¤°
Ġà¤ıà¤® à¤ıà¤®à¤Ĩà¤°
Ġ7 60
à¤ķà¤³ à¤¯
ent ine
Ġà¤®à¤ľ à¤¹à¤°
ĠL ear
ĠL akh
Ġà¤ĩà¤¥ à¤µà¤°
à¤Ĩà¤° à¤ıà¤¸à¤ļ
ĠMar riage
Ġw eb
Ġw icket
Ġw edding
re ath
Ġp ers
Ġp rab
Ġp ict
id ar
ro q
ro gen
Ġ19 17
Ġ19 35
ĠE X
Ġà¥§à¥® à¥©à¥«
Ġà¥§à¥® à¥©à¥¨
Ġà¥§à¥® à¥¬à¥ª
Ġà¥§à¥® à¥«à¥ª
Ġm em
Ġm ass
Ġm ultivar
à¤°à¤Ĺ à¤ľ
Ġà¤§à¤¨ à¤µà¤¡
est s
à¥ĩ- "
Ġd esh
Ġà¤«à¤² à¤ª
ak ad
ak ram
Ġl ab
Ġl iter
ĠF A
ul f
ir s
ir ewall
Ġà¤¨à¤Ĺà¤°à¤¸ à¤ļ
ia h
Ġà¥§à¥Ń à¥«à¥«
Ġà¥§à¥Ń à¥¯à¥®
à¤°à¤³ à¤ª
ĠH TML
ĠH rishikesh
ĠK am
ĠJ al
Ġà¥¨à¥ª à¥§
Ġà¥¨à¥ª à¥©
ĠO b
ĠO NL
à¤³à¤ķà¤° à¤ļ
ĠV eg
od ays
Ġ13 6
à¥§à¥¯ à¥¨à¥®
à¥§à¥¯ à¥©à¥§
à¥§à¥¯ à¥¯à¥ª
à¥ģ. )
up akram
ig a
ig ibility
Ġà¥ªà¥¦ à¥¯
Ġà¥ªà¥¦ à¥Ń
Ġ16 7
Ġà¤ħà¤¹à¤® à¤¦à¤¶à¤¹
à¥ĩ! !
Ġà¤į à¤ªà¤ļ
Ġà¥¨à¥© à¥©
Ġà¤¨à¤Ĭ à¤¶
Ġv an
Ġv ict
st ate
à¤ªà¤³ à¤ĸ
à¤¯à¤Łà¤¨ à¤µ
ĠSt art
ĠSt adium
Ġ22 8
nà¤ª à¤¶
Ġ21 7
Ġ:- \
ĠSp ace
à¤Ĩà¤ľ à¤µà¤°
th s
Ġà¤ıà¤ļ à¤ıà¤¸à¤Ł
em ant
Ġà¥¨à¥¯ à¥§
Ġà¥¨à¥¯ à¥Ń
Ġà¤ıà¤¡ à¤Ŀ
Ġà¥ªà¥« à¥Ń
Ġ23 6
Ġst op
Ġst rawberries
Ġ26 8
Ġ26 9
à¤Ĥ? '
Ġà¥®à¥¦ à¥¨
à¥§à¥¦ à¥ª
Ġ27 5
Ġr ules
Ġà¥©à¥¨ à¥¦à¥¦
Ġà¤µà¤³à¤£ à¤¦
Ġà¤ıà¤®à¤Ĩà¤¯ à¤ıà¤®à¤¨
Ġà¥©à¥¬ à¥§
Ġà¥©à¥¬ à¥ª
Ġà¤µà¤§ à¤¸
Ġj oin
Ġj Query
Ġà¤ķà¤£ à¤ĸ
ast i
ast u
Ġà¥Ńà¥« à¥¦à¥¦
ard a
à¤Ĺà¤Ń à¤¦
à¤¨à¤ĸ à¤ļ
und red
hav ing
eb el
Ġà¤Ńà¤Łà¤ķ à¤³
16 0
Ġà¥©à¥® à¥¯
ff ee
Ġà¥«à¥« à¥¬
ink ya
Ġà¥ªà¥¨ à¥«
Ġà¥ªà¥¨ à¥Ń
Ġà¤ľà¤³ à¤«à¤³
ank ule
Ġà¥ªà¥¬ à¥¬
à¤¸à¤ĸ à¤¸
Ġà¥©à¥¯ à¥®
à¤¯à¤¨à¤² à¤¸
uk la
ĠCh eston
ach al
Ġ32 50
à¤ķà¤¬ à¤Ĺ
Ġà¤«à¤¡à¤ķ à¤£
ell ow
à¤ĺà¤¡ à¤µà¤¤
Ġpro duction
Ġà¥ªà¥¯ à¥«
Ġà¤ıà¤ħ à¤°à¤¸
à¤Īà¤« à¤®à¤§
ĠInter net
form ance
Ġà¥®à¥« à¥¬
ubl es
Ġ48 0
à¤¹à¤± à¤¯
ĠCom munity
ĠPro cess
à¥¨à¥® à¥¦
à¥ĭ! \
Ġà¤®à¤¦à¤¨ à¤ª
ĠEx c
ĠEx t
AT F
na az
Ġsp orts
ĠAn n
à¦ °
se ason
Ġwho le
26 1
CB SE
à¤Ĩà¤Ĺ à¤°à¤ķà¤°
mer cial
ĠAt hawale
Ġà¤ıà¤¨à¤Ĩà¤¯ à¤ıà¤²
Ġà¤Ĩà¤Ĭà¤Ł à¤¡
Raj u
CC D
Ġde velop
Ġà¥¨0 à¥§à¥Ń
ĠAll iance
uj rat
IT H
Ġà¥§à¥Ńà¥« à¥¯
à¤¾.' \
Ġar ound
à¤¸à¤®à¤¨ à¤ļ
ĠMan ager
ĠCl oud
Ġte chnology
Ġcomp etition
Ġà¤Ĩà¤¯à¤ıà¤® à¤ı
AC S
Ġà¤ªà¤°à¤ĸà¤¡ à¤ªà¤£
ĠLED s
Ġwork ing
Ġen vironment
ĠPand harpur
ÃŃ à¤Ĺà¤ķ
ĠBhar ati
VID IA
Ġlead ers
ĠCha udhary
ĠTra vel
ix ed
nM ay
à¥įà¤Ĥ à¤¿
gn ant
nC hia
Ġbec ame
?? ?
ĠMot her
à¤Łà¤ħ à¤ªà¤¨
Chand rapur
udd in
Ġà¤¾ à¤Ĥ
ĠOr der
Ġà¤¦à¤« à¤¨à¤µ
ĠSur vey
Inter est
Ġexam ple
à¤®à¤²à¤ķ à¤¸
inc reasing
à¤Ĩà¤°à¤Ĩà¤° à¤Ĩà¤°
Ġbet ter
ĠNar ayan
Ã© s
Ġà¤¶à¤¯à¤¨ à¤Ĺ
Ġà¤®à¤°à¤ķ à¤ľ
ĠIE CC
ĠMah esh
Ġinf ection
harma c
ĠBab asaheb
Ġperson al
Ġcons ider
Ġmill ilit
ĠChild ren
Bhar ti
May nkraft
à¤¸à¤ı à¤ªà¤µà¤°
ĠElectric ity
ĠTar un
ĠSav ing
ĠRoy al
Mah indra
arb ha
Ġà¤ľà¤ĸ à¤¡à¤²
chen ko
ĠRep ublic
Ur fi
ĠAuthor ity
Gl obal
ĠIndust rial
Nav neet
ĠPrab hat
ĠâĨĴ \
ĠLad y
ĠPort al
ĠBor zak
odia c
ĠFeatur es
Ġrece ived
Hind u
Ġbab y
ĠSens ex
Var un
Ġmess age
ĠAnsw ers
ruct ure
Ġnuc le
Kaj ol
rashe khar
ĠChampions hip
Ġà¤ıà¤²à¤® à¤Ńà¤µ
Ġfamil ies
Veb bank
âĹ Ĩ
Ġà¤¸à¤¤à¤² à¤ľ
ĠONL INE
Ġmillilit ers
ĠBorzak ovskiy
" ).
1 15
2 24
A c
A ctor
A jay
B Y
B ro
B rit
B itcoin
B KS
F r
F irst
G E
G Hz
G ulabrao
H ing
H ot
I f
I l
J ob
K GS
M H
M ult
M UMBAI
N ot
N uga
O B
O s
P A
P N
P age
P ost
P oker
R a
R SS
S e
W A
W TC
b u
b oli
c ing
c hiv
d al
d agi
f ord
g u
g or
g ery
i hi
i qu
k n
k ha
l iness
l ink
l aim
m l
n L
n à¤¶à¤°
n à¤ĵà¤Ł
n à¤ĭà¤·
n à¤¦à¤°à¤µà¤°
p anday
r ide
t ok
u its
v y
w s
w as
w ith
z an
Ġ es
Ġ ill
Ġ Åŀ
Ġ Ùħ
à¤¾ à¥ĩ,
à¤¾ à¥ķ
à¤° à¤Łà¤ķ
à¤° à¤Ĩà¤¹
à¤¤ à¤ªà¤¨
à¤¤ à¤°à¤ķà¤°
à¤¤ à¤¸à¤°à¤ļ
à¤¯ à¤ıà¤¸à¤ª
à¤¨ à¤µà¤³
à¤¨ à¤¯à¤ļ
à¤¨ à¤ªà¤ķ
à¤ķ à¤Ĳà¤µà¤ľ
à¤ķ à¤ĵà¤µ
à¤µ à¤Łà¤°
à¤µ à¤§à¤¤
à¤ļ à¤°à¤ķ
à¤¸ à¤ªà¤¤
à¤¸ à¤Ļ
à¤¹ à¤°à¤®à¤ļ
à¤£ à¤¦à¤°
à¤£ à¤¸à¤¹
Ġà¤ķ à¤¹à¤¤
Ġà¤ķ à¤ľà¤°
Ġà¤ķ à¤µà¤ķ
à¤® à¤¸à¤²
à¤® à¤ľà¤µà¤³
à¤® à¤ħà¤²
à¤® à¤²à¤Ĺà¤Ł
Ġà¤Ĩ à¤ķà¤²
Ġà¤Ĩ à¤¸à¤¤
Ġà¤Ĩ à¤¢à¤²
Ġà¤Ĩ à¤ĸà¤°
Ġà¤¸ à¤®à¤§
Ġà¤¸ à¤Ĺà¤¤
Ġà¤¸ à¤¡à¤µ
Ġà¤ª à¤¢à¤²
Ġà¤ª à¤ļà¤µà¤²
Ġà¤ª Âºà¤¹
Ġà¤® à¤³à¤ķ
à¤ª à¤Ĺà¤¤
à¤ª à¤µà¤°à¤ļ
Ġà¤¤ à¤¬à¤°
à¤¦ à¤ķà¤²
à¤¦ à¤ľà¤µà¤³
à¥Ĥ !"
Ġà¤ħ à¤¦à¤¨
Ġà¤ħ à¤³à¤µà¤£
à¤Ĺ à¤·
à¤Ĺ à¤ªà¤£
à¤Ĺ à¤®à¤¹
à¤Ĺ à¤°à¤ķà¤°
Ġà¤µ à¤°à¤ķ
Ġà¤µ à¤±
à¤Ł à¤¬à¤°
à¤ľ à¤¯à¤¤
à¤ľ à¤Ńà¤°
à¤ľ à¤²à¤²
à¤¡ à¤¬à¤¸
à¤¡ à¤¦à¤°à¤®
Ġà¤¹ à¤¬à¤²
Ġà¤¹ à¤¨à¤®
à¤§ à¤ªà¤°
à¤§ à¤®à¤¤
à¤§ à¤¨à¤²
Ġà¤¨ à¤Łà¤µ
à¤¶ à¤®à¤§à¤²
Ġà¤¦ à¤®à¤¹
à¤· à¤Ł
à¤· à¤¦à¤¨
Ġà¤ľ à¤¸à¤°
à¤¬ à¤¡à¤ļ
à¤¬ à¤¡à¤µ
à¤¬ à¤¬à¤¨
Ġà¤° à¤ª
Ġà¤¬ à¤Ĺà¤¡
Ġà¤¬ à¤¨à¤°
Ġà¤ķà¤° à¤ľà¤Ĺ
Ġà¤¶ à¤¤à¤ªà¤Ł
Ġà¤Ĺ à¤¹à¤°
Ġà¤² à¤«
à¤¥ à¤°à¤ļ
à¤¥ à¤¨à¤¹
à¤ĸ à¤¨à¤ķ
à¤µà¤° à¤Ń
à¤Ń à¤®à¤ļ
Ġà¤Ń à¤·
Ġà¤Ń à¤¯à¤ķ
Ġà¤ı à¤ªà¤¦
Ġà¤ĸ à¤¸à¤ĸà¤¸
à¤Ī à¤Ĺà¤°
à¤Ī à¤¸à¤¨
à¤Ī à¤ıà¤²
à¤Ī à¤¸à¤µà¤°
à¤¿à¤Ĥ âĢ¢
à¤¢ à¤ķ
Ġà¤ªà¤° à¤¶à¤°
à¤¯à¤ķ à¤ªà¤£
Ġà¤ĩ à¤¡à¤¨
à¤°à¤® à¤ķà¤°
à¤°à¤® à¤£à¤µ
à¥Ģà¤Ĥ !
à¤Ĭ à¤¸à¤®
à¤µà¤¸ à¤¨à¤¸
à¤« à¤¤à¤¹
Ġà¤¸à¤° à¤µà¤°
Ġà¤¸à¤° à¤Ĺà¤®
à¤°à¤µ à¤§
à¤°à¤µ à¤Ĺà¤¤
à¤°à¤µ à¤£à¤¯
à¤ªà¤° à¤¯
à¤¤à¤² à¤¨
à¤¤à¤² à¤¸
Ġà¤§ à¤¤
Ġà¤īà¤ª à¤¡
Ġà¤īà¤ª à¤¶à¤¹à¤°
à¤Ĺà¤² à¤ķà¤°
à¤¯à¤® à¤¦
à¤¦à¤° à¤ĸ
à¤ħ à¤¶à¤ķ
à¤ħ à¤ªà¤¯à¤¶
à¤·à¤£ à¤¯
à¤Ĺà¤¤ à¤®
à¤µà¤¡ à¤¸à¤®
à¤µà¤¡ à¤°à¤®à¤§
à¤Ĺà¤° à¤¦à¤°
Ġà¤¨à¤µ à¤ķ
Ġà¤¨à¤µ à¤¤à¤°
à¤Ĭà¤¨ à¤¦à¤°à¤®
à¤Ĩ à¤ķà¤°
à¤Łà¤² à¤¶
à¤Łà¤² à¤ķà¤¡
Ġà¤Ĩà¤ľ à¤¬
à¤²à¤¯ à¤®à¤§
Ġ2 18
à¤¸à¤² à¤®à¤§
à¤ĩ à¤¯à¤¤
à¤ĩ à¤ķà¤µà¤°
à¤ķà¤² à¤¤
Ġà¤¸à¤°à¤ķ à¤µà¤²
à¤¸à¤¨ à¤¯
Ġà¤Ĩà¤¯ à¤ıà¤«à¤ıà¤¸
Ġà¤Ĩà¤¯ à¤ıà¤¨à¤ıà¤ķ
à¤¦à¤² à¤ª
Ġà¤ĳ à¤®
Ġà¤ĳ à¤²à¤®
à¤µà¤¨ à¤¡
an anya
at il
at ke
à¤°à¤ĸ à¤°à¤¤
à¤£à¤¤ à¤ļ
à¤°à¤ľ à¤®
Ġà¤ªà¤¹ à¤²à¤Ĺ
à¤¤à¤® à¤ķ
à¤Ľ à¤¦
à¤Ľ à¤®à¤§
er ve
à¤ħà¤° à¤§
Ġà¤ħà¤® à¤°à¤¦
Ġà¤Ľ à¤ķ
à¤®à¤ķ à¤µ
à¤§à¤¨ à¤°
à¤§à¤¨ à¤ķà¤°
à¤¦à¤¤ à¤¹
à¤ĵ à¤ł
à¤ĵ à¤¸à¤¹
à¤ĵ à¤²à¤¨
à¥© à¥¨à¥¦
à¤ķà¤¤ à¤ªà¤£
ĠM ob
ĠM ost
ĠM ont
à¤°à¤Ń à¤µ
Ġà¤¨à¤ķ à¤Ł
Ġà¥« à¥§à¥®
Ġà¥« à¥¨à¥¨
ĠS and
ĠS ot
ĠS ush
ĠS usp
ĠS ambhajinagar
Ġà¥ª à¥§à¥¯
al ee
à¤ī à¤³
à¤Ńà¤° à¤¡
Ġà¤ħà¤ľ à¤¯à¤ķ
Ġ3 24
en er
à¤¡à¤³ à¤ļ
Ġt om
Ġt able
à¤¹à¤® à¤¸
à¤¬à¤² à¤®
Ġ! !\
à¤¸à¤ķ à¤¨
ĠP H
ĠP R
ĠP il
ĠP ers
ĠP ubl
ĠP ension
ĠP ositive
ĠP ixel
it an
it age
ĠN SC
ĠN DRF
à¤ªà¤ķ à¤ª
à¤ķà¤£ à¤ķà¤¡
ic un
ic ers
ĠA D
ĠA ction
ĠA dd
ĠA PI
ĠA merica
Ġà¥¬ à¥©à¥¦
à¤¨à¤ķ à¤¨
Ġ4 19
Ġà¤®à¤Ĺ à¤°à¤®
à¤ıà¤¸ à¤ıà¤²
à¤¤à¤³ à¤ĸ
ĠT a
ĠT om
ĠT ags
ĠT rophy
à¤¾' (
à¤ķà¤¶ à¤°
ĠC it
ĠC ancer
ĠC yber
à¤®à¤° à¤®à¤§
Ġà¥® à¥§à¥¦
à¤§à¤° à¤¨à¤ļ
à¤ĺà¤Łà¤¨ à¤¶
and rol
Ġà¤Ī à¤ħà¤°
ĠG h
ĠG ur
ĠG ra
ĠG amb
am ing
à¤¨à¤Ĺà¤° à¤ªà¤°
Ġs hi
Ġs up
Ġs ale
Ġs af
Ġs ingle
ur ation
à¤ķà¤¨ à¤®à¤§
à¤ķà¤¨ à¤°à¤ļ
à¤Ĩà¤¯ à¤ıà¤²à¤ļ
Ġà¤ĩà¤¨ à¤Ł
à¤ķà¤¦ à¤°à¤®
Ġ202 7
ĠB ir
ĠB ag
ĠB aw
ĠB omb
Ġà¤¬à¤ĺ à¤µà¤¤
ĠR ad
ĠR ath
ĠR uss
ĠR ape
ĠR AW
à¤ĩà¤¨ à¤ª
Ġf ive
Ġf ace
Ġn c
ĠD G
Ġà¤µà¤¡ à¤ľ
Ġà¤ıà¤® à¤ıà¤®à¤ıà¤¸
Ġà¥§à¥¨ à¥«à¥¦
Ġà¥§à¥¨ à¥©à¥Ń
à¤ıà¤® à¤Ĩà¤¯à¤¸
à¤ıà¤® à¤ıà¤¸à¤¸
ha ub
Ġà¤¹à¤¸ à¤µà¤²
Ġw ave
re ase
re yas
Ġp el
Ġp rev
Ġp hotos
Ġp rices
id en
Ġb igg
Ġb lood
Ġb irthday
Ġb reak
Ġb ushes
ro st
Ġà¤µà¤¨ à¤ħà¤§
Ġ19 20
Ġ19 30
Ġ19 37
ĠE M
ĠE mployees
Ġà¥§à¥® à¥«à¥¦
Ġà¥§à¥® à¥«à¥¨
Ġà¥§à¥® à¥¬à¥©
Ġm s
Ġm il
Ġm ention
Ġm akes
Ġà¤§à¤¨ à¤ªà¤¤
à¤Ĺà¤¨ à¤«
est ic
à¤°à¤¦à¤° à¤¬
Ġd ro
Ġd aughter
à¤Łà¤¸ à¤µà¤°
ak shi
Ġà¤¤à¤¬ à¤ķ
Ġl os
Ġl im
Ġà¥¨à¥« à¥¦à¥¦à¥¦
ĠF un
ĠF ashion
ĠF riday
el ess
el ine
ch y
ch ant
ch ina
à¤ĩà¤² à¤¸à¤¹
Ġà¤§à¤°à¤£ à¤ķ
Ġà¤«à¤³ à¤®
Ġà¥§à¥¬ à¥®à¥©
Ġà¥«à¥¦ à¥®
Ġà¥«à¥¦ à¥Ń
ia go
ĠH ard
ĠK ab
ĠK now
ĠK aif
Ġà¤¬à¤² à¤Ń
Ġà¤ĭ à¤Ń
ri an
à¤ıà¤¨ à¤Ĩà¤°à¤¸
à¤¾! !!
ive k
ag net
ĠJ ob
ĠJ oin
ĠW ag
ĠW ITH
à¤²à¤ª à¤°à¤µ
ai ka
Ġà¤Ĺà¤¡ à¤®
Ġ18 50
Ġ30 3
Ġà¤¸à¤ľ à¤µà¤¤
ob a
Ġ25 9
ĠMa had
ĠV illage
à¤ĳ à¤¨à¤°
ĠGo vernor
à¤¯à¤¬ à¤ļ
à¥§à¥¯ à¥ªà¥¦
à¥§à¥¯ à¥©à¥«
à¤ħà¤¨ à¤§
Ġg r
ĠU K
ĠU du
Ġ16 1
im i
Ġ24 1
Ġ24 2
Ġà¤¨à¤µà¤° à¤Ĺ
ub er
à¤¯à¤ķà¤² à¤ªà¤Ł
nà¤¸ à¤¦à¤°
ĠSt r
Ġà¤Ĺà¤® à¤µà¤²
Ġà¤īà¤ľ à¤Ĺà¤°
Ġà¥¨à¥Ń à¥Ń
Ġà¥©à¥§ à¥§
Ġà¥©à¥§ à¥®
Ġà¥©à¥§ à¥¬
Ġe mb
Ġe mot
op ter
op ard
nà¤ª à¤°à¤®
à¤¯à¤Ĺ à¤°à¤ļ
ap an
ap el
Ġà¥¬à¥¦ à¥«
Ġk e
Ġ40 6
em i
em and
ist or
à¤µà¤Ĺ à¤¨à¤ļ
nà¤¯ à¤µà¤¤à¤®
Ġâ ĺħ
all er
Ġà¤ªà¤ł à¤¨
Ġà¥ªà¥« à¥ª
Ġà¥ªà¥« à¥¯
ok apel
à¤Ļ à¤Ĺ
Ġ23 7
Ġre ached
Ġst rike
Ġst alks
lo y
lo or
lo ve
Ġà¥©à¥¨ à¥§
Ġà¥©à¥¨ à¥¨
Ġapp ly
Ġ31 0
Ġà¤Ĩà¤Ł à¤ªà¤²
Ġcom mon
ud io
à¤¯à¤¸à¤¨ à¤¨
Ġ29 9
Ġj ack
Ġan other
are kar
à¤¨à¤ķà¤° à¤°
ac ed
ac qu
Ġà¤¦à¤µ à¤¬
Ġbe at
ef ul
mit s
Ġà¥«à¥« à¥«
qu ake
qu arius
Ġà¤¨à¤µà¤² à¤ĸ
Ġà¥ªà¥¬ à¥¯
Ġà¥ªà¥Ń à¥¨
Ġà¥ªà¥Ń à¥©
Ġth ing
Ġà¥©à¥¯ à¥ª
Ġà¥©à¥¯ à¥©
__ _
Ġà¤¶à¤°à¤£ à¤ª
ell a
à¤Ĥ! \
nà¤Ń à¤Ĺà¤µ
Ġwe ight
Ġhe m
ĠInter view
az are
ps om
Ġam ount
à¤¡à¤ĺ à¤¶
Ġad ministration
ĠChan y
à¤ļà¤ªà¤¤ à¤ļ
ush rif
Ġà¥Ńà¥Ń à¥¦
à¤īà¤ª à¤¸à¤°à¤ª
Ġag ree
Ġsp ot
Ġsp ace
port ance
rit hik
Ġà¤Ńà¤¡à¤ķ à¤£
à¦ ¸
ond a
Ġind ian
Ġà¤ķà¤µà¤ļ à¤ķ
ĠSc ient
Ġà¥®à¥Ń à¥¯
Ġà¤¨à¤°à¤ķ à¤¯
App le
à¥¨à¥¦à¥¦ à¥¨
!" \
ĠAd ministration
Ġà¤ĭà¤£ à¤ķà¤£
ini x
Ġx il
Ġsc am
Ġsc ience
Ġpe ace
Ġpr ion
ĠâĢ ľ
ĠBl ue
ĠBl ock
Ġà¤Ĺà¤µà¤¸ à¤¤
hir ang
sc reen
Ġro le
à¤¯à¤¬à¤² à¤®à¤§
unic ation
Ġ98 60
Ar rest
Ġmar in
Ġper iod
Mar athwada
osp here
>> >
à¥Ģà¤¼ .
à¤Īà¤Ī à¤Īà¤Ī
Com ments
Ġab n
Ġen ough
Ġqu al
à¤Ĩà¤¯à¤ıà¤® à¤ıà¤«
elf are
AA P
ĠTra iler
ĠBe auty
ĠUS A
Un ited
ĠIC U
De ep
You Tube
gn ancy
Ġà¤¸à¤³ à¤¸à¤³
Ġbec omes
Ġpass ed
yc le
ĠSo C
BS NL
haj an
riv ing
ĠAT S
lim s
Ġsur pr
We ather
iven ess
Me Too
NE W
Ġà¤¦à¤³ à¤Ńà¤¦
ĠAf ghanistan
bh p
ĠNet work
Ġà¤¶à¤¯à¤¨ à¤ķà¤ķ
Ġstud y
Ġsw eet
Ġbro thers
cept ion
Ġrem ember
Ġà¤²à¤ĸà¤² à¤ĸà¤¤
Ġà¤Ĺà¤Ŀ à¤²à¤ķ
ĠYear s
Ġà¤Łà¤® à¤Łà¤®
Ġsec ond
Ġsec urity
Ġà¤ıà¤¯ à¤°à¤ª
Ġbook s
One Plus
ĠMB A
ĠKad u
Ġmonth s
gar h
Ġdem and
ĠDam age
Ġmed ical
Ġel igible
ĠAmit abh
Rak sha
ĠPe ople
ĠKer ala
Ġdev ices
kad ashi
ĠLink ed
ĠWh ite
ĠGe Force
Ġsuccess fully
à¤ĸà¤¡à¤ķ à¤µ
ogen ic
Ġlet ter
ĠShi ft
Hy undai
Ġtar get
ĠSecret ary
Jal na
ĠJour nal
Ġvac ancies
Af ghanistan
hes ions
abol ism
ĠCI BIL
avat mal
Shik har
ĠMond ay
Ġcrack s
ĠMart ins
Pres ident
Ġnorm al
Rail way
ĠIde as
Ġdil uted
stitu ency
Poker Dom
ananya panday
androl one
ĠBaw ankule
Ġmention ed
" :
1 10
2 18
A H
A J
B an
B as
B ay
B ombay
C ourt
D igital
D eputy
E AR
F ile
F ID
F ood
F raud
G ang
H or
I O
J ohn
K D
K GF
L aw
L ocal
M andi
N orb
O pt
P ower
S ad
S chool
S ource
S err
S idd
S ilver
T D
T MC
T Ä°
T emperature
U K
U kraine
V ik
V itamin
W ardha
b ob
b ody
c al
c entral
f ire
g rat
h ok
i am
i os
k ind
m k
m ing
m el
n ap
n à¤¹à¤µ
n à¤ıà¤¡
n à¤īà¤¸
n à¤ıà¤µà¤¢
n by
o es
o ÄŁ
p ose
p anchayat
r ast
r ata
r oll
s al
s et
s ocial
s anjay
s ystem
u led
v ass
z er
Â ¯
Ñ Ĥ
á ¸
Ġ Ù
Ġ àª
à¤¾ à¥ĭ
à¤° à¤°à¤ļ
à¤° à¤Ĩ
à¤° à¤Ĩà¤¢
à¥ĩ à¥¥
à¥Ģ _
à¤¤ à¤¤à¤°
à¤¤ à¤¨à¤¸
à¤¤ à¤¤à¤ª
à¤¤ à¤µà¤°à¤£
à¤¤ à¤Ĩà¤¹
à¤¤ à¤¸à¤®à¤¯
à¤¯ à¤ĺà¤°
à¤² à¤¡à¤²
à¤² à¤§à¤°
à¤² à¤ľà¤ļ
à¤² à¤°à¤¸à¤¹
à¤¿ ..
à¤¨ à¤·
à¤¨ à¤¯à¤²
à¤¨ à¤Ĺà¤³
à¤¨ à¤¤à¤ļ
à¤¨ à¤ĵà¤µ
à¤ķ à¤µà¤¨
à¤ķ à¤ªà¤¤
à¤µ à¤ªà¤²
à¤µ à¤®à¤¯
à¤ļ à¤¢
à¤ļ à¤¯à¤¤
à¤ļ à¤Ĺà¤µ
à¤ļ à¤³à¤µà¤³
à¤¸ à¤µà¤¸
à¤¸ à¤¦à¤²
à¤¸ à¤³à¤µ
à¤¹ à¤¡à¤ª
à¤£ à¤«
à¤£ à¤¸à¤®
à¤£ à¤īà¤¤
Ġà¤ķ à¤¹à¤²
Ġà¤ķ à¤Łà¤®
Ġà¤ķ à¤Łà¤°à¤¨
à¤® à¤ħ
à¤® à¤Ĺà¤¤
à¤® à¤¯à¤¨
à¤® à¤¹à¤®
à¤® à¤£à¤¸
Ġà¤Ĩ à¤¡à¤¬
Ġà¤¸ à¤ªà¤²
Ġà¤ª à¤Łà¤°
Ġà¤® à¤®à¤¦
Ġà¤® à¤ķà¤µ
à¤ª à¤ŀ
à¤ª à¤µà¤°à¤¹
Ġà¤¤ à¤¨à¤¯
à¤¦ à¤±
à¤¦ à¤®à¤¹
Ġà¤ħ à¤ī
à¤Ĺ à¤µà¤³
à¤Ĺ à¤µà¤¶
à¤Ĺ à¤®à¤²
Ġà¤µ à¤§à¤µ
à¤ľ à¤²à¤¨
à¤¡ à¤®à¤²
à¤§ à¤µà¤¡
à¤§ à¤¶à¤°
Ġà¤¨ à¤¡à¤Ĺ
à¤¶ à¤¬à¤°
à¤³ à¤¸à¤¹
Ġà¤¦ à¤¬à¤¡
Ġà¤¦ à¤¶à¤°
à¤· à¤°à¤ļ
à¤· à¤°à¤¨
Ġà¤Ĩà¤¹ à¤¤
Ġà¤ľ à¤¯à¤¨
Ġà¤ľ à¤³à¤µ
à¤¬ à¤ľà¤°
à¤¬ à¤ªà¤¦
Ġà¤¬ à¤°à¤¦
Ġà¤¬ à¤ļà¤¨
Ġà¤¶ à¤¡
Ġà¤¶ à¤ł
Ġà¤¶ à¤®à¤¤
Ġà¤ħà¤¸ à¤Ĺ
à¤ł à¤ľ
à¤ł à¤²à¤¨
à¤ł à¤²à¤¨à¤Ĺà¤°
Ġà¤Ĺ à¤µà¤¯
Ġà¤Ĺ à¤ıà¤¨
Ġà¤² à¤¸à¤¨
à¤¥ à¤²à¤ķ
à¤¥ à¤Ĺà¤¨
à¤ĸ à¤Łà¤²
à¤ĸ à¤°à¤ĸ
à¤ĸ à¤Łà¤ªà¤£
à¤Ń à¤Ĺà¤³
à¤Ń à¤µà¤ķ
Ġà¤ļ à¤µà¤ļ
Ġà¤ļ à¤µà¤ķ
Ġà¤ļ à¤ĺà¤³à¤²
Ġà¤Ń à¤¯à¤®
Ġà¤Ń à¤¯à¤ª
Ġà¤Ń à¤°à¤¸à¤Ń
Ġà¤ī à¤¦à¤²
Ġà¤ī à¤®à¤Ĺ
Ġà¤ı à¤¦à¤²
Ġà¤ı à¤¡à¤ķ
Ġà¤ı à¤®à¤°
Ġà¤ı à¤ıà¤®
Ġà¤ı à¤Ĩà¤°
Ġà¤Ŀ à¤¨
Ġà¤ĸ à¤°à¤ķ
Ġà¤ĸ à¤ªà¤£
Ġà¤ĸ à¤®à¤¨
Ġà¤ĸ à¤²à¤ª
Ġà¤ıà¤ķ à¤°à¤®à¤§
à¤Ī à¤Łà¤°
à¤Ī à¤¡à¤¸
à¤°à¤¤ à¤¦
à¤ķà¤° à¤ªà¤Ł
à¥ĥ à¥ĥ
Ġà¤ªà¤° à¤¸à¤µà¤°
à¥Ī "
Ġà¤ĩ à¤¸à¤°
à¤ĺ à¤µà¤°
à¤ĺ à¤°à¤£
à¤Ĭ à¤®
à¤µà¤¸ à¤¤
à¤« à¤ª
à¤« à¤Ŀ
Ġà¤¡ à¤«à¤³
à¤ķà¤¡ à¤µ
à¤°à¤µ à¤µ
à¤ªà¤° à¤¶
Ġà¤§ à¤¬
Ġà¤§ à¤ľà¤¤
Ġà¤ħà¤¨ à¤¹
Ġà¤µà¤° à¤ł
à¤¼ à¤¾-
Ġà¤īà¤ª à¤°à¤¤
Ġà¤īà¤ª à¤¨à¤Ĺà¤°à¤ļ
à¤°à¤¸ à¤ľ
à¤¸à¤° à¤¯
à¤µà¤£ à¤ļ
à¤µà¤£ à¤®
à¤Ŀ à¤®à¤®à¤§
à¤°à¤ļ à¤¡
à¤¦à¤° à¤¬à¤¨
à¤ħ à¤µà¤²
à¤·à¤£ à¤°
à¤ı à¤Łà¤²
à¤ĥ --
à¤Ĩ à¤®à¤§
à¤Ĩ à¤Īà¤²
à¤Ĩ à¤¸à¤¨
à¤Ĩ à¤ĩà¤¬
à¤Ĩ à¤Īà¤¬
Ġà¤ªà¤£ à¤¶
à¤°à¤ª à¤Łà¤²
à¤µà¤³ à¤¨
à¤¹à¤° à¤¯
à¤¹à¤° à¤Ĺ
à¤ĩ à¤£
à¤ĩ à¤¬à¤°
à¤ĩ à¤¸à¤¨
à¤ĩ à¤¨à¤¹
à¤ĩ à¤ªà¤ļ
à¤ĩ à¤¡à¤µà¤°
Ġà¤¸à¤¹ à¤Ĺà¤²
Ġà¤¸à¤¹ à¤ľà¤ª
à¤¸à¤¨ à¤ªà¤¦
à¤¤à¤ķ à¤¸
à¤¯à¤ļ à¤ļ
à¤¯à¤ļ à¤³à¤µà¤³
Ġà¤Ĩà¤¯ à¤ıà¤«
à¤Ĺà¤³ à¤ļ
à¥¨ à¥¨à¥¦
à¤®à¤¨ à¤Ĺà¤°à¤ļ
Ġà¤ħà¤Ń à¤ķ
Ġà¤ħà¤Ń à¤Ĺ
à¤°à¤¦ à¤°à¤®
Ġà¤ĵ à¤Ĺ
Ġà¤ĵ à¤ľ
Ġà¤ĵ à¤¥
Ġà¤ĵ à¤«
Ġà¤ĵ à¤®à¤¨
Ġà¤ĵ à¤Łà¤®
à¤¬à¤Ī à¤®
à¤¬à¤Ī à¤¶
in ema
an an
à¤ŀ à¤ļ
à¤¸à¤¹ à¤Ń
Ġà¤¦à¤° à¤Ĺ
à¤·à¤ķ à¤ªà¤£
Ġà¤ªà¤¤ à¤®
Ġà¤ªà¤¤ à¤ķà¤°à¤²
à¤ĸà¤² à¤Ĺ
Ġà¤®à¤² à¤Ĺ
à¤ľà¤ª à¤¹
à¤ľà¤ª à¤Ł
à¤¤à¤® à¤ªà¤£
on a
Ġà¤ľà¤¨ à¤¶à¤¤
à¤¯à¤¨ à¤¹
à¤¯à¤¨ à¤ķà¤¡
à¤ħà¤° à¤¬à¤¦
Ġà¤ħà¤® à¤¡
Ġ20 6
Ġà¤Ľ à¤µ
à¤ľà¤° à¤¹
à¤§à¤¨ à¤®à¤§
es is
à¥ª à¥«à¥¦
à¤°à¤¨ à¤µ
à¤ĵ à¤Ŀ
à¤°à¤ķà¤°à¤£ à¤¹
ĠM en
ĠM ity
ĠM ult
ĠM anj
ĠM iss
à¤ķà¤°à¤£ à¤ķ
Ġà¤°à¤¸ à¤Ń
Ġà¤ĩà¤¤à¤° à¤µ
ĠS ol
ĠS ector
à¤ļà¤² à¤²
à¤ļà¤² à¤®
al p
à¤ī à¤¤à¤°
à¤ī à¤ªà¤¦
à¤ī à¤¸à¤«
à¤¯à¤µ à¤¶
à¤¸à¤® à¤Ĺ
à¤µà¤ķ à¤µ
à¤µà¤ķ à¤§à¤°
Ġt a
Ġt emple
Ġà¤ªà¤µ à¤¨à¤ļà¤ķ
Ġà¤¬à¤¹ à¤°à¤£
à¤¸à¤ķ à¤®
ew adi
ĠP etrol
ĠP yat
à¤¤à¤¨ à¤°
Ġà¤Ĳ à¤¤à¤°
à¤¶à¤² à¤µ
à¤¶à¤² à¤®
ĠN on
Ġ? ,
à¤¯à¤¸ à¤ª
Ġà¥¬ à¥§à¥Ń
Ġà¥¬ à¥§à¥¨
Ġà¥¬ à¥ªà¥¦
as c
Ġ4 60
Ġà¥Ń à¥§à¥¦
is f
Ġà¤®à¤Ĺ à¤ľ
à¤ıà¤¸ à¤ķà¤¡
à¤ıà¤¸ à¤ĵà¤ª
ĠT i
ĠT at
ĠT on
à¤¾' \
ĠI mp
Ġà¤Ĩà¤Ĺ à¤°à¤µ
ĠC er
ĠC ylinder
ĠC ruise
le ment
Ġà¥® à¥§à¥¯
Ġà¥® à¥¬à¥¦
à¤ķà¤Ł à¤¯
à¤ķà¤Ł à¤¸
ad ar
Ġà¤Ī à¤·
Ġà¤Ī à¤¥
Ġà¤Ī à¤Ŀ
Ġà¤ĳà¤« à¤ļ
à¤µà¤°à¤£ à¤ļ
Ġà¤Ĺà¤Ł à¤£
ĠG IF
Ġà¤¤à¤ķ à¤¤à¤ķ
à¤µà¤Ł à¤®à¤§
à¤®à¤² à¤Ī
om ens
Ġs ot
Ġs qu
Ġà¥¯ à¥ªà¥¦
ur ry
à¤Ĩà¤¯ à¤¶
à¤Ĩà¤¯ à¤ıà¤¨à¤ıà¤¸
à¤ķà¤® à¤Ł
Ġc od
Ġc rop
Ġc ancer
ĠB hi
ĠB hag
à¤ľà¤¤ à¤¦
ĠR u
ĠR aw
Ġf estival
ĠD I
ĠD ol
ĠD akh
ĠD RS
ĠD ark
Ġà¤Ĩà¤Ī à¤¹
ra il
ra cy
Ġà¤ªà¤¡ à¤ĺà¤®
Ġà¤ªà¤¡ à¤¸à¤²à¤Ĺ
Ġà¤¢ à¤³à¤£
Ġin surance
Ġà¤®à¤ľ à¤Ĺ
ĠL et
ĠL ev
ĠL IV
et ic
un ing
Ġà¤ħà¤¡ à¤ĸà¤³
à¤Īà¤Ł à¤ªà¤£
us hi
Ġw alk
Ġw indow
Ġp a
Ġp ick
Ġà¤Ķà¤·à¤§ à¤ª
à¤¹à¤² à¤µà¤°
Ġo thers
id i
à¤¡à¤¨ à¤¬à¤°
Ġb h
Ġb an
Ġb ad
Ġb udget
à¤ķà¤®à¤¤ à¤®à¤§
Ġ19 34
Ġ19 32
Ġ19 38
Ġ19 43
ĠE ver
ĠE kadashi
Ġà¥§à¥® à¥ªà¥©
Ġm p
Ġm and
Ġm av
Ġm ys
à¤¹à¤³ à¤ķ
à¤¹à¤¸ à¤ķà¤°
Ġa ward
à¤°à¤¬ à¤¹
ak ovsky
Ġà¥©à¥¦ à¥¯
Ġl ost
Ġà¥¨à¥« à¥ª
ĠF eet
ĠF amily
ĠF iled
ĠF HD
ch at
ch es
à¤·à¤® à¤ľ
ut in
ul ator
ir am
Ġà¥«à¥¦ à¥§
Ġà¥«à¥¦ à¥¨
Ġà¥§à¥Ń à¥«à¥¦
Ġà¥§à¥Ń à¥¯à¥¯
um a
à¤°à¤³ à¤ķà¤°
ĠH i
ĠH olid
Ġà¤īà¤¨ à¤®
ĠK hat
ĠK ore
ĠK eep
ĠK RK
à¥ĩ) .\
à¤²à¤® à¤¡à¤£
à¤²à¤® à¤¡à¤¤
Ġto wards
à¤ªà¤¡ à¤¯
ĠJ ud
ĠW ord
ĠW ari
ĠW WE
Ġà¤ĸà¤¡ à¤¯
Ġ18 9
Ġ18 60
Ġ30 5
ĠO N
ĠO ur
ĠO ld
ow der
ĠV odafone
ĠGo p
ĠRe m
à¤¢à¤° à¤Ł
up date
ig her
Ġà¤¦à¤°à¤µ à¤³
Ġà¥ªà¥¦ à¥©
Ġà¥ªà¥¦ à¥¬
Ġg ame
Ġg ave
Ġ16 8
oc o
oc racy
Ġà¤ľà¤² à¤ľà¤¨
Ġà¤į à¤µ
Ġà¤į à¤¬
nà¤® à¤ķà¤°
av id
Ġv ia
im at
st able
Ġà¤°à¤£ à¤ĸ
à¤¯à¤°à¤¸ à¤µ
Ġà¤¹à¤® à¤ľ
Ġà¥¨à¥Ń à¥ª
à¤Łà¤¯ à¤Ĺ
Ġà¥©à¥§ à¥Ń
Ġe mployees
op al
Ġà¥©à¥« à¥Ń
Ġ21 3
if ul
à¤²à¤µà¤£ à¤ķà¤°
ĠSp irit
Ġk it
Ġk ol
Ġk vass
ist ics
Ġâ Ł¶
all enge
Ġis chem
iv ir
aw an
Ġ27 1
Ġ27 9
ĠY outube
Ġr ane
Ġr ubles
Ġà¥©à¥¨ à¥¯
Ġ31 5
ma has
Ġà¤Ĩà¤³ à¤µà¤¤
Ġà¤ıà¤®à¤Ĩà¤¯ à¤ıà¤®à¤²
Ġà¥©à¥¬ à¥¯
Ġup yog
à¤¶à¤¹ à¤°à¤ª
Ġà¥¯à¥¦ à¥§
Ġ29 0
Ġj u
ac ity
his hek
à¥§à¥« à¥¯
ard ian
und ar
hav i
ev es
à¤ıà¤¶à¤¨ à¤ķà¤¡
à¤½ à¤¯
à¥¨à¥¨ à¥ª
Ġà¤ķà¤¹ à¤°à¤ļ
ef kind
à¥§à¥¬ à¥¨
12 5
Ġà¥©à¥® à¥«
Ġà¥©à¥® à¥¬
Ġà¥ªà¥® à¥ª
ĠApp s
atch ing
à¤¨à¤§à¤¨ à¤µ
bo x
ary an
ary ana
nà¤¬ à¤±
Ġà¤ľà¤³ à¤®à¤Ł
à¤¯à¤« à¤¸
Ġà¤ªà¤µà¤¨ à¤¦
à¤ļà¤® à¤¢
Ġth er
Ġth ink
à¤Īà¤ľ à¤¡
27 0
ĠCh ash
ĠCh hatrapati
ĠCh inese
ĠPat ients
Ġà¤¹à¤¸à¤¨ à¤²
Ġ32 5
Ġà¥«à¥¨ à¥®
Ġà¥«à¥¨ à¥Ń
Ġ36 00
Ġà¥ªà¥¯ à¥§
Ġ33 5
Ġ33 6
Ġ33 8
ock ed
Ġall ow
Ġà¤Ĩà¤¸à¤¨ à¤¸
Ġà¤Ĩà¤¸à¤¨ à¤Ĺ
à¤¾.. ?
az a
Ġas bob
Ġà¥«à¥Ń à¥¦
Ġam b
ĠCom m
ĠCom ple
ĠCom mon
Ġà¤®à¤¦à¤¨ à¤²
Ġà¤§à¤µà¤¨ à¤¸
cl es
cl ass
Ġà¥®à¥ª à¥¨
Ġgo es
ush al
à¤ħà¤°à¤®à¤¨ à¤ªà¤¦
Ġà¥Ńà¥Ń à¥§
ĠDiv ision
ĠPM C
rig ation
ire ction
Ġà¤¸à¤Ł à¤ķà¤²
ss ay
ĠPr as
eet h
à¥ĩà¥ĩ à¥ĩ
Ġà¤¨à¤ķà¤³à¤¤ à¤ļ
26 5
pl ant
ĠCrime a
Ġà¥®à¥Ń à¥¦
à¥¨à¥¦à¥¦ à¥©
AM S
Ġà¤®à¤Ĺà¤° à¤ªà¤Ł
Ġhi ms
Ġà¥¨0 à¥§à¥©
Ġsupp ly
Ġà¤Ŀà¤Ĺ à¤Ŀà¤Ĺ
Ġread ing
Ġco ver
Ġco vers
ious ly
Ġà¥§à¥®à¥® à¥©
rol i
hak rishna
à¥Ģ.' \
so ft
app ing
ĠTh ings
Ġcr ores
Ġà¥§à¥®à¥Ń à¥Ń
ON O
Ġ88 8
ars han
ĠSe lection
Ġ96 3
Ġart icles
Ġchi p
Ġà¤ıà¤®à¤ıà¤ļ à¤Ł
à¤Ĺà¤Ŀ à¤¡à¤¤
ĠBank ing
AC H
ĠÃ ©
à¤°à¤ľà¤¨ à¤¨à¤ķ
à¤Ĩà¤¯à¤ıà¤¸ à¤ıà¤«à¤ļ
Ġà¤ĸà¤Łà¤ķ à¤£
Ġà¤Ĩà¤ļà¤° à¤Łà¤¬
ject ive
Ġpol icy
Ġqu e
Ġbo x
Ġsub sc
Ġtw eet
ĠTra in
ĠIC AI
De epak
hem at
ĠMot or
Ġbl ack
Ġinc ome
Ġà¤Ĩà¤¯à¤ıà¤¸ à¤Ĩà¤¯à¤ļ
ĠShe chem
Ġknow ledge
mar k
ĠðŁ ĳ
Ġvacc ines
On ion
Ġpart ic
ser ver
Ġsol ution
ĠSam ant
ĠNCP à¤¤à¤¹
ĠRet ail
ĠBan ana
urb an
à¤¸à¤Ĺà¤¢ à¤®à¤§
Ġdes c
Ġevery thing
att le
Ġà¤Īà¤ıà¤®à¤Ĩà¤¯ à¤µà¤°
Ġà¤®à¤°à¤Ĺà¤³ à¤²
Ġà¤ķà¤¨à¤ķ à¤¦
à¥ĩà¤Ĥà¤ĥ --
ĠMand ir
ĠPh ys
ĠStud ents
Le ave
Ġsec ret
Ġdeath s
Ġimp act
Ass istant
Ġdr ink
ĠPS I
Ġinv ol
Rak hi
ĠSk y
Do ctor
aram ati
Ġresult s
Ġstand ard
akt in
ateg ories
ĠAut o
ĠIndust ries
nail art
ĠKrus hirang
SG J
HOT O
Rad hika
ĠQual comm
Add l
Moh ammad
nad min
ĠKn ight
ĠWal se
Super ba
ĠBaj aj
Vas ant
igor sk
Ġà¤ħà¤«à¤Ŀ à¤²à¤ĸ
Ġrest rict
meric an
Ġscient ists
ĠNit in
Ġsit uation
ĠDim ensity
Ġregister ed
Ġmo ist
emor ial
eor ological
ĠMit kari
aban ovo
Bang ladesh
Rep ublic
ĠSit haraman
Ġà¤«à¤°à¤ªà¤Ł à¤¤
ĠSR H
Ġkh up
Ġà¤¡à¤¬à¤¡ à¤¬à¤²
ĠND TV
Ġorig inal
ĠMangesh kar
ĠMord ov
ĠSot ik
ĠMartins one
Norb aktin
Serr ata
ĠPyat igorsk
Ġmav jud
Ġhims elf
" ?
" ...
' ll
) /
. [
7 07
8 59
; </
A v
A PI
B A
B unny
B aramati
C yber
D ec
D epartment
D ombiv
F lipkart
G e
L o
L on
L ive
L ike
L IV
M akar
M VA
M amata
N C
N ag
N agar
N SE
P T
P al
P TI
R G
R up
R eg
R oyal
S H
S te
S andeep
S ameer
S ourav
T ur
T ri
T ET
T alks
U C
U s
U NG
V D
V oltage
W inter
Y uzvendra
b reak
d o
e ve
e lectric
f r
h ic
h ul
h unj
i en
j ack
l in
n à¤¸à¤ļ
n à¤ļà¤²
n à¤ļà¤°
n à¤¸à¤¦
n and
n à¤«à¤ķ
n à¤īà¤ª
n à¤īà¤°
n Marathi
o har
o pped
p ing
p ost
p etrol
p ox
p apers
q t
r or
r ent
r ang
r ary
s el
s agar
t t
t u
t ry
u pp
v ent
w id
x id
y b
y z
à ¯
â ĥ
ã ĥ
Ġ à¥ĭ
Ġ ut
Ġ ess
Ġ ric
Ġà¤ ģ
à¥į à¤ĥ
à¤° à¤Ĺà¤ļ
à¤° à¤īà¤¦
à¥ĩ à¥ĩà¤Ĥ
à¥Ģ à¤¾
à¤¤ à¤¸à¤ļ
à¤² à¤²à¤¯
à¤¿ Â
à¤¿ ...
à¤¨ à¤Łà¤²
à¤¨ à¤¨à¤°
à¤¨ à¤¸à¤¨à¤ļ
à¤Ĥ ".
à¤ķ à¤°à¤ķ
à¤µ à¤«
à¤µ à¤ªà¤¨
à¤µ à¤®à¤¹
à¤ļ à¤ªà¤ķ
à¤¸ à¤¤à¤ķ
à¤¸ à¤µà¤¯
à¤¸ à¤ĩà¤¨
à¤¸ à¤Łà¤¸
à¤¹ à¤¤à¤°
à¤¹ à¤ªà¤¦
à¤£ à¤¯à¤ļ
Ġà¤ķ à¤¹à¤¨
Ġà¤ķ à¤¢à¤¤
Ġà¤ķ à¤ľà¤Ĺ
à¤® à¤Łà¤ķ
à¤® à¤µà¤°à¤ļ
à¥ģ à¥ģà¤Ĥ
Ġà¤¸ à¤Ĺà¤²
Ġà¤¸ à¤Łà¤ķ
Ġà¤¸ à¤µà¤¨
Ġà¤¸ à¤¬à¤Ł
Ġà¤ª à¤¢à¤£
à¤¾à¤Ĥ "
Ġà¤¤ à¤¨à¤ĸ
à¤¦ à¤Ŀ
à¤¦ à¤®à¤¤
Ġà¤ħ à¤³à¤¤
à¤Ĺ à¤ķà¤¨
Ġà¤µ à¤¯à¤ķ
Ġà¤µ à¤Ĺà¤°
Ġà¤µ à¤¨à¤ļ
à¤Ł à¤¸à¤²
à¤Ł à¤ªà¤¦
à¤Ł à¤®à¤²
à¤Ł à¤¶à¤¹
à¤Ł à¤°à¤®à¤¨
à¤¡ à¤¹à¤°
à¤¡ à¤¤à¤ļ
à¤¡ à¤°à¤ªà¤£
Ġà¤¹ à¤ļ
Ġà¤¹ à¤³à¤ķ
Ġà¤¯ à¤¶à¤¨
à¤§ à¤ķà¤²
à¤§ à¤¤à¤ļ
à¤§ à¤³à¤Ĺ
à¤§ à¤µà¤¨à¤Ĺà¤°
Ġà¤¨ à¤°à¤¦
Ġà¤¨ à¤¤à¤¦
à¤¶ à¤¯à¤µ
à¤¶ à¤Ĺà¤®à¤¨
à¤³ à¤Ŀ
Ġà¤¦ à¤¸à¤µ
à¤· à¤Łà¤ķ
à¤· à¤ħà¤ĸ
à¤· à¤°à¤¸à¤®
Ġà¤ľ à¤Ĭ
Ġà¤ľ à¤¯à¤¨à¤Ĺà¤°
à¤¬ à¤ķà¤²
à¤¬ à¤¸à¤¨
à¤¬ à¤ķà¤¤
à¤¬ à¤ķà¤®
Ġà¤¬ à¤ľà¤µ
Ġà¤¬ à¤ķà¤µ
Ġà¤¬ à¤°à¤µà¤¡
Ġà¤ķà¤° à¤®à¤¤
Ġà¤ķà¤° à¤®à¤¨
Ġà¤ķà¤° à¤ķà¤ª
Ġà¤¶ à¤¨à¤µ
Ġà¤Ĺ à¤Ń
Ġà¤Ĺ à¤¡à¤µ
à¤ĸ à¤¸à¤®
à¤µà¤° à¤£à¤¤
à¤µà¤° à¤¦à¤¤
à¤Ń à¤¡à¤Ĺ
Ġà¤ļ à¤²à¤ļ
Ġà¤ļ à¤ĺà¤³à¤¤
Ġà¤ī à¤°à¤ķà¤¤
Ġà¤ī à¤Łà¤Ĺ
Ġà¤ĺ à¤°à¤ªà¤£
à¤¾. -
Ġà¤ĸ à¤µà¤Ł
Ġà¤ĸ à¤°à¤ķà¤Ł
à¤Ī à¤¤à¤ļ
à¤Ī à¤¨à¤µ
à¤Ī à¤¨à¤¹
à¤®à¤§ à¤¨
à¤¢ à¤ĺ
Ġà¤Ĩà¤² à¤®à¤Ĺ
à¥ĥ -
Ġà¤ªà¤° à¤ªà¤°
Ġà¤ªà¤° à¤®à¤¸
Ġà¤ªà¤° à¤³à¤ļ
à¤°à¤£ à¤ķà¤²
à¤¯à¤ķ à¤¥à¤¨
Ġà¤ĩ à¤ĺ
Ġà¤ĩ à¤¸à¤²
à¤°à¤® à¤¤à¤¦
à¥Ģ, .
à¥Ģ, </
Ġà¤Ĩà¤ª à¤Łà¤£
Ġà¤ł à¤µ
à¤Ĭ à¤¶
à¤« à¤µà¤²
à¤« à¤¸à¤µ
Ġà¤¸à¤° à¤¬à¤°
Ġà¤¡ à¤³à¤®
Ġà¤ħà¤¸à¤² à¤²
Ġà¤¸à¤® à¤¯à¤ļ
Ġà¤ħà¤¨ à¤µà¤Ł
Ġà¤µà¤° à¤ĸà¤¡
à¤µà¤² à¤®
Ġà¤īà¤ª à¤ľà¤²
Ġà¤īà¤ª à¤¶à¤¹à¤°à¤ª
à¤°à¤¸ à¤Ł
Ġà¤¶à¤ķ à¤¶
à¤¸à¤° à¤ľ
à¤µà¤£ à¤µ
à¤Ŀ à¤°à¤µ
à¤¯à¤® à¤¬à¤¦
à¤ħ à¤²à¤®à¤§
à¤ħ à¤ªà¤µ
à¤ľà¤¨ à¤¬à¤§
à¤µà¤¡ à¤¹
à¤µà¤¡ à¤ª
à¤ı à¤¨à¤µ
à¤¯à¤¤ à¤ķà¤¡
Ġà¤Ĩà¤° à¤Ĺ
à¤¡à¤² à¤ķ
à¤¡à¤² à¤®
Ġà¤¨à¤µ à¤®à¤¤à¤¦
à¤Ĩ à¤ĵ
à¤¶à¤¨ à¤¸à¤®
à¤¬à¤¤ à¤¬
Ġà¤ªà¤£ à¤¨à¤®
à¤Łà¤² à¤ª
à¤°à¤ª à¤Ĺ
à¤°à¤ª à¤Łà¤¨
à¤²à¤¯ à¤¸
à¤Ĺà¤£ à¤Ĺ
Ġ: '
Ġ: (
à¤ĩ à¤·
à¤ĩ à¤¡à¤µ
à¤ĩ à¤¤à¤¬
à¤²à¤ķ à¤®à¤§
Ġà¤Ĩà¤¯ à¤ıà¤¨à¤Ł
à¤¦à¤² à¤µ
à¤Łà¤ķ à¤®
à¤Łà¤ķ à¤¶
à¤¯à¤² à¤µà¤°
à¤®à¤¤ à¤®
Ġà¤īà¤¦ à¤§
à¤¸à¤¤ à¤¯
Ġà¤ĸà¤° à¤ĸà¤°
à¤µà¤¨ à¤¥à¤¡
Ġà¤ĵ à¤°à¤®
Ġà¤ĵ à¤¶à¤¨
Ġà¤ĵ à¤ķà¤²
Ġà¤ĵ à¤ķà¤µà¤°
Ġà¤ĵ à¤µà¤°à¤¨
Ġà¤ªà¤¦ à¤Ĺ
ar ed
ar ak
in ct
in ning
an u
à¤²à¤¨ à¤ķ
à¤ľà¤ª à¤¸à¤®
on kan
à¤Ľ à¤ļ
Ġà¤ľà¤¨ à¤¬
à¤¯à¤¨ à¤ķ
à¤¯à¤¨ à¤µà¤°
à¤¯à¤¨ à¤ķà¤²
à¤ļà¤¨ à¤¨
à¤ĵ à¤¶
à¤¨à¤µ à¤ª
à¤¨à¤µ à¤¶
ĠM ir
ĠM ake
ĠM ushrif
à¤ķà¤°à¤£ à¤¦
à¤¤à¤µ à¤ļ
à¤°à¤Ń à¤¦
Ġà¤¨à¤ķ à¤³
Ġà¥« à¥©à¥¦
Ġà¥« à¥§à¥Ń
ĠS G
ĠS O
ĠS ay
ĠS ood
à¥¬ à¥ªà¥¦
à¤°à¤¹ à¤¹
à¤§à¤µ à¤ª
à¤¡à¤ķ à¤ªà¤¸
Ġà¥ª 00
Ġà¥ª à¥§à¥§
al ed
à¤°à¤ªà¤Ł à¤ļ
à¤ī à¤¡à¤¤
à¤ī à¤¦à¤Ĺ
à¤²à¤¬ à¤µà¤°
or age
Ġ3 22
à¤¸à¤® à¤Ń
en ar
Ġt em
Ġt old
Ġt reatment
à¤¬à¤² à¤Ĺà¤¨
à¤¸à¤ķ à¤Łà¤²
ĠP age
ĠP rav
ĠP urn
ĠP ita
ĠP RO
ĠP vt
à¤§à¤ķ à¤ļ
à¤®à¤Ĺ à¤¢
Ġà¤Ķ à¤ªà¤¨
ĠN iz
ĠN az
à¤ªà¤ķ à¤ķ
à¤ķà¤£ à¤¬
ic o
ĠA j
ĠA er
ĠA CC
Ġ? ...
00 00
as hiv
à¤¯à¤° à¤Ł
Ġà¥Ń à¥ªà¥¦
ĠT un
ĠT ak
ĠT ag
ĠT erm
ĠT her
ĠT ambe
à¤ªà¤Ł à¤¶
ĠC D
ĠC or
ĠC ases
ĠC alc
ĠC ivil
ĠC ultivation
à¤ľà¤² à¤ĸ
à¤łà¤ķ à¤¨
Ġà¥® 0
à¤ķà¤Ł à¤¸à¤®à¤¯
à¤łà¤² à¤Ńà¤ķ
Ġà¤Ī à¤ıà¤¸
Ġà¤ĳà¤« à¤°à¤¹
à¤µà¤°à¤£ à¤¦
ĠG ord
ĠG PU
am ous
à¤°à¤ķà¤² à¤°
om as
Ġà¤ıà¤¸ à¤ľ
Ġs ure
Ġs ena
Ġà¥¯ à¥©à¥Ń
ur o
à¤ķà¤¨ à¤¨
à¤¬à¤³ à¤¯
ol ation
à¤Ĩà¤¯ à¤Ĩà¤°à¤¸
à¤¸à¤µ à¤§
à¤¸à¤µ à¤¦à¤¤
Ġà¤ĩà¤¨ à¤®à¤°
Ġc enter
Ġ202 6
ĠB ed
ĠB ond
ĠB MI
ĠB irth
ĠB lood
ĠB order
ĠR ight
ĠR IP
ĠR IL
Ġf a
Ġf raud
Ġn eeds
Ġn ever
ĠD H
ĠD anve
ĠD arekar
Ġà¤¸à¤¨ à¤¥
Ġà¤Ĩà¤Ī à¤ľà¤µà¤³
Ġà¤µà¤¡ à¤¨à¤Ĺà¤°
Ġà¤ıà¤® à¤Ī
à¤ķà¤³ à¤ª
à¤ķà¤³ à¤µà¤£
ĠL L
à¤ıà¤® à¤Ĩà¤°à¤¸
à¤Ĩà¤° à¤ıà¤¸à¤ıà¤¸
à¤Īà¤Ł à¤®
re k
Ġà¤īà¤¡ à¤¯
à¤ĩà¤Ł à¤ª
Ġp p
Ġp ig
Ġp df
Ġp oints
Ġ10 31
Ġà¤ĺà¤¡ à¤¤à¤ļ
Ġo cc
har kh
Ġà¤¹à¤° à¤¬à¤°
Ġb read
Ġb rowned
ro be
Ġà¤¹à¤¤ à¤Ń
ve en
Ġà¤ıà¤ª à¤¬
Ġ19 4
Ġ19 25
Ġ19 05
Ġà¤¨à¤® à¤µà¤¤
ĠE k
ĠE psom
Ġà¥§à¥® à¥©à¥§
Ġà¥§à¥® à¥ªà¥ª
Ġà¥§à¥® à¥©à¥¯
Ġm ode
Ġm eth
Ġm oment
Ġà¤Ĭ à¤Ń
à¤ıà¤² à¤µà¤°
à¤ıà¤² à¤Ĩà¤¯
à¤ıà¤² à¤ĵà¤ļ
ay boli
Ġa ffect
Ġa ahe
à¥ĩà¤Ĥ, '
à¤¨à¤¤ à¤ľ
Ġà¤¶à¤¨ à¤®
Ġd ries
Ġd irect
ht ar
Ġl ag
Ġl ower
ĠF ac
ĠF act
ĠF riend
ĠF LS
el ia
el come
à¤¯à¤°à¤² à¤¹
Ġà¥§à¥Ń à¥¯à¥¨
Ġà¥§à¥Ń à¥¯à¥Ń
um ps
à¤¾à¤ĥ '
ĠH old
ĠH ike
ĠH ave
ĠH uawei
à¤ĸà¤¨ à¤ªà¤¦
ĠK at
ĠK is
ĠK om
ĠK ale
ĠK idney
ĠK shir
à¥ĩ) -
ot a
à¤ıà¤¨ à¤Ĩà¤°
à¤ıà¤¨ à¤ıà¤«
à¤¨à¤® à¤³
ĠW ik
ĠW oman
ess ions
à¤ıà¤« à¤Ĩà¤°à¤ª
à¤¬à¤¨ à¤¡
ant e
ant om
Ġ25 4
ĠV aj
ĠV aze
Ġà¤ªà¤°à¤® à¤ľ
od o
od er
à¥§à¥¯ à¥«à¥¦
à¥§à¥¯ à¥¨à¥§
à¥§à¥¯ à¥¨à¥«
à¥§à¥¯ à¥©à¥©
à¥§à¥¯ à¥ªà¥¨
ce p
Ġh usband
Ġh alf
ĠIn st
à¤ıà¤ļ à¤ļ
à¤ıà¤ļ à¤Ĩà¤¯à¤µ
up endra
ig ar
ig ma
à¤ªà¤°à¤¤ à¤µ
Ġg ate
Ġg rad
Ġg ives
Ġg imbal
ĠU se
ĠU ttar
oc uments
Ġà¥¦ à¥¦à¥¦
ab ly
Ġà¤Ĩà¤ļ à¤®à¤¨
av ita
im s
im an
à¤¯à¤°à¤¸ à¤¶
à¤¯à¤°à¤¸ à¤®à¤§
Ġ24 7
Ġ24 9
Ġà¥¨à¥¬ à¥§
Ġà¥¨à¥¬ à¥ª
à¤¡à¤µà¤² à¤ķà¤°
à¤¡à¤µà¤² à¤¶à¤¹
ind i
Ġe mp
Ġ22 1
Ġ22 6
à¤Īà¤¡ à¤¬
Ġ21 4
à¤¯à¤Ĺ à¤¡à¤²
ĠSp ort
ĠSp eed
ĠSp eech
th al
th orn
Ġk ing
Ġk el
Ġk ul
Ġk ho
Ġk umar
Ġà¤ĩà¤° à¤Ī
ov es
ist ration
à¤¾" \
Ġâ Ķ
Ġy ok
à¥Ģ" \
Ġà¥ªà¥« à¥«
nà¤¤ à¤¥
.... "
Ġ23 1
Ġà¤īà¤§ à¤®à¤ª
Ġre li
Ġre els
Ġà¤¸à¤« à¤³
à¤®à¤³ à¤¦
Ġà¤ľà¤¡ à¤ľà¤µ
Ġ26 00
ish yam
Ġà¥Ńà¥¦ à¥§
Ġà¥Ńà¥¦ à¥¬
Ġà¤ıà¤ħà¤° à¤¬à¤¸
Ġ27 2
Ġr s
Ġr id
Ġr ule
ang iz
ult s
Ġcon ference
Ġà¥©à¥Ń à¥¨
Ġà¥©à¥Ń à¥©
ial ysis
Ġà¤ļà¤®à¤ļ à¤®à¤¤
ud a
à¤¨à¤ªà¤£ à¤ļ
Ġ29 2
Ġà¥©à¥ª à¥Ń
Ġà¥©à¥© à¥ª
Ġà¥©à¥© à¥¯
à¥§à¥¨ à¥ª
à¥§à¥¨ à¥¬
ho ot
ev en
Ġ35 00
à¤½ à¤µ
ef t
à¥§à¥§ à¥ª
à¥§à¥§ à¥©
Ġà¤Ĩà¤Ŀ à¤®à¤¨
Ġà¥©à¥® à¥©
Ġà¥©à¥® à¥Ń
à¥§à¥ª à¥ª
nà¤ľ à¤¯à¤ķ
à¤ªà¤¬ à¤ļà¤¤
Ġà¥ªà¥ª à¥¯
Ġà¥ªà¥ª à¥¬
Ġà¥¬à¥« à¥©
à¥ĩ... !
nà¤¶ à¤°à¤¦
ĠSh ow
ĠSh astri
Ġà¥ªà¥¬ à¥§
Ġà¥ªà¥Ń à¥¬
Ġha i
Ġha ir
Ġà¤ªà¤µà¤¨ à¤¸
à¥¨à¥© à¥®
Ġcont ract
Ġà¤¨à¤ľ à¤°à¤ļ
Ġà¥©à¥¯ à¥«
Ġà¥©à¥¯ à¥¬
Ġ75 00
à¤¯à¤¨à¤² à¤ªà¤°
uk one
ĠCh ini
Ġà¤Ĩà¤µà¤³ à¤¤
ĠX Z
Ġ37 9
Ġ36 2
Ġi Stock
ĠSub stitutes
Ġpro blems
Ġà¥ªà¥¯ à¥Ń
à¤Ŀà¤® à¤¬à¤°
ight ing
Ġà¥«à¥® à¥®
ax in
ib andh
Ġpl ant
Ġà¤łà¤¸ à¤µà¤£
ĠZ MZ
à¥ĭ! "
Ġà¥¬à¥Ń à¥¦
ĠChan ge
Ġà¤µà¤¸à¤Ī à¤ķà¤°
cl ip
ons ter
ĠRes ign
Ġà¥¬à¥® à¥¦
Ġà¥¬à¥¬ à¥¦
AT M
aut iful
Ġ55 00
Ġà¥®à¥® à¥®
ical s
ĠAn and
ĠAn im
ĠAn ti
ĠPl ant
Ġà¥Ńà¥¬ à¥®
Ġà¥¯à¥® à¥Ń
Ġà¥¯à¥Ń à¥¬
ĠDe ep
ĠDe epak
Ġ47 5
rib ed
ĠPr inc
Ġà¤ľà¤®à¤¤ à¤ļ
ond er
ĠFor ce
pl ic
à¤°à¤¬à¤³ à¤Ĺà¤¡
à¤¤à¤¸à¤° à¤®à¤§
Ġres idence
Ġra j
Ġà¤Ĩà¤ķà¤²à¤¨ à¤¶à¤ķ
Shiv aji
arn ing
Ġà¤Ŀà¤° à¤Ŀà¤°
man abad
An and
Ġ195 8
ĠRaj e
AR D
lar ed
rap e
Sh ub
IT I
IM IM
oj a
Ġcr ash
ific ial
ON G
nà¤Ĩ à¤®à¤¦
ĠMan n
Ġman ner
ĠOff er
ars ha
à¤īà¤Ŀ à¤°à¤ļ
ĠSe lect
du ce
Ġà¤īà¤ķà¤² à¤²
ĠRE AD
Ġgov t
nW ed
Ġà¤Ĩà¤¯à¤ıà¤® à¤ıà¤«
At ul
TI F
Mar ket
à¤Ĩà¤¯à¤ıà¤¸ à¤ıà¤²
IR C
tem pt
ĠCont roversy
,, ,
à¤¸à¤į à¤Ĺ
Ġbo ard
ĠQu otes
ĠCha w
ĠCha pter
ĠLe vel
Ġfl u
à² ¾
Ġworld wide
ĠRo om
ĠCol or
Pro f
ĠAh med
let ter
IL L
Ġsk iers
ĠCar vidon
ĠDis claimer
ession al
Ġvis ibility
RR R
Pol itical
ĠIM X
ĠNe o
Ġpart s
Me ga
Am ravati
ĠRail ways
ĠBal abanovo
ingiz ga
Ġstr ength
Ġbro ught
ĠSal man
Ġgl obal
âĸ ª
Ġtr ue
Ġdef e
Ak ola
olt ah
ĠAsh erman
Ġcal c
ĠReg ion
LS O
ĠEl igibility
Ġà¤¬à¤°à¤ļ à¤¸
iffer ence
ĠStud ent
Ġorgan isms
ĠBi har
ĠOpp osition
Ab dul
minist rat
bl og
ĠTar get
Ġcomple te
OM G
Ġà¤Ĩà¤ĩà¤ķ à¤®à¤¨
ĠMer chant
Ġcent ury
Ġà¤½ à¤½
Son ia
ĠRa o
ĠEconom ic
Ġdri ver
ĠPremi um
Ġjud a
stitut ions
arr hal
Ġpri ority
Ġnec essary
Ġna hi
Ġacid à¤¸
Moh ammed
San wad
ĠUG C
ĠLiter ature
ĠWeek ly
Ġà¥®à¥®à¥Ńà¥¯à¥¬à¥«à¥Ń à¥¬
Ġris k
alyt ics
Ġcyc loalkanes
Ġproper ty
Gaut am
ĠJohn son
pay ee
Ġudd hav
ĠSaf ety
Mang o
ĠFit bit
isl ative
hun wala
Ġà¤Ĩà¤ªà¤® à¤¤à¤²à¤¬
alib an
ĠTit ans
osop hy
Care er
ĠMel ava
ĠCR PF
ĠRid ers
Ġghat ak
aniy agala
ðĿ Ĵ
ĠWire less
ĠChow k
ĠMes olithic
Ġtrig ger
Ġwicket s
Ġmultivar ka
Ġnucle ot
ĠGra han
ĠMity aya
Ġischem ic
mahas ports
ĠRetail Bunny
hunj hunwala
âĥ £
ĠPurn ima
ĠPita haya
harkh and
ĠChini Mandi
" .\
( "
* ,
+ +
4 20
? ?"
A x
B P
B R
B y
B ut
B ody
C ha
C lim
D O
D har
D iv
D iet
F at
F on
F adnavis
G ur
G ood
H SC
H asan
I K
I r
I PO
I OC
J I
J ag
L ist
L ight
M F
M ake
N O
N DA
N irmala
O FS
P E
P er
P ass
P ublished
P PF
P hotos
R atnagiri
S O
S ai
S ep
S ury
S unday
T rib
T ER
T oday
T aliban
U ST
V a
V in
W IN
X iaomi
a e
b ar
b oss
c et
c un
c ane
c ott
d en
d is
d igital
d raw
f ew
f ree
g ha
g ency
h m
h ov
h ande
h naaz
i at
i ation
i ences
k isan
l atest
l ya
m ost
n l
n à¤°à¤¤
n à¤¯à¤ķ
n à¤ľà¤¨
n à¤¸à¤²
n on
n es
n à¤ªà¤ķ
n à¤¹à¤²
n à¤ķà¤µ
n à¤ľà¤¸
n à¤ĳà¤ķ
n ashik
n à¤ĳà¤¸
n Read
o T
o il
o led
p es
p iece
s har
s han
t rans
v ing
w at
w ing
w ell
Ø ª
Ú ©
â Ļ
Ġ ash
Ġ having
à¥į à¥Ģ
à¤° à¤Łà¤°
à¤° à¤³à¤µ
à¥ĩ à¥Ģ
à¥ĩ ].
à¤¯ à¤°à¤¶
à¤¯ à¤µà¤ļ
à¤² à¤¯à¤¤
à¤² à¤ªà¤µ
à¤² à¤°à¤ķà¤¡
à¤² à¤ľà¤®à¤§
à¤² à¤ħà¤ĸ
à¤² à¤ĵà¤µ
à¤¨ à¤ħ
à¤¨ à¤Łà¤°
à¤¨ à¤¶à¤ķ
à¤¨ à¤°à¤ķà¤¡
à¤¨ à¤ĺà¤Łà¤ķ
à¤¨ à¤Ŀà¤¡
à¤Ĥ à¥¤
à¤ķ à¤Łà¤¨
à¤ķ à¤ªà¤²
à¤µ à¤ªà¤¤
à¤µ à¤ħà¤Ł
à¤ļ à¤°à¤¦
à¤ļ à¤ħà¤ª
à¤¸ à¤Ĩ
à¤¹ à¤¯à¤²
Ġà¤ķ à¤²à¤¯
Ġà¤ķ à¤«à¤²
à¤® à¤Ĩà¤°
à¤® à¤«à¤³
Ġà¤ª à¤·
Ġà¤ª à¤¸à¤®
Ġà¤ª à¤ĸà¤µ
Ġà¤® à¤¸à¤¨
Ġà¤® à¤¦à¤¯
Ġà¤® à¤¸à¤¨à¤µ
à¤ª à¤²à¤ķ
à¤ª à¤®à¤¨
à¤ª à¤ªà¤¦
à¤¦ à¤¹à¤¨
à¤¦ à¤®à¤²
à¤¦ à¤°à¤µà¤£
à¥Ĥ à¥¤
Ġà¤ħ à¤ķà¤¡
Ġà¤ħ à¤ªà¤¯
Ġà¤ħ à¤ľà¤ª
Ġà¤ħ à¤«à¤¤
Ġà¤ħ à¤£à¤ķ
à¤Ĺ à¤ķà¤²
à¤Ĺ à¤ľà¤°
à¤Ĺ à¤ªà¤¦
Ġà¤µ à¤ł
Ġà¤µ à¤ĸà¤°
Ġà¤µ à¤¨à¤ļà¤°
à¤Ł à¤°à¤ķà¤°
à¤ľ à¤®à¤¸
à¤¡ à¤µà¤¨
à¤¡ à¤®à¤¯
à¤¡ à¤®à¤®à¤§
Ġà¤¹ à¤łà¤¯
Ġà¤¹ à¤¡à¤¸à¤¨
Ġà¤¯ à¤ľà¤¨
à¤§ à¤°à¤¸
à¤§ à¤Ĺà¤¡
à¤¶ à¤¸à¤®à¤§
à¤³ à¤ķà¤µ
Ġà¤¦ à¤µà¤¡à¤£
à¤· à¤¸à¤°
Ġà¤ľ à¤²à¤¤
à¤¬ à¤Ŀ
à¤¬ à¤°à¤¸à¤¹
à¤¬ à¤¬à¤²à¤®à¤§
Ġà¤° à¤¹à¤¨
Ġà¤° à¤¥à¤ķ
Ġà¤¬ à¤Łà¤µ
Ġà¤ķà¤° à¤ªà¤£
Ġà¤Ĺ à¤®à¤²
Ġà¤² à¤£à¤ľ
à¤ĸ à¤¯
à¤ĸ à¤§
à¤Ń à¤Ĺà¤µà¤¤
Ġà¤ļ à¤ķà¤®
Ġà¤ļ à¤ĺà¤³à¤£
Ġà¤Ń à¤¯à¤ķà¤¥
Ġà¤ī à¤¸à¤£
Ġà¤ĺ à¤°à¤¸
Ġà¤ı à¤µà¤®
à¤°à¤ķ à¤ĸ
Ġà¤ĸ à¤¤à¤°
Ġà¤ĸ à¤¡à¤ª
Ġà¤ĸ à¤¡à¤Ĺ
Ġà¤ıà¤ķ à¤ªà¤£
Ġà¤ıà¤ķ à¤Ĺà¤ł
à¤¤à¤° à¤®à¤§
à¤¤à¤° à¤®à¤¹
à¤¤à¤° à¤®à¤¶
à¤Ī à¤ľà¤°
à¤°à¤¤ à¤¬
à¤¢ à¤¬
à¤¢ à¤°à¤ªà¤Ł
à¤ķà¤° à¤®à¤¨
à¤¹à¤£ à¤Ĺ
Ġà¤ªà¤° à¤µà¤¡à¤²
Ġà¤Ł à¤Ĺ
à¤¯à¤ķ à¤¦
Ġà¤¤à¤° à¤µà¤¡
Ġà¤ĩ à¤£
Ġà¤ĩ à¤¯à¤¨
Ġà¤ĩ à¤¦à¤Ĺ
à¤ĺ à¤¬
à¤ĺ à¤ªà¤°
à¤ĺ à¤Łà¤¸
à¤°à¤® à¤ªà¤°
à¥Ģ, ,
Ġà¤Ĩà¤ª à¤Ĩà¤ªà¤¸
Ġà¤ł à¤ķà¤°
Ġà¤ł à¤µà¤ķà¤°
à¤µà¤¸ à¤®à¤°
à¤µà¤¸ à¤Īà¤ļ
à¤« à¤¸à¤¹
à¤« à¤²à¤¤
Ġà¤¸à¤° à¤Ĺà¤°
à¤ķà¤¡ à¤¹
à¤ķà¤¡ à¤°à¤¹
à¤°à¤µ à¤¹
à¤ªà¤° à¤Ł
Ġà¤§ à¤·
Ġà¤ħà¤¨ à¤¯
Ġà¤µà¤° à¤ªà¤°
Ġ' (
Ġà¤īà¤ª à¤³
Ġà¤īà¤ª à¤īà¤ª
à¤°à¤¸ à¤ªà¤¤
à¤Ŀ à¤¦
à¤Ŀ à¤¨à¤¨
à¤¯à¤® à¤¸à¤¨à¤ļ
à¤ħ à¤¸à¤µà¤°
à¤ħ à¤°à¤ķà¤¡
Ġà¤Ĩà¤¤ à¤¡à¤¯
à¤Ĺà¤¤ à¤ªà¤£
à¤ľà¤¨ à¤ħà¤Ń
à¤ı à¤°à¤ļ
à¤ı à¤®à¤¦
à¤ı à¤Ĩà¤°
à¤ı à¤Ĩà¤¯à¤¸
à¤¡à¤² à¤Ĺà¤¤
à¤°à¤² à¤®à¤§
à¤Ĩ à¤¯à¤¦
à¤Ĩ à¤¡à¤ļ
à¤Ĩ à¤°à¤ķà¤¡
à¤¶à¤¨ à¤ĸ
à¤ªà¤¨ à¤¸
à¤Łà¤² à¤¸à¤®
Ġà¤Ĩà¤ľ à¤ķà¤²
à¤°à¤ª à¤Łà¤ķ
à¤°à¤ª à¤¤à¤¨
à¤µà¤³ à¤Ĺ
Ġà¤®à¤§ à¤µ
à¤Īà¤² à¤µà¤°à¤ļ
à¤ĩ à¤¨à¤ķ
Ġà¤Ĩà¤¯ à¤ıà¤¸à¤¸
à¤¦à¤² à¤¸
à¤Łà¤ķ à¤Ĺ
Ġà¤ķà¤® à¤²à¤ļ
Ġ" -
Ġà¤Ĩà¤µ à¤ķà¤¹
Ġà¤®à¤¨ à¤ķ
Ġà¤®à¤¨ à¤¸à¤°
Ġà¤®à¤¨ à¤®à¤°
Ġà¤®à¤¨ à¤¸à¤¬
Ġà¤ĵ à¤°à¤²
Ġà¤ĵ à¤¸à¤°à¤£
ar ay
ar ina
in ary
in ux
at in
à¤²à¤¨ à¤Ł
à¤¦à¤¨ à¤®
à¤¦à¤¨ à¤ªà¤¤
Ġà¤ħà¤ª à¤ķà¤°
à¤·à¤ķ à¤¤à¤¤
à¤ĸà¤² à¤£
à¥« à¥¨à¥¦à¥¨à¥§
Ġà¤®à¤² à¤ľà¤²
à¤ľà¤ª à¤łà¤£
à¤¯à¤¨ à¤°à¤ļ
Ġà¤ħà¤® à¤²à¤¦
à¤ľà¤ķ à¤¹
Ġà¤Ľ à¤³à¤µ
à¤ľà¤° à¤µà¤°
Ġà¤Ĩà¤¦ à¤³à¤£
es c
es ent
à¤°à¤¨ à¤°
à¤°à¤¨ à¤ľ
à¤ĵ à¤µà¤³
ĠM ic
ĠM ate
ĠM akar
ĠM ovies
à¤¨à¤¸ à¤¬
à¤¡à¤¤ à¤ķà¤°
Ġà¤°à¤¸ à¤¶
à¤°à¤Ń à¤¯
Ġà¥« à¥§à¥¯
Ġà¥« à¥¯à¥¯
Ġà¥« à¥§à¥©
ĠS ak
ĠS ai
ĠS ee
à¥Ń à¥«à¥¦
à¤°à¤¹ à¤ļ
à¤§à¤µ à¤¦
à¤µà¤ļ à¤¤
Ġà¥ª à¥§à¥¨
Ġà¥ª à¥§à¥«
à¤ī à¤¦à¤°
à¤ī à¤¸à¤®
Ġà¤¬à¤¦à¤² à¤µà¤£
Ġà¤Łà¤ķ à¤®à¤ķ
or st
or se
Ġt ag
Ġt ya
Ġt ree
Ġt imes
Ġt ask
à¤ªà¤¦ à¤ļ
Ġ! )
à¤¸à¤ķ à¤ªà¤£
ew ay
ĠP un
ĠP ak
ĠP asses
it ar
it el
it ter
it ive
it ting
à¤³à¤µ à¤¦à¤ķà¤°
Ġà¤Ķ à¤ªà¤°
Ġà¤īà¤® à¤Ĺà¤¤
Ġà¤ľà¤Ĺ à¤§à¤¨
ĠN as
ĠN iti
ĠN OT
Ġà¤§à¤° à¤¬
ĠA BC
ĠA kshay
Ġ5 10
Ġ5 23
Ġ5 90
Ġ? .
Ġ? ',
à¤Ńà¤µ à¤®
à¤¯à¤¸ à¤ĸ
Ġà¥¬ à¥§à¥¬
Ġà¤¸à¤Ĺà¤³ à¤ļ
Ġà¤¯à¤¶ à¤¦
à¤¡à¤µ à¤ª
à¤¡à¤µ à¤Ĺà¤£
he ther
à¤¸à¤¦ à¤®à¤§
Ġà¤®à¤Ĺ à¤¨
à¤ıà¤¸ à¤Ĩà¤¯à¤Ĩà¤°
ĠT am
ĠT ri
ĠT ext
ĠI R
ĠI FS
Ġà¤¬à¤¨ à¤Ĺà¤°
ĠC E
ĠC U
ĠC ov
ĠC ome
ĠC amp
ĠC hem
ĠC yclone
Ġà¤Ĺà¤£ à¤Ĺ
Ġà¥® à¥ªà¥¦
Ġà¥® à¥©à¥©
Ġà¤¶à¤¬ à¤¨à¤®
Ġà¤Ńà¤° à¤¡à¤§
and al
and ard
ĠG ol
ĠG ris
ĠG ATE
ĠG irish
Ġà¤¤à¤ķ à¤¨
am om
om ers
om icron
Ġà¤ıà¤¸ à¤ıà¤¨à¤¡
Ġà¤ıà¤¸ à¤Ĩà¤°à¤ıà¤ļ
Ġs ew
Ġs ha
Ġs ong
Ġs old
Ġs ite
Ġà¥¯ à¥¦à¥¦à¥¦
Ġà¥¯ à¥§à¥¦
ur ag
à¤¸à¤µ à¤Ĺà¤¤
à¤Łà¤£ à¤ĸ
Ġc lar
Ġc irc
à¤®à¤¦ à¤¶
ĠB ur
ĠB ik
ĠB ap
ĠB IS
ĠB reak
ĠB itcoin
ĠB uds
ĠB ACK
à¤¨à¤Ĺ à¤°à¤ķà¤¡
ĠR ot
ĠR os
ĠR ass
ĠR oll
ĠR ose
à¤ĩà¤¨ à¤®à¤¨
Ġf ig
Ġf ast
Ġf requency
Ġn em
ĠD ia
ĠD ep
ĠD ilip
ĠD iabetes
ĠD ocument
Ġà¤¨à¤° à¤³
ra fung
Ġ9 60
Ġà¤¢ à¤µà¤£
Ġà¤µà¤¡ à¤ª
Ġà¤ıà¤® à¤ıà¤¸à¤¸
ĠL G
ĠL od
ĠL ine
ĠL ib
ĠL ike
ĠL anguage
ĠL etter
ĠL enovo
et al
et able
et te
un c
Ġà¤ĵà¤³à¤ĸ à¤ļ
Ġw on
Ġw ishes
Ġw eek
Ġw orth
à¤Īà¤ķ à¤ªà¤£
re f
re y
re ars
à¤ĩà¤Ł à¤¶
Ġp y
Ġp al
Ġp ot
Ġp hot
Ġp ublished
Ġp oor
Ġp sych
Ġp ermission
Ġp harmac
à¤¦à¤ķ à¤ªà¤¦
à¤¹à¤² à¤®
il ities
Ġb al
Ġb lo
Ġb ike
Ġb uild
Ġb uilding
ro z
ro en
Ġ19 31
Ġ19 44
Ġà¤¨à¤® à¤µà¤£
ĠE r
ĠE th
ĠE very
ĠE PF
ĠE urope
à¤¡à¤ķà¤° à¤¨
Ġà¥§à¥® à¥¨à¥¬
Ġà¥§à¥® à¥©à¥Ń
Ġà¥§à¥® à¥©à¥®
Ġà¥§à¥® à¥©à¥¬
Ġà¥§à¥® à¥«à¥®
Ġà¥§à¥® à¥ªà¥¨
Ġà¥§à¥® à¥¬à¥§
Ġà¥§à¥® à¥«à¥§
Ġà¥§à¥® à¥«à¥¯
Ġm ul
Ġm ail
Ġm achine
Ġm embers
Ġm orning
Ġà¤Ĭ à¤¦
Ġà¤Ĭ à¤łà¤¸
Ġà¤ıà¤¨ à¤Ĩà¤°à¤ľ
Ġà¤¸à¤µ à¤¦
est yl
à¥¤ '
à¤ļà¤ķ à¤µà¤°
à¤ĸà¤£ à¤Ĺ
Ġd u
Ġd en
Ġd ies
Ġd iet
Ġd iesel
Ġd aily
Ġd ifficult
à¤Łà¤® à¤³à¤²
à¤°à¤¬ à¤ķ
ht hen
Ġl ok
Ġl ose
Ġl arge
Ġl aunched
ĠF à¤ļ
ĠF inance
Ġà¤ķà¤³ à¤¯
ut he
à¤®à¤¯ à¤ľ
ter nal
Ġà¥§à¥¬ à¥«à¥¦
Ġà¥§à¥Ń à¥¨à¥¦
Ġà¥§à¥Ń à¥©à¥Ń
à¤ªà¤® à¤ľ
ĠH P
ĠH R
ĠH a
ĠH o
ĠH as
ĠH um
ĠH uman
ĠH igher
ĠK as
ĠK ha
ĠK ot
ĠK ahchu
ĠK TG
ment ed
ri er
ri otic
à¤ıà¤¨ à¤ıà¤¸à¤ıà¤¸
Ġto ow
à¥¨à¥¦ à¥¨à¥ª
os l
à¤ªà¤¡ à¤®
Ġà¤¤à¤³ à¤¯
ĠJ u
ĠJ er
ĠJ esus
ĠW H
ĠW OR
ĠW AB
à¤ıà¤« à¤ĵà¤¨
ĠO rig
ob el
Ġà¤ıà¤² à¤ıà¤²
Ġ25 1
Ġ25 8
ĠV an
ĠV ac
ĠV IP
à¤ĳ à¤«à¤²
Ġfor get
Ġfor ward
à¥§à¥¯ à¥§à¥¯
à¥§à¥¯ à¥Ńà¥¦
à¥§à¥¯ à¥¬à¥¬
à¥§à¥¯ à¥¬à¥ª
à¥§à¥¯ à¥¬à¥¨
à¥§à¥¯ à¥®à¥Ń
ĠRe bel
Ġh ands
ĠIn sp
ĠIn nov
Ġà¤ħà¤Ł à¤³à¤ªà¤£
à¤ħà¤¨ à¤ĺ
up ta
Ġ50 1
Ġg ang
Ġg ram
Ġg old
à¥ĩ! )
nà¤® à¤¸à¤°à¤¬
Ġà¤¨à¤Ĭ à¤ľà¤£
à¤ªà¤³ à¤¸
à¤¯à¤°à¤¸ à¤¹
Ġ24 00
ĠSt ick
ind a
Ġe ver
Ġe Tre
Ġà¤ķà¤³à¤¤ à¤¹
Ġ[ '
Ġà¥©à¥« à¥¯
Ġà¥©à¥« à¥®
Ġà¤¸à¤£ à¤¸à¤°
Ġà¤¬à¤¡ à¤µà¤¤
ate hi
Ġà¤ıà¤« à¤ıà¤ķ
Ġà¤¦à¤¶ à¤¦
Ġà¤ıà¤ļ à¤ıà¤¸à¤¬
Ġk i
Ġk apoor
Ġà¤¸à¤²à¤Ĺ à¤ªà¤£
Ġ40 60
à¤īà¤¦ à¤¯à¤¨à¤°
à¤ĸà¤³ à¤¦
à¤¤à¤¬ à¤§
Ġy og
à¤Ļ à¤²
Ġre v
Ġre ve
Ġre view
à¤°à¤¹à¤£ à¤¶
à¤®à¤Ł à¤ªà¤£
à¤®à¤³ à¤¨
Ġst ri
Ġst yle
Ġst ories
Ġst aff
Ġst opped
Ġà¤ıà¤ľ à¤¬
ill in
ip stick
aw ant
aw alla
ĠY ar
Ġr hin
Ġ28 4
Ġ28 9
Ġà¤µà¤ļà¤¨ à¤Ń
Ġapp rov
Ġcon nect
Ġcon nection
à¤¨à¤Ń à¤Ł
Ġà¤Ĺà¤¹ à¤ľà¤¬
Ġcom ing
ma ha
Ġà¤Ĩà¤ĸ à¤¡à¤²
à¤¯à¤¸à¤¨ à¤ļ
Ġ29 4
Ġj obs
Ġj ars
Ġà¤ķà¤£ à¤ķà¤£
ith er
Ġan c
à¥§à¥Ń à¥§
ĠShar es
ac itor
ac una
Ġbe es
Ġbe ets
Ġà¥©à¥© à¥©
ard e
ard es
10 2
ho o
Ġ35 3
à¤½ à¤®
ne g
Ġà¤ļà¤²à¤¨ à¤µà¤²à¤¨
12 2
ff er
ress ion
15 4
Ġà¤¦à¤¸ à¤ªà¤Ł
Ġà¥ªà¥¨ à¥¬
Ġà¥ªà¥ª à¥«
ĠSh ami
ĠSh ukla
nà¤¨ à¤®à¤¸
Ġà¤ªà¤µà¤¨ à¤¨à¤Ĺà¤°
ah uj
Ġcont raindic
Ġà¥©à¥¯ à¥¨
ĠPat han
ĠX X
Ġ37 2
ĠAs ian
ry ing
Ġà¥«à¥¨ à¥¯
Ġ36 6
ell es
ĠEd itor
Ġpro p
Ġpro te
li b
ock er
Ġex pl
ord ers
à¤ľà¤¦à¤° à¤¬
Ġhe al
ge on
nà¤ħ à¤¯
az ine
Ġà¥«à¥© à¥ª
Ġà¥¬à¥ª à¥¨
Ġà¥¬à¥ª à¥¯
Ġà¤ĺà¤¨ à¤Ĺà¤¡
pr et
IC E
Ġam ong
ĠCom puter
ĠPro v
Ġà¥¬à¥Ń à¥§
Ġà¤Ĺà¤µà¤³ à¤£
Ġare as
Ġà¥¬à¥® à¥¨
Ġ38 4
AT S
AT ED
Ġà¥Ńà¥Ń à¥®
Ġcan not
Ġà¥®à¥® à¥¦
Ġà¥®à¥® à¥©
Ġsp eak
Ġso ftware
Ġà¥Ńà¥¬ à¥§
Ġà¤ļà¤ª à¤³à¤¤
ss c
Ġà¥Ńà¥® à¥¦
Ġà¥¯à¥Ń à¥ª
GB T
Ġà¥®à¥¬ à¥§
Ġà¥®à¥¬ à¥¯
ĠSc ore
ĠSc ale
SE BI
AN T
amb ir
à¥¨à¥¦à¥¦ à¥§
ĠIt rafung
à¤µà¤ĸ à¤²à¤ķ
200 2
vers ion
à¤®à¤¨à¤Ĺà¤° à¤®à¤§
à¤µà¤Ī à¤¶
Ġà¤ħà¤¥ à¤£
ung us
Ġà¤¹à¤¡à¤ªà¤¸à¤° à¤®à¤§
Ġme an
AR C
Ġse ction
Ġse lect
Ġread y
ĠBl aze
uj a
Ġà¤ħà¤²à¤ķ à¤¨
Ġà¥§à¥®à¥Ń à¥ª
Ġà¥§à¥®à¥Ń à¥©
nà¤Ĩ à¤ľà¤ķ
ĠMan y
Ġpost poned
Ġz oe
ĠMaha bhar
EC T
ĠAir c
He at
CM R
had a
iy ana
ĠCO B
Dr ishyam
Ġà¤¬à¤¬à¤² à¤®à¤§
ĠAmazon à¤®
........ ........
Ġà¤Ĩà¤¯à¤ıà¤® à¤ıà¤«à¤¨
ick y
Ġcl osed
ĠPlus à¤ļ
At al
TI ON
Ġà¤ıà¤®à¤ıà¤² à¤ıà¤®
US A
à¤¾à¤¼ .
atur day
à¤Ĩà¤¯à¤ıà¤¸ à¤ĵ
à¤Ĩà¤¯à¤ıà¤¸ à¤ıà¤«
Ġà¤ĸà¤µ à¤ĸà¤µ
rev ention
Ġpol y
EN D
ĠPand ita
Ġget ting
ĠCon ference
Ġlead ing
Ġac ross
à¤°à¤ľà¤µà¤³ à¤ļ
ĠTra ffic
ĠAc id
hal kar
ĠCM A
Ġfl ag
De cember
à¤Łà¤ħ à¤ªà¤¸
ĠRam esh
go ogle
Ġits elf
Ġcount ries
ĠTrans l
Ġà¤ĵà¤²à¤¸à¤° à¤ªà¤£
Ġpre par
ĠPay ment
NE ET
Am rit
ues day
ĠAI IMS
Ġ\ _'
Ġtrans port
Ġsal ting
Ġsw ifts
int end
Ġà¤®à¤°à¤ķ à¤ľà¤®à¤§
âĸ ł
Ġsl ams
ĠMand al
ĠMod el
Ak hil
ĠAsh ok
Ash adhi
aster n
itiz en
Ġcap tain
ĠBab a
ĠInf inix
uv raj
Ø§ ÙĦ
IF A
ĠCr itic
à§ į
Ġà¤ıà¤¯ à¤°à¤¹
Whats app
Ġà¤ıà¤ķà¤µà¤Ł à¤£
Ġsign s
Ġsign ific
Ġcat fish
Ġlakh s
Ed ucation
stru ct
Ġtur li
OL L
Ġchar acter
ĠRoy als
ĠWork ers
ĠGu idelines
Ġschool s
Ġà¤¹à¤³à¤¹ à¤³à¤¤
ĠSup riya
Ġà¤ıà¤«à¤ıà¤¸ à¤Ĩà¤¯à¤ļ
Tw eet
à³ į
Ġà¥ł à¤¤
ĠPa vel
Ġfr esh
eta Inf
nà¤¸à¤¹ à¤®à¤¤
aib hav
ĠOlymp ic
Sush ma
gress ive
Ã¶ l
Ġsam antha
Ġkm pl
ĠSho pping
ĠDef ender
ĠJa is
yaz an
ĠOrgan ic
Ġide a
Ġopt ion
Ġrespons e
Group s
Ġband ha
Har sh
atal ia
ĠDem and
Ġest abl
ĠLiter ary
Chan akya
uf act
ĠPuj ara
ĠCond ition
ĠRup ali
ĠDri ve
erc ise
ĠBU Y
Ġox androlone
ĠMedic ine
Ġenc our
Ġà¤¤à¤¡à¤¤ à¤¡
Ġsav ing
ertil izer
Gop ichand
ĠRen o
Ġà¤®à¤¸à¤£ à¤ľ
ĠGrow th
Ġposs ible
ĠKund ra
uet ooth
Ġrele ased
Ġpop ulation
ithvi raj
ĠSched ule
Common wealth
Ġà¤ļà¤°à¤« à¤¡à¤¤
ĠAx is
ĠWall papers
achel or
Ġushl ag
ĠÃĸ z
Ġprab hu
season al
ĠPubl ish
ĠCit roen
Ġ9860 265
à¤¹à¤¡à¤ª à¤¸à¤°
Ġà¤ļà¤µà¤ķ à¤¶
Ġà¤Ĩà¤¯à¤ıà¤« à¤ıà¤¸à¤¸
à¤µà¤°à¤£à¤¤ à¤ľ
ĠKshir sagar
Ġyok i
IRC TC
hthen es
ĠeTre x
Ġcontraindic ated
etaInf o
Ġ9860265 261
- ]
. /
2 10
8 50
; (
? )\
B hag
B uldhana
C alc
D I
D ay
D ata
D CP
E k
F Y
F ake
F arming
G irl
H N
H S
H ost
H DFC
J ammu
K C
K har
K AR
K ashmir
K iran
K TG
K areena
K ishori
K atrina
L E
L ife
L ump
M M
M er
M aj
M aval
N U
N on
N MC
N atural
O TT
P rab
P rad
P ension
S et
S ch
S hu
S hak
T O
T han
T EL
T ianhui
U I
U se
V astu
W ith
W oman
Z illa
b ro
b ut
c ons
d s
d ict
e kar
f ast
g in
g uru
h ol
h ny
h wag
i ef
k at
k han
l ad
l ike
m ang
m ila
n à¤Ī
n à¤¶à¤¨
n à¤¹à¤¨
n is
n à¤¤à¤³
n à¤¤à¤¤
n à¤ķà¤¦
n à¤Ĩà¤ª
n à¤ļà¤¹
n IN
n à¤ĵà¤µ
n à¤Ĩà¤¶
n à¤Ĩà¤²
n à¤ĩà¤¤
n à¤ıà¤ķà¤¨
n cp
o om
p in
p ot
p ers
q a
r ates
r ity
r ase
s un
s ub
u han
v as
v il
v acc
w ade
w ire
w ich
y ond
á »
Ġ ama
Ġ hik
ļ ¨
à¤¾ =
à¤¾ _
à¤¾ âĢ¢
à¥į !
à¥į à¤¾à¤Ĥ
à¥į âĢ
à¤° à¤ħ
à¤° à¤°à¤¨
à¤° à¤Ĺà¤¸
à¤° à¤Łà¤ķà¤°
à¤° à¤Ĩà¤¨
à¤° à¤īà¤°
à¥ĩ à¥ĩ,
à¥Ģ à¥¥
à¤¤ à¤Ľ
à¤¤ à¤ľà¤¯
à¤¤ à¤¶à¤°
à¤¤ à¤¶à¤¹
à¤¯ à¤¯à¤ļ
à¤¯ à¤¬à¤¦
à¤¯ à¤Ĩà¤¯
à¤¯ à¤Łà¤®à¤§
à¤² à¤°à¤µ
à¤² à¤ħ
à¤² à¤Ĺà¤£
à¤² à¤§à¤ķ
à¤² à¤®à¤²
à¤² à¤®à¤ª
à¤² à¤ĺà¤µ
à¤² à¤Ĺà¤³à¤¤
à¤¨ à¤°à¤®
à¤Ĥ (
à¤Ĥ à¥į
à¤Ĥ à¥ģ
à¤Ĥ à¤Ĥ.
à¤ķ à¤¸à¤°
à¤ķ à¤¦à¤²
à¤ķ à¤Ĩà¤Ĭ
à¤µ à¤®à¤ļ
à¤µ à¤®à¤²
à¤ļ à¤·
à¤ļ à¤ł
à¤ļ à¤Ńà¤°
à¤¸ à¤Ĳà¤µà¤ľ
à¤¹ à¤²à¤¨
à¤¹ à¤¸à¤µ
à¤£ à¤®à¤¨
à¤£ à¤Ńà¤Ł
à¥ĭ à¥ĩà¤Ĥ
à¥ĭ )</
à¥ĭ à¥Ĵ
à¤® à¤°à¤®
à¤® à¤Ĺà¤µ
à¤® à¤ľà¤¸
Ġà¤Ĩ à¤µà¤£
Ġà¤Ĩ à¤³à¤£
Ġà¤Ĩ à¤¸à¤Ĺ
Ġà¤Ĩ à¤ĩà¤¨à¤¸
à¥ģ à¤¾
Ġà¤¸ à¤Łà¤²
Ġà¤ª à¤ļà¤²
Ġà¤® à¤°à¤ķà¤¡
Ġà¤® à¤¡à¤¬
à¤ª à¤ľà¤£
Ġà¤¤ à¤®à¤£
à¤¦ à¤®à¤¨
Ġà¤ħ à¤°à¤ķ
Ġà¤ħ à¤ĸà¤²
Ġà¤ħ à¤³à¤£
Ġà¤ħ à¤Ĺà¤¡
Ġà¤ħ à¤³à¤¶
à¤Ĺ à¤µà¤¸
à¤Ĺ à¤¸à¤ļ
à¤Ĺ à¤¹à¤®
à¤Ĺ à¤Ĺà¤¨
Ġà¤µ à¤¡à¤£
à¤Ł à¤Ĩà¤Ĭà¤Łà¤®à¤§
à¤ľ à¤°à¤¦
à¤ľ à¤¶à¤ķ
à¤ľ à¤®à¤²
à¤ľ à¤Ĩà¤§
à¤¡ à¤ĵà¤¹
Ġà¤¹ à¤Ĺ
Ġà¤¹ à¤°à¤ļ
Ġà¤¹ à¤®à¤¨
Ġà¤¹ à¤°à¤ªà¤¤
Ġà¤¹ à¤¬à¤ķ
à¤§ à¤°à¤²
à¤§ à¤ªà¤ķ
à¤§ à¤¹à¤¸
à¤§ à¤³à¤ķà¤°
Ġà¤¨ à¤¹à¤°
à¤¶ à¤¸à¤²
à¤¶ à¤µà¤ļ
à¤¶ à¤¸à¤®
à¤¶ à¤ħà¤ª
à¤³ à¤ĸà¤¤
Ġà¤¦ à¤¶à¤ª
Ġà¤¦ à¤µà¤¡à¤²
Ġà¤¦ à¤Ĺà¤²à¤¬
à¥ĩ. ......
à¤· à¤®à¤§
à¤· à¤±
à¤· à¤ĸà¤¡
à¤¬ à¤¸à¤¤
à¤¬ à¤¸à¤¦
à¤¬ à¤¨à¤¨
à¤¬ à¤µà¤°à¤ļ
à¤¬ à¤®à¤§à¤²
Ġà¤° à¤¸à¤¹
Ġà¤° à¤®à¤µ
Ġà¤° à¤¬à¤°à¤ļ
Ġà¤° à¤Īà¤¸à¤ļ
Ġà¤ķà¤° à¤¹
Ġà¤ķà¤° à¤ľ
Ġà¤ķà¤° à¤Ń
Ġà¤ķà¤° à¤¨à¤¨
à¤ł à¤°à¤ªà¤£
Ġà¤Ĺ à¤Łà¤°
Ġà¤Ĺ à¤¤à¤¸
Ġà¤² à¤²à¤µ
à¤¥ à¤ķà¤²
à¤ĸ à¤ªà¤°
à¤ĸ à¤±
à¤ĸ à¤¨à¤µ
à¤Ń à¤¬
à¤Ń à¤µà¤¯
à¤Ń à¤¨à¤Ĺà¤°
Ġà¤Ń à¤£à¤Ĺ
Ġà¤Ń à¤°à¤ķà¤Ł
Ġà¤ī à¤°à¤®
Ġà¤ī à¤¬à¤Ī
Ġà¤ĺ à¤¨à¤ªà¤¦
Ġà¤ı à¤®à¤µ
Ġà¤ı à¤¨à¤Ĺ
Ġà¤ı à¤¤à¤¸
à¥Ģ. .'
à¥ĩà¤Ĥ ]
à¥ĩà¤Ĥ ...
à¥ĩà¤Ĥ --
à¤°à¤ķ à¤Łà¤¨
à¤°à¤ķ à¤°à¤¨
à¤°à¤ķ à¤Łà¤ªà¤£
Ġà¤ĸ à¤¤à¤®
Ġà¤ĸ à¤¤à¤¨
Ġà¤ĸ à¤¬à¤±
Ġà¤ıà¤ķ à¤Ń
à¤Ī à¤¥
à¤Ī à¤Ń
à¤Ī à¤®à¤®à¤§
à¤°à¤¤ à¤¨à¤Ĺà¤°
à¤ķà¤° à¤ľ
Ġà¤Ĩà¤² à¤®à¤ļ
à¥ĩ, (
Ġà¤®à¤¹ à¤«
Ġà¤Ł à¤ļà¤ª
à¤°à¤£ à¤§
à¤°à¤£ à¤®à¤§
à¥Ī ,'
Ġà¤ĩ à¤ķà¤°
Ġà¤ĩ à¤²à¤¯
Ġà¤ĩ à¤¸à¤¬
à¤ĺ à¤¸à¤¹à¤ķ
Ġà¤Ĩà¤ª à¤°
Ġà¤ł à¤Ĺà¤¬
à¤Ĭ à¤ķà¤ļ
à¤Ĭ à¤ļà¤ļ
à¤Ĭ à¤£à¤¶
à¤« à¤ķà¤¡
à¤« à¤¡à¤£
Ġ( .
Ġà¤¡ à¤ķà¤µà¤°
à¤°à¤µ à¤®
à¤¤à¤² à¤²
à¤¤à¤² à¤§
Ġà¤µà¤° à¤Ī
Ġà¤µà¤° à¤ªà¤ķ
Ġà¤ħà¤¸à¤¤ à¤ļ
Ġà¤ķà¤°à¤¤ à¤¯
Ġà¤ħà¤¶ à¤°
à¤°à¤¸ à¤£
à¤µà¤¤ à¤¸
à¤µà¤£ à¤ĸ
à¤Ŀ à¤¹
à¤Ŀ à¤µà¤¤
à¤¯à¤® à¤¯à¤¤
à¤¯à¤® à¤¸à¤¹
à¤ħ à¤¸à¤¹
à¤ħ à¤®à¤®à¤§
Ġà¤Ĩà¤¤ à¤ªà¤°
à¤·à¤£ à¤ĸ
à¤·à¤£ à¤µà¤°
à¤Ĺà¤¤ à¤¶à¤ķ
à¤ı à¤Īà¤²
à¤ı à¤¨à¤°
à¤ı à¤ıà¤®à¤ıà¤¸
à¤®à¤ļ à¤°à¤£
à¤ĥ &
à¤Ĩ à¤ªà¤ķ
à¤Ĩ à¤Īà¤¸
à¤Ĩ à¤¦à¤®
à¤Ĩ à¤ĩà¤¸
à¤Ĩ à¤¸à¤ĸ
à¤ªà¤¨ à¤µà¤°
à¤Łà¤² à¤¹
à¤Łà¤² à¤¬
à¤Łà¤² à¤°à¤¶
Ġà¤Ĩà¤ľ à¤¤à¤°
à¤²à¤¯ à¤¦
à¤Łà¤¨ à¤®
à¤Łà¤¨ à¤ķà¤¡
à¤Īà¤² à¤¸à¤¹
à¤¸à¤² à¤Ł
à¤¹à¤° à¤ľ
à¤ĩ à¤Ĺà¤°
à¤ĩ à¤ħà¤°
à¤ĩ à¤«à¤²
à¥§ à¥§à¥Ń
à¥§ à¥§à¥«
à¤¸à¤¨ à¤Ĺ
à¤¸à¤¨ à¤ľ
à¤¸à¤¨ à¤¶
Ġà¤Ĩà¤¯ à¤°à¤¨
Ġà¤Ĩà¤¯ à¤ĵ
à¤Łà¤ķ à¤ªà¤£
Ġà¤ķà¤® à¤²à¤ķ
Ġà¤ķà¤® à¤°à¤ªà¤Ł
Ġà¤ķà¤® à¤¨à¤¶
à¤¯à¤² à¤ª
à¤¯à¤² à¤°à¤ļ
à¤Ĺà¤³ à¤²
à¤®à¤¤ à¤¸
Ġà¤īà¤¦ à¤¯à¤ķ
Ġà¤īà¤¦ à¤Ńà¤µà¤¤
à¤¸à¤¤ à¤ľ
Ġà¤ĸà¤° à¤¡à¤ªà¤Ł
à¤°à¤¦ à¤¤
Ġà¤ĵ à¤·
Ġà¤ĵ à¤¤à¤ķ
Ġà¤ĵ à¤ķà¤¨
Ġà¤ĵ à¤ıà¤®à¤Ĩà¤°
Ġà¤ªà¤¦ à¤ķà¤µ
à¤¬à¤Ī à¤ľà¤µà¤³
in j
in ol
in ations
an al
at o
at han
at omy
à¤°à¤ľ à¤¸
à¤¦à¤¨ à¤Ĺ
à¤¦à¤¨ à¤ªà¤°
à¤¦à¤¨ à¤Ĺà¤°à¤ļ
à¤ľà¤ª à¤®
on ic
on ents
Ġà¤®à¤¤ à¤ªà¤°
à¤¸à¤ļ à¤°
à¤¯à¤¦ à¤¶
Ġà¤ķà¤² à¤²
Ġà¤¸à¤¤ à¤¨
er aj
à¤ľà¤ķ à¤µ
Ġà¤Ľ à¤°
à¤ľà¤° à¤¬
Ġà¤Ĩà¤¦ à¤°à¤¸à¤¤
à¤§à¤¨ à¤¦à¤°à¤µ
à¤°à¤¨ à¤ķ
à¤µà¤¯ à¤ª
à¤ĵ à¤¬à¤¦
à¤ĵ à¤Ŀà¤°
à¤¨à¤µ à¤ķ
à¥© à¥©à¥Ń
ĠM AP
ĠM MR
ĠM IDC
ĠM asti
à¤ķà¤°à¤£ à¤¨
Ġà¤¨à¤ķ à¤µ
Ġà¥« à¥¨à¥«
ĠS U
ĠS hak
ĠS olar
ĠS orry
à¤§à¤µ à¤Łà¤ļ
al led
à¤ī à¤°à¤²
à¤ī à¤¸à¤¨
à¤ī à¤¡à¤°
à¤ªà¤² à¤¸
Ġà¤ħà¤ľ à¤¬à¤ļ
or ical
Ġà¤µà¤¸ à¤Īà¤²
à¤¸à¤® à¤¦
en i
en z
Ġt ell
Ġt error
Ġ! ...
ew ork
ĠP ok
ĠP AK
ĠP IB
ĠP CL
it ch
it able
Ġà¤¸à¤¦ à¤Ń
Ġà¤ħà¤² à¤Ł
Ġà¤īà¤® à¤²à¤£
ĠN am
ĠN ight
ĠN ations
ĠN eg
ĠN atural
ĠN VIDIA
à¤ªà¤ķ à¤ªà¤¦
ĠA LSO
Ġ? )
à¤Ńà¤µ à¤ª
hi pped
Ġà¥¬ 0
Ġà¥¬ à¥§à¥«
Ġà¥¬ à¥¨à¥§
à¤·à¤¦ à¤®à¤§
à¤µà¤¢ à¤ļ
Ġà¥Ń à¥©à¥¦
is i
Ġà¤¦à¤¹ à¤¶à¤µ
ĠT ank
ĠT IL
ĠT iago
à¤ªà¤Ł à¤ķà¤°
ĠI PC
ĠI CMR
ĠC re
ĠC amb
ĠC ount
ĠC ars
ĠC lean
ĠC aste
ĠC orruption
ĠC GL
à¤¶à¤¯ à¤Ĺ
le ted
le com
à¤łà¤ķ à¤ļ
Ġà¥® à¥§à¥¨
Ġà¥® à¥¨à¥¨
Ġà¥® à¥§à¥¬
Ġà¥® à¥§à¥©
à¤ķà¤Ł à¤¹
à¤ķà¤Ł à¤ªà¤Ł
Ġà¤ķà¤ª à¤²à¤¨
ad ing
Ġà¤Ī à¤ķà¤¡
Ġà¤Ī à¤¶à¤¨
Ġà¤ĳà¤« à¤°à¤¸à¤¹
à¥Ģ' )
Ġà¤Ĺà¤Ł à¤¸
ĠG rand
à¤¤à¤¤ à¤¤
am lar
à¤µà¤ª à¤¶
Ġà¤ıà¤¸ à¤Ī
Ġà¤ıà¤¸ à¤ıà¤¸à¤¬
Ġs us
Ġs earch
Ġs ymptoms
Ġà¥¯ à¥¨à¥¦
ur ch
ol or
ol enko
à¤Ĩà¤¯ à¤¤à¤°
à¤Ĩà¤¯ à¤ıà¤¨
à¤Ĩà¤¯ à¤ĵà¤¸
[...]
