{"<s>":0,"<pad>":1,"</s>":2,"<unk>":3,"<mask>":4,"### सूचना:":5,"### उत्तर:":6,"### इनपुट:":7,"!":8,"\"":9,"#":10,"$":11,"%":12,"&":13,"'":14,"(":15,")":16,"*":17,"+":18,",":19,"-":20,".":21,"/":22,"0":23,"1":24,"2":25,"3":26,"4":27,"5":28,"6":29,"7":30,"8":31,"9":32,":":33,";":34,"<":35,"=":36,">":37,"?":38,"@":39,"A":40,"B":41,"C":42,"D":43,"E":44,"F":45,"G":46,"H":47,"I":48,"J":49,"K":50,"L":51,"M":52,"N":53,"O":54,"P":55,"Q":56,"R":57,"S":58,"T":59,"U":60,"V":61,"W":62,"X":63,"Y":64,"Z":65,"[":66,"\\":67,"]":68,"^":69,"_":70,"`":71,"a":72,"b":73,"c":74,"d":75,"e":76,"f":77,"g":78,"h":79,"i":80,"j":81,"k":82,"l":83,"m":84,"n":85,"o":86,"p":87,"q":88,"r":89,"s":90,"t":91,"u":92,"v":93,"w":94,"x":95,"y":96,"z":97,"{":98,"|":99,"}":100,"~":101,"¡":102,"¢":103,"£":104,"¤":105,"¥":106,"¦":107,"§":108,"¨":109,"©":110,"ª":111,"«":112,"¬":113,"®":114,"¯":115,"°":116,"±":117,"²":118,"³":119,"´":120,"µ":121,"¶":122,"·":123,"¸":124,"¹":125,"º":126,"»":127,"¼":128,"½":129,"¾":130,"¿":131,"À":132,"Á":133,"Â":134,"Ã":135,"Ä":136,"Å":137,"Æ":138,"Ç":139,"È":140,"É":141,"Ê":142,"Ë":143,"Ì":144,"Í":145,"Î":146,"Ï":147,"Ð":148,"Ñ":149,"Ò":150,"Ó":151,"Ô":152,"Õ":153,"Ö":154,"×":155,"Ø":156,"Ù":157,"Ú":158,"Û":159,"Ü":160,"Ý":161,"Þ":162,"ß":163,"à":164,"á":165,"â":166,"ã":167,"ä":168,"å":169,"æ":170,"ç":171,"è":172,"é":173,"ê":174,"ë":175,"ì":176,"í":177,"î":178,"ï":179,"ð":180,"ñ":181,"ò":182,"ó":183,"ô":184,"õ":185,"ö":186,"÷":187,"ø":188,"ù":189,"ú":190,"û":191,"ü":192,"ý":193,"þ":194,"ÿ":195,"Ā":196,"ā":197,"Ă":198,"ă":199,"Ą":200,"ą":201,"Ć":202,"ć":203,"Ĉ":204,"ĉ":205,"Ċ":206,"ċ":207,"Č":208,"č":209,"Ď":210,"ď":211,"Đ":212,"đ":213,"Ē":214,"ē":215,"Ĕ":216,"ĕ":217,"Ė":218,"ė":219,"Ę":220,"ę":221,"Ě":222,"ě":223,"Ĝ":224,"ĝ":225,"Ğ":226,"ğ":227,"Ġ":228,"ġ":229,"Ģ":230,"ģ":231,"Ĥ":232,"ĥ":233,"Ħ":234,"ħ":235,"Ĩ":236,"ĩ":237,"Ī":238,"ī":239,"Ĭ":240,"ĭ":241,"Į":242,"į":243,"İ":244,"ı":245,"Ĳ":246,"ĳ":247,"Ĵ":248,"ĵ":249,"Ķ":250,"ķ":251,"ĸ":252,"Ĺ":253,"ĺ":254,"Ļ":255,"ļ":256,"Ľ":257,"ľ":258,"Ŀ":259,"ŀ":260,"Ł":261,"ł":262,"Ń":263,"à¤":264,"à¥":265,"Ġà¤":266,"à¤¾":267,"à¥į":268,"à¥ĩ":269,"à¤°":270,"à¤¤":271,"à¥Ģ":272,"à¤²":273,"à¤¯":274,"à¤¨":275,"à¤¿":276,"à¤ļ":277,"à¤Ĥ":278,"à¤ķ":279,"à¤¹":280,"à¤µ":281,"à¤¸":282,"à¥ĭ":283,"à¤£":284,"Ġà¤ķ":285,"à¤®":286,"à¥ģ":287,"Ġà¤Ĩ":288,"Ġà¤®":289,"Ġà¤¤":290,"à¤ª":291,"Ġà¤ª":292,"à¥Ĥ":293,"Ġà¤¹":294,"Ġà¤¸":295,"à¤Ĺ":296,"Ġà¤ħ":297,"à¤¦":298,"à¤Ł":299,"Ġà¤µ":300,"à¤¡":301,"Ġà¤¨":302,"à¤¾à¤Ĥ":303,"à¤³":304,"à¤ľ":305,"à¤¶":306,"Ġà¤¬":307,"Ġà¤¦":308,"à¤¬":309,"Ġà¤ľ":310,"à¤§":311,"Ġà¤²":312,"à¥ĩ.":313,"Ġà¤ħà¤¸":314,"à¤·":315,"Ġà¤Ĺ":316,"à¤ĸ":317,"Ġà¤Ĩà¤¹":318,"Ġà¤¯":319,"à¤¾.":320,"à¥Ģ.":321,"..":322,"à¤µà¤°":323,"Ġà¤°":324,"Ġà¤ķà¤°":325,"Ġà¤¶":326,"à¤ł":327,"Ġà¤ļ":328,"Ġà¤Ĩà¤£":329,"à¤¥":330,"Ġà¤ı":331,"Ġà¤ĺ":332,"Ġà¤Ń":333,"Ġà¤ıà¤ķ":334,"à¤¹à¤£":335,"à¤Ń":336,"Ġà¤ī":337,"Ġà¤Ŀ":338,"Ġà¤ĸ":339,"âĢ":340,"Ġà¤¤à¤°":341,"Ġà¤«":342,"à¤Ī":343,"à¤Ĩ":344,"à¤Ŀ":345,"à¤¢":346,"à¤¤à¤°":347,"à¤ªà¤£":348,"à¤ĺ":349,"à¤¯à¤ļ":350,"à¤°à¤¤":351,"à¤ħ":352,"à¤¤à¤²":353,"à¤Ĭ":354,"à¤ªà¤²":355,"Ġà¤Ĩà¤²":356,"Ġà¤ĩ":357,"à¥Ī":358,"à¤µà¤²":359,"à¤¯à¤²":360,"Ġà¤ħà¤¸à¤¤":361,"à¥ī":362,"Ġà¤Ł":363,"à¤ķà¤¡":364,"à¤µà¤¤":365,"à¤Ĥ.":366,"à¤¿à¤Ĥ":367,"à¥ĭ.":368,"à¤«":369,"à¤Ĺà¤²":370,"à¤¹à¤¤":371,"à¤¾,":372,"Ġà¤ł":373,"à¤°à¤£":374,"Ġà¤ªà¤£":375,"à¤¡à¤²":376,"à¥ĩ,":377,"à¥ħ":378,"Ġà¤¡":379,"à¤Ĺà¤³":380,"à¤°à¤ķ":381,"Ġà¤µà¤°":382,"à¥Ģ,":383,"Ġà¤§":384,"Ġà¤¨à¤µ":385,"Ġà¤Ĩà¤ªà¤²":386,"à¤°à¤²":387,"à¥ĥ":388,"Ġà¤ħà¤¨":389,"à¤®à¤§":390,"Ġà¤ķà¤°à¤¤":391,"à¤ķà¤°":392,"à¤Łà¤²":393,"à¤¬à¤°":394,"à¤µà¤¸":395,"Ġà¤¸à¤®":396,"Ġà¤®à¤²":397,"**":398,"à¤ªà¤°":399,"Ġà¥":400,"à¤¸à¤²":401,"--":402,"à¤Ĭà¤¨":403,"à¤¯à¤ķ":404,"Ġà¤Ĩà¤¤":405,"à¤®à¤ļ":406,"Ġà¤ħà¤¸à¤²":407,"à¤¸à¤¤":408,"à¤¤à¤ķ":409,"à¤¸à¤°":410,"à¤°à¤®":411,"Ġà¤¸à¤°":412,"à¤°à¤ļ":413,"Ġà¤¥":414,"....":415,"à¤ı":416,"Ġà¤Ĩà¤µ":417,"âĢį":418,"à¤µà¤£":419,"à¥ģà¤Ĥ":420,"à¤Ĺà¤¤":421,"à¤ķà¤²":422,"Ġà¤ªà¤°":423,"Ġà¤ķà¤°à¤£":424,"à¤ķà¤¤":425,"Ġà¤ħà¤¶":426,"Ġà¤®à¤¨":427,"à¤¦à¤°":428,"à¤¦à¤²":429,"Ġà¤¸à¤Ĺà¤³":430,"Ġà¤®à¤§":431,"à¤¹à¤£à¤ľ":432,"à¥¦":433,"à¤°à¤ĸ":434,"à¤°à¤µ":435,"Ġà¤ĺà¤°":436,"==":437,"Ġà¤¬à¤ĺ":438,"à¥ĩà¤Ĥ":439,"à¥įâĢį":440,"à¤µà¤³":441,">>":442,"à¤Łà¤¤":443,"à¤ĩ":444,"à¥Ģà¤Ĥ":445,"à¤¾?":446,"Ġ\"":447,"à¥Į":448,"à¤Īà¤²":449,"à¤Ľ":450,"à¤¡à¤¤":451,"Ġà¤Ľ":452,"Ġà¤¬à¤°":453,"à¤¤à¤ļ":454,"Ġà¤ĵ":455,"à¤±":456,"Ġ'":457,"Ġ,":458,"à¤¨à¤ļ":459,"Ġà¤¨à¤ķ":460,"Ġ(":461,"ĠâĢ":462,"à¤°à¤¸":463,"à¤³à¤¤":464,"Ġà¤Ĩà¤ľ":465,"à¤ıà¤ķ":466,"à¤Ĩà¤£":467,"à¤ĥ":468,"à¤®à¤²":469,"à¤Ĺà¤¦":470,"à¤ļà¤²":471,"à¤¬à¤¦":472,"âĢĻ":473,"à¤·à¤£":474,"****":475,"Ġà¤®à¤¹":476,"à¤ī":477,"à¤¶à¤¨":478,"...":479,"à¤¯à¤¤":480,"Ġà¤Ĩà¤®":481,"----":482,"à¥§":483,"à¤Ĩà¤¤":484,"Ġà¤¤à¤¸":485,"à¤²à¤¤":486,"Ġà¤Ĳ":487,"Ġà¤ľà¤°":488,"Ġà¤Ĩà¤ªà¤£":489,"Ġà¤ķà¤§":490,"à¤Ĺà¤£":491,"Ġà¤ħà¤°":492,"__":493,"à¥ĭà¤Ĥ":494,"Ġà¤Ĩà¤ł":495,"Ġà¤īà¤¤":496,"à¤Łà¤°":497,"à¤¾!":498,"Ġà¤ħà¤ľ":499,"à¤®à¤¸":500,"à¤°à¤¶":501,"à¤¸à¤®":502,"Ġà¤¸à¤®à¤ľ":503,"à¤ªà¤¨":504,"à¤®à¤Ĺ":505,"Ġà¤¸à¤¹":506,"Ġà¤ªà¤¹":507,"Ġà¤ĸà¤°":508,"à¤Łà¤ķ":509,"Ġà¤ķà¤¸":510,"à¤®à¤¤":511,"th":512,"à¤ħà¤°":513,"à¤°à¤ľ":514,"Ġà¤¬à¤¸":515,"Ġà¤®à¤Ĺ":516,"à¤Ĥ,":517,"à¤ľà¤°":518,"à¤¹à¤°":519,"à¤µà¤¨":520,"âĢĿ":521,"à¤¯à¤µ":522,"à¤²à¤ķ":523,"Ġà¤ķà¤®":524,"à¤£à¤¸":525,"à¤µà¤Ł":526,"Ġà¤¹à¤µ":527,"Ġ-":528,"in":529,"an":530,"à¤µà¤¢":531,"Ġà¤ĩà¤¥":532,"à¤°à¤ª":533,"Ġà¤¶à¤ķà¤¤":534,"à¤¹à¤£à¤¤":535,"à¥ĭ,":536,"à¤¬à¤¤":537,"Ġà¤ªà¤¡à¤²":538,"à¤³à¤²":539,"Ġà¤Ĩà¤®à¤ļ":540,"Ġà¤Ĩà¤Ī":541,"à¤¡à¤ķ":542,"====":543,"Ġà¤ħà¤Ĺà¤¦":544,"Ġà¤ıà¤ķà¤¦":545,"Ġà¤ªà¤°à¤¤":546,"Ġà¥§":547,"Ġà¤¬à¤¸à¤²":548,"à¤§à¤¨":549,"à¤łà¤²":550,"Ġà¤¶à¤ķ":551,"à¥Ģ!":552,"Ġà¤ĩà¤¤à¤ķ":553,"Ġà¤ĳ":554,"Ġà¤²à¤ķ":555,"à¥ĩ!":556,"Ġà¤Ĩà¤¯":557,"à¥ĩ?":558,"Ġà¤Ĩà¤§":559,"ĠâĢĺ":560,"Ġà¤īà¤¦":561,"à¤¬à¤²":562,"à¤Ńà¤°":563,"\"\"":564,"Ġà¤ķà¤¥":565,"er":566,"Ġà¤ħà¤Ń":567,"Ġà¤īà¤ª":568,"à¤²à¤²":569,"à¤ľà¤¨":570,"Ġà¤īà¤Ń":571,"Ġà¤²à¤Ĺ":572,"!!":573,"à¤µà¤¶":574,"à¤¡à¤£":575,"à¤®à¤¨":576,"Ġà¤¶à¤¬":577,"Ġà¤ķà¤²":578,"à¤¨à¤ķ":579,"à¤ªà¤¤":580,"à¤¢à¤²":581,"à¤µà¤°à¤ļ":582,"à¤Ĺà¤°":583,"à¤³à¤£":584,"à¤Ĩà¤ľ":585,"Ġà¤ħà¤ª":586,"à¤²à¤Ĺ":587,"Ġà¤ħà¤¤":588,"à¤¯à¤®":589,"Ġà¤°à¤¸":590,"à¤ŀ":591,"Ġà¤¨à¤¸à¤¤":592,"à¥¦à¥¦":593,"Ġà¤«à¤ķ":594,"à¤£à¤¤":595,"à¥¨":596,"Ġth":597,"à¤¯à¤¨":598,"at":599,"Ġà¤¬à¤¹":600,"âĢľ":601,"Ġà¤®à¤°":602,"à¤Ńà¤µ":603,"à¤¤à¤®":604,"à¤·à¤¯":605,"Ġà¤Ĩà¤¨":606,"Ġà¤ħà¤§":607,"à¤ľà¤²":608,"à¤¨à¤¹":609,"à¤ħà¤¸":610,"Ġà¤Ĩà¤µà¤¡à¤²":611,"Ġà¤¨à¤¸":612,"Ġà¥¨":613,"on":614,"Ġà¤ľà¤µà¤³":615,"à¤²à¤ļ":616,"à¤²à¤£":617,"Ġà¤ıà¤ĸ":618,"à¤Ĩà¤ªà¤²":619,"à¤ģ":620,"à¤²à¤¯":621,"à¤°à¤¯à¤¤":622,"********":623,"ar":624,"Ġà¤Ĩà¤°":625,"Ġà¤Ĳà¤ķ":626,"Ġà¤¤à¤¯":627,"Ġà¤µà¤Ĺ":628,"à¤³à¤ĸ":629,"Ġà¤ħà¤¸à¤£":630,"à¤¹à¤®":631,"Ġà¤¬à¤¨":632,"Ġs":633,"à¤¢à¤ļ":634,"à¥Ģ?":635,"à¤®à¤ķ":636,"--------":637,"Ġà¤ķà¤¶":638,"Ġà¤®à¤¸":639,"Ġà¤¬à¤ĺà¤¤":640,"Ġà¤¬à¤¦à¤²":641,"à¤µà¤¡":642,"Ġà¤ľà¤Ĺ":643,"........":644,"à¤°à¤¹":645,"à¤ļà¤¤":646,"Ġà¤ħà¤µ":647,"Ġà¤ªà¤¤":648,"à¤ĸà¤°":649,"Ġà¤ľà¤¨":650,"à¤¾-":651,"à¤Łà¤¨":652,"à¤¸à¤ļ":653,"Ġà¤ľà¤®":654,"Ġà¤ĩà¤¤à¤°":655,"Ġà¤¸à¤¤":656,"ĠĠ":657,"à¤¦à¤¨":658,"à¤ħà¤¨":659,"à¤Īà¤¨":660,"à¤ļà¤¨":661,"à¤µà¤¯":662,"Ġà¤§à¤°":663,"à¥«":664,"à¤²à¤¨":665,"à¤ħà¤¶":666,"Ġà¤®à¤¹à¤¤":667,"Ġa":668,"à¤¸à¤¨":669,"____":670,"à¤¤à¤¸":671,"Ġà¤Ĩà¤¶":672,"or":673,"à¤¤à¤¨":674,"Ġà¤ķà¤ª":675,"is":676,"à¤ĵ":677,"Ġà¤Ńà¤°":678,"Ġà¤ħà¤®":679,"Ġà¤ĵà¤³à¤ĸ":680,"à¤°à¤¦":681,"à¤Īà¤Ł":682,"âĢįà¥ħ":683,"à¤µà¤ķà¤°":684,"Ġà¤¦à¤°":685,"à¤¨à¤µ":686,"Ġw":687,"à¤µà¤ļ":688,"Ġà¤²à¤¹":689,"en":690,"Ġà¤ªà¤¡":691,"à¤ļà¤°":692,"à¤¸à¤ķ":693,"Ġà¤µà¤¸":694,"à¤¶à¤¯":695,"Ġà¤ķà¤³":696,"Ġà¤łà¤°":697,"à¥©":698,"à¥¯":699,"Ġà¤ķà¤¡":700,"à¤ĺà¤°":701,"Ġà¤¸à¤°à¤ķ":702,"à¤¢à¤¤":703,"al":704,"à¤¯à¤°":705,"Ġà¤Ĺà¤°à¤ľ":706,"Ġthe":707,"à¤Ĺà¤¡":708,"à¤°à¤ªà¤Ł":709,"ou":710,"Ġà¤¸à¤ķ":711,"à¤¡à¤¸":712,"Ġà¤ıà¤µà¤¢":713,"Ġà¤īà¤ĺ":714,"à¤¡à¤µ":715,"========":716,"à¤¯à¤¬":717,"à¤Ĺà¤ļ":718,"Ġà¤Ĩà¤ķ":719,"Ġà¤°à¤¹":720,"à¤Ĺà¤µ":721,"à¤Ĩà¤®":722,"it":723,"à¤¤à¤¹":724,"à¤¦à¤¤":725,"Ġà¤Ĩà¤łà¤µà¤£":726,"à¤¶à¤ķ":727,"Ġà¤§à¤¨":728,"Ġà¤ķà¤µ":729,"Ġà¤ªà¤¦":730,"Ġà¤ªà¤¡à¤¤":731,"âĢĺ":732,"es":733,"Ġb":734,"à¤¨à¤²":735,"à¤¨à¤¸":736,"Ġà¤ĳà¤«":737,"à¤¤à¤µ":738,"Ġà¤Ĩà¤ª":739,"à¤ªà¤ļ":740,"à¤Ĥ?":741,"Ġà¤¹à¤³":742,"Âł":743,"Ġà¤ľà¤£":744,"à¤ľà¤µà¤³":745,"à¤¸à¤¹":746,"Ġà¤¨à¤¸à¤²":747,"Ġà¤¨à¤ľà¤°":748,"à¤¯à¤¸":749,"Ġà¤Ĩà¤µà¤¡à¤¤":750,"à¤ĩà¤¥":751,"Ġt":752,"Ġc":753,"à¤ĸà¤¨":754,"Ġm":755,"à¤µà¤ľ":756,"à¤²à¤µ":757,"à¤¸à¤Ĺà¤³":758,"à¤§à¤¤":759,"à¤¯à¤¦":760,"à¤ļà¤ķ":761,"à¤¸à¤£":762,"Ġà¤¶à¤°":763,"Ġà¤Ī":764,"à¤Ĥ!":765,"à¤·à¤ķ":766,"Ġà¤ħà¤ļ":767,"à¤ķà¤£":768,"''":769,"ed":770,"à¤ķà¤³":771,"Ġà¤ıà¤ķà¤¦à¤®":772,"à¤®à¤°":773,"Ġp":774,"Ġà¤¤à¤¶":775,"??":776,"à¤Ĩà¤®à¤ļ":777,"as":778,"Ġà¤®à¤¤":779,"Ġà¤Ĺà¤°":780,"à¤ĩà¤¤à¤ķ":781,"à¤¹à¤Łà¤²":782,"à¤ªà¤Ł":783,"Ġà¤Ĩà¤µà¤¡":784,"à¤¤à¤¤":785,"à¤ķà¤Ł":786,"Ġà¤īà¤¤à¤°":787,"Ġà¤¨à¤¯":788,"à¤ķà¤ļ":789,"à¤¹à¤¨":790,"à¤µà¤ª":791,"Ġo":792,"à¥¤":793,"à¤ķà¤¨":794,"à¤µà¤ķ":795,"Ġà¤ķà¤³à¤²":796,"âĢ¦":797,">>>":798,"à¤¯à¤µà¤¸":799,"Ġà¤®à¤ľ":800,"à¥ª":801,"à¤ľà¤µ":802,"à¤¬à¤Ī":803,"à¤ļà¤£":804,"Ġà¤¢":805,"Ġà¤Ĩà¤£à¤ĸ":806,"ĠâĢľ":807,"ing":808,"à¥¬":809,"à¤§à¤°":810,"à¤Ĩà¤ªà¤£":811,"à¤ķà¤¦":812,"Ġà¤®à¤¦à¤¤":813,"à¤Łà¤£":814,"re":815,"Ġh":816,"à¤¶à¤²":817,"Ġà¤²à¤µà¤ķà¤°":818,"Ġà¤īà¤²":819,"ss":820,"à¤Łà¤ļ":821,"à¤ľà¤ļ":822,"à¤®à¤¹":823,"à¤®à¤£":824,"Ġà¤ıà¤ķà¤®":825,"à¤³à¤ľ":826,"à¤°à¤¥":827,"Ġà¤ħà¤¡":828,"à¥®":829,"à¤ľà¤¤":830,"à¤°à¤Ń":831,"à¥Ĥà¤Ĥ":832,"Ġà¤ħà¤ķ":833,"Ġà¤ļà¤°":834,"à¤¹à¤³":835,"à¤¸à¤ª":836,"à¤¸à¤±":837,"à¤ħà¤ľ":838,"à¤ķà¤§":839,"om":840,"à¥Ģ-":841,"à¤ķà¤¸":842,"Ġà¤ªà¤ķ":843,"à¤ħà¤Ĺà¤¦":844,"à¤ļà¤µ":845,"à¤£à¤¯":846,"Ġà¤ĩà¤¤":847,"à¤ķà¤¶":848,"à¤ĸà¤ķ":849,"à¥Ĥ.":850,"Ġà¤Ĺà¤ª":851,"Ġà¥©":852,"Ġà¤Ĩà¤łà¤µà¤¤":853,"à¤³à¤µ":854,"Ġof":855,"ic":856,"Ġf":857,"à¤ľà¤£":858,"Ġà¤Ĩà¤£à¤²":859,"à¤ªà¤¯":860,"à¤¡à¤³":861,"Ġà¤ıà¤ķà¤Ł":862,"à¤Ĩà¤§":863,"Ġà¤łà¤°à¤²":864,"Ġd":865,"à¤ķà¤µ":866,"à¤¹à¤²":867,"Ġà¤µà¤¯":868,"Ġà¤īà¤¡":869,"and":870,"à¤¨à¤¨":871,"Ġà¤µà¤¡":872,".....":873,"à¤ıà¤ķà¤¦":874,"à¤¤à¤³":875,"à¤¬à¤¡":876,"Ġà¤¸à¤®à¤ľà¤²":877,"el":878,"à¤ªà¤ķ":879,"Ġà¤¹à¤¸":880,"Ġà¤¦à¤¹":881,"Ġà¤ĩà¤ļ":882,"à¤°à¤¨":883,"à¤ªà¤¹":884,"Ġl":885,"à¥Ń":886,"Ġà¤īà¤Ĺ":887,"à¤ĸà¤²":888,"Ġà¤īà¤ł":889,"Ġ1":890,"****************":891,"----------------":892,"Ġ+":893,"ion":894,"à¤ªà¤¡":895,"à¤³à¤ļ":896,"à¤§à¤²":897,"à¤µà¤°à¤£":898,"à¤Ĩà¤Ī":899,"Ġà¤łà¤°à¤µà¤²":900,"Ġà¤Ĺà¤£":901,"Ġà¤Ĳà¤ķà¤²":902,"à¤¾'":903,">>>>":904,"à¤īà¤¨":905,"à¤µà¤Łà¤ļ":906,"à¤µà¤¡à¤²":907,"Ġà¤ªà¤¸":908,"à¤²à¤ķà¤°":909,"à¤ħà¤ª":910,"à¥ĭ!":911,"Ġà¤ħà¤²":912,"à¤ľà¤¸":913,"Ġà¤īà¤ļà¤²":914,"à¤¢à¤£":915,"à¤ķà¤°à¤£":916,"à¤ªà¤¦":917,"Ġin":918,"Ġà¤ķà¤³à¤¤":919,"Ġà¤ĺà¤Łà¤¨":920,"Ġà¤ķà¤¸à¤²":921,"à¤Īà¤ķ":922,"à¥ĩ)":923,"Ġà¤ªà¤Ł":924,"Ġà¤ķà¤¦":925,"Ġà¤Ĩà¤Ń":926,"Ġà¤¹à¤ľ":927,"à¤ªà¤·":928,"Ġn":929,"à¤ľà¤ķ":930,"à¤¨à¤°":931,"à¤£à¤¨":932,"Ġà¤ļà¤ķ":933,"Ġà¤®à¤§à¤²":934,"Ġà¤ķà¤ªà¤¡":935,"Ġà¤īà¤ĺà¤¡":936,"Ġà¤¬à¤¦":937,"à¤¬à¤¹":938,"à¤®à¤§à¤²":939,"à¤ªà¤°à¤¤":940,"à¤¹à¤£à¤£":941,"am":942,"Ġà¤Ĩà¤Ĺ":943,"à¤°à¤¡":944,"à¥Ģ'":945,"Ġà¤ªà¤ķà¤¡":946,"à¤¦à¤¸":947,"à¤¡à¤ļ":948,"Ġà¤Ĩà¤Īà¤ļ":949,"Ġà¤īà¤ªà¤¯":950,"ad":951,"à¤°à¤¯":952,"à¤¤à¤ªà¤£":953,"Ġà¤ĺà¤¡":954,"Ġà¤®à¤¶":955,"Ġà¤¹à¤¸à¤¤":956,"Ġà¤ļà¤¹":957,"il":958,"à¤¨à¤¤":959,"..\"":960,"à¤¥à¤²":961,"Ġà¤¸à¤¹à¤ľ":962,"à¤¾)":963,"à¤Łà¤¸":964,"à¤ĸà¤µ":965,"à¤¿.":966,"à¤ļà¤ļ":967,"Ġà¤¶à¤¹à¤°":968,"à¤¯à¤ķà¤²":969,"ch":970,"Ġ:":971,"à¤¾\"":972,"à¥Ģ)":973,"Ġà¤ªà¤³":974,"à¤«à¤ķ":975,"à¤īà¤¦":976,"à¤²à¤°":977,"à¤¬à¤¨":978,"Ġà¤¯à¤¶":979,"à¤ħà¤¤":980,"à¤µà¤Ń":981,"à¤¦à¤ķ":982,"à¤¡à¤®":983,"à¤¬à¤¸":984,"Ġà¤ľà¤¸":985,"Ġà¤Ĩà¤łà¤µà¤²":986,"<<":987,"âĹ":988,"Ġà¤ªà¤²":989,"à¤ĸà¤µà¤²":990,"âĹı":991,"à¤½":992,"à¤¡à¤°":993,"Ġà¤ľà¤®à¤²":994,"Ġà¤ľà¤¬":995,"Ġà¤ļà¤¢":996,"Ġà¤Ńà¤°à¤²":997,"Ġà¥«":998,"à¥§à¥§":999,"âĢĿâĢľ":1000,"ay":1001,"Ġg":1002,"Ġà¤ĭ":1003,"à¤ľà¤¯":1004,"à¤ĸà¤£":1005,"Ġà¤§à¤¡":1006,"Ġà¤Ĩà¤µà¤¶":1007,"Ġà¥¨à¥¦":1008,"Ġ)":1009,"à¤¨à¤¦":1010,"________":1011,"Ġà¤ħà¤µà¤¸":1012,"Ġ/":1013,"Ġà¤Ķ":1014,"à¤¹à¤°à¤£":1015,"Ġà¤¬à¤¸à¤¤":1016,"Ġà¤Ĺà¤¡":1017,"âĹıâĹı":1018,"à¤¯à¤ª":1019,"Ġà¤¹à¤²":1020,"à¤¦à¤¯":1021,"Ġà¤¨à¤µà¤°":1022,"à¤¶à¤ļ":1023,"Ġà¤ĺà¤¡à¤²":1024,"Ġà¤Ńà¤¯":1025,"Ġà¤¹à¤°":1026,"Ġà¥ª":1027,"à¤¤à¤ª":1028,"Ġà¤µà¤³":1029,"Ġà¤ĩà¤¨":1030,"he":1031,"Ġà¤ıà¤ķà¤ļ":1032,"ow":1033,"à¤¨à¤¶":1034,"Ġà¤¤à¤¤":1035,"à¤¨à¤Ĺ":1036,"à¤Łà¤ķà¤¨":1037,"ht":1038,"Ġand":1039,"à¤ķà¤¥":1040,"à¤¸à¤®à¤§":1041,"Ġà¤¨à¤¦":1042,"à¤Ĩà¤µà¤¡à¤²":1043,"Ġà¤¸à¤®à¤ľà¤¤":1044,"le":1045,"Ġà¤Ĩà¤¦":1046,"Ġà¤µà¤°à¤ļ":1047,"ĠM":1048,"ĠS":1049,"à¥Ģ\"":1050,"à¤ªà¤¡à¤²":1051,"Ġà¤ıà¤ķà¤¤":1052,"ĠI":1053,"Ġà¤¸à¤§":1054,"Ġà¤²à¤¢":1055,"à¤Īà¤ļ":1056,"à¤ħà¤Ń":1057,"Ġà¤Ĳà¤ķà¤¤":1058,"Ġto":1059,"Ġà¤Ĩà¤Īà¤²":1060,"Ġà¤°à¤ķ":1061,"Ġà¤«à¤°à¤ķ":1062,"Ġà¤¡à¤¬":1063,"Ġà¤¸à¤°à¤³":1064,"à¤īà¤¤":1065,"Ġà¤ħà¤µà¤ĺ":1066,"Ġà¤¸à¤µà¤¯":1067,"Ġà¥§à¥¯":1068,"ent":1069,"Ġy":1070,"à¤°à¤Ĺ":1071,"à¤¨à¤ªà¤£":1072,"Ġà¤¸à¤²":1073,"Ġà¤¦à¤°à¤µ":1074,"================":1075,"à¤¾âĢĻ":1076,"à¥ĩ\"":1077,"à¤²à¤¹":1078,"Ġà¤Ĩà¤¢":1079,"à¤łà¤µ":1080,"à¤ıà¤ĸ":1081,"Ġà¤ıà¤¸":1082,"Ġà¤ĩà¤ķà¤¡":1083,"Ġà¥ŀ":1084,"à¤°à¤¥à¤®":1085,"Ġ2":1086,"à¤¨à¤®à¤§":1087,"Ġà¤Ĩà¤¸":1088,"à¤§à¤ķ":1089,"à¤¥à¤³":1090,"à¤Ĭà¤¸":1091,"Ġà¤¸à¤¤à¤¤":1092,"à¥Ĥ,":1093,"Ġà¤°à¤µ":1094,"Ġà¤Ńà¤°à¤ª":1095,"st":1096,"un":1097,"à¤°à¤§":1098,"à¤²à¤®":1099,"Ġe":1100,"à¤ĸà¤µà¤¤":1101,"Ġà¤°à¤¤à¤¨":1102,"Ġà¤īà¤ĺà¤¡à¤²":1103,".\"":1104,"Ġà¤ķà¤ł":1105,"Ġà¤¶à¤ķà¤²":1106,"Ġà¤īà¤®":1107,"Ġà¤§à¤°à¤²":1108,"Ġà¤¸à¤¹à¤ķ":1109,"Ġà¤ªà¤Łà¤²":1110,"Ġà¤ļà¤²":1111,"à¤ıà¤µà¤¢":1112,"ĠâĢĵ":1113,"Ġà¤ľà¤µà¤³à¤ļ":1114,"ww":1115,"Ġà¤ħà¤¬":1116,"à¤¬à¤°à¤ļ":1117,"à¤°à¤ªà¤£":1118,"................":1119,"Ġà¤ľà¤¨à¤¤":1120,"à¤Ĳ":1121,"à¥ĩ-":1122,"à¤¨à¤µà¤°":1123,"à¤ķà¤®":1124,"Ġà¤¦à¤Ĺà¤¡":1125,"Ġà¤ľà¤ª":1126,"Ġà¤Ĺà¤³":1127,"Ġà¤īà¤ļ":1128,"Ġà¤Ĩà¤ľà¤ļ":1129,"Ġk":1130,"à¤®à¤¶":1131,"Ġà¤Ĩà¤µà¤°":1132,"Ġà¤ħà¤¹":1133,"à¤®à¤µ":1134,"Ġà¤¤à¤ª":1135,"Ġà¤ħà¤ĸ":1136,"à¤¶à¤µ":1137,"Ġà¤ªà¤°à¤µ":1138,"à¤£à¤ļ":1139,"Ġà¤¹à¤²à¤ķ":1140,"à¤³à¤ķ":1141,"Ġà¤īà¤ªà¤²":1142,"à¤ķà¤¡à¤ļ":1143,"Ġà¤¬à¤¸à¤£":1144,"Ġà¤īà¤²à¤Ł":1145,"à¥ĩ'":1146,"à¤¸à¤µ":1147,"Ġà¤¤à¤³":1148,"à¤¡à¤¨":1149,"Ġà¤īà¤¨":1150,"Ġà¤ĸà¤¡":1151,"à¤ħà¤®":1152,"Ġà¤Łà¤ķ":1153,"Ġà¤ĵà¤²":1154,"av":1155,"et":1156,"Ġà¤Ĭ":1157,"Ġà¤µà¤¹":1158,"Ġà¤ĵà¤°":1159,"ct":1160,"Ġà¤ķà¤Ł":1161,"à¤Łà¤®":1162,"Ġà¤Ńà¤ķ":1163,"Ġà¤Ńà¤µ":1164,"ce":1165,"ĠC":1166,"Ġà¤¦à¤ķ":1167,"à¤ĸà¤®":1168,"à¤ĩà¤¨":1169,"à¤ĳ":1170,"à¤¹à¤¢":1171,"à¤£à¤µ":1172,"à¤®à¤¦":1173,"Ġà¤ħà¤£":1174,"Ġà¤īà¤ªà¤²à¤¬":1175,"ot":1176,"à¤¯à¤¥":1177,"à¤¸à¤³":1178,"Ġà¤ªà¤¡à¤£":1179,"à¤¬à¤³":1180,"Ġà¤ĺà¤¡à¤¤":1181,"à¤Ĩà¤¯":1182,"Ġà¤§à¤ķ":1183,"à¤¬à¤°à¤¦à¤¸":1184,"ation":1185,"od":1186,"ut":1187,"à¤£à¤µà¤²":1188,"Ġà¤ħà¤Ĺ":1189,"à¤¬à¤°à¤²":1190,"Ġà¤¶à¤¸":1191,"Ġà¤Ńà¤²":1192,"à¤¹à¤¸":1193,"à¤£à¤ªà¤£":1194,"à¥ģà¤ĥ":1195,"Ġà¤¸à¤ª":1196,"à¤¦à¤µ":1197,"Ġà¤¬à¤±":1198,"Ġà¤²à¤ª":1199,"à¤¥à¤µ":1200,"Ġà¤īà¤łà¤²":1201,"à¤°à¤ķà¤°à¤£":1202,"Ġà¤Ĩà¤łà¤µà¤¡":1203,"à¤ªà¤°à¤²":1204,"Ġà¤ªà¤¨":1205,"Ġà¤ħà¤µà¤²":1206,"à¤ľà¤Ĺ":1207,"à¤¬à¤ķ":1208,"Ġà¤°à¤¡":1209,"à¤¤à¤°à¤ļ":1210,"à¤Ĭà¤²":1211,"Ġà¤¬à¤ĺà¤£":1212,"Ġà¤¸à¤¹à¤¨":1213,"à¤®à¤¯":1214,"à¤ľà¤®":1215,"Ġà¤īà¤¶":1216,"Ġà¤«à¤³":1217,"ĠâĢ¦":1218,"Ġà¤ªà¤¸à¤°à¤²":1219,"im":1220,"ĠB":1221,"Ġis":1222,"Ġà¤¸à¤µ":1223,"Ġà¤ħà¤¦":1224,"à¤¦à¤ļ":1225,"à¤Łà¤µà¤°":1226,"à¤ľà¤µà¤°":1227,"à¤§à¤£":1228,"Ġà¤¶à¤¹":1229,"Ġà¤īà¤°à¤²":1230,"Ġà¤īà¤ľà¤µ":1231,"à¤¢à¤°":1232,"à¤ħà¤µ":1233,"à¤¨à¤¯":1234,"Ġà¤¹à¤¤":1235,"à¤Łà¤ª":1236,"à¤¡à¤ª":1237,"Ġà¤¨à¤°":1238,"Ġà¤¬à¤³":1239,"à¤·à¤¤":1240,"Ġà¤¬à¤¦à¤²à¤²":1241,"iv":1242,"à¤¾à¤ģ":1243,"à¤£à¤µà¤¤":1244,"à¥ģ:":1245,"Ġà¤ĺà¤°à¤ļ":1246,"Ġà¤ľà¤µà¤³à¤ª":1247,"Ġà¤īà¤¤à¤°à¤²":1248,"Ġà¥¨à¥¦à¥§":1249,"à¥ĭ?":1250,"Ġà¤Ĩà¤£à¤£":1251,"à¤ħà¤Ĺ":1252,"à¤ĩà¤²":1253,"!!!":1254,"ag":1255,"ly":1256,"us":1257,"Ġon":1258,"à¤¤à¤¶":1259,"à¤µà¤§":1260,"Ġà¤ķà¤¬":1261,"Ġà¤¸à¤¦":1262,"à¤Ĺà¤¸":1263,"Ġà¤ħà¤Ł":1264,"Ġà¤ľà¤Ĺà¤£":1265,"à¤łà¤µà¤²":1266,"à¥ħà¤Ĥ":1267,"ĠâĢĻ":1268,"ab":1269,"ig":1270,"ĠA":1271,"à¤²à¤µà¤¤":1272,"à¥Ī.":1273,"à¤°à¤®à¤¶":1274,"Ġyou":1275,"ak":1276,"ir":1277,"à¤°à¤Ĺà¤¤":1278,"à¤²à¤¸":1279,"à¤£à¤ķ":1280,"Ġà¤¹à¤ķ":1281,"Ġà¤¸à¤Ń":1282,"à¤¦à¤¹":1283,"Ġà¤¬à¤¡":1284,"Ġà¤°à¤¶":1285,"à¤Ŀà¤°":1286,"Ġà¤ĩà¤®":1287,"Ġà¥®":1288,"Ġà¥Ń":1289,"ol":1290,"tp":1291,"à¥ĢâĢĻ":1292,"à¤ķà¤°à¤¤":1293,"Ġà¤®à¤ľà¤²":1294,"à¤Ĺà¤®":1295,"à¤·à¤°":1296,"Ġà¤īà¤¸":1297,"à¤¸à¤°à¤²":1298,"Ġà¤Ĩà¤¦à¤°":1299,"à¤ªà¤¸":1300,"à¤Ĺà¤¨":1301,"Ġà¤¨à¤¶":1302,"à¤¬à¤µ":1303,"à¤ħà¤²":1304,"Ġà¤łà¤°à¤µ":1305,"à¤½à¤½":1306,"//":1307,"Ġv":1308,"à¤¯à¤£":1309,"Ġà¤¸à¤ľ":1310,"à¤ľà¤¬":1311,"à¤¥à¤°":1312,"Ġà¤ĩà¤¸":1313,"à¤°à¤ķà¤¤":1314,"Ġà¥¬":1315,"Ġà¤ĵà¤¢":1316,"://":1317,"à¥ľ":1318,"à¤²à¤Ł":1319,"à¤¸à¤¦":1320,"Ġà¤ķà¤¨":1321,"Ġà¤¨à¤¹":1322,"Ġà¤Ńà¤°à¤¤":1323,"à¤Ŀà¤²":1324,"à¤ħà¤¹":1325,"Ġwh":1326,"Ġbe":1327,"Ġà¤ħà¤µà¤ĺà¤¡":1328,"à¤°à¤³":1329,"à¤¤à¤ķà¤°":1330,"à¤¸à¤§":1331,"Ġà¤Łà¤ª":1332,"à¤µà¤¸à¤Ńà¤°":1333,"ther":1334,"Ġà¤¬à¤¨à¤µà¤²":1335,").":1336,"com":1337,"Ġit":1338,"Ġre":1339,"à¤²à¤¦":1340,"à¤®à¤ľ":1341,"Ġà¤¨à¤®":1342,"à¤§à¤³":1343,"à¤µà¤°à¤¹":1344,"à¤Ĩà¤ª":1345,"Ġà¤¬à¤¨à¤µ":1346,"Ġà¤¬à¤¦à¤²à¤¤":1347,"http":1348,"ĠP":1349,"à¤¼":1350,"à¤²à¤¬":1351,"à¤ķà¤µà¤£":1352,"Ġà¤ªà¤Łà¤ķà¤¨":1353,"à¤¦à¤³":1354,"à¤¬à¤ĺ":1355,"Ġà¤łà¤°à¤¤":1356,"à¤°à¤ķà¤²":1357,"à¥Įà¤Ĥ":1358,"Ġà¤ĵà¤³":1359,"ist":1360,"ul":1361,"à¥ĩà¥¤":1362,"à¤°à¤«":1363,"à¤¯à¤ķà¤°":1364,"à¤ķà¤ª":1365,"à¤®à¤Ł":1366,"à¥ģ.":1367,"à¤·à¤¦":1368,"à¤ĸà¤¤":1369,"Ġà¤ĸà¤°à¤ļ":1370,"Ġà¥§à¥¦à¥¦":1371,"ro":1372,"à¤¾:":1373,"à¤¨à¤®":1374,"à¤¹à¤µ":1375,"Ġà¤ķà¤¹":1376,"Ġà¤ķà¤·":1377,"à¤ªà¤µ":1378,"à¤ªà¤¡à¤¤":1379,"à¤Łà¤µ":1380,"à¤ħà¤ļ":1381,"ap":1382,"id":1383,"à¤¢à¤µ":1384,"à¤¬à¤Īà¤¤":1385,"Ġà¤Ĺà¤£à¤ªà¤¤":1386,"Ġà¤īà¤ļà¤²à¤²":1387,"à¤²à¤ª":1388,"à¤®à¤®à¤§":1389,"Ġà¤ħà¤«":1390,"Ġà¤ħà¤¥à¤µ":1391,"Ġà¤ıà¤µ":1392,"à¤°à¤ķà¤°":1393,"est":1394,"han":1395,"ĠT":1396,"Ġan":1397,"à¤ĭ":1398,"à¤°à¤°":1399,"à¤²à¤µà¤²":1400,"Ġà¤ªà¤¶":1401,"à¥Ĥ?":1402,"à¤¶à¤¬":1403,"Ġà¤°à¤¤":1404,"à¤Īà¤¤":1405,"à¤Ĩà¤°":1406,"Ġà¤ħà¤¶à¤ķ":1407,"``":1408,"Ġ>>":1409,"Ġà¤®à¤¦":1410,"Ġà¤µà¤³à¤£":1411,"Ġà¤¬à¤²":1412,"Ġà¤ľà¤¹":1413,"Ġà¤Ĩà¤£à¤¤":1414,"à¤Ĭà¤ķ":1415,"Ġà¤¶à¤ķà¤£":1416,"à¥¨à¥¦":1417,"--------------------------------":1418,"\",":1419,"à¤¨à¤ª":1420,"à¤ķà¤µà¤²":1421,"à¤£à¤¬":1422,"Ġà¤¤à¤¡à¤ķ":1423,"à¤«à¤°":1424,"à¤¯à¤µà¤¹":1425,"Ġà¤ĩà¤¥à¤²":1426,"Ġà¥§à¥¦":1427,"Ġà¤ªà¤ķà¤¡à¤²":1428,"Ġà¤¯à¤¶à¤¸":1429,"à¤ķà¤µà¤¤":1430,"à¤®à¤³":1431,"Ġà¤¹à¤¸à¤²":1432,"à¤³à¤µà¤²":1433,"Ġà¤īà¤°":1434,"Ġà¤īà¤ľ":1435,"à¤ĩà¤¤à¤°":1436,"à¤Łà¤°à¤¨":1437,"Ġà¤Ĩà¤Īà¤¨":1438,"à¤Ĩà¤ľà¤ļ":1439,"Ġfor":1440,"Ġ19":1441,"âĹıâĹıâĹıâĹı":1442,"um":1443,"ĠG":1444,"Ġà¤¹à¤®":1445,"Ġà¤¹à¤°à¤ķà¤¤":1446,"à¤Ĺà¤ª":1447,"Ġà¤īà¤ªà¤ķ":1448,"Ġà¤¬à¤¨à¤²":1449,"Ġà¤ħà¤¡à¤ļà¤£":1450,"à¤°à¤¦à¤°":1451,"à¤¯à¤®à¤ļ":1452,"à¤ļà¤µà¤²":1453,"à¤ķà¤¹":1454,"à¤¸à¤µà¤°":1455,"Ġà¤Ĩà¤¸à¤ª":1456,"à¤ªà¤³":1457,"Ġà¤ľà¤®à¤¤":1458,"......":1459,"Ġà¤Ľà¤¤":1460,"Ġà¤²à¤µà¤ķà¤°à¤ļ":1461,"à¤ıà¤ķà¤¦à¤®":1462,"ur":1463,"à¤¯à¤Ł":1464,"Ġà¤Ĩà¤ķà¤¡":1465,"Ġà¤®à¤Ł":1466,"Ġà¤¤à¤ķ":1467,"à¤Łà¤®à¤§":1468,"Ġà¤ľà¤Ĺà¤¤":1469,"Ġà¤ıà¤®":1470,"à¤¦à¤²à¤ļ":1471,"********************************":1472,"++":1473,"nd":1474,"up":1475,"Ġà¤Ĩà¤³":1476,"à¤¶à¤¦":1477,"Ġà¤ľà¤¬à¤°à¤¦à¤¸":1478,"à¤·à¤°à¤¶":1479,"Ġà¤Ķà¤°":1480,"Ġ20":1481,"),":1482,"Ġr":1483,"à¤°à¤µà¤°":1484,"à¤ļà¤¯":1485,"à¤ļà¤¦":1486,"à¤ľà¤ª":1487,"à¤·à¤®à¤¤":1488,"à¤ĸà¤¦":1489,"ere":1490,"ĠD":1491,"à¥ĩ;":1492,"à¤°à¤µà¤²":1493,"à¤µà¤¹":1494,"à¤¸à¤¬":1495,"à¤Ńà¤²":1496,"Ġà¤ĩà¤¶":1497,"à¤µà¤²à¤ķà¤°":1498,"Ġà¤¨à¤ķà¤³à¤¤":1499,"à¤°à¤¸à¤¨":1500,"à¥¦à¥¦à¥¦":1501,"ck":1502,"ith":1503,"à¤²à¤µà¤ķà¤°":1504,"Ġà¤¸à¤ļ":1505,"à¤¦à¤£":1506,"Ġà¤µà¤ľà¤¨":1507,"à¤ĸà¤µà¤£":1508,"à¤ĺà¤¤":1509,"Ġà¤¸à¤¹à¤Ń":1510,"Ġà¥§à¥¨":1511,"Ġà¤īà¤ªà¤¸":1512,"ast":1513,"se":1514,"Ġà¤į":1515,"à¥ĩâĢĻ":1516,"Ġà¤Ĩà¤¤à¤²":1517,"Ġà¤Ĩà¤ķà¤°":1518,"Ġà¤ªà¤³à¤¤":1519,"à¤¦à¤°à¤®":1520,"Ġà¤µà¤ķ":1521,"Ġà¤¨à¤·":1522,"à¤³à¤µà¤£":1523,"à¤¶à¤°":1524,"à¤¶à¤¸":1525,"Ġà¤Ĺà¤Ł":1526,"à¤Īà¤ªà¤°":1527,"à¤Ĩà¤¨":1528,"à¤Ĩà¤¶":1529,"à¤°à¤®à¤£":1530,"ind":1531,"Ġst":1532,"20":1533,"ach":1534,"ĠL":1535,"à¤¹à¤ľ":1536,"à¤¹à¤±":1537,"à¥ģ,":1538,"Ġà¤ªà¤Ĺ":1539,"Ġà¤¸à¤¨":1540,"à¤¡à¤µà¤°":1541,"à¤ľà¤®à¤§":1542,"à¤īà¤Ĺ":1543,"Ġà¤Ĩà¤łà¤µ":1544,"Ġà¤ĳà¤ķ":1545,"ah":1546,"ri":1547,"ĠR":1548,"à¤²à¤ĸ":1549,"à¤²à¤µà¤°":1550,"à¤²à¤µà¤£":1551,"à¤ļà¤¸":1552,"Ġà¤¤à¤¬":1553,"Ġà¤ªà¤Łà¤¤":1554,"Ġà¤¹à¤Ł":1555,"Ġà¤ħà¤Ĺà¤¤":1556,"Ġà¤¬à¤ķ":1557,"Ġà¤¦à¤¤":1558,"à¤¬à¤¦à¤²":1559,"Ġà¤Ĺà¤°à¤®":1560,"Ġà¤ļà¤®à¤¤":1561,"à¤¥à¤¨":1562,"Ġà¤ĺà¤Ł":1563,"Ġà¤īà¤ªà¤¨":1564,"à¥Ģ,\"":1565,"Ġà¤ħà¤¨à¤¨":1566,"Ġà¤¸à¤®à¤°":1567,"Ġà¥¯":1568,".......":1569,"Ġà¤Ĩà¤ľà¤¹":1570,"à¥§à¥¯":1571,"à¤°à¤ªà¤¤":1572,"ish":1573,"à¤¸à¤ķà¤Ł":1574,"à¤Ĳà¤µà¤ľ":1575,"ear":1576,"ver":1577,"ĠH":1578,"à¤°à¤¬":1579,"à¤¤à¤¯":1580,"à¤²à¤Ń":1581,"Ġà¤¤à¤¡":1582,"à¤³à¤µà¤³":1583,"à¤¶à¤¨à¤ļ":1584,"Ġà¤¬à¤ľ":1585,"Ġà¤°à¤¡à¤¤":1586,"à¤Īà¤¸":1587,"à¤Ĩà¤²":1588,"à¤ĺà¤£":1589,"Ġà¤ĵà¤ĺ":1590,"Ġà¤¸à¤¹à¤®à¤¤":1591,"Ġà¤¬à¤¸à¤µ":1592,"Ġwas":1593,"Ġà¤¢à¤ķà¤²":1594,"ath":1595,"à¥Ģ;":1596,"à¤²à¤ªà¤£":1597,"à¤²à¤®à¤§":1598,"à¤®à¤¹à¤¤":1599,"Ġà¤¸à¤¬":1600,"à¤¡à¤Ĺ":1601,"à¤³à¤Ĺ":1602,"Ġà¤¬à¤¬à¤¨":1603,"à¤·à¤§":1604,"à¤ĸà¤°à¤ļ":1605,"à¤łà¤µà¤£":1606,"Ġà¤ĩà¤²":1607,"à¤«à¤²":1608,"Ġà¤¸à¤®à¤¸":1609,"...\"":1610,"Ġà¤ĭà¤·":1611,"Ġà¤Ĺà¤¡à¤¬à¤¡":1612,"ia":1613,"oo":1614,"Ġx":1615,"à¤¯à¤¸à¤¨":1616,"à¤ķà¤¸à¤²":1617,"à¤®à¤°à¤£":1618,"à¤§à¤µ":1619,"Ġà¤¶à¤¤à¤ķ":1620,"Ġà¤ļà¤µ":1621,"à¤¥à¤ķ":1622,"Ġà¤«à¤°":1623,"à¤Īà¤®":1624,"à¤ıà¤µ":1625,"à¤ĩà¤ķà¤¡":1626,"à¤īà¤²à¤Ł":1627,"!!!!":1628,"Ġà¥¨à¥¦à¥¦":1629,"Ġà¥¨à¥«":1630,"Ġà¤Ĳà¤ķà¤£":1631,"https":1632,",âĢľ":1633,"00":1634,"Ġj":1635,"à¤¨à¤¡":1636,"à¤ķà¤ªà¤£":1637,"Ġà¤¹à¤¸à¤£":1638,"à¤¬à¤£":1639,"Ġà¤ľà¤¯":1640,"Ġà¤ľà¤ĸà¤®":1641,"Ġà¤Ĺà¤¯":1642,"âĢĮ":1643,"Ġà¤Ĩà¤¯à¤¡":1644,"art":1645,"Ġ3":1646,"à¤¤à¤¬":1647,"à¤ļà¤¬à¤°":1648,"à¤Ĥ-":1649,"Ġà¤ªà¤¦à¤°":1650,"à¤Łà¤°à¤ļ":1651,"à¤¬à¤Ł":1652,"Ġà¤Ĺà¤²":1653,"à¤ĸà¤³":1654,"Ġà¤«à¤²":1655,"à¤ħà¤ķ":1656,"Ġà¤Ĩà¤ľà¤µà¤°":1657,"âĢĻâĢĻ":1658,"Ġà¤Ĳà¤µà¤ľ":1659,"Ġà¥§à¥§":1660,"Ġà¥§à¥«":1661,"Ġthat":1662,"Ġwith":1663,"www":1664,"Ġà¤ĵà¤°à¤¡à¤²":1665,"'.":1666,"/\\":1667,"ĠK":1668,"ĠW":1669,"à¥ŀ":1670,"à¤¾à¥ħ":1671,"à¤°à¤µà¤¤":1672,"à¤¤à¤ªà¤¤":1673,"à¤µà¤§à¤°":1674,"à¥ĭ-":1675,"Ġà¤ªà¤ª":1676,"Ġà¤ªà¤¸à¤°":1677,"Ġà¤ħà¤µà¤¤":1678,"à¤Łà¤ªà¤£":1679,"Ġà¤µà¤¨":1680,"Ġà¤µà¤³à¤²":1681,"Ġà¤ļà¤¢à¤²":1682,"à¤Ĩà¤¹":1683,"à¤¾,âĢľ":1684,"Ġà¤®à¤¨à¤¸":1685,"Ġà¤¨à¤¸à¤£":1686,"Ġà¤ĵà¤³à¤ĸà¤¤":1687,"à¤²à¤ķà¤°à¤ļ":1688,"Ġà¤Ķà¤·à¤§":1689,"em":1690,"if":1691,"ld":1692,"ya":1693,"à¤²à¤ľ":1694,"à¤¹à¤ļà¤²":1695,"Ġà¤ħà¤ªà¤°":1696,"Ġà¤ħà¤¡à¤ķ":1697,"à¤Łà¤¹":1698,"Ġà¤¦à¤µ":1699,"à¤¬à¤¡à¤¤":1700,"à¤¬à¤¤à¤ļ":1701,"Ġà¤ľà¤¶":1702,"à¤·à¤®":1703,"Ġà¤Ĺà¤®":1704,"Ġà¤ıà¤¨":1705,"Ġà¤ıà¤ķà¤¹":1706,"Ġà¤Ŀà¤ķ":1707,"à¥Īà¤Ĥ":1708,"Ġà¤ħà¤ªà¤ĺ":1709,"Ġsh":1710,"our":1711,"Ġcom":1712,"Ġà¤ħà¤¡à¤ķà¤²":1713,"XX":1714,"ci":1715,"ĠE":1716,"ĠN":1717,"ĠV":1718,"à¤¯à¤ľ":1719,"à¤ļà¤¹":1720,"à¤ļà¤¶":1721,"à¤ķà¤ĺà¤°":1722,"à¤¸à¤¸":1723,"Ġà¤ķà¤ļ":1724,"Ġà¤Ĩà¤ĺ":1725,"à¤ªà¤®":1726,"Ġà¤¸à¤¦à¤¸":1727,"à¤Ĺà¤¶":1728,"à¤¦à¤®":1729,"à¤¡à¤¬":1730,"à¤³à¤¸":1731,"Ġà¤¬à¤¬":1732,"..\"\"":1733,"à¤Ńà¤µà¤²":1734,"à¤Īà¤¡":1735,">>>>>":1736,"à¤¶à¤¨à¤²":1737,"à¥§à¥«":1738,"Ġà¤¸à¤®à¤ľà¤£":1739,"à¥¦à¥¦à¥¦à¥¦":1740,"Ġà¤ħà¤µà¤¯à¤µ":1741,"Ġby":1742,"og":1743,"op":1744,"à¥į.":1745,"à¤°à¤µà¤£":1746,"à¤¯à¤¹":1747,"à¤¿,":1748,"à¤¹à¤ķ":1749,"à¤µà¤Ĺ":1750,"à¤µà¤¦":1751,"à¤£à¤Ĺ":1752,"à¤ªà¤¥":1753,"à¤Ĺà¤µà¤²":1754,"Ġà¤¬à¤Ĺ":1755,"Ġà¤¦à¤®":1756,"à¤µà¤°à¤¤":1757,"Ġà¤¶à¤¤":1758,"Ġà¤ļà¤³à¤µà¤³":1759,"Ġà¤Ńà¤°à¤£":1760,"à¤¹à¤£à¤²":1761,"Ġà¤īà¤§":1762,"Ġà¤ĵà¤°à¤¡":1763,"à¥©à¥¦":1764,"à¤µà¤ľà¤£":1765,"???":1766,"Ġà¤Ĩà¤¢à¤³à¤¤":1767,".!!":1768,"à¤¾/":1769,"à¤¾\"\"":1770,"à¤¤à¤ľ":1771,"à¤ļà¤µà¤£":1772,"à¤µà¤ľà¤¨":1773,"à¤¸à¤°à¤ķ":1774,"à¤ªà¤¶":1775,"à¤ªà¤µà¤°":1776,"Ġà¤¸à¤ĸ":1777,"à¤Łà¤«":1778,"à¤¶à¤®":1779,"à¤¬à¤ļ":1780,"Ġà¤ľà¤²":1781,"à¤·à¤Ńà¤°":1782,"Ġà¤Ĺà¤µà¤¤":1783,"Ġà¤Ńà¤Łà¤ķ":1784,"à¤Īà¤ª":1785,"Ġà¤§à¤°à¤£":1786,"à¤ªà¤°à¤µ":1787,"Ġà¤ªà¤°à¤¦":1788,"à¤Īà¤²à¤ļ":1789,"Ġà¤ĵà¤µ":1790,"Ġà¤ĵà¤¸":1791,"Ġà¤ľà¤µà¤³à¤ľà¤µà¤³":1792,"ĠĠĠĠ":1793,"Ġà¤ªà¤¡à¤¦":1794,"ity":1795,"Ġhav":1796,"ill":1797,"ter":1798,"Ã¢":1799,"ĠF":1800,"à¥Ģ:":1801,"à¤ļà¤ª":1802,"à¥Ĥ!":1803,"Ġà¤¹à¤ľà¤°":1804,"Ġà¤¨à¤µà¤²":1805,"à¤¬à¤µà¤²":1806,"à¤¬à¤±":1807,"à¤§à¤µà¤Ł":1808,"Ġà¤ħà¤¸à¤¹":1809,"à¤ĸà¤ļ":1810,"Ġà¤ļà¤®":1811,"à¤Ńà¤ķ":1812,"à¤ĺà¤Łà¤¨":1813,"à¤ıà¤¨":1814,"Ġà¤ĺà¤°à¤Ł":1815,"Ġà¤ĵà¤ł":1816,"à¥§à¥¦":1817,"Ġà¤Ĩà¤ªà¤£à¤¹":1818,"Ġà¤¬à¤¨à¤¤":1819,"Ġal":1820,"Ġà¤¸à¤°à¤ķà¤¤":1821,"âĢ¦.":1822,"ssss":1823,"Ġne":1824,"================================":1825,"ood":1826,"ta":1827,"Ġ6":1828,"à¥Ģ/":1829,"à¤µà¤µ":1830,"Ġà¤®à¤°à¤£":1831,"à¤ªà¤°à¤£":1832,"Ġà¤µà¤¤":1833,"à¤³à¤ª":1834,"à¤ľà¤µà¤²":1835,"à¤¬à¤°à¤¤":1836,"Ġà¤ľà¤¡":1837,"Ġà¤²à¤¯":1838,"Ġà¤ļà¤ª":1839,"Ġà¤ĺà¤¡à¤µ":1840,"Ġà¤«à¤Łà¤ķ":1841,"à¥ī.":1842,"Ġà¤¥à¤ķà¤²":1843,"à¤Ľà¤¤":1844,"à¤¶à¤¨à¤µà¤°":1845,"Ġà¤¬à¤¸à¤µà¤²":1846,"ers":1847,"Ġà¤ľà¤¨à¤°à¤²":1848,"Ġà¤ĵà¤³à¤ĸà¤²":1849,"out":1850,"Ġà¤¢à¤Ĺ":1851,"Ġex":1852,":)":1853,"ect":1854,"à¤¤à¤¦":1855,"à¤¯à¤Ĺ":1856,"à¤¨à¤ªà¤¤":1857,"à¤¹à¤¯":1858,"à¥ĭ'":1859,"Ġà¤ķà¤£":1860,"à¤®à¤ª":1861,"Ġà¤¤à¤ľ":1862,"Ġà¤ªà¤µ":1863,"à¤¦à¤¶":1864,"à¤³à¤ķà¤°":1865,"à¤ľà¤µà¤Ł":1866,"à¤¬à¤Ĺ":1867,"Ġà¤°à¤ĺ":1868,"Ġà¤°à¤«":1869,"Ġà¤ļà¤®à¤ķ":1870,"Ġà¤Ńà¤¨":1871,"Ġà¤Ńà¤Ĺà¤µ":1872,"Ġà¤īà¤²à¤Ĺ":1873,"à¤ħà¤¸à¤²":1874,"Ġà¤§à¤®à¤ķ":1875,"ard":1876,"Ġà¤łà¤°à¤µà¤¤":1877,"à¤ľà¤µà¤³à¤ļ":1878,"Ġch":1879,"Ġà¤°à¤¤à¤¨à¤ļ":1880,"ub":1881,"à¤¾âĢĿ":1882,"à¤¤à¤¡à¤ķ":1883,"à¥ĢâĢĿ":1884,"à¤¸à¤«":1885,"Ġà¤Ĩà¤ļ":1886,"Ġà¤Ĩà¤¡à¤µ":1887,"à¤ªà¤µà¤²":1888,"à¤¦à¤°à¤ļ":1889,"à¤ľà¤¹":1890,"à¤§à¤®":1891,"Ġà¤ļà¤¢à¤¤":1892,"Ġà¤ıà¤²":1893,"Ġà¤Ńà¤Ł":1894,"à¤Ńà¤µà¤¤":1895,"***":1896,"à¤¸à¤¤à¤¤":1897,"à¤ĩà¤¸":1898,"Ġà¤ĵà¤¢à¤²":1899,"à¤Ĩà¤£à¤ĸ":1900,"à¥§à¥¨":1901,"Ġà¤¸à¤¹à¤¸":1902,"ess":1903,"à¤ĩà¤¥à¤²":1904,"Ġà¤¹à¤°à¤µà¤²":1905,"19":1906,"ha":1907,"ik":1908,"ost":1909,"sh":1910,"à¤¾âĢ¦":1911,"à¥ĩâĢ¦":1912,"à¤°à¤Ł":1913,"à¤¸à¤°à¤¤":1914,"à¤£à¤²":1915,"Ġà¤Ĩà¤ĸ":1916,"à¤Ĺà¤¹":1917,"à¤Ĺà¤Ł":1918,"à¤Ĺà¤¦à¤°":1919,"Ġà¤¨à¤¯à¤¨":1920,"Ġà¤¬à¤ļ":1921,"à¤§à¤¶":1922,"Ġà¤°à¤®":1923,"Ġà¤Ńà¤²à¤¤":1924,"Ġà¤ĸà¤Ł":1925,"Ġà¤ĸà¤¬à¤°":1926,"à¤Ĭà¤Ł":1927,"Ġà¤ĩà¤¸à¤®":1928,"à¥īà¤Ĥ":1929,"à¤ķà¤²à¤¨":1930,"à¤ĩà¤Ł":1931,"à¤Łà¤°à¤µà¤°":1932,"Ġà¤Ĩà¤Īà¤µà¤¡":1933,"Ġà¤¬à¤¨à¤µà¤¤":1934,"ory":1935,"Ġà¤Ĩà¤ªà¤¸":1936,"Ġcon":1937,"à¤Ĩà¤Īà¤ļ":1938,"________________":1939,"'!":1940,"ie":1941,"ra":1942,"Ġ5":1943,"Ġ=":1944,"à¤°à¤Ńà¤°":1945,"à¥Ģà¥¤":1946,"à¤¯à¤¶":1947,"à¤ļà¤µà¤¤":1948,"à¤Ĥ;":1949,"à¤¸à¤ĸ":1950,"à¤®à¤µà¤°":1951,"Ġà¤¤à¤®":1952,"à¤Ĺà¤®à¤§":1953,"Ġà¤ħà¤µà¤¶":1954,"Ġà¤¨à¤Ĭ":1955,"Ġà¤¨à¤®à¤¸":1956,"à¤ľà¤¬à¤°à¤¦à¤¸":1957,"Ġà¤¦à¤¯":1958,"Ġà¤¦à¤°à¤®":1959,"Ġà¤Ĺà¤¤":1960,"Ġà¤Ĺà¤¦":1961,"Ġà¤°à¤¨":1962,"à¤¥à¤®":1963,"Ġà¤ĺà¤Łà¤ķ":1964,"Ġà¤ıà¤ķà¤µ":1965,"à¤Īà¤Ī":1966,"à¤¤à¤°à¤¹":1967,"à¤ħà¤ĸ":1968,"Ġà¤¨à¤µà¤±":1969,"à¤¤à¤ķà¤±":1970,"à¤ıà¤Ł":1971,"ang":1972,"à¤¡à¤ķà¤¨":1973,"Ġà¤ĳà¤ªà¤°":1974,"Ġà¤ĳà¤Ĺà¤¸":1975,"Ġà¤īà¤ªà¤ļ":1976,"Ġà¤¬à¤¨à¤µà¤£":1977,"Ġà¤ªà¤Łà¤µ":1978,"ame":1979,"Ġà¤¤à¤³à¤µà¤²à¤ķà¤°":1980,"à¤ĳà¤«":1981,"Th":1982,"pt":1983,"à¤¸à¤³à¤²":1984,"Ġà¤Ĩà¤Ł":1985,"Ġà¤Ĩà¤¡":1986,"Ġà¤ªà¤°à¤®":1987,"Ġà¤¸à¤«":1988,"à¤¡à¤¶":1989,"à¤¡à¤µà¤¤":1990,"Ġà¤Ĺà¤ļ":1991,"Ġà¤Ĺà¤Ŀà¤²":1992,"à¤µà¤°à¤²":1993,"Ġà¤°à¤Ŀ":1994,"à¤Ĩà¤ł":1995,"à¤ħà¤¬":1996,"Ġà¤Łà¤°":1997,"à¤ıà¤¸":1998,"Ġas":1999,"à¤ĵà¤¹":2000,"Ġà¤īà¤¤à¤°à¤¤":2001,"ell":2002,"à¥ĩ).":2003,"................................":2004,"Ġà¤Ĭà¤°":2005,"ight":2006,"Ġhave":2007,"\".":2008,"ment":2009,"ov":2010,"ue":2011,"à¤¨à¤¬":2012,"à¤®à¤¬":2013,"Ġà¤®à¤ĺ":2014,"Ġà¤ªà¤ł":2015,"Ġà¤ªà¤°à¤ķ":2016,"à¥Ĥ-":2017,"à¤Ĺà¤ķ":2018,"à¤Ĺà¤µà¤¤":2019,"Ġà¤ħà¤ķà¤°":2020,"à¤¦à¤ª":2021,"Ġà¤²à¤·":2022,"Ġà¤Ĺà¤ľ":2023,"à¤łà¤ª":2024,"Ġà¤ıà¤ķà¤¸":2025,"à¤Ĩà¤ķ":2026,"à¤¢à¤µà¤²":2027,"à¤ĺà¤¡":2028,"Ġà¤ĩà¤°":2029,"Ġà¤¸à¤°à¤¸":2030,"à¤ıà¤®":2031,"à¥§à¥©":2032,"Ġà¤īà¤¦à¤¯":2033,"Ġthis":2034,"ore":2035,"Ġà¤ķà¤³à¤µ":2036,"ali":2037,"Ġman":2038,"âĢ¦âĢ¦":2039,"ich":2040,"Ġnot":2041,"ive":2042,"ks":2043,"la":2044,"now":2045,"ĠU":2046,"à¤¾;":2047,"à¥ĩâĢĿ":2048,"à¤¤à¤Ĺ":2049,"à¤¤à¤§à¤¨":2050,"à¤²à¤¡":2051,"à¤¯à¤¯":2052,"à¤¯à¤ħà¤¶":2053,"à¤ķà¤·":2054,"à¤ķà¤µà¤°":2055,"à¤¸à¤Ńà¤°":2056,"Ġà¤ķà¤¡à¤ķ":2057,"Ġà¤¤à¤²":2058,"à¤¦à¤¦":2059,"à¤ľà¤³":2060,"Ġà¤¦à¤¡":2061,"à¤¬à¤§":2062,"à¤§à¤¡":2063,"..!":2064,"Ġà¤ķà¤°à¤¨":2065,"Ġà¤ĺà¤¡à¤£":2066,"à¤Ńà¤¨":2067,"à¤Īà¤µ":2068,"à¤Ŀà¤¨":2069,"à¤Ĭà¤¯":2070,"Ġà¤§à¤®":2071,"Ġà¤§à¤°à¤¤":2072,"à¤¸à¤²à¤®":2073,"Ġà¤¥à¤°":2074,"à¤°à¤µà¤ł":2075,"à¤ıà¤ķà¤Ł":2076,"Ġà¤Ĩà¤ªà¤£à¤ļ":2077,"are":2078,"Ġse":2079,"Ġà¤ľà¤Ĺà¤Ńà¤°":2080,"Ġà¤Ńà¤°à¤Ńà¤°":2081,"ous":2082,"Ġpr":2083,"à¤¹à¤¨à¤¤":2084,"<<<":2085,"able":2086,"âĹıâĹıâĹıâĹıâĹıâĹıâĹıâĹı":2087,"In":2088,"The":2089,"ry":2090,"Ġ4":2091,"Ġ>>>":2092,"à¤¤à¤¡":2093,"à¤¤à¤Ń":2094,"à¤¯à¤Ń":2095,"à¤¯à¤Ńà¤°":2096,"à¤¨à¤Ł":2097,"à¤¹à¤ļ":2098,"Ġà¤ķà¤³à¤£":2099,"à¤ªà¤®à¤§":2100,"à¤ªà¤Łà¤²":2101,"à¤Ĺà¤°à¤®":2102,"Ġà¤µà¤°à¤¤":2103,"Ġà¤µà¤Ĺà¤³":2104,"à¤ľà¤¬à¤°":2105,"Ġà¤¦à¤¬":2106,"Ġà¤¦à¤¶à¤ķ":2107,"à¤·à¤¸":2108,"Ġà¤Ĺà¤®à¤¤":2109,"..'":2110,"Ġà¤°à¤ľ":2111,"Ġà¤ļà¤Łà¤ķà¤¨":2112,"Ġà¤ıà¤¡":2113,"Ġà¤īà¤·":2114,"Ġà¤Ŀà¤ª":2115,"Ġà¤ĸà¤³":2116,"à¤Ŀà¤ķ":2117,"à¤ħà¤§":2118,"à¤Ĭà¤¦":2119,"---":2120,"à¤Łà¤¤à¤¯":2121,"Ġ\".":2122,"à¤Ĺà¤£à¤¨":2123,"à¤¸à¤®à¤ľ":2124,"ĠâĢĺâĢĺ":2125,"à¤ĵà¤ķ":2126,"Ġwe":2127,"Ġà¤ķà¤³à¤µà¤²":2128,"Ġà¤¸à¤°à¤ķà¤²":2129,"ash":2130,"à¤¬à¤Īà¤ļ":2131,"reat":2132,"Ġà¤ħà¤ķà¤¬à¤°":2133,"ome":2134,"Ġà¤īà¤®à¤Łà¤²":2135,"Ġà¤¤à¤ªà¤¶":2136,"Ġà¤¬à¤¡à¤¬à¤¡":2137,".'":2138,"10":2139,"ud":2140,"ĠJ":2141,"à¤¯à¤°à¤¤":2142,"à¤ķà¤ľà¤£":2143,"Ġà¤®à¤³":2144,"Ġà¤¤à¤¹":2145,"à¤¡à¤®à¤§":2146,"à¤¡à¤ķà¤°":2147,"à¤³à¤¶":2148,"à¤¶à¤ª":2149,"à¤ĸà¤¡":2150,"Ġà¤°à¤¡à¤£":2151,"Ġà¤°à¤ļà¤¨":2152,"à¤łà¤ļ":2153,"Ġà¤ıà¤ķà¤¤à¤°":2154,"à¤Ńà¤¯":2155,"Ġà¤«à¤¸":2156,"Ġà¤«à¤Ł":2157,"à¤Ĩà¤µ":2158,"Ġà¤ĩà¤Ł":2159,"à¥Ī,":2160,"à¤ıà¤°à¤µ":2161,"à¤ĩà¤¤":2162,"à¤ĩà¤®":2163,"à¤·à¤£à¤Ńà¤°":2164,"à¤īà¤Ł":2165,"à¤Ĥ,\"":2166,"ine":2167,"ant":2168,"Ġà¥§à¥ª":2169,"Ġà¤²à¤Ĺà¤¬à¤Ĺ":2170,"Ġà¤ħà¤ªà¤®":2171,"à¤¯à¤®à¤µà¤°":2172,"à¥¨à¥¦à¥¦":2173,"Ġthere":2174,"Ġà¤ľà¤®à¤£":2175,"Ġà¥«à¥¦":2176,"ĠCh":2177,"athi":2178,"ge":2179,"ure":2180,"Ġor":2181,"à¥Ħ":2182,"à¥ĩ:":2183,"à¤°à¤ªà¤°":2184,"à¤²à¤Ĺà¤£à¤¨":2185,"à¤ķà¤¬":2186,"à¤£à¤£":2187,"Ġà¤ķà¤ļà¤°":2188,"à¤®à¤ĸ":2189,"Ġà¤®à¤®":2190,"à¤Łà¤°à¤²":2191,"à¤¡à¤ĺ":2192,"Ġà¤¨à¤Ĺ":2193,"à¤¶à¤¶":2194,"Ġà¤¦à¤¡à¤²":2195,"à¤·à¤ļ":2196,"Ġà¤¯à¤ľ":2197,"Ġà¤ķà¤°à¤µ":2198,"à¤łà¤£":2199,"à¤łà¤µà¤¤":2200,"Ġà¤ļà¤Łà¤ķ":2201,"à¤¥à¤ª":2202,"Ġà¤īà¤¡à¤¤":2203,"à¤¢à¤¦":2204,"à¤¢à¤µà¤£":2205,"à¤¤à¤°à¤°":2206,"à¤¤à¤°à¤²":2207,"à¤ĺà¤¡à¤²":2208,"Ġà¤ĩà¤ľ":2209,"à¤Łà¤²à¤®à¤§":2210,"à¤¯à¤ķà¤¤":2211,"Ġà¤ĵà¤Ŀ":2212,"à¤°à¤¸à¤®à¤ľ":2213,"à¤īà¤¸":2214,"Ġà¤ĳà¤¨":2215,"Ġso":2216,".........":2217,"à¥«à¥¦":2218,"Ġà¤Ĩà¤ªà¤ķ":2219,"Ġhe":2220,".....\"":2221,"Ġ:-":2222,"à¥Ģ).":2223,"Ġà¤§à¤¡à¤ªà¤¡":2224,"und":2225,"-'":2226,"?âĢĿâĢľ":2227,"ahe":2228,"har":2229,"qu":2230,"ºà¤¯":2231,"Âºà¤¯":2232,"âĺ":2233,"Ġ*":2234,"ĠX":2235,"Ġat":2236,"à¤°à¤®à¤§":2237,"à¤¤à¤®à¤¸":2238,"à¤¯à¤µà¤°":2239,"à¤¨à¤£":2240,"à¤¨à¤®à¤¸":2241,"à¤¨à¤Ĺà¤¡":2242,"à¤ĤâĢĻ":2243,"à¥ĭâĢĻ":2244,"à¤£à¤®":2245,"Ġà¤¹à¤²à¤µ":2246,"à¤Ĺà¤µà¤°":2247,"à¤Łà¤°à¤µ":2248,"à¤¡à¤µà¤²":2249,"à¤¡à¤«":2250,"Ġà¤¨à¤³":2251,"à¤¶à¤¹à¤°":2252,"à¤¬à¤ľ":2253,"à¤¬à¤¬":2254,"Ġà¤²à¤¤":2255,"Ġà¤²à¤²":2256,"Ġà¤Ĺà¤¹":2257,"Ġà¤¯à¤ķ":2258,"Ġà¤°à¤¦":2259,"à¤łà¤®":2260,"Ġà¤ļà¤¢à¤£":2261,"à¤¥à¤¤":2262,"Ġà¤ĺà¤Łà¤¸":2263,"Ġà¤Ńà¤ľ":2264,"Ġà¤Ŀà¤Łà¤ķ":2265,"à¤Ĩà¤¦":2266,"à¤ħà¤¡":2267,"à¤Ĭà¤°":2268,"à¤Łà¤²à¤ļ":2269,"Ġà¥¤":2270,"Ġà¤Ĩà¤ľà¤ķ":2271,"âĢĻâĢĺ":2272,"à¤īà¤²":2273,"à¤Ĺà¤£à¤ªà¤¤":2274,"Ġà¤¬à¤¸à¤®à¤§":2275,"Ġà¤ķà¤®à¤°":2276,"ans":2277,"Ġà¥§à¥Ń":2278,"Ġà¤¬à¤¦à¤²à¤£":2279,"ĠĠĠ":2280,"ort":2281,"ence":2282,"ould":2283,"à¤ľà¤µà¤³à¤ª":2284,"Ġmy":2285,"Ġpro":2286,"Ġde":2287,">>>>>>":2288,"Ġà¤Ĩà¤Ĺà¤®à¤¨":2289,"ĠMar":2290,"Ġknow":2291,"Ġà¤ĵà¤°à¤¡à¤¤":2292,"Ġà¥®à¥¦":2293,"ndia":2294,"âĺº":2295,".?":2296,"_/\\":2297,"na":2298,"Ġ@":2299,"Ġ|":2300,"à¤¯à¤°à¤ļ":2301,"à¥ĭ\"":2302,"à¤ªà¤ª":2303,"à¤ªà¤Ĺ":2304,"Ġà¤ªà¤§":2305,"Ġà¤¸à¤£":2306,"Ġà¤¸à¤«à¤°":2307,"à¤Ĺà¤ľ":2308,"Ġà¤ħà¤ªà¤¨":2309,"à¤¦à¤Ĺ":2310,"Ġà¤µà¤ļà¤¨":2311,"à¤ľà¤¶":2312,"à¤¬à¤µà¤¤":2313,"Ġà¤ľà¤¬à¤°":2314,"Ġà¤²à¤µ":2315,"..!!":2316,"Ġà¤ķà¤°à¤®à¤£":2317,"à¤łà¤¯":2318,"Ġà¤ıà¤ļ":2319,"Ġà¤ĸà¤ľ":2320,"Ġà¤ĸà¤±":2321,"Ġà¤ħà¤¨à¤ª":2322,"à¤ķà¤°à¤ļ":2323,"Ġà¤¸à¤°à¤ª":2324,"à¤°à¤ļà¤²":2325,"Ġà¤ªà¤°à¤¸":2326,"à¤µà¤³à¤£":2327,"Ġà¤Ľà¤¡":2328,"Ġà¤Ĩà¤ľà¤ªà¤°":2329,"à¤ıà¤ķà¤®":2330,"à¥§à¥¦à¥¦":2331,"Ġà¤Ĳà¤¤":2332,"Ġà¤¸à¤¹à¤µ":2333,"Ġà¥§à¥¬":2334,"Ġà¥§à¥®":2335,"Ġà¤ĳà¤¸":2336,"à¤Ĩà¤ľà¤ķ":2337,"one":2338,"Ġà¤Ĩà¤°à¤¡":2339,"ord":2340,"Ġà¤ħà¤®à¤°":2341,"ala":2342,"oug":2343,"????":2344,"à¤¤à¤³à¤µà¤²à¤ķà¤°":2345,"Ġà¤īà¤łà¤¤":2346,"à¥§à¥§à¥§":2347,"Ġà¤Ĩà¤¢à¤³":2348,"Ġà¤°à¤¤à¤¨à¤²":2349,"Ġwho":2350,"Ġ194":2351,"à¤²à¤µà¤ķà¤°à¤ļ":2352,".!":2353,"hil":2354,"hag":2355,"lo":2356,"pe":2357,"pr":2358,"ust":2359,"¸ı":2360,"ï¸ı":2361,"à¤Ķ":2362,"à¥ĩ/":2363,"à¤¤à¤£":2364,"à¥ĢâĢĮ":2365,"à¤²à¤¥":2366,"à¤¨à¤«":2367,"à¤¨à¤Ľ":2368,"à¤¨à¤Ĺà¤°":2369,"à¤¿:":2370,"à¤ķà¤ķ":2371,"à¤ķà¤ł":2372,"à¤£à¤ĸ":2373,"à¤®à¤ł":2374,"Ġà¤®à¤£":2375,"Ġà¤¤à¤¥":2376,"Ġà¤¸à¤¤à¤°":2377,"Ġà¤ħà¤¯":2378,"à¤Łà¤°à¤¸":2379,"à¤¡à¤¹":2380,"à¤¡à¤µà¤£":2381,"à¤ľà¤µà¤¤":2382,"Ġà¤ħà¤¸à¤ļ":2383,"Ġà¤¯à¤¥":2384,"Ġà¤°à¤ĸ":2385,"Ġà¤¶à¤¨":2386,"à¤łà¤°à¤²":2387,"Ġà¤ıà¤ª":2388,"Ġà¤īà¤°à¤ķ":2389,"Ġà¤ĸà¤ļ":2390,"à¤Īà¤¶":2391,"à¤Ĩà¤Īà¤¨":2392,"à¤¤à¤°à¤¤":2393,"Ġà¤łà¤°à¤£":2394,"à¤Ĭà¤¨à¤ļ":2395,"Ġà¤Ĩà¤µà¤¡à¤£":2396,"à¤ĩà¤¸à¤®":2397,"ĠâĢĿ":2398,"Ġà¤¤à¤¸à¤ļ":2399,"Ġà¤ªà¤°à¤¤à¤²":2400,"Ġà¥§à¥©":2401,"ate":2402,"Ġà¥¨à¥§":2403,"ong":2404,"Ġà¤Ĳà¤ķà¤µà¤²":2405,"Ġà¤ĩà¤¤à¤°à¤¹":2406,"Ġam":2407,"Ġaahe":2408,"ally":2409,"Ġme":2410,"Ġà¤īà¤¤à¤°à¤£":2411,"elf":2412,"Ġà¤īà¤łà¤µ":2413,"ade":2414,"Ġà¤įà¤ķ":2415,"Ġà¤¬à¤¬à¤¨à¤ļ":2416,"âĺºï¸ı":2417,"',":2418,"'s":2419,"*~":2420,":-":2421,"ip":2422,"uch":2423,"ĠO":2424,"à¥į,":2425,"à¤°à¤·":2426,"à¤ļà¤®":2427,"à¤Ĥ\"":2428,"à¤¸à¤³à¤¤":2429,"à¥ĭ)":2430,"à¥ĭ;":2431,"à¤®à¤Ń":2432,"Ġà¤Ĩà¤¬":2433,"Ġà¤Ĩà¤¯à¤²":2434,"Ġà¤Ĩà¤°à¤ķ":2435,"Ġà¤Ĩà¤¸à¤¨":2436,"à¤ªà¤±":2437,"Ġà¤¸à¤¦à¤°":2438,"Ġà¤¸à¤²à¤Ĺ":2439,"à¤Łà¤µà¤¸":2440,"Ġà¤µà¤³à¤¤":2441,"à¤ľà¤¦":2442,"à¤¬à¤µà¤°":2443,"à¤¬à¤Īà¤²":2444,"Ġà¤²à¤Łà¤ķ":2445,"Ġà¤ļà¤®à¤ļ":2446,"Ġà¤ıà¤«":2447,"Ġà¤Ńà¤¡":2448,"Ġà¤ĸà¤¤":2449,"Ġà¤¤à¤°à¤ļ":2450,"à¤Īà¤ľ":2451,"à¤Īà¤«":2452,"à¤Ĩà¤µà¤¡":2453,"à¥Ī!":2454,"Ġà¤Łà¤ļ":2455,"à¤«à¤³":2456,"à¤°à¤£à¤ªà¤£":2457,"Ġà¤¡à¤¬à¤²":2458,"à¤¸à¤²à¤¨":2459,"à¤Ĭà¤¨à¤¹":2460,"Ġà¤¥à¤°à¤¥":2461,"....\"":2462,"à¤¦à¤²à¤¹":2463,"à¤°à¤¸à¤°à¤£":2464,"à¥§à¥¬":2465,"Ġà¤Ĳà¤¸":2466,"Ġà¤Ĩà¤Īà¤¬":2467,"Ġà¤ĳà¤°":2468,"Ġà¤ĳà¤¨à¤²":2469,"à¥¨à¥«":2470,"ata":2471,"Ġab":2472,"à¤¸à¤¨à¤²":2473,"itt":2474,"à¤¸à¤¹à¤ľ":2475,"Ġcan":2476,"Ġà¤Īà¤¶":2477,"Ġpart":2478,"à¥¬à¥¦":2479,"à¤°à¤¥à¤®à¤ļ":2480,"Ġà¥©à¥¦":2481,"ice":2482,"Ġli":2483,"à¤ªà¤¡à¤ªà¤Ł":2484,"Ġno":2485,"Ġgr":2486,"Ġà¤ĭà¤¨":2487,"Ġà¥§à¥¯à¥¯":2488,"Ġà¥§à¥¯à¥Ń":2489,"Ġà¥ŀà¤ķ":2490,"Ġà¤²à¤ªà¤µ":2491,"use":2492,"Ġone":2493,"à¤ĭà¤¨":2494,"Ġà¤¹à¤®à¤ĸ":2495,"XXX":2496,"Ġà¤ļà¤®à¤ķà¤¤":2497,"aj":2498,"cri":2499,"ex":2500,"pp":2501,"Ġ8":2502,"ĠY":2503,"à¥Ł":2504,"à¥ĩ\"\"":2505,"à¤²à¤®à¤¤":2506,"à¤¨à¤Ĭ":2507,"à¤ļà¤ªà¤°":2508,"à¤ļà¤ķà¤²":2509,"à¤Ĥ'":2510,"à¤µà¤¡à¤£":2511,"à¥ĭà¥¤":2512,"à¤®à¤ĺ":2513,"à¤ªà¤¬":2514,"Ġà¤ªà¤¬":2515,"Ġà¤¹à¤¨":2516,"Ġà¤¹à¤°à¤µ":2517,"à¤Ĺà¤ł":2518,"à¤¦à¤°à¤²":2519,"à¤Łà¤¦":2520,"à¤Łà¤¬":2521,"Ġà¤¨à¤ľ":2522,"à¤³à¤µà¤¤":2523,"Ġà¤¬à¤¤":2524,"Ġà¤¦à¤²":2525,"Ġà¤¦à¤¶":2526,"à¤·à¤¨":2527,"à¤·à¤ª":2528,"à¤ĸà¤ªà¤£":2529,"..)":2530,"Ġà¤°à¤¥":2531,"Ġà¤ķà¤°à¤®à¤¬":2532,"à¤łà¤°":2533,"à¤¥à¤¸":2534,"Ġà¤ıà¤ķà¤Łà¤ķ":2535,"Ġà¤īà¤ķ":2536,"à¤Ĩà¤Ń":2537,"à¤Ĭà¤ļ":2538,"à¤Ĭà¤ľ":2539,"Ġà¤¨à¤µà¤¨à¤µ":2540,"Ġà¤¥à¤ķ":2541,"Ġà¤ªà¤°à¤«":2542,"Ġà¤ĵà¤Ł":2543,"Ġà¤ĵà¤¢à¤¤":2544,"à¤¶à¤¨à¤®à¤§":2545,"ink":2546,"int":2547,"Ġà¤Ĩà¤Īà¤¸":2548,"Ġà¤ħà¤ªà¤µ":2549,"à¤¯à¤¨à¤²":2550,"************":2551,"ary":2552,"à¤ĵà¤³à¤ĸ":2553,"all":2554,"Ġà¤Īà¤®":2555,"Ġà¤īà¤¤à¤°à¤µà¤²":2556,"sss":2557,"à¥§à¥§à¥§à¥§":2558,"Ġà¤§à¤¡à¤ªà¤¡à¤¤":2559,"Ġà¤°à¤¤à¤¨à¤¨":2560,"à¤¸à¤³à¤ª":2561,"imp":2562,"Ġà¥Ńà¥¦":2563,"Ġwhich":2564,"++++":2565,"Ġ2020":2566,"à¤¬à¤§à¤¬":2567,".''":2568,"12":2569,"15":2570,"30":2571,"?\"":2572,"MA":2573,"bb":2574,"ber":2575,"ey":2576,"eat":2577,"kar":2578,"other":2579,"rom":2580,"te":2581,"Ġ9":2582,"à¤¾(":2583,"à¤¾à¥¤":2584,"à¤°à¤ĺ":2585,"à¤¤à¤µà¤£":2586,"à¥Ģ(":2587,"à¤¯à¤Ŀ":2588,"à¤¨à¤ľ":2589,"à¤¨à¤§":2590,"à¤¨à¤¤à¤³":2591,"à¤ķà¤¸à¤¤":2592,"à¤µà¤ĺ":2593,"à¤¸à¤Ĺ":2594,"à¤¸à¤³à¤£":2595,"Ġà¤ķà¤µà¤Ł":2596,"Ġà¤Ĩà¤°à¤¤":2597,"Ġà¤ªà¤³à¤µ":2598,"à¥Ĥ'":2599,"Ġà¤¸à¤°à¤²":2600,"à¤¦à¤ľ":2601,"Ġà¤¨à¤Ł":2602,"à¤³à¤®":2603,"à¤¶à¤¹":2604,"Ġà¤¬à¤¦à¤¨":2605,"Ġà¤¦à¤ļà¤ķ":2606,"Ġà¤¦à¤ĸà¤²":2607,"Ġà¤°à¤¡à¤²":2608,"Ġà¤ĺà¤¶":2609,"Ġà¤Ńà¤¡à¤ķ":2610,"Ġà¤ıà¤ķà¤°":2611,"à¤Ńà¤¤":2612,"Ġà¤īà¤®à¤°":2613,"Ġà¤Ŀà¤Ł":2614,"Ġà¤Ŀà¤³":2615,"à¤Ĩà¤Ĺ":2616,"à¤ĺà¤°à¤ļ":2617,"Ġà¤ĩà¤Ĺ":2618,"à¤«à¤¤":2619,"Ġà¤¡à¤°":2620,"à¤°à¤ļà¤¨":2621,"Ġà¤ĺà¤°à¤Ĺ":2622,"à¤īà¤°à¤²":2623,"à¥§à¥®":2624,"à¤Ĩà¤ľà¤µà¤°":2625,"à¥¨à¥®":2626,"Ġà¥¨à¥¬":2627,"à¤Łà¤¨à¤°":2628,"Ġahe":2629,"end":2630,"Ġà¤ķà¤¡à¤µà¤Ł":2631,"ound":2632,"Ġà¤īà¤ĺà¤¡à¤¤":2633,"Ġà¤ªà¤¦à¤µ":2634,"âĢĺâĢĺ":2635,"Ġà¤Īà¤¤à¤ķ":2636,"Ġà¤īà¤¤à¤°à¤µ":2637,"à¤µà¤ªà¤³":2638,"Ġà¤®à¤ľà¤ķ":2639,"Ġà¤®à¤ľà¤¬":2640,"Ġhist":2641,"Ġdo":2642,"Ġà¤īà¤Ĺà¤µà¤²":2643,"Ġ100":2644,"Ġà¤ªà¤¸à¤°à¤¤":2645,"à¤¾).":2646,"Ġà¤µà¤³à¤µà¤²":2647,"Ġà¤ħà¤µà¤ĺà¤¡à¤²":2648,"Ġà¤Ĩà¤¢à¤³à¤²":2649,"ode":2650,"Ġà¤²à¤ªà¤µà¤²":2651,"ake":2652,"Ġà¤ħà¤«à¤²":2653,"ahi":2654,"Ġà¤¤à¤¡à¤ľ":2655,"Ġà¤¢à¤ķà¤²à¤²":2656,"ook":2657,",.":2658,"?âĢĿ":2659,"SS":2660,"act":2661,"ca":2662,"hat":2663,"hup":2664,"ies":2665,"ock":2666,"pl":2667,"Ġ>>>>":2668,"Ġare":2669,"à¥į/":2670,"à¥įâĢĮ":2671,"à¤°à¤¹à¤£":2672,"à¤²à¤«":2673,"à¤¯à¤¤à¤°":2674,"à¤ļà¤¡":2675,"à¤ķà¤®à¤§":2676,"à¤µà¤®":2677,"Ġà¤ķà¤¤":2678,"Ġà¤¤à¤Ĺ":2679,"Ġà¤¤à¤²à¤µ":2680,"à¤ªà¤¡à¤£":2681,"à¤Ĺà¤Ń":2682,"à¤Ĺà¤µà¤£":2683,"Ġà¤µà¤ľ":2684,"Ġà¤¨à¤Ĺà¤°":2685,"à¤¶à¤®à¤§":2686,"Ġà¤¦à¤¸":2687,"Ġà¤¦à¤£":2688,"Ġà¤²à¤Ł":2689,"Ġà¤²à¤¢à¤£":2690,"Ġà¤°à¤£":2691,"Ġà¤°à¤®à¤¤":2692,"Ġà¤Ńà¤°à¤µ":2693,"à¤Ńà¤³":2694,"à¤Ńà¤°à¤ª":2695,"Ġà¤īà¤°à¤¤":2696,"Ġà¤Ŀà¤²à¤ķ":2697,"Ġà¤ĸà¤£":2698,"à¤Ĩà¤³":2699,"Ġà¤ĩà¤µ":2700,"Ġà¤Łà¤ªà¤°":2701,"à¤¾,\"":2702,"à¤°à¤£à¤¨":2703,"Ġà¤¡à¤¡à¤²":2704,"à¤°à¤ķà¤Ł":2705,"Ġà¤ķà¤°à¤¤à¤ļ":2706,"à¤¸à¤°à¤³":2707,"à¤¸à¤°à¤¶":2708,"à¤°à¤®à¤¨":2709,"à¤¦à¤°à¤µ":2710,"Ġà¤Ľà¤³":2711,"Ġà¤ĵà¤ķ":2712,"à¤īà¤Ń":2713,"Ġà¤Ĳà¤¨":2714,"à¤µà¤¨à¤°":2715,"Ġà¤ķà¤®à¤¤à¤°à¤¤":2716,"Ġà¤ªà¤°à¤¤à¤£":2717,"à¤ŀà¤¤":2718,"à¥¨à¥§":2719,"ated":2720,"Ġà¥¨à¥¨":2721,"Ġà¥¨à¥ª":2722,"Ġà¤ħà¤µà¤ķ":2723,"à¤ĵà¤°à¤¡":2724,"============":2725,"ite":2726,"Ġbhag":2727,"Ġtr":2728,"Ġtim":2729,"Ġà¤Īà¤¥":2730,"Ġà¤īà¤łà¤µà¤²":2731,"Ġ12":2732,"Ġinter":2733,"Ġà¤ĺà¤¡à¤µà¤²":2734,"Ġgreat":2735,"Ġà¤ĭà¤ļ":2736,"Ġà¤ĭà¤Ĺ":2737,"Ġà¥§à¥¯à¥®":2738,"Ġà¤Ĩà¤µà¤°à¤¤":2739,"Ġà¤ħà¤¹à¤µ":2740,"Ġà¥¨à¥¦à¥§à¥¨":2741,"Ġà¥¨à¥¦à¥§à¥¬":2742,"Ġyour":2743,"Ġà¥¬à¥¦":2744,"à¤¬à¤ĺà¤¤":2745,"app":2746,"esting":2747,"Ġà¤īà¤²à¤Ĺà¤¡":2748,"Ġà¤µà¤Ĺà¤³à¤¤":2749,"ĠMarathi":2750,",\"":2751,"14":2752,"29":2753,"bl":2754,"ep":2755,"ither":2756,"low":2757,"ma":2758,"ner":2759,"os":2760,"à¤į":2761,"à¥į-":2762,"à¤²à¤¶":2763,"à¤¯à¤ªà¤£":2764,"à¤¯à¤±":2765,"à¤¯Âºà¤¯":2766,"à¤µà¤¤à¤°":2767,"à¤¸à¤®à¤¸":2768,"à¥ģ-":2769,"Ġà¤Ĩà¤¦à¤²":2770,"Ġà¤Ĩà¤¸à¤®":2771,"Ġà¤Ĩà¤Ĭà¤Ł":2772,"Ġà¤®à¤ļ":2773,"Ġà¤¤à¤¸à¤²":2774,"Ġà¤ªà¤ļà¤µ":2775,"à¥Ĥ\"":2776,"Ġà¤¹à¤¯":2777,"Ġà¤ħà¤łà¤°":2778,"à¤Łà¤Ńà¤°":2779,"à¤³à¤Ī":2780,"à¤ľà¤®à¤²":2781,"à¤ľà¤Ĺà¤£":2782,"à¤¶à¤¤":2783,"Ġà¤¬à¤Ł":2784,"Ġà¤¦à¤®à¤²":2785,"à¤¬à¤¶":2786,"à¤¬à¤ķà¤²":2787,"à¤¬à¤¬à¤¨":2788,"Ġà¤ľà¤µ":2789,"Ġà¤ľà¤Ĺà¤²":2790,"à¤§à¤ļ":2791,"à¤§à¤ª":2792,"à¤·à¤Łà¤ķ":2793,"..?":2794,"Ġà¤¶à¤¶":2795,"Ġà¤ļà¤¤":2796,"Ġà¤ıà¤ľ":2797,"à¤Ńà¤£":2798,"Ġà¤īà¤£":2799,"Ġà¤īà¤¡à¤µ":2800,"Ġà¤Ŀà¤°":2801,"Ġà¤ĸà¤¡à¤ķ":2802,"âĢĶ":2803,"à¤¯à¤ļà¤¯":2804,"à¤ķà¤¡à¤²":2805,"Ġà¤łà¤³à¤ķ":2806,"Ġà¤¸à¤®à¤¨":2807,"Ġà¥²":2808,"à¤¤à¤ķà¤²":2809,"à¤°à¤®à¤¸":2810,"Ġà¤¸à¤°à¤¦":2811,"à¤ıà¤ª":2812,"à¤µà¤³à¤¤":2813,"à¤ĩà¤¡":2814,"à¤ĩà¤ľ":2815,"à¥Į.":2816,"Ġà¤ĵà¤ªà¤¨":2817,"à¤īà¤®":2818,"...!!!":2819,"à¥§à¥Ń":2820,"Ġà¤Ĳà¤¶":2821,"à¤Łà¤ķà¤Ł":2822,"Ġà¤ķà¤¸à¤¬":2823,"thing":2824,"Ġà¤¬à¤¸à¤µà¤¤":2825,"à¤µà¤Łà¤ªà¤°":2826,"Ġà¤ĳà¤²":2827,"Ġà¤īà¤ªà¤¦":2828,"Ġà¤ħà¤ªà¤¡":2829,"Ġthing":2830,"Ġà¥¨à¥©":2831,"..........":2832,"............":2833,"à¤ħà¤¨à¤¨":2834,"à¤Īà¤¨à¤µà¤°":2835,"à¤ĵà¤²":2836,"ens":2837,"à¥©à¥¨":2838,"ita":2839,"Ġbut":2840,"Ġà¤Īà¤¤à¤°":2841,"Ġpl":2842,"ree":2843,"Ġà¤ħà¤¡à¤¥à¤³":2844,"Ġfrom":2845,"Ġdis":2846,"Ġà¤īà¤¡à¤µà¤£":2847,"Ġ10":2848,"Ġà¤īà¤ļà¤²à¤£":2849,"Ġà¤ĺà¤¡à¤µà¤£":2850,"Ġà¤¸à¤¹à¤ľà¤ªà¤£":2851,"Ġà¥«à¥¦à¥¦":2852,"Ġà¤ĭà¤£":2853,"____________":2854,"Ġà¤Ĺà¤¡à¤¦":2855,"Ġev":2856,"ations":2857,"irst":2858,"Ġà¤¬à¤¡à¤¬à¤¡à¤¤":2859,"à¤½à¤½à¤·":2860,"à¤°à¤«à¤Łà¤ķ":2861,"----------------------------------------------------------------":2862,"****************************************************************":2863,"Ġà¤Ĩà¤³à¤¸":2864,"Ġcomp":2865,"Ġà¤ħà¤µà¤¯à¤µà¤¦":2866,"ove":2867,"Ġà¤¦à¤¡à¤ªà¤£":2868,"Ġà¤«à¤¸à¤µà¤£":2869,"_/\\_":2870,"*~*~":2871,"cause":2872,".\"\"":2873,"11":2874,"Mast":2875,"hy":2876,"iz":2877,"ian":2878,"ire":2879,"per":2880,"to":2881,"ðŁ":2882,"Ġ7":2883,"Ġ--":2884,"Ġun":2885,"Ġup":2886,"à¥Ĭ":2887,"à¤¯à¤®à¤¸":2888,"à¤Ĥ\"\"":2889,"à¤µà¤Ī":2890,"à¤¸à¤Łà¤²":2891,"à¤¸à¤®à¤§à¤²":2892,"Ġà¤ķà¤¯":2893,"à¤®à¤®":2894,"à¤®à¤ªà¤£":2895,"Ġà¤Ĩà¤ķà¤²à¤¨":2896,"Ġà¤¤à¤µ":2897,"Ġà¤ªà¤Łà¤ķ":2898,"Ġà¤¹à¤°à¤£":2899,"Ġà¤¹à¤®à¤¸":2900,"Ġà¤¸à¤¸":2901,"à¤Ĺà¤°à¤£":2902,"à¤Ĺà¤ķà¤°":2903,"à¤Łà¤ķà¤°":2904,"Ġà¤µà¤§":2905,"Ġà¤µà¤¸à¤²":2906,"Ġà¤µà¤³à¤µ":2907,"à¤¡à¤¸à¤°":2908,"à¤¡à¤°à¤ļ":2909,"Ġà¤¨à¤¥":2910,"Ġà¤¬à¤§":2911,"Ġà¤¬à¤°à¤ļ":2912,"Ġà¤¬à¤Łà¤¨":2913,"Ġà¤²à¤ĸ":2914,"Ġà¤¶à¤ªà¤¥":2915,"à¤łà¤ķ":2916,"Ġà¤ıà¤Ł":2917,"Ġà¤ĺà¤¸":2918,"à¤Ńà¤°à¤¤":2919,"Ġà¤«à¤²à¤ķ":2920,"à¤Ĩà¤¸à¤ķ":2921,"à¤¢à¤µà¤¤":2922,"à¤¢à¤¤à¤ļ":2923,"à¤ĺà¤³":2924,"à¤ħà¤°à¤ļ":2925,"Ġà¤ĩà¤ķ":2926,"à¥Ī?":2927,"à¤«à¤¸à¤«":2928,"Ġà¤§à¤¡à¤ķ":2929,"Ġà¤§à¤¬à¤§à¤¬":2930,"Ġà¥¦":2931,"Ġà¤Ĩà¤¤à¤®à¤§":2932,"à¤Ĺà¤¤à¤ļ":2933,"Ġà¤®à¤¨à¤®":2934,"à¤µà¤³à¤²":2935,"à¤ıà¤ķà¤¤à¤°":2936,"à¤Ĺà¤¦à¤ªà¤¤":2937,"âĢĻ.":2938,"à¥§à¥ª":2939,"___":2940,"Ġà¤¬à¤¸à¤¨":2941,"Ġà¤ķà¤®à¤ķ":2942,"ins":2943,"Ġà¤Ĩà¤Īà¤ķà¤¡":2944,"Ġà¤ĳà¤ª":2945,"Ġà¤ĳà¤Ł":2946,"ery":2947,"Ġà¤īà¤ªà¤Ń":2948,"à¥¨à¥¬":2949,"Ġsome":2950,"Ġà¤ħà¤µà¤ļ":2951,"Ġà¤ľà¤®à¤µ":2952,"à¤¦à¤¨à¤¶":2953,"à¥«à¥¦à¥¦":2954,"à¤ĵà¤ļ":2955,"Ġà¤¦à¤°à¤µà¤°":2956,"à¤¨à¤µà¤ľ":2957,"Ġà¤ķà¤³à¤µà¤¤":2958,"oun":2959,"iting":2960,"Ġà¤¹à¤³à¤¦":2961,"ass":2962,"Ġother":2963,"à¤¬à¤Īà¤ķà¤°":2964,"Ġà¤ªà¤ķà¤¡à¤¤":2965,"Ġà¤¯à¤¶à¤µ":2966,"Ġà¥«à¥¨":2967,"Ġgen":2968,"Ġgood":2969,"Ġyear":2970,"à¤Ĳà¤ķ":2971,"Ġà¤Ĩà¤µà¤°à¤²":2972,"ĠâĢ¦.":2973,"age":2974,"Ġbecause":2975,"Ġà¤Ĩà¤ļà¤°à¤£":2976,"ike":2977,"à¤Īà¤Īà¤Īà¤Ī":2978,"!\"":2979,"18":2980,"India":2981,"ain":2982,"ack":2983,"fer":2984,"gr":2985,"ious":2986,"lish":2987,"node":2988,"oc":2989,"over":2990,"pan":2991,"pect":2992,"red":2993,"uth":2994,"ual":2995,"Ġ;":2996,"Ġel":2997,"Ġâĺºï¸ı":2998,"Ġà¤·":2999,"à¤¾à¤¾":3000,"à¥ĩ(":3001,"à¤°à¤Ŀ":3002,"à¤°à¤¬à¤³":3003,"à¥ĢâĢ¦":3004,"à¤¨à¤Ń":3005,"à¤¨à¤§à¤¨":3006,"à¤¿!":3007,"à¤ļà¤®à¤§":3008,"à¤ķà¤°à¤²":3009,"à¤ķà¤ħà¤ª":3010,"à¤¹à¤¬":3011,"à¤¹à¤¸à¤¤":3012,"à¤¸à¤Ń":3013,"à¤¸à¤ķà¤°":3014,"à¤£à¤Ń":3015,"Ġà¤ķà¤ķ":3016,"Ġà¤Ĩà¤Ĺà¤³":3017,"à¤ªà¤µà¤¤":3018,"à¤ªà¤µà¤£":3019,"Ġà¤ªà¤µà¤¨":3020,"Ġà¤¸à¤°à¤¤":3021,"Ġà¤¸à¤¬à¤ķ":3022,"à¤Ĺà¤°à¤²":3023,"Ġà¤ħà¤·":3024,"Ġà¤ħà¤¡à¤µ":3025,"à¤Łà¤¯":3026,"à¤Łà¤®à¤¨":3027,"à¤¡à¤ľ":3028,"à¤³à¤¬":3029,"à¤³à¤Ĺà¤£":3030,"à¤¶à¤ªà¤£":3031,"Ġà¤¦à¤ļà¤ķà¤²":3032,"Ġà¤ľà¤³":3033,"Ġà¤ľà¤ªà¤²":3034,"Ġà¤ľà¤³à¤¤":3035,"Ġà¤²à¤ĺ":3036,"Ġà¤ħà¤¸à¤¶":3037,"à¤·à¤Ń":3038,"à¤·à¤®à¤¸":3039,"..!!!":3040,"Ġà¤°à¤®à¤²":3041,"Ġà¤°à¤ļà¤²":3042,"à¤łà¤Ń":3043,"Ġà¤ĺà¤¨à¤¶":3044,"Ġà¤Ńà¤ľà¤¨":3045,"Ġà¤īà¤«":3046,"Ġà¤īà¤ķà¤°":3047,"Ġà¤īà¤§à¤³":3048,"Ġà¤«à¤¸à¤²":3049,"à¤Īà¤ĺ":3050,"à¤Ĩà¤¬":3051,"à¤Ĩà¤ªà¤ļ":3052,"à¤Ŀà¤®":3053,"à¤ĺà¤¨":3054,"à¤¯à¤²à¤Ł":3055,"à¤µà¤¤à¤ļ":3056,"à¤«à¤¡":3057,"à¤°à¤£à¤ļ":3058,"à¤ªà¤°à¤ļ":3059,"à¤¸à¤°à¤ļ":3060,"à¤¸à¤°à¤¸":3061,"à¤°à¤®à¤ķ":3062,"Ġà¤¸à¤°à¤¬à¤¤":3063,"Ġà¤¥à¤¬à¤ķà¤²":3064,"à¤ķà¤²à¤ļ":3065,"Ġ(?":3066,"à¤®à¤²à¤¬à¤ľ":3067,"à¤īà¤ľà¤µ":3068,"__/\\":3069,"à¤°à¤¶à¤¸":3070,"à¤¸à¤®à¤Ł":3071,"Ġà¤ĳà¤¡":3072,"à¤¬à¤²à¤¡":3073,"Ġà¤īà¤ªà¤®":3074,"Ġà¤īà¤ªà¤ķà¤°à¤£":3075,"ati":3076,"Ġsa":3077,"Ġà¤ħà¤µà¤§":3078,"org":3079,"iss":3080,"Ġà¤¦à¤°à¤¬":3081,"Ġwill":3082,"Ġà¤łà¤°à¤µà¤£":3083,"à¤ļà¤ķà¤Ł":3084,"?????":3085,"à¤ķà¤Łà¤ļ":3086,"à¥¤à¥¤":3087,"Ġhis":3088,"ical":3089,"Ġà¤īà¤¡à¤µà¤¤":3090,"Ġle":3091,"ions":3092,"Ġà¤īà¤ļà¤²à¤¤":3093,"Ġà¤ļà¤¢à¤µà¤²":3094,"ays":3095,"ĠMan":3096,"ĠSw":3097,"ĠIn":3098,"Ġà¤Ĭà¤¨":3099,"Ġà¤ĵà¤°à¤¡à¤£":3100,"iver":3101,"à¤Ŀà¤°à¤¬":3102,"à¤¼à¥į":3103,"Ġà¥§à¥¦à¥¦à¥¦":3104,"à¤ĭà¤Ĺ":3105,"````":3106,"Ġà¤īà¤ªà¤¨à¤Ĺà¤°":3107,"Ġà¤ļà¤®à¤ķà¤²":3108,"sssss":3109,"Ġà¤ĸà¤¬à¤°à¤¦":3110,"iew":3111,"This":3112,"'t":3113,"26":3114,"=-'":3115,"An":3116,"line":3117,"man":3118,"mitt":3119,"nor":3120,"ob":3121,"port":3122,"ru":3123,"uc":3124,"wa":3125,"we":3126,"Â©":3127,"Ġz":3128,"Ġqu":3129,"à¤°à¤ķà¤¡":3130,"à¤¤à¤¨à¤ļ":3131,"à¥Ģ\"\"":3132,"à¤¯à¤¡":3133,"à¤¯à¤°à¤¸":3134,"à¤¯à¤Ĺà¤°":3135,"à¤¨à¤¤à¤°":3136,"à¤¨à¤¸à¤²":3137,"à¤ļà¤°à¤²":3138,"à¤ļà¤ķà¤°":3139,"à¤ķà¤ĸ":3140,"à¤ķà¤³à¤²":3141,"à¤¹à¤²à¤¯":3142,"à¤¹à¤Ĺà¤¡":3143,"à¤µà¤ĸ":3144,"à¤¸à¤Ł":3145,"à¤¸à¤¶":3146,"à¤¸à¤¤à¤°":3147,"à¤¸à¤ķà¤¡":3148,"à¤¸à¤¨à¤ļ":3149,"à¥ĭâĢĿ":3150,"à¤£à¤ª":3151,"à¤£à¤¬à¤¤":3152,"à¤®à¤¡":3153,"à¤®à¤ķà¤¤":3154,"à¤®à¤·à¤Łà¤ķ":3155,"Ġà¤Ĩà¤īà¤Ł":3156,"Ġà¤¹à¤¦":3157,"Ġà¤¸à¤¶à¤ķ":3158,"à¤Łà¤¨à¤ļ":3159,"Ġà¤µà¤Łà¤µ":3160,"à¤¡à¤¦":3161,"à¤¾à¤Ĥ!":3162,"à¤ľà¤®à¤¤":3163,"à¤¶à¤ľ":3164,"à¤§à¤µà¤°":3165,"Ġà¤²à¤³":3166,"Ġà¤²à¤Ī":3167,"Ġà¤²à¤ªà¤²":3168,"Ġà¤Ĺà¤¨":3169,"Ġà¤Ĺà¤µ":3170,"Ġà¤Ĺà¤³à¤¤":3171,"à¤ĸà¤¸":3172,"à¤ĸà¤Ł":3173,"Ġà¤¯à¤¹":3174,"..''":3175,"Ġà¤°à¤®à¤£":3176,"Ġà¤¶à¤ª":3177,"Ġà¤¶à¤°à¤£":3178,"Ġà¤ļà¤°à¤£":3179,"à¤¥à¤ªà¤£":3180,"à¤Ńà¤Ĺà¤µ":3181,"Ġà¤ĸà¤²à¤¨":3182,"à¤Īà¤¡à¤¨":3183,"à¤Ĩà¤¸":3184,"à¤Ĩà¤µà¤°":3185,"à¤Ĩà¤łà¤µà¤£":3186,"à¤ĺà¤®":3187,"à¤ĺà¤¡à¤¤":3188,"à¤ĺà¤¡à¤£":3189,"à¤ħà¤¦":3190,"à¤ħà¤«":3191,"à¤ħà¤¸à¤¤":3192,"à¤¤à¤²à¤¯":3193,"à¥Ī\"":3194,"à¤«à¤°à¤¨":3195,"Ġà¤łà¤¸":3196,"à¥ĩ,\"":3197,"à¤°à¤ķà¤¨":3198,"Ġà¤§à¤ª":3199,"Ġà¤¨à¤µà¤µ":3200,"à¤µà¤¸à¤¨":3201,"Ġà¤¸à¤®à¤Ŀ":3202,"à¤¸à¤¤à¤¯":3203,"Ġà¤¥à¤Ł":3204,"à¤ıà¤²":3205,"à¤ıà¤¡":3206,"à¤ıà¤«":3207,"à¤ĩà¤°":3208,"à¤ĩà¤«":3209,"Ġà¤ĵà¤¬":3210,"...\"\"":3211,"Ġà¤Ĳà¤¨à¤µ":3212,"à¤Ĺà¤£à¤ķ":3213,"Ġà¤ħà¤°à¤¬":3214,"Ġà¤ħà¤ľà¤¯":3215,"Ġà¤ħà¤ľà¤¸":3216,"à¤¸à¤®à¤¨":3217,"à¤°à¤ľà¤ļ":3218,"Ġà¤¬à¤¸à¤ļ":3219,"Ġà¤®à¤Ĺà¤ļ":3220,"ank":3221,"ance":3222,"à¤¬à¤²à¤µà¤°":3223,"Ġà¤īà¤ªà¤µ":3224,"Ġà¤īà¤ªà¤Ĺ":3225,"!!!!!":3226,"à¤Ĩà¤ľà¤¹":3227,"à¤Ĩà¤ľà¤®":3228,"Ġà¤ħà¤ªà¤¯à¤¶":3229,"à¥¨à¥ª":3230,"à¥¨à¥Ń":3231,"Ġà¤¬à¤¨à¤£":3232,"Ġsame":3233,"------------":3234,"Ġapp":3235,"Ġà¤Ĩà¤¶à¤¯":3236,"à¤Īà¤Łà¤ļ":3237,"à¤Īà¤Łà¤µà¤°":3238,"Ġà¤¦à¤°à¤°":3239,"Ġwr":3240,"Ġà¤ķà¤³à¤¸":3241,"Ġà¤ķà¤³à¤¤à¤ļ":3242,"à¥©à¥§":3243,"à¥©à¥©":3244,"alk":3245,"Ġà¤īà¤ĺà¤¡à¤£":3246,"ition":3247,"Ġà¤ĳà¤«à¤°":3248,"ase":3249,"à¤³à¤ľà¤³":3250,"à¥®à¥¦":3251,"ics":3252,"ely":3253,"Ġlike":3254,"Ġà¤īà¤łà¤£":3255,"Ġ14":3256,"********************":3257,"--------------------":3258,"Ġà¤ħà¤²à¤Ĺà¤¦":3259,"Ġname":3260,"ile":3261,"<<<<":3262,"Ġà¤ļà¤¢à¤µ":3263,"Ġà¤ĭà¤¤":3264,"Ġà¤§à¤¡à¤§à¤¡":3265,"Ġà¥ªà¥¦":3266,"own":3267,"à¤²à¤®à¤¬à¤°":3268,"ute":3269,"à¤½à¤½à¤½":3270,"Ġvery":3271,"Ġwhat":3272,"Ġà¤ħà¤«à¤Ĺ":3273,"Ġany":3274,"uman":3275,"ĠGita":3276,"ife":3277,"à¥¦à¥¦à¥¦à¥¦à¥¦à¥¦à¥¦à¥¦":3278,"Ġà¤Ńà¤¡à¤ķà¤²":3279,"Ġhistor":3280,"âĢĶâĢĶ":3281,"Ġyears":3282,"mitted":3283,".>>":3284,".>>>":3285,"Than":3286,"ai":3287,"day":3288,"ful":3289,"ii":3290,"oy":3291,"oint":3292,"rish":3293,"ye":3294,"yas":3295,"Ġ`":3296,"Ġi":3297,"Ġar":3298,"ĠXXX":3299,"à¤°à¤¹à¤°":3300,"à¤¤à¤®à¤§":3301,"à¤¯à¤¬à¤°":3302,"à¤¨à¤ĸ":3303,"à¤ļà¤®à¤¨":3304,"à¤ĤâĢ¦":3305,"à¤ķà¤±":3306,"à¤¹à¤¦":3307,"à¤¹à¤µà¤²":3308,"à¤¹à¤°à¤²":3309,"à¤µà¤®à¤Ĺ":3310,"à¤µà¤¡à¤ķ":3311,"à¤¸à¤µà¤²":3312,"à¤£à¤¦":3313,"à¤£à¤µà¤£":3314,"Ġà¤ķà¤Łà¤ķà¤Ł":3315,"à¥ģ!":3316,"Ġà¤Ĩà¤°à¤£":3317,"Ġà¤Ĩà¤¯à¤¤":3318,"Ġà¤Ĩà¤ĸà¤²":3319,"Ġà¤®à¤¯":3320,"Ġà¤®à¤Ĭ":3321,"Ġà¤¤à¤¨":3322,"Ġà¤¤à¤¸à¤¤":3323,"Ġà¤¹à¤¸à¤°":3324,"Ġà¤¹à¤°à¤ĸ":3325,"Ġà¤¹à¤Łà¤ķ":3326,"Ġà¤¸à¤¯":3327,"Ġà¤¸à¤¡":3328,"Ġà¤¸à¤¦à¤¨":3329,"Ġà¤¸à¤¶à¤¸":3330,"Ġà¤ħà¤¥":3331,"Ġà¤ħà¤Łà¤ķ":3332,"à¤¦à¤Ĺà¤¡":3333,"Ġà¤µà¤¨à¤µ":3334,"Ġà¤µà¤¨à¤¸":3335,"à¤¡à¤¯":3336,"à¤³à¤¹":3337,"à¤³à¤Ĺà¤¤":3338,"à¤ľà¤§":3339,"à¤ľà¤µà¤£":3340,"à¤ľà¤®à¤¹":3341,"à¤¶à¤Ńà¤ķ":3342,"Ġà¤¬à¤¯":3343,"Ġà¤¬à¤¹à¤°":3344,"Ġà¤ľà¤ªà¤£":3345,"Ġà¤ľà¤ªà¤¤":3346,"Ġà¤ľà¤³à¤ľà¤³":3347,"Ġà¤²à¤¡":3348,"Ġà¤Ĺà¤µà¤¸":3349,"à¤ĸà¤¹":3350,"à¤µà¤°à¤ķà¤°":3351,"Ġà¤°à¤ĸà¤®":3352,"Ġà¤¶à¤®":3353,"Ġà¤ļà¤·":3354,"Ġà¤ļà¤ªà¤°":3355,"Ġà¤ıà¤°à¤µ":3356,"Ġà¤ıà¤ħà¤°":3357,"Ġà¤ıà¤ķà¤ľà¤£":3358,"à¤Ńà¤°à¤£":3359,"Ġà¤īà¤ĸ":3360,"Ġà¤ĸà¤ª":3361,"Ġà¤ĸà¤ļà¤²":3362,"Ġà¤¤à¤°à¤¤":3363,"Ġà¤¤à¤°à¤²":3364,"Ġà¤«à¤°à¤¶":3365,"à¤Ĩà¤ļ":3366,"à¤¤à¤°à¤£":3367,"à¤ĺà¤²":3368,"à¤°à¤¤à¤ļ":3369,"à¤µà¤²à¤¯":3370,"Ġà¤Łà¤¨":3371,"Ġà¤łà¤£à¤ķ":3372,"Ġà¤ªà¤£à¤ľ":3373,"Ġà¤¡à¤®":3374,"à¤ķà¤°à¤®":3375,"à¤¬à¤°à¤µà¤°":3376,"à¤Ĭà¤¨à¤²":3377,"à¤¸à¤¤à¤ļ":3378,"à¤¤à¤ķà¤ļ":3379,"à¤ķà¤²à¤²":3380,"Ġà¤ªà¤°à¤Ĺ":3381,"à¤¦à¤°à¤µà¤°":3382,"à¤ĩà¤ķ":3383,"à¤ĩà¤Ŀ":3384,"Ġà¤Ľà¤ª":3385,"Ġ''":3386,"à¤īà¤°":3387,"à¤īà¤ªà¤¨":3388,"à¤Łà¤°à¤®à¤§":3389,"the":3390,"à¤ħà¤°à¤¨":3391,"ina":3392,"Ġà¤ıà¤ķà¤¦à¤®à¤ļ":3393,"Ġà¤ĳà¤¬":3394,"à¤ľà¤¨à¤ķ":3395,"à¤¨à¤ķà¤ļ":3396,"Ġà¤°à¤¸à¤Ĺ":3397,"à¥¨à¥©":3398,"Ġà¤¬à¤¹à¤°à¤²":3399,"Ġà¤ħà¤§à¤°":3400,"Ġà¤Ĳà¤ķà¤µ":3401,"Ġà¤¬à¤¨à¤ķà¤°":3402,"Ġser":3403,"Ġself":3404,"à¤ĸà¤°à¤¤à¤°":3405,"Ġac":3406,"Ġad":3407,"Ġact":3408,"orld":3409,"Ġà¤ķà¤ªà¤Ł":3410,"à¤ĵà¤¨":3411,"à¤ĵà¤¸":3412,"à¤ĵà¤¢":3413,"à¥¯à¥¦":3414,"Ġà¤Ĺà¤°à¤ľà¤ļ":3415,"oup":3416,"Ġà¤°à¤¹à¤¸":3417,"esh":3418,"Ġte":3419,"Ġty":3420,"à¤ĸà¤¨à¤¨":3421,"Ġmore":3422,"??\"":3423,"Ġà¤īà¤¤à¤°à¤µà¤£":3424,"à¥ªà¥¦":3425,"Ġhas":3426,"Ġà¥©à¥§":3427,"ick":3428,"Ġfind":3429,"Ġà¤īà¤¡à¤µà¤²":3430,"à¤¾',":3431,">>>>+":3432,">>>>>>>>":3433,"Ġà¤ĺà¤¡à¤µà¤¤":3434,"Ġgo":3435,"Ġà¤Ķà¤¦":3436,"Ġà¤Ĺà¤¡à¤ķà¤°":3437,"Ġà¤Ĩà¤¦à¤°à¤£":3438,"Ġà¤µà¤°à¤ļà¤¢":3439,"ĠIndia":3440,"à¥ĩ\".":3441,"Ġà¤īà¤®à¤Ĺà¤²":3442,"Ġka":3443,"à¥ĩ'.":3444,"à¤ĳà¤¸":3445,"Ġà¥¨à¥¦à¥§à¥©":3446,"ign":3447,"Ġits":3448,"Ġread":3449,"à¤ĭà¤·":3450,"Ġ193":3451,"ĠGT":3452,"Ġres":3453,"Ġà¤įà¤¡à¤®":3454,"Ġà¥¯à¥¦":3455,"Ġà¤¢à¤ķà¤²à¤¤":3456,"atha":3457,"à¤ħà¤ķà¤¬à¤°":3458,"ĠKrish":3459,"Ġà¤īà¤§à¤³à¤²":3460,"Ġà¤īà¤§à¤³à¤£":3461,"Ġall":3462,"Ġà¤ļà¤ªà¤ĸà¤²":3463,"ubmitted":3464,"Ġà¤ĸà¤Łà¤ķà¤²":3465,"anger":3466,"âĹıâĹıâĹıâĹıâĹıâĹıâĹıâĹıâĹıâĹıâĹıâĹıâĹıâĹıâĹıâĹı":3467,"Ġabout":3468,"Ġlihil":3469,"cript":3470,"Ġinteresting":3471,"ĠKrishna":3472,"07":3473,"16":3474,"31":3475,"40":3476,"It":3477,"Submitted":3478,"ail":3479,"be":3480,"but":3481,"cel":3482,"fore":3483,"hi":3484,"jun":3485,"lic":3486,"lue":3487,"mon":3488,"ni":3489,"so":3490,"ug":3491,"uj":3492,"uct":3493,"xx":3494,"Ġ&":3495,"Ġus":3496,"Ġour":3497,"Ġimp":3498,"à¥Ŀ":3499,"à¤°à¤¤à¤°":3500,"à¤°à¤¬à¤²":3501,"à¤¤à¤ĸ":3502,"à¤¤à¤µà¤°":3503,"à¤²à¤Ŀ":3504,"à¤¨à¤Ī":3505,"à¤¨à¤µà¤£":3506,"à¤¨à¤ľà¤°":3507,"à¤¨à¤²à¤ļ":3508,"à¤¿à¤ĥ":3509,"à¤ļà¤¢":3510,"à¤ķà¤Łà¤²":3511,"à¤ķà¤ķà¤²":3512,"à¤ķà¤Łà¤¤":3513,"à¤¹à¤¹":3514,"à¤¹à¤²à¤ķ":3515,"à¤µà¤¡à¤¤":3516,"à¤¸à¤ĺ":3517,"à¤¸à¤¦à¤°":3518,"à¥ĭ\"\"":3519,"Ġà¤ķà¤¢":3520,"Ġà¤ķà¥ľ":3521,"à¤®à¤¯à¤ļ":3522,"à¥ģ?":3523,"Ġà¤®à¤°à¤¤":3524,"Ġà¤¤à¤ľà¤µ":3525,"Ġà¤ªà¤¥":3526,"Ġà¤ªà¤³à¤£":3527,"Ġà¤ªà¤Łà¤£":3528,"Ġà¤¹à¤¬":3529,"Ġà¤¹à¤²à¤¤":3530,"Ġà¤¸à¤³":3531,"à¤Ĺà¤°à¤ľ":3532,"Ġà¤ħà¤µà¤°":3533,"Ġà¤ħà¤¦à¤²":3534,"Ġà¤ħà¤¹à¤®":3535,"à¤¦à¤µà¤²":3536,"à¤Łà¤¡":3537,"à¤Łà¤µà¤²":3538,"à¤Łà¤µà¤°à¤ļ":3539,"à¤Łà¤ļà¤°":3540,"Ġà¤µà¤²à¤¯":3541,"à¤¡à¤¸à¤ļ":3542,"Ġà¤¨à¤²":3543,"à¤³à¤°":3544,"à¤ľà¤¡":3545,"à¤¶à¤£":3546,"à¤¶à¤ķà¤¡":3547,"à¤¶à¤µà¤£":3548,"à¤¬à¤®":3549,"à¤¬à¤µà¤£":3550,"Ġà¤ľà¤¡à¤²":3551,"Ġà¤ľà¤¡à¤£":3552,"à¤§à¤³à¤²":3553,"Ġà¤²à¤¸":3554,"à¤·à¤¹":3555,"à¤·à¤µ":3556,"à¤·à¤¯à¤ķ":3557,"Ġà¤Ĺà¤µà¤°":3558,"Ġà¤Ĺà¤Ĺà¤¨":3559,"Ġà¤¯à¤®":3560,"..(":3561,"..âĢĿ":3562,"à¤µà¤°à¤ľ":3563,"Ġà¤°à¤¬à¤°":3564,"à¤łà¤¤":3565,"Ġà¤ļà¤ªà¤³":3566,"à¤¥à¤ļ":3567,"Ġà¤ıà¤°":3568,"Ġà¤ıà¤¨à¤°":3569,"Ġà¤ĺà¤¨":3570,"Ġà¤ĺà¤³":3571,"Ġà¤īà¤¬":3572,"Ġà¤īà¤°à¤£":3573,"Ġà¤īà¤¦à¤°":3574,"Ġà¤«à¤¡à¤ķ":3575,"à¤Īà¤¦":3576,"à¤Ĩà¤łà¤µ":3577,"à¤Ĩà¤īà¤Ł":3578,"à¤¢à¤³":3579,"Ġà¤Ĩà¤²à¤Ł":3580,"Ġà¤ĩà¤¬":3581,"Ġà¤ĩà¤·":3582,"à¤µà¤²à¤Ĺ":3583,"à¤µà¤¤à¤¯":3584,"à¤«à¤ļ":3585,"à¤«à¤Ł":3586,"à¤¾,âĢĻ":3587,"à¤°à¤£à¤²":3588,"à¥ĩ,âĢĿ":3589,"Ġà¤µà¤°à¤µà¤°":3590,"Ġà¤¨à¤µà¤¸":3591,"à¥ĥà¤Ĥ":3592,"à¤ķà¤°à¤¬":3593,"à¤Łà¤²à¤°":3594,"Ġà¤¸à¤®à¤¦":3595,"à¤ªà¤°à¤¸":3596,"à¤ªà¤°à¤®":3597,"à¤¯à¤ķà¤¥":3598,"......\"":3599,"à¤ıà¤¶à¤¨":3600,"à¤°à¤ĸà¤°":3601,"à¤Łà¤¤à¤ļ":3602,"Ġà¤ĵà¤¤":3603,"Ġà¤Ĩà¤ľà¤ª":3604,"à¤ĥ)":3605,"à¤·à¤£à¤¹":3606,"à¤īà¤ļ":3607,"à¤īà¤£":3608,"à¤īà¤ł":3609,"à¤¶à¤¨à¤°":3610,"...'":3611,"Ġà¤Ĩà¤®à¤¦":3612,"à¤Łà¤°à¤ķà¤¡":3613,"à¤ħà¤°à¤Ł":3614,"à¤ħà¤°à¤µà¤°":3615,"Ġà¤¬à¤¸à¤µà¤£":3616,"à¤¹à¤°à¤¨":3617,"Ġà¤ķà¤®à¤µ":3618,"ana":3619,"Ġà¤ªà¤°à¤¤à¤¤":3620,"Ġà¤Ĩà¤¯à¤Ł":3621,"Ġà¤ķà¤²à¤¹":3622,"Ġthoug":3623,"ater":3624,"à¤²à¤¯à¤¸":3625,"ara":3626,"Ġsup":3627,"Ġspe":3628,"...........":3629,".............":3630,"à¤°à¤¹à¤°à¤£":3631,"Ġà¤ĩà¤¤à¤°à¤¤":3632,"orm":3633,"orry":3634,"Ġwar":3635,"Ġà¤ķà¤³à¤µà¤³":3636,"à¥©à¥Ń":3637,"Ġà¤ķà¤¡à¤µ":3638,"alc":3639,"Ġthem":3640,"Ġbro":3641,"Ġbook":3642,"Ġback":3643,"Ġtw":3644,"Ġtak":3645,"Ġchan":3646,"Ġcould":3647,"à¤ĸà¤¨à¤¶":3648,"Ġph":3649,"Ġpan":3650,"Ġpers":3651,"Ġpla":3652,"à¤¬à¤Īà¤¤à¤²":3653,"Ġhow":3654,"Ġà¤īà¤²à¤Łà¤²":3655,"à¤ķà¤¸à¤Ń":3656,"Ġà¤ĩà¤¤à¤ªà¤¤":3657,"Ġà¥©à¥¬":3658,"anda":3659,"elg":3660,"Ġ15":3661,"Ġà¤Ĺà¤£à¤¨":3662,"à¤ľà¤¸à¤ľà¤¸":3663,"Ġinto":3664,"Ġà¤ıà¤¸à¤Ł":3665,"Ġà¤ĩà¤ķà¤¡à¤ļ":3666,"Ġem":3667,"Ġever":3668,"Ġà¤ªà¤°à¤µà¤¡à¤£":3669,"cept":3670,"à¤ĳà¤ª":3671,"Ġà¤¹à¤¤à¤¬à¤²":3672,"Ġà¥¨à¥¦à¥§à¥¯":3673,"Ġà¤ħà¤Łà¤³":3674,"igh":3675,"ĠAr":3676,"Ġvach":3677,"Ġbefore":3678,"ĠPr":3679,"ulner":3680,"ide":3681,"ĠTr":3682,"ĠThe":3683,"à¥¨à¥¦à¥§à¥©":3684,"ump":3685,"Ġ2019":3686,"Ġà¤Ĺà¤Łà¤Ĺ":3687,"ishad":3688,"Ġà¤¬à¤¬à¤¨à¤ķà¤¡":3689,"Ġà¤¬à¤¬à¤¨à¤®à¤§":3690,"Ġà¤ħà¤¡à¤ķà¤µà¤²":3691,"Ġà¤¬à¤¬à¤¨à¤²":3692,"Ġnew":3693,"Ġneed":3694,"================================================================":3695,"Ġexist":3696,"Ġà¤ĸà¤³à¤¬à¤³":3697,"under":3698,"à¤¬à¤¬à¤¨à¤ļ":3699,"Ġprob":3700,"à¤Ķà¤°":3701,"Ġà¤ķà¤¡à¤µà¤Łà¤ªà¤£":3702,"Ġà¤²à¤Łà¤ķà¤¤":3703,"==============":3704,"Ġeven":3705,"__/\\__":3706,"Ġà¤Ĺà¤µà¤¸à¤²":3707,"))":3708,"100":3709,"70":3710,"AR":3711,"BC":3712,"Chan":3713,"Do":3714,"Dop":3715,"ES":3716,"HA":3717,"Khup":3718,"ON":3719,"On":3720,"St":3721,"az":3722,"con":3723,"eb":3724,"ee":3725,"glish":3726,"hit":3727,"hash":3728,"ix":3729,"ial":3730,"lat":3731,"ml":3732,"nal":3733,"ok":3734,"ose":3735,"pelg":3736,"ram":3737,"ve":3738,"view":3739,"wn":3740,"Ġ>":3741,"Ġu":3742,"Ġent":3743,"Ġout":3744,"Ġ---":3745,"à¤Ļ":3746,"à¥Ĩ":3747,"à¤°à¤ł":3748,"à¤°à¤Ĺà¤²":3749,"à¤°à¤®à¤ļ":3750,"à¤°à¤Ĺà¤¡":3751,"à¤¤à¤¥":3752,"à¤¤à¤µà¤²":3753,"à¤¤à¤¸à¤°":3754,"à¤¤à¤¬à¤¦":3755,"à¤¤à¤¸à¤ļ":3756,"à¤²à¤¬à¤°":3757,"à¤²à¤Ĺà¤¤":3758,"à¤¯à¤µà¤¤":3759,"à¤¯à¤Łà¤ķ":3760,"à¤¯à¤¬à¤²":3761,"à¤¯à¤Łà¤¨":3762,"à¤¯à¤ªà¤¦":3763,"à¤¨à¤ķà¤°":3764,"à¤¨à¤ªà¤°":3765,"à¤¨à¤¯à¤¨":3766,"à¤¨à¤®à¤°":3767,"à¤¿)":3768,"à¤¿-":3769,"à¤¿?":3770,"à¤ļà¤ķà¤¤":3771,"à¤ķà¤«":3772,"à¤ķà¥ľ":3773,"à¤¹à¤¡":3774,"à¤¹à¤¶":3775,"à¤¹à¤ļà¤¤":3776,"à¤µà¤ł":3777,"à¤¸à¤ľ":3778,"à¤¸à¤·":3779,"à¤£à¤ĺ":3780,"Ġà¤ķà¤Ń":3781,"Ġà¤ķà¤µà¤ļ":3782,"à¤®à¤¯à¤²":3783,"à¤®à¤ķà¤¡":3784,"à¤®à¤Ńà¤°":3785,"à¤®à¤ľà¤²":3786,"Ġà¤Ĩà¤«":3787,"Ġà¤Ĩà¤ªà¤¨":3788,"Ġà¤®à¤¤à¤²":3789,"Ġà¤¤à¤£":3790,"Ġà¤¤à¤¦":3791,"Ġà¤¤à¤Łà¤¸":3792,"à¥ĤâĢĻ":3793,"Ġà¤¹à¤°à¤²":3794,"Ġà¤¹à¤¡à¤ª":3795,"Ġà¤¸à¤ľà¤Ĺ":3796,"Ġà¤¸à¤«à¤²":3797,"à¤Ĺà¤ªà¤¤":3798,"à¤Ĺà¤µà¤¡":3799,"Ġà¤ħà¤³":3800,"Ġà¤ħà¤®à¤²":3801,"Ġà¤ħà¤Ĺà¤°":3802,"à¤¦à¤Ń":3803,"à¤Łà¤Ń":3804,"à¤Łà¤ķà¤¡":3805,"à¤Łà¤¬à¤°":3806,"à¤Łà¤°à¤®":3807,"Ġà¤µà¤ª":3808,"Ġà¤µà¤¡à¤²":3809,"à¤¾à¤Ĥ.":3810,"à¤³à¤¸à¤°":3811,"à¤³à¤ªà¤Ł":3812,"à¤¶à¤Ń":3813,"à¤¶à¤¤à¤µ":3814,"Ġà¤¬à¤°à¤ķ":3815,"Ġà¤¬à¥ľ":3816,"Ġà¤¦à¤³à¤£":3817,"à¤¬à¤²à¤ķ":3818,"Ġà¤ľà¤¯à¤¦":3819,"Ġà¤²à¤ĸà¤²":3820,"Ġà¤Ĺà¤¢":3821,"Ġà¤Ĺà¤ľà¤¬":3822,"à¤ĸà¤Ĺ":3823,"à¤ĸà¤°à¤ª":3824,"à¤ĸà¤³à¤²":3825,"..:)":3826,"à¤µà¤°à¤¦":3827,"Ġà¤°à¤¡à¤ķ":3828,"Ġà¤°à¤ľà¤¨":3829,"Ġà¤ķà¤°à¤®":3830,"Ġà¤ķà¤°à¤µà¤¤":3831,"Ġà¤¶à¤°à¤®":3832,"Ġà¤¶à¤°à¤¦":3833,"Ġà¤ļà¤ķà¤µ":3834,"à¤¥à¤µà¤°":3835,"Ġà¤ıà¤¶":3836,"Ġà¤ĺà¤®à¤ĺ":3837,"Ġà¤Ńà¤Ĺ":3838,"Ġà¤Ńà¤°à¤ķ":3839,"Ġà¤Ńà¤Ĺà¤¤":3840,"Ġà¤Ńà¤Ĺà¤¦":3841,"à¤¹à¤£à¤¨":3842,"Ġà¤īà¤¬à¤¦":3843,"Ġà¤īà¤¸à¤³":3844,"Ġà¤īà¤°à¤ķà¤²":3845,"Ġà¤ĸà¤¨":3846,"Ġà¤ĸà¤®":3847,"Ġà¤ĸà¤¦":3848,"Ġà¤¤à¤°à¤¬":3849,"à¤Īà¤µà¤°":3850,"à¤Īà¤¥":3851,"à¤Īà¤Ŀ":3852,"à¤Īà¤¨à¤ļ":3853,"à¤Ĩà¤¡":3854,"à¤Ĩà¤°à¤ª":3855,"à¤Ĩà¤Ĭà¤Ł":3856,"à¤Ŀà¤²à¤¨":3857,"à¤¢à¤°à¤ª":3858,"à¤¤à¤°à¤¨":3859,"à¤ĺà¤Ł":3860,"Ġà¤Ĩà¤²à¤¯":3861,"à¤µà¤²à¤¨":3862,"à¤°à¤£à¤¹":3863,"Ġà¤§à¤ľ":3864,"Ġà¤ħà¤¨à¤Ń":3865,"à¤ķà¤°à¤µ":3866,"à¤µà¤¸à¤°":3867,"à¤ªà¤°à¤¦":3868,"à¤®à¤ļà¤°":3869,"à¤°à¤®à¤ª":3870,"à¤ıà¤ļ":3871,"Ġà¤ªà¤°à¤°":3872,"Ġà¤ªà¤°à¤µà¤¡":3873,"Ġà¤®à¤¨à¤ª":3874,"à¤°à¤µà¤³":3875,"Ġà¤¬à¤ĺà¤¤à¤ļ":3876,"à¤ĩà¤ª":3877,"à¤ĩà¤Ĺ":3878,"Ġ\"\"":3879,"à¤Īà¤²à¤µà¤°":3880,"Ġà¤Ľà¤³à¤¤":3881,"Ġà¤ĵà¤¢à¤£":3882,"Ġà¤ĵà¤¸à¤°à¤²":3883,"ĠâĢĶ":3884,"Ġà¤Ĩà¤ľà¤®":3885,"Ġà¤Ĩà¤ľà¤µà¤°à¤ļ":3886,"à¤ıà¤ķà¤ļ":3887,"à¤īà¤ª":3888,"à¤īà¤¶":3889,"à¤¶à¤¨à¤¶":3890,"...âĢĿ":3891,"Ġà¤Ĩà¤®à¤Ł":3892,"Ġà¤ħà¤ľà¤¬":3893,"Ġà¤¸à¤¹à¤²":3894,"Ġà¤ĸà¤°à¤¤à¤°":3895,"à¤¹à¤°à¤¹":3896,"à¤µà¤¨à¤µ":3897,"âĢĿ,":3898,"ini":3899,"ani":3900,"à¤¬à¤²à¤ļà¤ķ":3901,"Ġà¤ķà¤¥à¤¨":3902,"erta":3903,"à¤²à¤²à¤¯":3904,"à¤Ĩà¤ľà¤ª":3905,"à¤Ĩà¤ľà¤ªà¤°":3906,"Ġà¤ħà¤ªà¤¹à¤°à¤£":3907,"à¥¨à¥¯":3908,"Ġthan":3909,"Ġthink":3910,"ator":3911,"atic":3912,"Ġà¥¨à¥Ń":3913,"Ġsy":3914,"Ġsir":3915,"..............":3916,"Ġà¤ħà¤µà¤¤à¤°à¤²":3917,"à¤Īà¤¨à¤®":3918,"Ġag":3919,"à¤¤à¤¸à¤¹":3920,"ise":3921,"à¤ĵà¤µ":3922,"à¤°à¤¦à¤ķ":3923,"à¤¨à¤µà¤±":3924,"Ġwww":3925,"Ġwere":3926,"enc":3927,"ened":3928,"ense":3929,"Ġà¤ķà¤³à¤ª":3930,"alay":3931,"à¤°à¤ªà¤Łà¤¸":3932,"à¤¯à¤¬à¤³":3933,"ities":3934,"Ġbet":3935,"Ġà¤Ĩà¤ªà¤Ł":3936,"Ġà¤¹à¤³à¤µ":3937,"Ġcall":3938,"Ġment":3939,"Ġmuch":3940,"Ġpoint":3941,"à¥ªà¥¨":3942,"Ġhapp":3943,"Ġhuman":3944,"à¤°à¤Ńà¤¦":3945,"Ġà¤Ĩà¤łà¤µà¤¤à¤¯":3946,"Ġfirst":3947,"Ġday":3948,"Ġà¤¦à¤¹à¤¶à¤¤":3949,"Ġlove":3950,"Ġà¤īà¤Ĺà¤®":3951,"****************************":3952,"à¤ħà¤ªà¤ĺ":3953,"Ġind":3954,"Ġnat":3955,"Ġnahi":3956,"amp":3957,"Ġà¤ªà¤ķà¤¡à¤£":3958,"à¤¾\".":3959,"Ġà¤ľà¤¸à¤ľà¤¸":3960,"Ġ),":3961,"Ġ).":3962,"Ġà¤¹à¤²à¤µà¤²":3963,"à¤¨à¤Ĺà¤°à¤ļ":3964,"Ġà¤Ĩà¤¦à¤®":3965,"Ġà¤Ĩà¤¦à¤³à¤²":3966,"ĠMah":3967,"====================":3968,"Ġà¤Ĩà¤¸à¤µ":3969,"Ġà¤īà¤®à¤Ł":3970,"Ġà¤īà¤®à¤Łà¤¤":3971,"Ġà¤¤à¤³à¤®à¤³":3972,"Ġà¤ĸà¤¡à¤¤à¤°":3973,"Ġà¤ĸà¤¡à¤¬à¤¡":3974,"Ġà¤Ĭà¤¸":3975,"oduct":3976,"ĠBr":3977,"Ġà¤¬à¤³à¤ķà¤Ł":3978,"Ġà¥¨à¥¦à¥§à¥®":3979,"ird":3980,"old":3981,"à¤½à¤½à¤½à¤½":3982,"Ġà¤ķà¤¨à¤¸à¤²":3983,"ult":3984,"Ġà¤īà¤ľà¤³à¤£":3985,"Ġform":3986,"uru":3987,"Ġ2010":3988,"Ġstory":3989,"earl":3990,"Ġà¤¤à¤¡à¤«":3991,"Ġà¤¢à¤ķà¤²à¤£":3992,"à¤¤à¤¬à¤Ĺ":3993,"Ġà¤ªà¤¸à¤°à¤Ł":3994,"cient":3995,"ĠNat":3996,"ople":3997,"Ġà¤īà¤²à¤Ĺà¤¡à¤¤":3998,"ublic":3999,"_________________":4000,"Ġ50":4001,"................................................................":4002,"ments":4003,"ĠUS":4004,"ĠChina":4005,"Ġatt":4006,"à¤¬à¤¬à¤¨à¤¨":4007,"Ġ1947":4008,"Ġ1948":4009,"Ġà¤¥à¤°à¤¥à¤°à¤¤":4010,"++++++++":4011,"bbbb":4012,"Ġà¤ĸà¤£à¤ĸà¤£":4013,"Ġà¤ªà¤Łà¤ķà¤¥":4014,"Ġgener":4015,"ĠSwam":4016,"Ġà¤¤à¤¸à¤¤à¤¸":4017,"Ġlihilay":4018,"Ġà¤¸à¤³à¤¸à¤³":4019,"Ġà¤ħà¤¹à¤®à¤¦":4020,"Ġà¤ľà¤¡à¤£à¤ĺà¤¡à¤£":4021,"Ġbrother":4022,"Ġplace":4023,"Doppelg":4024,"Ġà¤®à¤¤à¤²à¤¬":4025,"Doppelganger":4026,"!)":4027,")!":4028,",,":4029,".(":4030,".)":4031,".âĢĻ":4032,"13":4033,"35":4034,"48":4035,"86":4036,"AL":4037,"HE":4038,"LE":4039,"OM":4040,"PS":4041,"Sh":4042,"To":4043,"VE":4044,"You":4045,"bol":4046,"cl":4047,"cess":4048,"hÃ¢":4049,"ib":4050,"kha":4051,"mm":4052,"ny":4053,"not":4054,"oss":4055,"oci":4056,"run":4057,"son":4058,"self":4059,"ule":4060,"uation":4061,"uly":4062,"ward":4063,"ways":4064,"yout":4065,"Ã©":4066,"Ġ``":4067,"Ġif":4068,"à¥Ľ":4069,"à¤¾à¥ĩ":4070,"à¥į!":4071,"à¥į?":4072,"à¤°à¤¯à¤¸":4073,"à¤°à¤³à¤ķ":4074,"à¥Ģ_":4075,"à¤²à¤¦à¤°":4076,"à¤²à¤¤à¤ļ":4077,"à¤²à¤¯à¤¤":4078,"à¤¯à¤«":4079,"à¤¯à¤°à¤²":4080,"à¤¯à¤ªà¤°":4081,"à¤¯à¤ľà¤¨":4082,"à¤¨à¤ķà¤¡":4083,"à¤¨à¤®à¤§à¤²":4084,"à¤ļà¤µà¤°":4085,"à¤ļà¤Ń":4086,"à¤ļà¤µà¤Ł":4087,"à¤ļà¤ľà¤£":4088,"à¤Ĥ)":4089,"à¤¹à¤ª":4090,"à¤µà¤µà¤¤":4091,"à¤µà¤¦à¤°":4092,"à¤µà¤¨à¤ļ":4093,"à¤µà¤ļà¤¨":4094,"à¤¸à¤¡":4095,"à¤¸à¤°à¤£":4096,"à¤¸à¤µà¤£":4097,"à¥ĭâĢ¦":4098,"à¥ĭ).":4099,"à¤£à¤¹":4100,"Ġà¤ķà¤®à¤²":4101,"Ġà¤ķà¤µà¤¡":4102,"à¤®à¤Ŀ":4103,"à¤®à¤¯à¤¨":4104,"Ġà¤Ĩà¤¸à¤°":4105,"Ġà¤Ĩà¤ĸà¤£":4106,"Ġà¤®à¤Ĺà¤²":4107,"Ġà¤®à¤¸à¤²":4108,"Ġà¤¤à¤«":4109,"Ġà¤¤à¤±":4110,"Ġà¤¤à¤³à¤£":4111,"à¤ªà¤¤à¤°":4112,"à¤ªà¤ķà¤¨":4113,"à¥Ĥà¤Ĥ.":4114,"à¥Ĥà¤ģ":4115,"Ġà¤¹à¤ª":4116,"Ġà¤¹à¤²à¤£":4117,"Ġà¤¸à¤Ł":4118,"Ġà¤¸à¤Ī":4119,"Ġà¤¸à¤°à¤®":4120,"Ġà¤¸à¤ķà¤¤":4121,"Ġà¤¸à¤ľà¤²":4122,"Ġà¤¸à¤³à¤¸":4123,"à¤Ĺà¤Ĺ":4124,"Ġà¤ħà¤¤à¤°":4125,"Ġà¤ħà¤ªà¤²":4126,"Ġà¤ħà¤Ŀà¤°à¤¬":4127,"à¤¦à¤¬":4128,"à¤Łà¤¶":4129,"Ġà¤µà¤¦":4130,"Ġà¤µà¤°à¤£":4131,"à¤¡à¤ĸ":4132,"à¤¡à¤¸à¤®":4133,"à¤¡à¤®à¤¨":4134,"Ġà¤¨à¤ĸ":4135,"Ġà¤¨à¤Łà¤²":4136,"à¤³à¤¨":4137,"à¤³à¤Ń":4138,"à¤³à¤ªà¤°":4139,"à¤³à¤Īà¤ļ":4140,"à¤ľà¤ķà¤¡":4141,"à¤¶à¤¦à¤°":4142,"Ġà¤¬à¤²à¤°":4143,"Ġà¤¦à¤ª":4144,"Ġà¤¦à¤¸à¤°":4145,"Ġà¤¦à¤®à¤¦":4146,"Ġà¤¦à¤¡à¤ª":4147,"Ġà¤¦à¤£à¤ķ":4148,"à¤¬à¤¡à¤²":4149,"Ġà¤²à¤Ĺà¤¤":4150,"Ġà¤²à¤¢à¤¤":4151,"Ġà¤²à¤ļà¤ķ":4152,"Ġà¤²à¤«à¤¡":4153,"Ġà¤Ĺà¤ľà¤°":4154,"Ġà¤Ĺà¤¹à¤¨":4155,"à¤ĸà¤Ń":4156,"à¤ĸà¤Ľ":4157,"Ġà¤¯à¤ķà¤Ł":4158,"..,":4159,"..>>":4160,"à¤µà¤°à¤¨":4161,"Ġà¤°à¤Ĺ":4162,"Ġà¤°à¤Ł":4163,"Ġà¤°à¤ļà¤£":4164,"Ġà¤ķà¤°à¤¶":4165,"Ġà¤ķà¤°à¤ķà¤°":4166,"à¤łà¤Ńà¤°":4167,"à¤łà¤¬à¤³":4168,"Ġà¤ļà¤²à¤¨":4169,"à¤¥à¤¶":4170,"à¤¥à¤ªà¤°":4171,"Ġà¤ĺà¤¸à¤°":4172,"Ġà¤ĺà¤¸à¤°à¤¤":4173,"Ġà¤ıà¤ķà¤ľ":4174,"à¤¹à¤£à¤µ":4175,"à¤¹à¤£à¤¶":4176,"à¤Ńà¤°à¤²":4177,"à¤Ńà¤°à¤ļ":4178,"Ġà¤īà¤¡à¤£":4179,"Ġà¤Ŀà¤Łà¤ķà¤¨":4180,"Ġà¤ĸà¤³à¤ĸ":4181,"âĢĵ":4182,"Ġà¤¤à¤°à¤¤à¤°":4183,"Ġà¤«à¤¤":4184,"à¤Ĩà¤ĸ":4185,"à¤Ĩà¤¤à¤²":4186,"à¤Ĩà¤¦à¤²":4187,"à¤Ĩà¤Īà¤²":4188,"à¤¤à¤°à¤ľà¤®":4189,"à¤°à¤¤à¤µ":4190,"à¤°à¤¤à¤¨à¤ļ":4191,"à¤ħà¤°à¤²":4192,"à¤ħà¤ķà¤°":4193,"à¤Ĭà¤¤":4194,"à¤Ĭà¤£":4195,"à¤Ĭà¤¬":4196,"à¤Ĭà¤¥":4197,"Ġà¤ĩà¤µà¤²":4198,"à¤µà¤²à¤¤":4199,"à¤¯à¤²à¤ļ":4200,"Ġà¤Łà¤ªà¤²":4201,"à¤ķà¤¡à¤ķ":4202,"à¤¹à¤¤à¤ļ":4203,"à¤¾,âĢĿ":4204,"à¤°à¤£à¤¤":4205,"Ġà¤ªà¤£à¤¤":4206,"Ġà¤¡à¤ķà¤µ":4207,"à¤Ĺà¤³à¤¸":4208,"à¤°à¤ķà¤¸":4209,"Ġà¤ħà¤¨à¤ĺ":4210,"à¤µà¤¸à¤ļ":4211,"à¤µà¤¸à¤®":4212,"Ġà¤¸à¤®à¤¯":4213,"à¤ªà¤°à¤¹":4214,"Ġà¥Ľ":4215,"Ġà¤Ĩà¤¤à¤ļ":4216,"à¤°à¤®à¤µà¤°":4217,"Ġà¤¸à¤°à¤¨":4218,"Ġà¤¸à¤°à¤¸à¤ķà¤Ł":4219,"Ġà¤¥à¤µ":4220,"Ġà¤¥à¤°à¤ķ":4221,"Ġà¤¥à¤ķà¤µ":4222,"à¤ıà¤ľ":4223,"Ġà¤¸à¤Ĺà¤³à¤¯":4224,">>+":4225,"à¤ĩà¤ļ":4226,"à¤ĩà¤µ":4227,"à¤ĩà¤ªà¤²":4228,"à¤Īà¤²à¤®à¤§":4229,"Ġà¤Ľà¤Ł":4230,"Ġà¤ĵà¤¤à¤²":4231,"Ġà¤ĵà¤¤à¤ª":4232,"Ġà¤Ĩà¤ľà¤¤":4233,"à¤ıà¤ķà¤ª":4234,"âĢĻ,":4235,"à¤·à¤£à¤ªà¤¦":4236,"à¤īà¤®à¤°":4237,"à¤¶à¤¨à¤¨":4238,"...(":4239,"...!!":4240,"à¤Ĩà¤¤à¤®à¤§":4241,"Ġà¤Ĳà¤¤à¤°":4242,"à¤®à¤¸à¤¨":4243,"à¤®à¤¸à¤Ń":4244,"à¤¸à¤®à¤¯":4245,"Ġà¤¸à¤®à¤ľà¤µ":4246,"Ġà¤¸à¤¹à¤ľà¤ļ":4247,"à¤ħà¤°à¤¬":4248,"à¤°à¤ľà¤²":4249,"à¤°à¤ľà¤¨":4250,"à¤°à¤ľà¤£":4251,"à¤¹à¤°à¤¯":4252,"à¤¹à¤°à¤µà¤°":4253,"à¤²à¤ķà¤®":4254,"à¤²à¤ķà¤Ł":4255,"ination":4256,"anc":4257,"à¤§à¤¨à¤ķ":4258,"Ġà¤ĳà¤ĩà¤²":4259,"Ġà¤ĳà¥ŀ":4260,"Ġà¤Ĩà¤¯à¤°":4261,"Ġà¤ķà¤²à¤°à¤ļ":4262,"à¤¨à¤ķà¤³à¤¤":4263,"à¤ªà¤¤à¤Ń":4264,"à¤¯à¤¨à¤°":4265,"att":4266,"atch":4267,"atist":4268,"à¤ħà¤¸à¤ļ":4269,"Ġsay":4270,"Ġsub":4271,"Ġsuch":4272,"à¤®à¤ķà¤°à¤£":4273,"à¤ħà¤¨à¤ĺ":4274,"à¥«à¥§":4275,"à¤¸à¤¨à¤¤":4276,"à¤¸à¤¨à¤¨":4277,"orn":4278,"à¤ĵà¤¤":4279,"à¤ĵà¤ª":4280,"à¤ĵà¤Ł":4281,"Ġway":4282,"Ġwind":4283,"à¥©à¥¬":4284,"à¥¯à¥¬":4285,"Ġà¤ķà¤¡à¤ķà¤¡":4286,"ale":4287,"alth":4288,"ality":4289,"Ġbr":4290,"Ġà¤Ĩà¤ªà¤Łà¤²":4291,"à¤ľà¤µà¤³à¤ľà¤µà¤³":4292,"Ġcol":4293,"Ġmil":4294,"Ġmay":4295,"Ġmast":4296,"Ġmust":4297,"Ġmade":4298,"à¤µà¤ľà¤¯":4299,"à¤ļà¤ķà¤³":4300,"Ġà¤Īà¤ļ":4301,"edia":4302,"Ġpe":4303,"??\"\"":4304,"Ġà¤®à¤¤à¤¦":4305,"à¤µà¤ķà¤±":4306,"à¥ªà¥¦à¥¦":4307,"ings":4308,"à¤Ĩà¤ªà¤£à¤ļ":4309,"Ġà¤ħà¤¡à¤µà¤¤":4310,"Ġà¤ļà¤°à¤«":4311,"à¤ħà¤ľà¤¯":4312,"Ġà¥©à¥«":4313,"ication":4314,"Ġfe":4315,"Ġdon":4316,"Ġà¤¦à¤¹à¤¶à¤¤à¤µ":4317,"Ġla":4318,"Ġlav":4319,"Ġliv":4320,"à¥Ńà¥¦":4321,"Ġà¤īà¤Ĺà¤µà¤¤":4322,"Ġ112":4323,"à¤Ĩà¤Īà¤¬":4324,"Ġà¤Ĺà¤£à¤²":4325,">>>>>>>":4326,"à¥ĩ),":4327,"Ġà¤īà¤ĺà¤¡à¤ªà¤£":4328,"à¥Ģ'.":4329,"à¤¯à¤ķà¤²à¤µà¤°":4330,"Ġà¤ªà¤³à¤µà¤²":4331,"Ġà¥«à¥«":4332,"Ġà¤§à¤¡à¤§":4333,"Ġà¤§à¤¡à¤ķà¤²":4334,"Ġà¤Ĺà¤¡à¤ª":4335,"Ġà¤¹à¤²à¤µà¤¤":4336,"Ġà¤¹à¤°à¤µà¤¤":4337,"het":4338,"Ġà¥§à¥¯à¥ª":4339,"Ġyet":4340,"à¤°à¤¥à¤®à¤¦à¤°":4341,"Ġà¤īà¤®à¤ľ":4342,"Ġkhup":4343,"ava":4344,"ety":4345,"Ġà¤Ĭà¤ł":4346,"ational":4347,"Ġà¤¸à¤ªà¤¶":4348,"Ġà¤²à¤ªà¤µà¤£":4349,"Ġà¤ħà¤¦à¤¬":4350,"à¤ħà¤µà¤¯à¤µ":4351,"Ġà¥¨à¥¦à¥§à¥«":4352,"Ġà¥¨à¥¦à¥§à¥ª":4353,"Ġonly":4354,"abhar":4355,"ĠABC":4356,"Ġà¥Ńà¥«":4357,"Ġvat":4358,"ĠPar":4359,"ister":4360,"ular":4361,"ids":4362,"Ġanother":4363,"Ġancient":4364,"à¤ĭà¤¤":4365,"----------------------------------------------------":4366,"Ġà¤Ĩà¤³à¤¶":4367,"ĠDe":4368,"Ġà¤įà¤¡":4369,"Ġstill":4370,"Ġà¥¯à¥¯":4371,"à¥§à¥¯à¥¬":4372,"oos":4373,"à¤®à¤°à¤£à¤¶à¤ķ":4374,"à¤Īà¤®à¤ª":4375,"!!!!!!!!!":4376,"Ġà¥¨à¥¦à¥¦à¥«":4377,"Ġà¥¨à¥¦à¥¦à¥®":4378,"Ġ30":4379,"Ġà¥§à¥«à¥¦à¥¦":4380,"ement":4381,"Ġshould":4382,"ĠVed":4383,"Ġà¤¬à¤¬à¤¨à¤¨":4384,"Ġà¤¦à¤®à¤Ľ":4385,"???\"":4386,"ĠĠĠĠĠĠĠĠ":4387,"Ġneither":4388,"Ġ60":4389,"Ġà¤ļà¤®à¤ķà¤¦":4390,"à¥§à¥¨à¥«":4391,"angol":4392,"elling":4393,"âĢ¦âĢ¦âĢ¦âĢ¦":4394,"ĠUpan":4395,"Ġà¤µà¤Ĺà¤³à¤²":4396,"udh":4397,"ĠJuly":4398,"à¤Ĩà¤µà¤¡à¤¤":4399,"à¤ħà¤¡à¤ļà¤£":4400,"à¤ĩà¤¸à¤®à¤¨":4401,"ĠâĢĿâĢľ":4402,"Ġà¤¥à¤°à¤¥à¤°":4403,"ext":4404,"Ġà¤¤à¤Ĺà¤®à¤Ĺ":4405,"Ġtime":4406,"Ġtimes":4407,"ðŁĳ":4408,"Ġà¤ħà¤µà¤ļà¤Ł":4409,"ount":4410,"Ġà¤·à¤Łà¤ķ":4411,"ween":4412,"Thanks":4413,"yasa":4414,"ĠGTG":4415,"juna":4416,"Ġtaka":4417,"Ġphot":4418,"Ġperson":4419,"ĠArjuna":4420,"ulnerable":4421,"ĠTrans":4422,"Ġà¤ĺà¤®à¤ĺà¤®":4423,"Ġbetween":4424,"Ġcalled":4425,"ĠMahabhar":4426,"Ġà¤¸à¤³à¤¸à¤³à¤¤":4427,"ĠABCD":4428,"ĠUpanishad":4429,"ĠMahabharata":4430,"!\"\"":4431,"'m":4432,")\"":4433,")âĢľ":4434,".,":4435,".:":4436,".âĢĿ":4437,".??":4438,"03":4439,"08":4440,"09":4441,"17":4442,"54":4443,"64":4444,"92":4445,"?\"\"":4446,"AW":4447,"And":4448,"But":4449,"Ch":4450,"EN":4451,"If":4452,"LA":4453,"Meat":4454,"No":4455,"Pangol":4456,"RO":4457,"We":4458,"ace":4459,"ather":4460,"bar":4461,"cre":4462,"dp":4463,"ef":4464,"eep":4465,"ff":4466,"fic":4467,"form":4468,"gle":4469,"her":4470,"hor":4471,"had":4472,"hay":4473,"here":4474,"ied":4475,"ll":4476,"lated":4477,"my":4478,"mun":4479,"mber":4480,"ool":4481,"osh":4482,"ph":4483,"par":4484,"post":4485,"ron":4486,"rit":4487,"rap":4488,"sam":4489,"tr":4490,"uk":4491,"uck":4492,"ved":4493,"vel":4494,"xt":4495,"||":4496,"ÃĤ":4497,"Ġ%":4498,"Ġ[":4499,"Ġ----":4500,"Ġro":4501,"à¥¥":4502,"à¥²":4503,"à¥ĩà¤ģ":4504,"à¥ĩ''":4505,"à¤°à¤Ľ":4506,"à¤°à¤³à¤ļ":4507,"à¤°à¤®à¤§à¤²":4508,"à¤¤à¤Ľ":4509,"à¤¤à¤®à¤¨":4510,"à¤¤à¤ľà¤¯":4511,"à¥ĢâĢ¦.":4512,"à¤²à¤Ī":4513,"à¤²à¤¢":4514,"à¤²à¤ķà¤¡":4515,"à¤²à¤Ĺà¤²":4516,"à¤²à¤Ľ":4517,"à¤²à¤¬à¤¦":4518,"à¤¯à¤Ľ":4519,"à¤¯à¤¡à¤£":4520,"à¤¯à¤ªà¤ķ":4521,"à¤¨à¤³":4522,"à¤¨à¤²à¤²":4523,"à¤¨à¤ªà¤Ł":4524,"à¤¨à¤ªà¤¦":4525,"à¤¿'":4526,"à¤ļà¤Ĺ":4527,"à¤ļà¤ªà¤£":4528,"à¤ļà¤¤à¤ļ":4529,"à¤ļà¤®à¤¤":4530,"à¤ĤâĢĮ":4531,"à¤ķà¤¯":4532,"à¤ķà¤Ĺ":4533,"à¤ķà¤ªà¤°":4534,"à¤ķà¤«à¤°":4535,"à¤¹à¤µà¤¤":4536,"à¤¹à¤«":4537,"à¤¹à¤°à¤ļ":4538,"à¤¹à¤¨à¤ļ":4539,"à¤¹à¤³à¤¤":4540,"à¤¹à¤ļà¤£":4541,"à¤µà¤µà¤°":4542,"à¤µà¤Ĺà¤¤":4543,"à¤µà¤¯à¤®":4544,"à¤¸à¤Ī":4545,"à¤¸à¤ªà¤°":4546,"à¤¸à¤¶à¤²":4547,"à¤¸à¤ħà¤ª":4548,"à¤¸à¤¬à¤¨":4549,"à¤£à¤Ŀ":4550,"à¤£à¤¤à¤°":4551,"à¤£à¤ķà¤°":4552,"à¤£à¤ķà¤¨":4553,"à¤®à¤®à¤¤":4554,"à¤®à¤¦à¤¤":4555,"Ġà¤Ĩà¤ı":4556,"Ġà¤Ĩà¤°à¤¸":4557,"Ġà¤Ĩà¤°à¤¶":4558,"Ġà¤®à¤ĸ":4559,"Ġà¤®à¤®à¤¤":4560,"Ġà¤ªà¤ļà¤¨":4561,"Ġà¤ªà¤ļà¤µà¤¤":4562,"Ġà¤¹à¤²à¤²":4563,"Ġà¤¹à¤¬à¤ķ":4564,"Ġà¤¸à¤¤à¤²":4565,"Ġà¤¸à¤µà¤¤":4566,"Ġà¤¸à¤¡à¤ª":4567,"Ġà¤¸à¤¨à¤®":4568,"à¤Ĺà¤§":4569,"à¤Ĺà¤¢":4570,"à¤Ĺà¤¤à¤°":4571,"à¤Ĺà¤«":4572,"à¤Ĺà¤¡à¤²":4573,"à¤Ĺà¤±":4574,"à¤Ĺà¤¨à¤ļ":4575,"à¤Ĺà¤°à¤¸":4576,"à¤Ĺà¤Ńà¤°":4577,"à¤Ĺà¤µà¤°à¤ļ":4578,"Ġà¤ħà¤°à¤£":4579,"Ġà¤ħà¤¡à¤²":4580,"Ġà¤ħà¤°à¤®":4581,"Ġà¤ħà¤ªà¤¤":4582,"Ġà¤ħà¤®à¤ķ":4583,"à¤¦à¤ªà¤£":4584,"à¤¦à¤°à¤¤":4585,"à¤¦à¤®à¤§":4586,"à¤Łà¤Ł":4587,"à¤Łà¤ĸ":4588,"à¤Łà¤Ľ":4589,"à¤Łà¤ľà¤µà¤³":4590,"à¤Łà¤ªà¤Ł":4591,"à¤Łà¤ħà¤ª":4592,"à¤Łà¤®à¤§à¤²":4593,"Ġà¤µà¤¨à¤°":4594,"Ġà¤µà¤£à¤µ":4595,"à¤¡à¤§":4596,"à¤¡à¤ªà¤£":4597,"à¤¡à¤¡à¤²":4598,"à¤¡à¤Ńà¤°":4599,"à¤¡à¥Ł":4600,"Ġà¤¨à¤Ī":4601,"Ġà¤¨à¤°à¤¸":4602,"Ġà¤¨à¤Ĺà¤£":4603,"Ġà¤¨à¤®à¤¨":4604,"à¤¾à¤Ĥ,":4605,"à¤¾à¤Ĥ?":4606,"à¤¾à¤Ĥà¤Ĥ":4607,"à¤³à¤¯":4608,"à¤³à¤ªà¤£":4609,"à¤³à¤ķà¤¡":4610,"à¤³à¤Ĺà¤²":4611,"à¤ľà¤ĸ":4612,"à¤ľà¤Ń":4613,"à¤ľà¤ªà¤£":4614,"à¤ľà¤Ĺà¤¤":4615,"à¤ľà¤¨à¤ļ":4616,"à¤ľà¤ĺà¤°":4617,"à¤¶à¤Ńà¤°":4618,"Ġà¤¬à¤®":4619,"Ġà¤¬à¤²à¤¸":4620,"Ġà¤¦à¤Ĺà¤¦":4621,"à¤¬à¤®à¤§":4622,"à¤¬à¤¸à¤²":4623,"à¤¬à¤²à¤¤":4624,"Ġà¤ľà¤¤":4625,"Ġà¤ľà¤¯à¤¤":4626,"Ġà¤ľà¤¤à¤¨":4627,"Ġà¤ľà¤¬à¤¡":4628,"Ġà¤ľà¤ĸà¤¡":4629,"à¤§à¤¹":4630,"à¤§à¤¸":4631,"Ġà¤²à¤°":4632,"Ġà¤²à¤µà¤¤":4633,"Ġà¤²à¤¹à¤°":4634,"Ġà¤²à¤ªà¤¤":4635,"Ġà¤²à¤¢à¤²":4636,"Ġà¤²à¤µà¤ļ":4637,"Ġà¤ħà¤¸à¤®à¤°":4638,"à¤·à¤ķà¤°":4639,"à¤·à¤ªà¤¦":4640,"à¤ĸà¤¨à¤¸":4641,"Ġà¤¯à¤¤":4642,"Ġà¤¯à¤²":4643,"..:":4644,"..âĢĻ":4645,"Ġà¤°à¤ļ":4646,"Ġà¤°à¤¯à¤¤":4647,"Ġà¤°à¤¡à¤µ":4648,"Ġà¤°à¤ĸà¤¨":4649,"Ġà¤ķà¤°à¤ª":4650,"Ġà¤¶à¤²":4651,"Ġà¤ļà¤ªà¤²":4652,"Ġà¤ļà¤²à¤¤":4653,"Ġà¤ļà¤ķà¤£":4654,"à¤¥à¤¹":4655,"à¤¥à¤Ł":4656,"à¤¥à¤¡":4657,"à¤¥à¤°à¤²":4658,"Ġà¤ıà¤Ĺ":4659,"Ġà¤ĺà¤®":4660,"Ġà¤ĺà¤¸à¤°à¤²":4661,"Ġà¤Ńà¤µà¤¤":4662,"Ġà¤ıà¤ķà¤µà¤Ł":4663,"à¤Ńà¤Ĺ":4664,"à¤Ńà¤µà¤£":4665,"Ġà¤īà¤¹":4666,"Ġà¤īà¤¸à¤¨":4667,"Ġà¤īà¤¸à¤ķ":4668,"Ġà¤Ŀà¤Ĺ":4669,"Ġà¤Ŀà¤¡à¤ª":4670,"Ġà¤ĸà¤²":4671,"Ġà¤ĸà¤Łà¤²":4672,"Ġà¤¤à¤°à¤³":4673,"Ġà¤«à¤µ":4674,"Ġà¤«à¤¡":4675,"Ġà¤«à¤¸à¤µ":4676,"Ġà¤«à¤Ŀà¤²":4677,"Ġà¤«à¤¡à¤«":4678,"à¤Īà¤¡à¤²":4679,"à¤Īà¤ķà¤°":4680,"à¤Ĩà¤¯à¤²":4681,"à¤Ĩà¤¯à¤ª":4682,"à¤Ŀà¤µ":4683,"à¤Ŀà¤²à¤ļ":4684,"à¤¢à¤Ĺ":4685,"à¤¢à¤±":4686,"à¤ĺà¤µ":4687,"à¤¯à¤ļà¤³à¤µà¤³":4688,"à¤ħà¤¥":4689,"à¤ħà¤µà¤²":4690,"à¤ħà¤Ĺà¤¤":4691,"à¤ħà¤®à¤²":4692,"Ġà¤ĩà¤Łà¤²":4693,"Ġà¤ĩà¤®à¤°":4694,"à¥ī,":4695,"Ġà¤Łà¤®":4696,"Ġà¤Łà¤³":4697,"Ġà¤Łà¤µà¤ķ":4698,"à¤«à¤¨":4699,"à¤«à¤Łà¤ķ":4700,"à¤Ĺà¤²à¤ļ":4701,"à¥ĩ,'":4702,"à¤Ĺà¤³à¤¤":4703,"Ġà¤µà¤°à¤ĸ":4704,"Ġà¤¨à¤µà¤µà¤°":4705,"à¤¬à¤°à¤°":4706,"à¤¬à¤°à¤®à¤§":4707,"Ġà¤¸à¤®à¤ķ":4708,"à¤ªà¤°à¤Ĺ":4709,"Ġà¥ł":4710,"à¤¯à¤ķà¤²à¤ļ":4711,"à¤¤à¤ķà¤®":4712,"à¤¤à¤ķà¤¥":4713,"....!":4714,"à¤ıà¤£":4715,"à¤ıà¤¬":4716,"Ġà¤®à¤¨à¤Ĺà¤Ł":4717,"à¤°à¤ĸà¤¨":4718,"à¤°à¤µà¤Ł":4719,"à¤°à¤µà¤¡":4720,"à¤µà¤³à¤Ł":4721,"à¤ĩà¤ªà¤°":4722,"à¤ĩà¤¤à¤ªà¤¤":4723,"Ġà¤¬à¤°à¤¸":4724,"Ġà¤ĵà¤¹":4725,"Ġà¤ĵà¤¶":4726,"Ġà¤ĵà¤¸à¤°":4727,"Ġ,'":4728,"à¤ĥ-":4729,"âĢĻ!":4730,"à¤īà¤ĺà¤¡":4731,"à¤¶à¤¨à¤¹":4732,"...!":4733,"à¥§à¥¦à¥¦à¥¦":4734,"à¤Ĺà¤£à¤ļ":4735,"___/\\":4736,"à¤Łà¤°à¤ª":4737,"à¤¸à¤®à¤°":4738,"Ġà¤¸à¤¹à¤ľà¤¤":4739,"Ġà¤¬à¤¸à¤¸":4740,"Ġà¤®à¤Ĺà¤°":4741,"à¤µà¤¨à¤®":4742,"à¤µà¤¨à¤ªà¤¦":4743,"à¤²à¤ķà¤°à¤²":4744,"Ġà¤ķà¤®à¤ľ":4745,"à¤µà¤Łà¤µ":4746,"inal":4747,"ined":4748,"any":4749,"Ġà¤Ĩà¤Īà¤¶":4750,"Ġà¤ĳà¤²à¤°":4751,"à¤¬à¤²à¤ļ":4752,"à¤Ńà¤°à¤¹":4753,"Ġà¤ħà¤Ńà¤¯":4754,"Ġà¤īà¤ªà¤ľ":4755,"à¤ľà¤¨à¤¤":4756,"à¤ľà¤¨à¤°à¤²":4757,"!!>>":4758,"à¤®à¤¨à¤¸":4759,"Ġà¤ķà¤²à¤°":4760,"à¤Ĺà¤°à¤°":4761,"à¤¯à¤®à¤°":4762,"Ġthr":4763,"Ġthen":4764,"Ġthirst":4765,"Ġà¥¨à¥®":4766,"arv":4767,"arathi":4768,"Ġsp":4769,"Ġsect":4770,"----------":4771,"à¤°à¤¹à¤¦":4772,"Ġà¤ľà¤¨à¤°":4773,"Ġà¤ľà¤®à¤µà¤²":4774,"Ġass":4775,"Ġauth":4776,"ors":4777,"orth":4778,"à¤¤à¤¨à¤²":4779,"ism":4780,"à¤ĵà¤ªà¤¨":4781,"à¤ĵà¤®à¤ª":4782,"Ġà¤Ńà¤°à¤µà¤²":4783,"Ġà¤Ńà¤°à¤µà¤¤":4784,"Ġwhe":4785,"Ġwalk":4786,"Ġà¤µà¤¸à¤Ī":4787,"Ġà¤ķà¤³à¤ķà¤³":4788,"à¥©à¥®":4789,"Ġà¤¸à¤°à¤ķà¤µ":4790,"Ġthey":4791,"Ġtheir":4792,"oub":4793,"Ġà¤ĳà¤«à¤²":4794,"Ġà¤Ĩà¤ªà¤Łà¤¤":4795,"Ġà¤Ĩà¤ªà¤Ĩà¤ªà¤²":4796,"à¤¯à¤¸à¤Ń":4797,"Ġtum":4798,"Ġmon":4799,"Ġmost":4800,"Ġà¤Īà¤¸":4801,"Ġà¤Īà¤ľ":4802,"Ġper":4803,"Ġpar":4804,"Ġpre":4805,"Ġpost":4806,"Ġà¤®à¤¤à¤Ń":4807,"à¤ķà¤Łà¤µ":4808,"âĢ¦âĢĿ":4809,">>>+":4810,"à¤¬à¤Īà¤®à¤§":4811,"Ġà¤¢à¤µà¤³":4812,"read":4813,"Ġhad":4814,"Ġhot":4815,"Ġà¤īà¤²à¤¥":4816,"ssà¤°":4817,"ssà¤¯":4818,"Ġà¤ħà¤¡à¤µà¤²":4819,"à¥®à¥«":4820,"Ġà¥©à¥©":4821,"Ġà¥©à¥ª":4822,"Ġà¥©à¥¦à¥¦à¥¦":4823,"ict":4824,"icity":4825,"Ġfam":4826,"Ġfact":4827,"Ġdr":4828,"Ġdes":4829,"Ġdest":4830,"Ġdif":4831,"à¤¹à¤²à¤ª":4832,"à¤¹à¤²à¤ªà¤®":4833,"à¤¤à¤³à¤Ł":4834,"Ġlong":4835,"Ġlink":4836,"Ġlock":4837,"Ġlife":4838,"à¤¾'.":4839,"à¤²à¤ķà¤°à¤¨":4840,"Ġins":4841,"Ġnow":4842,"Ġà¤ļà¤ķà¤ļà¤ķ":4843,"à¥Ģ',":4844,"adn":4845,"ila":4846,"ild":4847,"ily":4848,"à¤¾\",":4849,"à¥Ģ),":4850,"à¤¬à¤¸à¤®à¤§":4851,"Ġget":4852,"Ġà¥¨à¥¦à¥§à¥§":4853,"Ġà¤Ķà¤ªà¤ļ":4854,"Ġà¤Ĺà¤¡à¤¬à¤¡à¤²":4855,"Ġà¥ªà¥¦à¥¦":4856,"Ġà¥ªà¥¨":4857,"Ġà¥ªà¥Ń":4858,"Ġà¤µà¤³à¤¸":4859,"Ġà¤µà¤³à¤µà¤£":4860,"à¤¨à¤Ĺà¤°à¤ª":4861,"html":4862,"lease":4863,"à¥Ģ\".":4864,"Ġà¤²à¤¢à¤µ":4865,"Ġtoday":4866,"Ġà¤°à¤ķà¤®":4867,"à¤¨à¤ªà¤£à¤ļ":4868,"Ġà¤¦à¤°à¤µà¤³":4869,"Ġ25":4870,"Ġà¤°à¤¤à¤¨à¤¦":4871,"Ġà¤ķà¤łà¤¡":4872,"Ġà¤īà¤®à¤Ĺà¤¤":4873,"Ġà¤ļà¤²à¤¬":4874,"à¤Ĳà¤¤":4875,"Ġkm":4876,"Ġà¤¤à¤ªà¤¸":4877,"etail":4878,"cember":4879,"à¤ĳà¤²":4880,"à¤£à¤µà¤ł":4881,"Ġà¤«à¤³à¤Ŀ":4882,"ĠBod":4883,"à¤ħà¤µà¤ĺà¤¡":4884,"Ġà¥¨à¥¦à¥§à¥¦":4885,"à¤µà¤§à¤ªà¤£":4886,"ĠAb":4887,"ĠAs":4888,"olog":4889,"Ġà¤īà¤¸à¤³à¤¤":4890,"Ġà¤īà¤¸à¤³à¤²":4891,"Ġà¤ĩà¤¸à¤®à¤ļ":4892,"Ġà¤Ńà¤°à¤¤à¤ķ":4893,"Ġrec":4894,"Ġrem":4895,"à¤¼à¤¾":4896,"Ġà¤ĵà¤³à¤®":4897,"ident":4898,"Ġani":4899,"Ġann":4900,"--------------------------------------------":4901,"umb":4902,"urr":4903,"Ġriver":4904,"Ġà¤µà¤ľà¤¨à¤¦":4905,"2013":4906,"earch":4907,"Ġà¤ĵà¤ĺà¤µà¤¤":4908,"Ġà¥¨à¥¦à¥¦à¥Ń":4909,"Ġà¥§à¥«à¥¦":4910,"ember":4911,"Ġà¤ħà¤¡à¤ķà¤µ":4912,"Ġshak":4913,"ournal":4914,"Ġcommon":4915,"Ã¢na":4916,"Ġà¤¨à¤µà¤²à¤ļ":4917,"Ġnext":4918,"Ġ67":4919,"Ġexc":4920,"à¤¦à¤¶à¤¹":4921,"Ġà¤īà¤²à¤Ĺà¤¡à¤²":4922,"Ġchi":4923,"Ġchar":4924,"Ġà¤Ńà¤Łà¤ľ":4925,"__________________":4926,"Ġà¤ıà¤ķà¤µà¤Łà¤²":4927,"Ġà¤¸à¤«à¤°à¤ļ":4928,"ights":4929,"aliz":4930,"..!\"":4931,"Ġà¤°à¤ľà¤¤à¤ļ":4932,"Ġà¤®à¤³à¤Ń":4933,"undar":4934,"Ġà¥¤à¥¤":4935,"Ġà¥§à¥¬à¥©à¥¦":4936,"order":4937,"ougule":4938,"press":4939,"Ġà¤°à¤ĸà¤°à¤ĸ":4940,"Ġà¥§à¥¯à¥¯à¥§":4941,"Ġ80":4942,"***************":4943,"imple":4944,"tegr":4945,"Ġhistory":4946,"blog":4947,"à¤ľà¤Ĺà¤£à¤¤":4948,"Ġthings":4949,"Ġothers":4950,"atiable":4951,"ĠManoos":4952,"Another":4953,"waiting":4954,"Ġhistorical":4955,"Ġ1938":4956,"à¤°à¤¬à¤²à¤¨":4957,"Ġsupport":4958,"Ġevery":4959,"Ġà¤¦à¤³à¤£à¤µà¤³à¤£":4960,"Ġà¤²à¤ĸà¤²à¤ĸ":4961,"Ġà¤Ĺà¤ľà¤¬à¤ľà¤²":4962,"Ġà¤ķà¤°à¤®à¤°à¤ķà¤°":4963,"Ġà¤Ńà¤°à¤ķà¤Łà¤²":4964,"Ġà¤ĸà¤¦à¤ĸà¤¦":4965,"Ġmention":4966,"ĠNatya":4967,"runali":4968,"youtu":4969,"Ġà¤¸à¤Łà¤ķà¤²":4970,"atistics":4971,"Ġwindow":4972,"Ġà¤§à¤¡à¤§à¤¡à¤¤":4973,"à¤ħà¤µà¤¯à¤µà¤¦":4974,"Pangolin":4975,"Ġà¤¦à¤Ĺà¤¦à¤Ĺ":4976,"Ġauthor":4977,"Ġhota":4978,"ology":4979,"!'":4980,"'(":4981,"()":4982,",âĢĿ":4983,".-":4984,".@":4985,"02":4986,"27":4987,"56":4988,"60":4989,"90":4990,"97":4991,"?..":4992,"AS":4993,"AT":4994,"BQ":4995,"Com":4996,"EBQ":4997,"IS":4998,"IT":4999,"KE":5000,"Ma":5001,"Marathi":5002,"Nam":5003,"OR":5004,"OS":5005,"Pick":5006,"Red":5007,"Sorry":5008,"US":5009,"WA":5010,"aw":5011,"aut":5012,"ces":5013,"cent":5014,"cot":5015,"der":5016,"ev":5017,"ew":5018,"eap":5019,"fi":5020,"fl":5021,"fter":5022,"fect":5023,"gory":5024,"ier":5025,"kd":5026,"kul":5027,"led":5028,"lass":5029,"min":5030,"mit":5031,"mast":5032,"ney":5033,"nglish":5034,"oce":5035,"oast":5036,"part":5037,"rd":5038,"row":5039,"tc":5040,"ton":5041,"ten":5042,"va":5043,"vad":5044,"war":5045,"way":5046,"wik":5047,"why":5048,"where":5049,"{{":5050,"}}":5051,"ïģ":5052,"Ġen":5053,"Ġim":5054,"Ġir":5055,"Ġart":5056,"Ġ_/\\_":5057,"Ġunder":5058,"Ġà¤İ":5059,"à¤¾+":5060,"à¤¾à¥į":5061,"à¤¾âĢĿâĢľ":5062,"à¥į\"":5063,"à¥į:":5064,"à¥ĩ>>":5065,"à¤°à¤¡à¤²":5066,"à¤°à¤¬à¤°":5067,"à¤°à¤§à¤¨":5068,"à¤°à¤ıà¤£":5069,"à¤¤à¤ĺ":5070,"à¤¤à¤µà¤¤":5071,"à¤¤à¤ªà¤°":5072,"à¤¤à¤Ĺà¤¤":5073,"à¤¤à¤®à¤²":5074,"à¤¤à¤ľà¤®":5075,"à¤¤à¤¥à¤°":5076,"à¥Ģ>>":5077,"à¤²à¤¸à¤°":5078,"à¤²à¤°à¤ļ":5079,"à¤²à¤ĩà¤¨":5080,"à¤¯à¤¨à¤ļ":5081,"à¤¯à¤Łà¤°":5082,"à¤¯à¤°à¤ª":5083,"à¤¯à¤®à¤¨":5084,"à¤¯à¤Ŀà¤°":5085,"à¤¯à¤«à¤²":5086,"à¤¨à¤µà¤²":5087,"à¤¨à¤µà¤¤":5088,"à¤¨à¤¬à¤°":5089,"à¤¨à¤µà¤¸":5090,"à¤¨à¤¦à¤²":5091,"à¤¨à¤ªà¤¨":5092,"à¤¨à¤µà¤°à¤ļ":5093,"à¤¨à¤¨à¤²":5094,"à¤¨à¤µà¤¨à¤µ":5095,"à¤ļà¤®à¤ļ":5096,"à¤ļà¤°à¤ļ":5097,"à¤ļà¤µà¤¡":5098,"à¤ļà¤ªà¤¦":5099,"à¤ļà¤ªà¤¡à¤¤":5100,"à¤Ĥ:":5101,"à¤ĤâĢĿ":5102,"à¤Ĥ).":5103,"à¤ķà¤µà¤ļ":5104,"à¤ķà¤ªà¤¡":5105,"à¤¹à¤°à¤ķ":5106,"à¤¹à¤®à¤§":5107,"à¤¹à¤Īà¤¨":5108,"à¤µà¤Łà¤²":5109,"à¤µà¤Ľ":5110,"à¤µà¤®à¤¤":5111,"à¤µà¤¹à¤¸":5112,"à¤¸à¤Ĩà¤īà¤Ł":5113,"à¥ĭ:":5114,"à¤£à¤°":5115,"à¤£à¤ľ":5116,"à¤£à¤§":5117,"à¤£à¤ªà¤°":5118,"à¤£à¤§à¤°":5119,"Ġà¤ķà¤¹à¤°":5120,"à¤®à¤°à¤¤":5121,"à¤®à¤µà¤°à¤ļ":5122,"à¥ģ'":5123,"à¥ģà¤¼":5124,"Ġà¤Ĩà¤¸à¤¤":5125,"Ġà¤Ĩà¤ªà¤¤":5126,"Ġà¤Ĩà¤ļà¤ķ":5127,"Ġà¤Ĩà¤µà¤°à¤£":5128,"Ġà¤Ĩà¤ĸà¤¤":5129,"Ġà¤Ĩà¤Ŀà¤®":5130,"Ġà¤®à¤Łà¤£":5131,"Ġà¤¤à¤Ł":5132,"Ġà¤¤à¤Łà¤¬":5133,"à¤ªà¤ķà¤¡":5134,"à¤ªà¤°à¤ķ":5135,"à¤ªà¤ķà¤°":5136,"à¤ªà¤¦à¤°":5137,"à¤ªà¤¤à¤ļ":5138,"à¤ªà¤Łà¤ķà¤¨":5139,"Ġà¤ªà¤®":5140,"Ġà¤ªà¤Ľ":5141,"à¥Ĥà¤Ĥ!":5142,"Ġà¤¹à¤Ĺ":5143,"Ġà¤¹à¤£à¤®":5144,"Ġà¤¸à¤Ĺ":5145,"Ġà¤¸à¤¶":5146,"Ġà¤¸à¤°à¤£":5147,"Ġà¤¸à¤²à¤¤":5148,"Ġà¤¸à¤¬à¤¨":5149,"à¤Ĺà¤¬à¤°":5150,"à¤Ĺà¤°à¤ļ":5151,"à¤Ĺà¤Ŀà¤²":5152,"Ġà¤ħà¤¢":5153,"Ġà¤ħà¤ķà¤²":5154,"Ġà¤ħà¤Ĺà¤£":5155,"à¤¦à¤µà¤¤":5156,"à¤¦à¤°à¤ķ":5157,"à¤¦à¤¡à¤¤":5158,"à¤¦à¤®à¤¸":5159,"à¤¦à¤¯à¤¸":5160,"à¤¦à¤®à¤¯":5161,"à¤Łà¤Ĺ":5162,"à¤Łà¤ľ":5163,"à¤Łà¤¸à¤°":5164,"à¤Łà¤µà¤£":5165,"à¤Łà¤¬à¤¦":5166,"à¤Łà¤ļà¤ķ":5167,"à¤Łss":5168,"Ġà¤µà¤²":5169,"Ġà¤µà¤±":5170,"Ġà¤µà¤°à¤ķà¤°à¤£":5171,"à¤¡à¤ķà¤¡":5172,"à¤¡à¤µà¤°à¤ļ":5173,"à¤¡à¤¨à¤²":5174,"à¤¡à¤ľà¤¸":5175,"à¤¡à¤®à¤§à¤²":5176,"à¤¡à¤¨à¤®à¤§":5177,"Ġà¤¨à¤ļ":5178,"Ġà¤¨à¤£":5179,"Ġà¤¨à¤«":5180,"Ġà¤¨à¤ķà¤²":5181,"Ġà¤¨à¤Łà¤µ":5182,"Ġà¤¨à¤¤à¤®à¤¸":5183,"à¤³à¤Ŀ":5184,"à¤ľà¤¯à¤ļ":5185,"à¤ľà¤°à¤ļ":5186,"à¤ľà¤µà¤¡":5187,"à¤ľà¤ĸà¤®":5188,"à¤¶à¤µà¤°":5189,"à¤¶à¤ªà¤°":5190,"à¤¶à¤ķà¤¤":5191,"à¤¶à¤®à¤¨":5192,"à¤¶à¤¸à¤®à¤§":5193,"Ġà¤¬à¤¶":5194,"Ġà¤¬à¤ļà¤¤":5195,"Ġà¤¬à¤ļà¤ķ":5196,"Ġà¤¬à¤³à¤ľ":5197,"Ġà¤¦à¤¡à¤µ":5198,"Ġà¤¦à¤³à¤µ":5199,"Ġà¤¦à¤¬à¤ķ":5200,"Ġà¤¦à¤®à¤Ł":5201,"à¤¬à¤®à¤ļ":5202,"Ġà¤ľà¤¨à¤ķ":5203,"Ġà¤ľà¤¯à¤ª":5204,"Ġà¤ľà¤³à¤ķ":5205,"Ġà¤ľà¤²à¤¦":5206,"Ġà¤ľà¤²à¤ª":5207,"à¤§à¤¦":5208,"à¤§à¤ľ":5209,"à¤§à¤°à¤¤":5210,"à¤§à¤¨à¤ļ":5211,"à¤§à¤¬à¤§à¤¬":5212,"à¤§à¤µà¤¸à¤°":5213,"à¤§à¤°à¤µà¤¡":5214,"Ġà¤²à¤¡à¤ķ":5215,"à¤·à¤ªà¤£":5216,"Ġà¤Ĺà¤¬":5217,"Ġà¤Ĺà¤ł":5218,"Ġà¤Ĺà¤¨à¤«":5219,"à¤ĸà¤ª":5220,"Ġà¤¯à¤®à¤¸":5221,"..âĢĿâĢľ":5222,"à¤µà¤°à¤µ":5223,"à¤µà¤°à¤¸":5224,"Ġà¤°à¤ļà¤¤":5225,"Ġà¤°à¤ľà¤¤":5226,"Ġà¤°à¤£à¤Ĺ":5227,"Ġà¤ķà¤°à¤¡":5228,"à¤łà¤¡":5229,"Ġà¤ļà¤£":5230,"Ġà¤ļà¤Łà¤£":5231,"Ġà¤ļà¤Łà¤ļ":5232,"à¤¥à¤¯":5233,"Ġà¤ıà¤¬":5234,"Ġà¤ĺà¤°à¤ķ":5235,"Ġà¤Ńà¤Łà¤ļ":5236,"Ġà¤ıà¤ķà¤²":5237,"Ġà¤ıà¤ķà¤¨":5238,"Ġà¤ıà¤ķà¤®à¤¤":5239,"à¤Ńà¤¸":5240,"à¤Ńà¤¡":5241,"à¤Ńà¤Łà¤ķ":5242,"à¤Ńà¤µà¤¨":5243,"Ġà¤īà¤ķà¤²":5244,"Ġà¤Ŀà¤¬":5245,"Ġà¤ĸà¤¯":5246,"Ġà¤ĸà¤Łà¤ķ":5247,"Ġà¤ĸà¤®à¤ķ":5248,"Ġà¤ĸà¤¤à¤ª":5249,"Ġà¤ĸà¤¤à¤°à¤¨":5250,"Ġà¤¤à¤°à¤£":5251,"Ġà¤«à¤ľ":5252,"Ġà¤«à¤£à¤¸":5253,"Ġà¤«à¤¡à¤£":5254,"Ġà¤«à¤Łà¤«":5255,"à¤Īà¤°":5256,"à¤Īà¤¯":5257,"à¤Īà¤ķà¤¡":5258,"à¤Īà¤¤à¤ķ":5259,"à¤Īà¤ªà¤ļ":5260,"à¤Ĩà¤Ŀ":5261,"à¤Ĩà¤¦à¤°":5262,"à¤Ĩà¤¯à¤¤":5263,"à¤Ĩà¤¸à¤ª":5264,"à¤Ŀà¤ª":5265,"à¤¤à¤°à¤ľ":5266,"à¤ªà¤£à¤¨":5267,"à¤ĺà¤³à¤²":5268,"à¤ĺà¤¨à¤¶":5269,"à¤°à¤¤à¤¨":5270,"à¤°à¤¤à¤¨à¤¦":5271,"à¤ħà¤¯":5272,"à¤ħà¤£":5273,"à¤ħà¤·":5274,"à¤ħà¤¤à¤°":5275,"à¤ħà¤µà¤ļ":5276,"à¤ħà¤®à¤°":5277,"à¤¤à¤²à¤¸":5278,"à¤Ĭà¤¸à¤ļ":5279,"Ġà¤ĩà¤«":5280,"Ġà¤ĩà¤¡à¤²":5281,"Ġà¤ĩà¤¯à¤¤":5282,"à¥Īà¥¤":5283,"à¤¯à¤²à¤¨":5284,"à¤¯à¤²à¤¢":5285,"à¤¯à¤²à¤®à¤§":5286,"Ġà¤Łà¤µ":5287,"à¤«à¤¸":5288,"à¤Ĺà¤²à¤²":5289,"à¤°à¤£à¤¯":5290,"à¤°à¤£à¤µ":5291,"à¤¡à¤²à¤¯":5292,"à¥ĩ,.":5293,"à¤Ĺà¤³à¤¯":5294,"à¤Ĺà¤³à¤ļ":5295,"à¤°à¤ķà¤ļ":5296,"Ġà¤§à¤¸":5297,"Ġà¤§à¤¸à¤ķ":5298,"Ġà¤¨à¤µà¤ĸ":5299,"à¤ķà¤°à¤¶":5300,"à¤ķà¤°à¤Ńà¤°à¤¤":5301,"à¤¬à¤°à¤¨":5302,"à¤¬à¤°à¤¹":5303,"à¤¬à¤°à¤µà¤£":5304,"à¤µà¤¸à¤Ń":5305,"Ġà¤¸à¤®à¤µ":5306,"Ġà¤¸à¤®à¤Ĺ":5307,"Ġà¤¸à¤®à¤°à¤¸":5308,"à¤ªà¤°à¤«":5309,"Ġà¥¥":5310,"à¤Ĭà¤¨à¤¸":5311,"à¤¯à¤ķà¤µ":5312,"à¤¸à¤°à¤¯":5313,"à¤¸à¤°à¤¬":5314,"à¤°à¤®à¤°":5315,"à¤°à¤®à¤¹":5316,"à¤°à¤®à¤µ":5317,"à¤°à¤®à¤Ĺ":5318,"....?":5319,"Ġà¤Ĩà¤µà¤³":5320,"Ġà¤Ĩà¤µà¤Ī":5321,"à¤ķà¤²à¤®":5322,"Ġà¤ªà¤°à¤ª":5323,"Ġà¤ªà¤°à¤¶":5324,"Ġà¤ªà¤°à¤µà¤¡à¤²":5325,"Ġà¤ªà¤°à¤Ńà¤£":5326,"à¤ķà¤¤à¤ļ":5327,"à¤°à¤ĸà¤ļ":5328,"à¤°à¤µà¤¯":5329,"à¤°à¤µà¤ļà¤¨":5330,"Ġà¤ĺà¤°à¤¹":5331,"Ġà¤ĺà¤°à¤¦":5332,"Ġà¤ĺà¤°à¤Ńà¤°":5333,"===-'":5334,"à¤ĩà¤¬":5335,"à¤ĩà¤¨à¤ļ":5336,"à¥Į,":5337,"à¤Ľà¤¨":5338,"Ġà¤Ľà¤¬":5339,"Ġà¤¬à¤°à¤¬":5340,"Ġà¤ĵà¤®":5341,"Ġà¤ĵà¤¤à¤¤":5342,"Ġ,,":5343,"Ġ(!":5344,"Ġà¤Ĩà¤ľà¤¸":5345,"Ġà¤®à¤¹à¤°":5346,"à¤īà¤ļà¤²":5347,"à¤¶à¤¨à¤¸":5348,"...,":5349,"...?":5350,"...''":5351,"...:)":5352,"------":5353,"Ġà¤¤à¤¸à¤¦":5354,"Ġà¤¤à¤¸à¤¬":5355,"à¤²à¤¤à¤Ń":5356,"à¤Łà¤°à¤¹":5357,"à¤Łà¤°à¤Ł":5358,"à¤Łà¤°à¤¶":5359,"à¤Łà¤°à¤µà¤°à¤ļ":5360,"à¤¸à¤®à¤¦":5361,"à¤¸à¤®à¤Īà¤ļ":5362,"Ġà¤ªà¤¹à¤²":5363,"Ġà¤ĸà¤°à¤¬":5364,"à¤Łà¤ķà¤¸à¤°":5365,"Ġà¤ķà¤¸à¤°à¤¤":5366,"than":5367,"Ġà¤¬à¤¸à¤ķà¤°":5368,"à¤µà¤¨à¤°à¤ļà¤¨":5369,"âĢĿ\"":5370,"âĢĿ.":5371,"à¤¯à¤µà¤ļà¤¨":5372,"Ġà¤ķà¤®à¤³":5373,"ananda":5374,"Ġà¤ĩà¤¥à¤µà¤°":5375,"à¥ĭ,âĢĿ":5376,"Ġà¤Ĩà¤Īà¤ª":5377,"à¤¡à¤ķà¤³":5378,"Ġà¤ªà¤°à¤¤à¤«":5379,"Ġà¥§à¥§à¥§à¥§à¥§":5380,"à¤łà¤²à¤°":5381,"Ġà¤ĩà¤¤à¤ķà¤ļ":5382,"Ġà¤ĳà¤ķà¤²":5383,"Ġà¤²à¤ķà¤¬":5384,"Ġà¤Ĩà¤¯à¤Łà¤®":5385,"à¤¬à¤²à¤²":5386,"à¤¬à¤²à¤ª":5387,"Ġà¤īà¤ªà¤µà¤¸":5388,"à¤ľà¤¨à¤²":5389,"!!\"":5390,"à¤µà¤¶à¤ķ":5391,"Ġà¤ķà¤²à¤®":5392,"à¤¨à¤ķà¤¦":5393,"à¤¨à¤ķà¤ªà¤£":5394,"à¤Ĺà¤°à¤¹":5395,"à¥¨à¥¨":5396,"Ġthose":5397,"ats":5398,"Ġà¤¬à¤¹à¤°à¤¤":5399,"Ġà¤®à¤°à¤Ĺà¤³":5400,"à¤Ńà¤µà¤ļ":5401,"à¤Ńà¤µà¤¹":5402,"Ġà¤Ĩà¤¨à¤²":5403,"Ġà¤Ĩà¤¨à¤¨":5404,"Ġà¥¨à¥¯":5405,"Ġà¥¨à¥¦à¥¦à¥¦":5406,"Ġsk":5407,"Ġson":5408,"Ġsal":5409,"Ġsit":5410,"Ġshe":5411,"Ġsol":5412,"Ġsite":5413,"Ġsign":5414,"Ġscript":5415,"Ġsense":5416,"à¤µà¤¡à¤°":5417,"Ġà¤ħà¤µà¤ĸà¤³":5418,"à¤¦à¤¨à¤ħà¤Ń":5419,"à¤ħà¤¨à¤²":5420,"à¤ļà¤¨à¤²":5421,"à¤ļà¤¨à¤®à¤§":5422,"à¥«à¥¨":5423,"à¥«à¥®":5424,"à¥«à¥Ń":5425,"Ġafter":5426,"à¤¤à¤¨à¤¨":5427,"à¤ĵà¤®":5428,"à¤ĵà¤ľ":5429,"à¤ĵà¤¥":5430,"Ġà¤Ńà¤°à¤µà¤¸":5431,"Ġà¤Ńà¤°à¤µà¤£":5432,"Ġà¤Ńà¤°à¤Ĺà¤ļ":5433,"Ġà¤ĵà¤³à¤ĸà¤£":5434,"à¤°à¤¦à¤¸":5435,"à¤Īà¤Łà¤ªà¤£":5436,"Ġà¤¦à¤°à¤¡":5437,"à¤¨à¤µà¤µ":5438,"Ġwell":5439,"Ġwant":5440,"Ġwould":5441,"Ġworld":5442,"à¤µà¤ļà¤³à¤²":5443,"eng":5444,"à¥©à¥¯":5445,"à¥¯à¥©":5446,"aly":5447,"Ġà¤Ĺà¤°à¤ľà¤¹":5448,"à¤Ĺà¤¡à¤¬à¤¡":5449,"Ġà¤īà¤ĺà¤¡à¤ķ":5450,"Ġà¤°à¤¹à¤¦":5451,"à¤Ĩà¤®à¤¦":5452,"its":5453,"iter":5454,"itive":5455,"à¤¤à¤¹à¤¸":5456,"à¤¶à¤ķà¤¹":5457,"ese":5458,"Ġbl":5459,"Ġbel":5460,"Ġbha":5461,"Ġblue":5462,"Ġbatt":5463,"à¤¸à¤¹à¤¸":5464,"Ġtry":5465,"Ġtake":5466,"Ġche":5467,"Ġcell":5468,"Ġcalc":5469,"Ġcerta":5470,"Ġcount":5471,"Ġmad":5472,"Ġmother":5473,"Ġmake":5474,"à¤ļà¤ķà¤¨":5475,"Ġà¤Īà¤°":5476,"Ġà¤Īà¤¤":5477,"Ġà¤Īà¤¡":5478,"Ġpat":5479,"Ġpos":5480,"Ġpublic":5481,"ased":5482,"Ġà¤®à¤¤à¤ª":5483,"à¤µà¤ªà¤¦":5484,"Ġover":5485,"Ġold":5486,">>>++":5487,"à¥ªà¥«":5488,"à¥ªà¥©":5489,"Ġà¤¢à¤¸":5490,"à¥¬à¥ª":5491,"reed":5492,"Ġha":5493,"Ġher":5494,"Ġhim":5495,"Ġhere":5496,"Ġhigh":5497,"Ġà¤ħà¤¡à¤Ĺà¤³":5498,"Ġà¤ħà¤¡à¤ķà¤¤":5499,"Ġà¤ħà¤¡à¤ĸà¤³":5500,"Ġà¤ħà¤¡à¤ĸà¤³à¤²":5501,"à¥®à¥¬":5502,"Ġà¥©à¥¦à¥¦":5503,"Ġà¥©à¥¯":5504,"Ġoff":5505,"ico":5506,"icle":5507,"Ġfri":5508,"Ġfour":5509,"Ġdiv":5510,"Ġdata":5511,"Ġdance":5512,"Ġdown":5513,"Ġdoub":5514,"à¤¨à¤¨à¤¨":5515,"elp":5516,"Ġlet":5517,"Ġlim":5518,"Ġlast":5519,"Ġlight":5520,"Ġloss":5521,"Ġ13":5522,"Ġ18":5523,"************************":5524,"à¤ªà¤¡à¤¦":5525,">>>>>>>>>":5526,"à¤īà¤¨à¤®à¤§":5527,"à¤ħà¤ªà¤µ":5528,"Ġà¤ªà¤Łà¤µà¤°":5529,"Ġà¤ªà¤Łà¤µà¤²":5530,"Ġà¤ķà¤¦à¤®":5531,"Ġna":5532,"Ġnam":5533,"Ġà¤¬à¤¦à¤¡":5534,"amb":5535,"amm":5536,"adun":5537,"ility":5538,"chin":5539,"Ġ:))":5540,"Ġà¤ªà¤³à¤µà¤¤":5541,"Ġà¤ªà¤³à¤µà¤£":5542,"Ġà¤ªà¤³à¤¤à¤ļ":5543,"<<>>":5544,"à¤¡à¤°à¤®à¤§":5545,"Ġà¥«à¥§à¥¨à¥«":5546,"à¥§à¥§à¥©":5547,"ayla":5548,"Ġà¥¨à¥¦à¥¨à¥¦":5549,"Ġ//":5550,"Ġà¤¹à¤²à¤µà¤£":5551,"Ġà¥ªà¥«":5552,"Ġà¥ªà¥¦à¥¦à¥¦":5553,"à¤ķà¤¥à¤¨":5554,"Ġà¤Ĩà¤¦à¤³":5555,"Ġà¤Ĩà¤¦à¤³à¤¤":5556,"ĠMr":5557,"ĠMade":5558,"ĠSt":5559,"ĠSoci":5560,"à¥Ģ\",":5561,"ĠID":5562,"ĠIQ":5563,"Ġtoo":5564,"Ġà¤ħà¤µà¤ĺà¤¡à¤ļ":5565,"ents":5566,"à¤°à¤Ĺà¤Ł":5567,"Ġà¤¦à¤°à¤µà¤³à¤¤":5568,"à¥ĩ\",":5569,"Ġà¤ıà¤¸à¤¡":5570,"stem":5571,"à¤²à¤®à¤¡":5572,"Ġeither":5573,"Ġetc":5574,"Ġà¤°à¤¤à¤¨à¤ķà¤¡":5575,"....................":5576,"à¤Ĳà¤ķà¤²":5577,"Ġkon":5578,"Ġkar":5579,"Ġkeep":5580,"avar":5581,"aven":5582,"à¤Łà¤®à¤³à¤¤":5583,"cements":5584,"ĠChan":5585,"à¤ĳà¤°":5586,"à¤ĳà¤¨":5587,"à¤ĳà¤¡":5588,"à¤£à¤µà¤§":5589,"à¤¸à¤³à¤§":5590,"à¤Ĩà¤¯à¤Ł":5591,"à¤Ĩà¤¯à¤¡":5592,"Ġà¤²à¤ªà¤µà¤¤":5593,"imil":5594,"ĠBhash":5595,"ivid":5596,"ivers":5597,"ivities":5598,"ages":5599,"à¤µà¤§à¤Ĺ":5600,"abard":5601,"abkha":5602,"ĠAut":5603,"aks":5604,"akas":5605,"irus":5606,"Ġà¥®à¥¦à¥¦":5607,"Ġà¥®à¥«":5608,"ollow":5609,"à¥ĢâĢĻ.":5610,"Ġvis":5611,"Ġview":5612,"Ġvulnerable":5613,"Ġà¥¬à¥¦à¥¦":5614,"Ġà¤ĵà¤¢à¤µà¤²":5615,"Ġà¤ĵà¤¢à¤¤à¤ļ":5616,"Ġbeen":5617,"Ġreal":5618,"Ġreally":5619,"ĠPro":5620,"à¤²à¤¬à¤ļ":5621,"à¤²à¤¬à¤®à¤§":5622,"à¤¬à¤ĺà¤£":5623,"idge":5624,"à¥¨à¥¦à¥§à¥¦":5625,"à¥¨à¥¦à¥§à¥Ń":5626,"à¤ĩà¤¤à¤°à¤¹":5627,"Ġforward":5628,"umni":5629,"ĠGood":5630,"ĠGPS":5631,"urity":5632,"************************************************************":5633,"ĠDis":5634,"Ġà¥§à¥¨à¥©":5635,"à¥ĩâĢĻ.":5636,"Ġstr":5637,"2015":5638,"acha":5639,"ĠRam":5640,"à¥§à¥¯à¥Ń":5641,"à¥§à¥¯à¥¯à¥¦":5642,"Ġà¤¸à¤¬à¤®":5643,"Ġà¤¸à¤¬à¤ĸ":5644,"ooks":5645,"Ġà¤ļà¤µà¤¦":5646,"!!!!!!":5647,"Ġjo":5648,"Ġjam":5649,"Ġjust":5650,"Ġà¥§à¥§à¥¦":5651,"Ġwithin":5652,"ĠWar":5653,"Ġshad":5654,"Ġshow":5655,"ource":5656,"Ġcomment":5657,"ĠEx":5658,"ĠEMA":5659,"ĠEnglish":5660,"ĠVish":5661,"ĠVyasa":5662,"Ġà¤ķà¤ļà¤°à¤²":5663,"à¤³à¤¸à¤ªà¤£":5664,"à¥§à¥«à¥¦":5665,".!!''":5666,"Ġà¤Ńà¤Łà¤ķà¤£":5667,"Ġhaves":5668,"Ġà¤²à¤¯à¤¬à¤¦":5669,"Ġexp":5670,"Ġà¤ķà¤£à¤ĸà¤°":5671,"Ġà¤Ńà¤Ĺà¤µà¤¦":5672,"Ġà¤īà¤²à¤Ĺà¤¡à¤£":5673,"à¤§à¤¶à¤¤à¤ķ":5674,"Ġconf":5675,"Ġconta":5676,"___________________":5677,"ract":5678,"There":5679,"Ġsee":5680,"Ġsex":5681,"ousin":5682,"Incre":5683,"Ġ40":5684,"Ġà¤¦à¤¬à¤ķà¤¤":5685,"Ġà¤°à¤ľà¤¤à¤²":5686,"ude":5687,"à¥¨à¥¦à¥¦à¥¨":5688,"ĠChougule":5689,"Ġatom":5690,"Ġknown":5691,"ough":5692,"Ġwhole":5693,".!\"":5694,"lock":5695,"à¤Ķà¤·à¤§":5696,"Ġà¤ħà¤¯à¤¶à¤¸":5697,"Ġamong":5698,":-)":5699,"Ġgroup":5700,"Ġà¥§à¥¯à¥Ńà¥¦":5701,"Ġà¥§à¥¯à¥Ńà¥§":5702,"Ġà¤¦à¤¶à¤°à¤¥":5703,"**************":5704,"Ġà¤Ŀà¤Łà¤ķà¤²":5705,"hats":5706,"Ġà¤¦à¤£à¤¦à¤£":5707,"Ġà¤°à¤£à¤ľ":5708,"Ġà¤Ńà¤°à¤µà¤¶":5709,"Ġtrans":5710,"appy":5711,"ensory":5712,"Ġdisc":5713,"______________":5714,"Ġcomple":5715,"*~*~*~*~":5716,"irect":5717,"Ġ70":5718,"Ġà¤ĺà¤¸à¤°à¤£":5719,"ouncements":5720,"ground":5721,"ocal":5722,"Ġelse":5723,"Ġsaid":5724,"ĠIntegr":5725,"iverse":5726,"ports":5727,"Ġzalay":5728,"Ġquest":5729,"*********************":5730,"Ġwhats":5731,"âĢĶâĢĶâĢĶâĢĶ":5732,"Ġserious":5733,"Ġacc":5734,"Ġactivities":5735,"Ġtyp":5736,"celand":5737,"Ġà¤īà¤¦à¤°à¤Ńà¤°à¤£":5738,"Ġthough":5739,"Ġthought":5740,"umped":5741,"Ġneedful":5742,"Ġprobable":5743,"Ġagain":5744,"Ġhappened":5745,"Ġindivid":5746,"ĠBrah":5747,"ĠSwamini":5748,"Ġà¤¨à¤ĸà¤¶":5749,"Ġà¤ĸà¤³à¤ĸà¤³":5750,"Ġà¥Ľà¤°":5751,"Ġà¤ļà¤°à¤«à¤¡à¤¤":5752,"Ġfeel":5753,"Ġlavkar":5754,"ĠDecember":5755,"ðŁĳį":5756,"Ġphoto":5757,"ĠTranslated":5758,"hayana":5759,"munication":5760,"samad":5761,"Ġà¤Ŀà¤Ĺà¤®à¤Ĺ":5762,"Ġwhether":5763,"Ġtumhi":5764,"adnya":5765,"ĠBodhayana":5766,"Ġannouncements":5767,"ocean":5768,"ïģ¹":5769,"Ġà¤¬à¤³à¤ľà¤¬à¤°":5770,"Ġà¤¯à¤®à¤¸à¤¦à¤¨":5771,"Ġà¤ļà¤Łà¤ļà¤Ł":5772,"à¤ħà¤µà¤ļà¤Ł":5773,"Ġsituation":5774,"Ġscripture":5775,"Ġbattle":5776,"Ġcalcul":5777,"Ġcertain":5778,"Ġcountry":5779,"Ġdoubt":5780,"ĠBhashya":5781,"abardast":5782,"Increase":5783,"Ġindividual":5784,"\"âĢľ":5785,"'\"":5786,"):":5787,",âĢĿâĢľ":5788,"-.":5789,".âĢ¦":5790,".!!!":5791,".???":5792,"01":5793,"04":5794,"22":5795,"25":5796,"58":5797,"59":5798,"66":5799,"629":5800,"786":5801,"935":5802,"AC":5803,"AD":5804,"AN":5805,"AV":5806,"Ad":5807,"Ag":5808,"Aut":5809,"AMA":5810,"Be":5811,"Civ":5812,"Di":5813,"Dhan":5814,"EMA":5815,"He":5816,"How":5817,"IC":5818,"II":5819,"LL":5820,"Mala":5821,"Next":5822,"Ok":5823,"OVE":5824,"PU":5825,"Pr":5826,"RI":5827,"Rich":5828,"So":5829,"Some":5830,"Soup":5831,"Sundar":5832,"TH":5833,"Tr":5834,"Un":5835,"Wh":5836,"Wow":5837,"What":5838,"air":5839,"aiting":5840,"ba":5841,"bed":5842,"bhag":5843,"blo":5844,"cc":5845,"de":5846,"dha":5847,"duc":5848,"dition":5849,"down":5850,"ea":5851,"eg":5852,"eh":5853,"ein":5854,"ga":5855,"ger":5856,"hoo":5857,"io":5858,"ius":5859,"ience":5860,"jee":5861,"journal":5862,"ka":5863,"kh":5864,"ki":5865,"key":5866,"kbar":5867,"li":5868,"ls":5869,"lar":5870,"mi":5871,"mo":5872,"mam":5873,"miss":5874,"ns":5875,"nar":5876,"ness":5877,"nment":5878,"nÃ¢na":5879,"oI":5880,"oal":5881,"pre":5882,"pock":5883,"please":5884,"rv":5885,"ren":5886,"ras":5887,"ration":5888,"sl":5889,"sw":5890,"she":5891,"sun":5892,"set":5893,"sol":5894,"site":5895,"ti":5896,"tw":5897,"ting":5898,"tent":5899,"tell":5900,"uy":5901,"ues":5902,"uce":5903,"ually":5904,"vement":5905,"wood":5906,"world":5907,"yes":5908,"yana":5909,"~*~*~*~*~":5910,"¿¼":5911,"ïĥ":5912,"ï¿¼":5913,"ĠQ":5914,"ĠZ":5915,"Ġes":5916,"Ġ<<":5917,"Ġest":5918,"Ġ>>>>>>":5919,"Ġend":5920,"ĠÃĤ":5921,"Ġ************************":5922,"Ġïĥ":5923,"à¥ĳ":5924,"à¥ł":5925,"Ġà¤±":5926,"à¤¾@":5927,"à¤¾_":5928,"à¤¾à¤ĥ":5929,"à¥į(":5930,"à¥į;":5931,"à¥ĩ>>>":5932,"à¥ĩâĢ¦.":5933,"à¤°à¤Ĺà¤³":5934,"à¤°à¤¡à¤¤":5935,"à¤°à¤¡à¤£":5936,"à¤¤à¤Ł":5937,"à¤¤à¤§":5938,"à¤¤à¤¤à¤°":5939,"à¤¤à¤®à¤ļ":5940,"à¤¤à¤ªà¤ķ":5941,"à¤¤à¤ħà¤ª":5942,"à¥Ģ*":5943,"à¥Ģ`":5944,"à¥Ģ''":5945,"à¥ĢâĢĿâĢľ":5946,"à¤²à¤Łà¤²":5947,"à¤²à¤¹à¤°":5948,"à¤²à¤Ńà¤°":5949,"à¤²à¤µà¤¯":5950,"à¤²à¤ªà¤Ł":5951,"à¤²à¤°à¤¨":5952,"à¤²à¤ĸà¤²":5953,"à¤²à¤®à¤§à¤²":5954,"à¤²à¤ªà¤°à¤¤":5955,"à¤¯à¤§":5956,"à¤¯à¤¸à¤²":5957,"à¤¯à¤¯à¤ķ":5958,"à¤¯à¤¦à¤²":5959,"à¤¯à¤¸à¤®":5960,"à¤¯à¤¸à¤ļ":5961,"à¤¯à¤īà¤¤":5962,"à¤¯à¤Łà¤°à¤µà¤°":5963,"à¤¨à¤¥":5964,"à¤¨à¤¯à¤ļ":5965,"à¤¨à¤¬à¤¦":5966,"à¤¨à¤¸à¤®":5967,"à¤¨à¤®à¤¨":5968,"à¤¿\"":5969,"à¤ļà¤°à¤£":5970,"à¤ļà¤¨à¤ļ":5971,"à¤ļà¤Ńà¤°":5972,"à¤ļà¤¨à¤ķ":5973,"à¤ļà¤ªà¤¤":5974,"à¤ļà¤¸à¤¹":5975,"à¤ļà¤³à¤µà¤³":5976,"à¤Ĥ\",":5977,"à¤ķà¤ľ":5978,"à¤ķà¤Ń":5979,"à¤ķà¤³à¤¤":5980,"à¤ķà¤®à¤²":5981,"à¤ķà¤£à¤¸":5982,"à¤ķà¤¸à¤ļ":5983,"à¤ķà¤®à¤°":5984,"à¤¹à¤Ł":5985,"à¤¹à¤µà¤°":5986,"à¤¹à¤¯à¤ļ":5987,"à¤¹à¤¬à¤°":5988,"à¤¹à¤°à¤®":5989,"à¤¹à¤°à¤ľ":5990,"à¤¹à¤²à¤ļ":5991,"à¤¹à¤¢à¤ļ":5992,"à¤¹à¤°à¤ķà¤¤":5993,"à¤¹à¤Łà¤ķà¤°":5994,"à¤µà¤¬":5995,"à¤µà¤ªà¤£":5996,"à¤µà¤¤à¤²":5997,"à¤µà¤ªà¤°":5998,"à¤µà¤ķà¤²":5999,"à¤µà¤§à¤¨":6000,"à¤µà¤Ńà¤°":6001,"à¤µà¤ĸà¤°":6002,"à¤µà¤ĺà¤°":6003,"à¤¸à¤¯":6004,"à¤¸à¤ªà¤£":6005,"à¤¸à¤¤à¤²":6006,"à¤¸à¤¡à¤²":6007,"à¤¸à¤¬à¤¦":6008,"à¤¸à¤¬à¤²":6009,"à¤¸à¤µà¤°à¤ļ":6010,"à¤¸à¤µà¤¯":6011,"à¤¸à¤ªà¤Ł":6012,"à¤¸à¤ľà¤®":6013,"à¤¸à¤¶à¤¸":6014,"à¥ĭ/":6015,"à¤£à¤¶":6016,"à¤£à¤ªà¤¤":6017,"à¤£à¤īà¤¤":6018,"Ġà¤ķà¤¬à¤°":6019,"Ġà¤ķà¤¦à¤°":6020,"Ġà¤ķà¤Łà¤ķ":6021,"à¤®à¤¯à¤ķ":6022,"à¤®à¤¸à¤¤":6023,"à¤®à¤¦à¤°":6024,"à¤®à¤¨à¤ļ":6025,"à¤®à¤°à¤¸":6026,"à¤®à¤¯à¤¤":6027,"à¥ģ\"":6028,"à¥ģà¥ģ":6029,"Ġà¤Ĩà¤Ĺà¤¤":6030,"Ġà¤Ĩà¤ĩ":6031,"Ġà¤Ĩà¤ī":6032,"Ġà¤Ĩà¤°à¤ª":6033,"Ġà¤Ĩà¤¡à¤®":6034,"Ġà¤Ĩà¤Łà¤ª":6035,"Ġà¤®à¤ķ":6036,"Ġà¤®à¤µ":6037,"Ġà¤®à¤ł":6038,"Ġà¤®à¤Ŀ":6039,"Ġà¤®à¤¯à¤¤":6040,"Ġà¤®à¤Łà¤¨":6041,"Ġà¤®à¤Łà¤ķà¤¨":6042,"Ġà¤®à¤Ĭà¤¸":6043,"à¤ªà¤¬à¤°":6044,"à¤ªà¤¸à¤²":6045,"à¤ªà¤Łà¤¤":6046,"à¤ªà¤³à¤¤":6047,"à¤ªà¤Ĺà¤°":6048,"à¤ªà¤µà¤¯":6049,"à¤ªà¤ķà¤ļ":6050,"Ġà¤ªà¤ĸ":6051,"Ġà¤ªà¤±":6052,"Ġà¤ªà¤ŀ":6053,"Ġà¤ªà¥ľ":6054,"Ġà¤ªà¤ļà¤µà¤£":6055,"à¥Ĥ)":6056,"à¥Ĥ;":6057,"à¥Ĥà¥į":6058,"Ġà¤¹à¤¶":6059,"Ġà¤¹à¤°à¤¤":6060,"Ġà¤¹à¤°à¤ª":6061,"Ġà¤¸à¤¨à¤¸":6062,"Ġà¤¸à¤ľà¤£":6063,"Ġà¤¸à¤Łà¤µ":6064,"Ġà¤¸à¤¢à¤³":6065,"à¤Ĺà¤¯":6066,"à¤Ĺà¤¬":6067,"à¤Ĺà¤°à¤¤":6068,"à¤Ĺà¤°à¤ķ":6069,"à¤Ĺà¤¸à¤¤":6070,"à¤Ĺà¤¤à¤ķ":6071,"à¤Ĺà¤¡à¤¤":6072,"à¤Ĺà¤®à¤¨":6073,"à¤Ĺà¤ľà¤²":6074,"à¤Ĺà¤®à¤°":6075,"à¤Ĺà¤¬à¤¦à¤²":6076,"Ġà¤ħà¤ĺ":6077,"Ġà¤ħà¤¦à¤°":6078,"Ġà¤ħà¤¡à¤¤":6079,"Ġà¤ħà¤¬à¤²":6080,"Ġà¤ħà¤²à¤µ":6081,"Ġà¤ħà¤¥à¤ķ":6082,"Ġà¤ħà¤¢à¤³":6083,"à¤¦à¤ĸ":6084,"à¤¦à¤¸à¤°":6085,"à¤¦à¤³à¤¤":6086,"à¤¦à¤®à¤²":6087,"à¤¦à¤¯à¤µ":6088,"à¤¦à¤³à¤£":6089,"à¤¦à¤®à¤°":6090,"à¤¦à¤ķà¤¨":6091,"à¤Łà¤³":6092,"à¤Łà¤µà¤¤":6093,"à¤Łà¤«à¤°":6094,"Ġà¤µà¤¶":6095,"Ġà¤µà¤¯à¤¸":6096,"Ġà¤µà¤£à¤µà¤£":6097,"à¤¡à¤°à¤²":6098,"à¤¡à¤®à¤¸":6099,"à¤¡à¤ªà¤¤":6100,"à¤¡à¤ªà¤Ł":6101,"à¤¡ssss":6102,"à¤¡à¤ĵà¤³à¤ĸ":6103,"Ġà¤¨à¤¤":6104,"Ġà¤¨à¤Ń":6105,"Ġà¤¨à¤°à¤ķ":6106,"Ġà¤¨à¤Łà¤°":6107,"Ġà¤¨à¤ĸà¤°":6108,"Ġà¤¨à¤°à¤¡":6109,"Ġà¤¨à¤¤à¤¦":6110,"à¤¾à¤Ĥ\"":6111,"à¤ľà¤ľ":6112,"à¤ľà¤Ľ":6113,"à¤ľà¤±":6114,"à¤ľà¤ªà¤¤":6115,"à¤ľà¤¸à¤¨":6116,"à¤¶à¤µà¤²":6117,"à¤¶à¤µà¤¤":6118,"à¤¶à¤«":6119,"à¤¶à¤¤à¤ķ":6120,"à¤¶à¤¬à¤¦":6121,"Ġà¤¬à¤ĸ":6122,"Ġà¤¬à¤¢":6123,"Ġà¤¬à¤Ĺà¤²":6124,"Ġà¤¬à¤Ĺà¤³":6125,"Ġà¤¬à¤Łà¤°":6126,"Ġà¤¬à¤²à¤¦":6127,"Ġà¤¦à¤¬à¤¦":6128,"Ġà¤¦à¤µà¤¡":6129,"Ġà¤¦à¤¶à¤®":6130,"Ġà¤¦à¤ļà¤ķà¤¤":6131,"à¤¬à¤ķà¤¤":6132,"à¤¬à¤¸à¤ļ":6133,"à¤¬à¥ľ":6134,"Ġà¤ľà¤Ł":6135,"Ġà¤ľà¤Ĺà¤¦":6136,"Ġà¤ľà¤¯à¤¥":6137,"Ġà¤ľà¤³à¤Ĺ":6138,"Ġà¤ľà¤¬à¤²à¤ª":6139,"à¤§à¤Ń":6140,"à¤§à¤ªà¤£":6141,"à¤§à¤°à¤£":6142,"à¤§à¤¡à¤ķ":6143,"à¤§à¤¡à¤ª":6144,"Ġà¤²à¤Ĺà¤¤à¤ļ":6145,"Ġà¤ħà¤¸à¤¨":6146,"Ġà¤ħà¤¸à¤®":6147,"Ġà¤Ĺà¤²à¤¤":6148,"Ġà¤Ĺà¤£à¤¸":6149,"Ġà¤Ĺà¤¢à¤²":6150,"Ġà¤Ĺà¤®à¤µ":6151,"Ġà¤Ĺà¤®à¤ľ":6152,"à¤ĸà¤¡à¤¤":6153,"à¤ĸà¤±":6154,"à¤ĸà¤¡à¤ķ":6155,"à¤ĸà¤¤à¤°à¤¨":6156,"Ġà¤¯à¤ļ":6157,"Ġà¤¯à¤¸":6158,"Ġà¤¯à¤¡":6159,"Ġà¤¯à¤³":6160,"Ġà¤¯à¤·":6161,"Ġà¤¯à¤µà¤¤":6162,"Ġà¤¯à¤®à¤ķ":6163,"..+":6164,"..-":6165,"..<":6166,"..>":6167,"à¤µà¤°à¤®":6168,"à¤µà¤°à¤«":6169,"Ġà¤°à¤¨à¤°":6170,"Ġà¤°à¤ĸà¤µ":6171,"Ġà¤°à¤¸à¤°à¤¶":6172,"Ġà¤ķà¤°à¤ķ":6173,"Ġà¤ķà¤°à¤®à¤¤":6174,"Ġà¤ķà¤°à¤ķà¤ļ":6175,"Ġà¤¶à¤¬à¤°":6176,"Ġà¤¶à¤¤à¤ª":6177,"à¤łà¤¨":6178,"à¤łà¥Ł":6179,"Ġà¤ļà¤Ł":6180,"Ġà¤ļà¤ķà¤²":6181,"Ġà¤ļà¤ĺà¤³":6182,"Ġà¤ļà¥Ŀ":6183,"Ġà¤ĺà¤Łà¤²":6184,"Ġà¤ĺà¤°à¤®":6185,"Ġà¤Ńà¤°à¤ļ":6186,"Ġà¤Ńà¤°à¤ľ":6187,"Ġà¤Ńà¤°à¤®à¤¸":6188,"Ġà¤ıà¤ķà¤¶":6189,"à¤Ńà¤ļ":6190,"à¤Ńà¤¦":6191,"à¤Ńà¤²à¤¤":6192,"à¤Ńà¤¡à¤ķ":6193,"Ġà¤īà¤¡à¤²":6194,"Ġà¤īà¤¨à¤ķ":6195,"Ġà¤īà¤¨à¤¸":6196,"Ġà¤īà¤¥à¤³":6197,"Ġà¤īà¤°à¤ķà¤¤":6198,"Ġà¤īà¤ķà¤¡à¤²":6199,"Ġà¤Ŀà¤¡à¤¤":6200,"Ġà¤Ŀà¤³à¤ķ":6201,"Ġà¤ĸà¤Ĺ":6202,"Ġà¤ĸà¤£à¤£":6203,"Ġà¤ĸà¤µà¤³à¤²":6204,"Ġà¤«à¤°à¤¸":6205,"Ġà¤«à¤Ŀà¤²à¤ļ":6206,"à¤Īà¤¬":6207,"à¤Īà¤¤à¤°":6208,"à¤Īà¤¤à¤²":6209,"à¤Īà¤Łà¤²":6210,"à¤Īà¤¬à¤¦":6211,"à¤Īà¤Łà¤¨":6212,"à¤Īà¤ľà¤ļ":6213,"à¤Ĩà¤Ĩ":6214,"à¤Ĩà¤°à¤¤":6215,"à¤Ĩà¤°à¤¶":6216,"à¤Ĩà¤µà¤¶":6217,"à¤Ĩà¤¸à¤¨":6218,"à¤Ĩà¤¶à¤¯":6219,"à¤Ĩà¤ªà¤ķ":6220,"à¤Ĩà¤ªà¤¸":6221,"à¤Ŀà¤¹":6222,"à¤Ŀà¤Ĺ":6223,"à¤Ŀà¤°à¤¤":6224,"à¤Ŀà¤°à¤²":6225,"à¤Ŀà¤²à¤²":6226,"à¤¢à¤¯":6227,"à¤ĺà¤ķ":6228,"à¤ĺà¤¹":6229,"à¤ĺà¤¶":6230,"à¤ĺà¤µà¤¤":6231,"à¤ĺà¤°à¤®":6232,"à¤ĺà¤¨à¤¦":6233,"à¤°à¤¤à¤ķ":6234,"à¤°à¤¤à¤¡à¤¤":6235,"à¤°à¤¤à¤¨à¤²":6236,"à¤ħà¤Ł":6237,"à¤ħà¤°à¤µ":6238,"à¤ħà¤µà¤¨":6239,"à¤ħà¤¥à¤µ":6240,"à¤¤à¤²à¤¤":6241,"à¤Ĭà¤®":6242,"à¤Ĭà¤¸à¤¹":6243,"à¤ªà¤²à¤¬":6244,"Ġà¤ĩà¤¤à¤¨":6245,"Ġà¤ĩà¤¯à¤°":6246,"à¤µà¤²à¤²":6247,"Ġà¤Łà¤³à¤²":6248,"à¤µà¤¤à¤ªà¤£":6249,"à¤«à¤µà¤°":6250,"à¤«à¤°à¤ķ":6251,"à¤«à¤²à¤°":6252,"à¤«à¤¡à¤ķà¤°":6253,"à¤Ĺà¤²à¤¯":6254,"à¤Ĺà¤²à¤µà¤°":6255,"à¤¹à¤¤à¤ªà¤£":6256,"à¤¾,âĢĺ":6257,"Ġà¤łà¤£":6258,"à¤°à¤£à¤ª":6259,"à¤°à¤£à¤Ĺ":6260,"à¥ĩ,âĢĻ":6261,"à¥ĩ,âĢĺâĢĺ":6262,"à¥ħ!":6263,"à¥ħ.":6264,"Ġà¤¡à¤ķà¤µà¤²":6265,"à¤Ĺà¤³à¤µ":6266,"à¤°à¤ķà¤µ":6267,"à¤°à¤ķà¤£":6268,"à¤°à¤ķà¤µà¤°":6269,"à¤°à¤ķà¤®à¤§":6270,"Ġà¤µà¤°à¤¦":6271,"Ġà¤µà¤°à¤ªà¤°":6272,"Ġà¤µà¤°à¤µà¤°à¤ļ":6273,"à¥Ģ,'":6274,"à¥Ģ,âĢĻ":6275,"à¥Ģ,âĢľ":6276,"Ġà¤¨à¤µà¤¶":6277,"Ġà¤ħà¤¨à¤®":6278,"à¤ķà¤°à¤¨":6279,"à¤ķà¤°à¤®à¤¬":6280,"à¤Łà¤²à¤²":6281,"à¤Łà¤²à¤¬":6282,"à¤¬à¤°à¤ł":6283,"Ġà¤¸à¤®à¤²":6284,"Ġà¤¸à¤®à¤°à¤ķ":6285,"Ġà¤®à¤²à¤®":6286,"Ġà¤®à¤²à¤ª":6287,"à¤ªà¤°à¤ª":6288,"à¤¸à¤²à¤²":6289,"à¤¯à¤ķà¤®":6290,"à¤¯à¤ķà¤²à¤²":6291,"Ġà¤Ĩà¤¤à¤¡":6292,"à¤¤à¤ķà¤°à¤£":6293,"à¤°à¤®à¤¯":6294,"Ġà¤¸à¤°à¤¬à¤°":6295,"à¤ıà¤¤":6296,"à¤ıà¤¶":6297,"à¤ıà¤ķà¤²":6298,"à¤ıà¤®à¤¸":6299,"à¤ıà¤¸à¤¸":6300,"à¤ķà¤²à¤°à¤ļ":6301,"Ġà¤ªà¤°à¤ĸà¤¡":6302,"à¤ķà¤¤à¤®":6303,"à¤ķà¤¤à¤ªà¤£":6304,"Ġà¤®à¤¨à¤¹":6305,"à¤¦à¤°à¤¸":6306,"à¥¦à¥«":6307,"à¥¦à¥©":6308,"à¤°à¤ĸà¤°à¤¤":6309,"Ġà¤ĺà¤°à¤ª":6310,"===":6311,"Ġà¤¬à¤ĺà¤µà¤¤":6312,">>++":6313,"à¤ĩà¤£":6314,"à¤ĩà¤¶":6315,"à¤ĩà¤µà¤°":6316,"à¤ĩà¤²à¤ļ":6317,"Ġ\",":6318,"à¤Īà¤²à¤¨":6319,"à¤Īà¤²à¤¸":6320,"à¤Ľà¤°":6321,"à¤Ľà¤Ł":6322,"à¤Ľà¤¬":6323,"Ġà¤Ľà¤¨":6324,"Ġà¤Ľà¤ķ":6325,"Ġà¤Ľà¤¦":6326,"Ġà¤¬à¤°à¤³à¤¤":6327,"Ġà¤ĵà¤¯":6328,"Ġà¤ĵà¤ª":6329,"Ġà¤ĵà¤¬à¤¡":6330,"Ġà¤ĵà¤®à¤ª":6331,"Ġ'.":6332,"à¤ıà¤ķà¤¹":6333,"à¤ıà¤ķà¤µ":6334,"à¤ĥ.":6335,"à¤ļà¤²à¤®":6336,"à¤·à¤£à¤µ":6337,"*****":6338,"à¤īà¤¡":6339,"à¤īà¤³":6340,"à¤īà¤·":6341,"à¤īà¤«":6342,"à¤īà¤¨à¤¹":6343,"à¤īà¤¨à¤²":6344,"à¤īà¤ªà¤¸":6345,"à¤īà¤ªà¤²à¤¬":6346,"à¥§à¥¦à¥¦à¥¦à¥¦":6347,"Ġà¤Ĳà¤°":6348,"Ġà¤Ĳà¤ªà¤¤":6349,"Ġà¤ľà¤°à¤¬":6350,"à¤Ĺà¤£à¤¤":6351,"Ġà¤Ĩà¤łà¤²":6352,"Ġà¤ħà¤ľà¤¨":6353,"à¤®à¤¸à¤°à¤ķ":6354,"à¤¸à¤®à¤µ":6355,"à¤¸à¤®à¤ľà¤²":6356,"Ġà¤¸à¤¹à¤ļà¤°":6357,"Ġà¤ĸà¤°à¤¯":6358,"à¤Łà¤ķà¤³à¤¤":6359,"Ġà¤ķà¤¸à¤¨":6360,"à¤ħà¤°à¤¹":6361,"à¤ħà¤°à¤®à¤§":6362,"à¤°à¤ľà¤¬":6363,"à¤Ĥ,'":6364,"à¤µà¤¨à¤¹":6365,"à¤µà¤¨à¤¶":6366,"à¤µà¤¨à¤¸à¤¤":6367,"à¤²à¤ķà¤ļ":6368,"Ġà¤ķà¤®à¤µà¤£":6369,"Ġà¤¹à¤µà¤¯":6370,"inish":6371,"inter":6372,"iness":6373,"anj":6374,"Ġà¤ĩà¤¥à¤ª":6375,"Ġà¤ĩà¤¥à¤ªà¤°":6376,"à¤°à¤ªà¤ķ":6377,"à¤°à¤ªà¤¡":6378,"à¤°à¤ªà¤łà¤£":6379,"à¤¬à¤¤à¤¹":6380,"Ġà¤Ĩà¤Īà¤ªà¤£":6381,"Ġà¤Ĩà¤Īà¤¬à¤¦":6382,"Ġà¤Ĩà¤Īà¤µà¤¡à¤²":6383,"à¤§à¤¨à¤¸":6384,"Ġà¤¶à¤ķà¤¶":6385,"Ġà¤Ĩà¤¯à¤ª":6386,"Ġà¤īà¤¦à¤¯à¤¨":6387,"à¤¬à¤²à¤¨":6388,"eric":6389,"erday":6390,"Ġà¤ħà¤Ńà¤¦":6391,"Ġà¤īà¤ªà¤¹":6392,"Ġà¤īà¤ªà¤Ł":6393,"Ġà¤īà¤ªà¤¸à¤£":6394,"à¤ľà¤¨à¤¸":6395,"à¤ľà¤¨à¤¶":6396,"à¤ľà¤¨à¤Ĺà¤¡":6397,"à¤®à¤¨à¤®":6398,"Ġà¤ķà¤²à¤ķà¤¤":6399,"à¤Ĺà¤°à¤¨":6400,"à¤Ĺà¤°à¤¬à¤°":6401,"à¤¯à¤®à¤®à¤§":6402,"à¤¯à¤®à¤µà¤¯":6403,"Ġà¤°à¤¸à¤¦":6404,"Ġthous":6405,"Ġthank":6406,"à¤¯à¤¨à¤Ĺà¤°":6407,"atis":6408,"ates":6409,"atil":6410,"ature":6411,"ately":6412,"à¤Ńà¤µà¤ķà¤¥à¤¨":6413,"à¤¤à¤®à¤ľ":6414,"à¤¤à¤®à¤ªà¤²":6415,"ona":6416,"onally":6417,"onnor":6418,"à¤ģ!":6419,"à¤ģ?":6420,"**********":6421,"ari":6422,"ark":6423,"arly":6424,"Ġà¤Ĳà¤ķà¤µà¤¤":6425,"Ġsm":6426,"Ġsci":6427,"Ġsure":6428,"Ġsorry":6429,"Ġsister":6430,"à¤®à¤ķà¤¹":6431,"---------":6432,"Ġà¤ľà¤Ĺà¤¨":6433,".........\"":6434,"à¤°à¤¹à¤¸":6435,"à¤°à¤¹à¤Ĺ":6436,"Ġà¤ħà¤µà¤¹":6437,"Ġà¤ħà¤µà¤ľ":6438,"Ġà¤ħà¤µà¤Ĺà¤¤":6439,"Ġà¤ªà¤¤à¤ª":6440,"à¤ĸà¤°à¤¨":6441,"à¤ĸà¤°à¤ķà¤¡":6442,"Ġà¤ľà¤¨à¤®":6443,"à¤Łà¤¨à¤ª":6444,"Ġà¤ľà¤®à¤µà¤¤":6445,"Ġà¤¸à¤¤à¤¤à¤ļ":6446,"à¤¦à¤¨à¤µà¤¨":6447,"à¥«à¥ª":6448,"Ġaal":6449,"Ġaap":6450,"Ġaani":6451,"Ġawar":6452,"_____":6453,"____/\\":6454,"ork":6455,"à¤ĵà¤°":6456,"à¤ĵà¤Ĺ":6457,"à¤ĵà¤ĺà¤µà¤¤":6458,"Ġà¤ħà¤®à¤¦":6459,"âĢįà¥ħà¤Ĥ":6460,"Ġwon":6461,"Ġword":6462,"Ġwater":6463,"à¤µà¤ļà¤³":6464,"à¤µà¤ļà¤·à¤ķ":6465,"Ġà¤ªà¤¡à¤¸":6466,"à¤ļà¤°à¤Ł":6467,"à¤ļà¤°à¤®à¤§":6468,"à¤¸à¤ķà¤¨":6469,"Ġà¤µà¤¸à¤µà¤²":6470,"Ġà¤ķà¤³à¤µà¤£":6471,"à¥©à¥¦à¥¦":6472,"à¥©à¥«":6473,"à¥¯à¥«":6474,"à¥¯à¥¯":6475,"à¥¯à¥®":6476,"Ġà¤ķà¤¡à¤¬":6477,"à¤ĺà¤°à¤Ł":6478,"Ġà¤¸à¤°à¤ķà¤µà¤²":6479,"alico":6480,"à¤Ĺà¤¡à¤ļ":6481,"à¤°à¤ªà¤Łà¤Ĺ":6482,"à¤°à¤ªà¤Łà¤Ńà¤°":6483,"outh":6484,"ouse":6485,"Ġà¤ıà¤µà¤¢à¤ļ":6486,"à¤¯à¤¬à¤ļ":6487,"à¤Ĺà¤ļà¤Ł":6488,"Ġà¤°à¤¹à¤¨":6489,"itan":6490,"ited":6491,"Ġà¤§à¤¨à¤¦":6492,"esent":6493,"esident":6494,"Ġbo":6495,"Ġbre":6496,"Ġbag":6497,"Ġbest":6498,"Ġborn":6499,"Ġà¤¹à¤³à¤¹à¤³":6500,"à¤¸à¤¹à¤®à¤¤":6501,"à¤¯à¤¸à¤ªà¤°":6502,"Ġtom":6503,"Ġtreat":6504,"Ġtend":6505,"Ġtalk":6506,"Ġcap":6507,"Ġcare":6508,"Ġcover":6509,"Ġcurr":6510,"Ġclass":6511,"Ġmet":6512,"Ġmus":6513,"Ġmone":6514,"Ġmiss":6515,"Ġmedia":6516,"Ġmrunali":6517,"à¤¸à¤Ĺà¤³à¤ļ":6518,"à¤¯à¤¦à¤ķ":6519,"à¤¯à¤¦à¤µ":6520,"Ġà¤Īà¤²":6521,"Ġà¤Īà¤¨":6522,"Ġà¤Īà¤¡à¤¨":6523,"à¤·à¤ķà¤µà¤°":6524,"Ġpn":6525,"Ġpet":6526,"Ġpath":6527,"Ġpearl":6528,"ases":6529,"à¤ĩà¤¤à¤ķà¤ļ":6530,"Ġà¤īà¤¤à¤°à¤µà¤¤":6531,"Ġopt":6532,"Ġown":6533,"à¥ªà¥ª":6534,"à¥ªà¥®":6535,"à¤¬à¤Īà¤¹":6536,"Ġà¤¢à¤³à¤²":6537,"à¥¬à¥¦à¥¦":6538,"à¤ķà¤¦à¤®":6539,"à¤Łà¤£à¤ķà¤°":6540,"Ġho":6541,"Ġhand":6542,"Ġhard":6543,"Ġhell":6544,"Ġhund":6545,"Ġhelp":6546,"à¤®à¤£à¤°":6547,"Ġà¤ħà¤¡à¤ĸ":6548,"Ġà¤ħà¤¡à¤«à¤¡à¤ķà¤°":6549,"à¥®à¥§":6550,"à¥®à¥®":6551,"à¥®à¥Ń":6552,"à¤ľà¤¤à¤Ĺ":6553,"Ġà¤ħà¤ķà¤¸":6554,"à¤ķà¤¸à¤¬":6555,"Ġà¤Ĺà¤ªà¤Ĺ":6556,"Ġà¥©à¥§à¥©":6557,"Ġà¤Ĩà¤łà¤µà¤¤à¤ļ":6558,"Ġà¤Ĩà¤łà¤µà¤¤à¤¹":6559,"Ġoften":6560,"ically":6561,"Ġfree":6562,"Ġfix":6563,"Ġfollow":6564,"Ġfinish":6565,"Ġà¤łà¤°à¤²à¤¯":6566,"Ġdel":6567,"Ġdam":6568,"Ġdial":6569,"Ġdanc":6570,"Ġdetail":6571,"Ġà¤īà¤¡à¤¯":6572,"andal":6573,"andline":6574,"eld":6575,"ele":6576,"elan":6577,"Ġà¤¹à¤¸à¤µà¤£":6578,"Ġlow":6579,"Ġlag":6580,"Ġlook":6581,"Ġà¤īà¤Ĺà¤µà¤£":6582,"Ġ11":6583,"*******************":6584,"----------------------------":6585,"Ġ+++":6586,"à¤ªà¤¡à¤¬":6587,"à¤³à¤ļà¤Ł":6588,"à¤Ĩà¤Īà¤Īà¤Īà¤Īà¤Ī":6589,"Ġà¤ªà¤¸à¤°à¤£":6590,"Ġà¤ħà¤²à¤®":6591,"à¤ķà¤°à¤£à¤¹":6592,"Ġinfer":6593,"à¤Īà¤ķà¤µà¤°":6594,"Ġà¤¹à¤ľà¤°à¤ľà¤¬":6595,"à¥Ģ'!":6596,"Ġà¤¹à¤¸à¤¤à¤ļ":6597,"Ġà¤¸à¤¹à¤ľà¤Ĺà¤¤":6598,"chan":6599,"à¤¾\"!":6600,"à¤¬à¤¸à¤µ":6601,"à¤½à¤¨":6602,"à¤¡à¤°à¤µà¤°":6603,"Ġà¥«à¥¦à¥¦à¥¦":6604,"aybol":6605,"Ġgap":6606,"Ġgold":6607,"à¤ľà¤¯à¤¹":6608,"Ġà¤§à¤¡à¤ķà¤¤":6609,"_________":6610,"Ġà¤Ķà¤°à¤ļ":6611,"Ġà¤¹à¤°à¤ªà¤²":6612,"Ġà¤µà¤³à¤µà¤¤":6613,"Ġà¤µà¤³à¤µà¤³à¤¤":6614,"Ġà¤ĩà¤¨à¤ª":6615,"health":6616,"owth":6617,"lem":6618,"ĠSh":6619,"ĠSand":6620,"ĠShan":6621,"ĠSource":6622,"ĠSensory":6623,"ĠInd":6624,"Ġà¤²à¤¢à¤¯":6625,"Ġà¤²à¤¢à¤µà¤¯":6626,"Ġtop":6627,"Ġà¥§à¥¯à¥¬à¥¦":6628,"Ġà¥§à¥¯à¥©à¥¯":6629,"Ġya":6630,"Ġyes":6631,"Ġà¤¸à¤²à¤®":6632,"============================":6633,"==============================":6634,"Ġà¤Ĩà¤¢à¤³à¤£":6635,"Ġ21":6636,"Ġ22":6637,"ster":6638,"stand":6639,"stant":6640,"une":6641,"à¤²à¤®à¤ľ":6642,"Ġep":6643,"Ġà¤īà¤®à¤¦":6644,"à¤ıà¤µà¤¢à¤¯":6645,"wwww":6646,".................":6647,"à¤Ĳà¤¨":6648,"à¤Ĳà¤¶":6649,"à¤Ĳà¤ķà¤£":6650,"Ġkay":6651,"Ġkind":6652,"Ġkey":6653,"Ġkatha":6654,"Ġkara":6655,"Ġà¤ħà¤ĸà¤¤":6656,"ave":6657,"ete":6658,"etii":6659,"Ġà¤Ĭà¤¤":6660,"Ġà¤ĵà¤°à¤¬":6661,"ĠCer":6662,"à¤ĳà¤ªà¤°":6663,"otein":6664,"odi":6665,"uty":6666,"utta":6667,"Ġà¤ħà¤Ĺà¤®":6668,"à¤ľà¤Ĺà¤Ńà¤°":6669,"à¤ľà¤Ĺà¤Ńà¤°à¤ļ":6670,"à¤¬à¤ķà¤¬":6671,"à¤¬à¤ķà¤³à¤¤":6672,"Ġà¤¸à¤¹à¤¨à¤¶à¤ķ":6673,"imal":6674,"imes":6675,"ĠBM":6676,"ĠBest":6677,"ĠBlue":6678,"ĠBEBQ":6679,"Ġà¤¸à¤µà¤¯à¤ļ":6680,"Ġà¤ħà¤¦à¤Ń":6681,"à¤¢à¤°à¤Ł":6682,"à¤ħà¤µà¤§":6683,"à¤ħà¤µà¤ĺ":6684,"Ġà¥¨à¥¦à¥§à¥Ń":6685,"agement":6686,"agonally":6687,"lywood":6688,"Ġonsite":6689,"aby":6690,"ablish":6691,"ability":6692,"igence":6693,"igade":6694,"ĠAnd":6695,"ired":6696,"Ġà¥®à¥¨":6697,"Ġà¥Ńà¥¨":6698,"ola":6699,"à¤Ĺà¤®à¤Ĺà¤£":6700,"Ġà¤¸à¤ľà¤¦":6701,"Ġà¤¸à¤ľà¤µà¤²":6702,"Ġà¥¬à¥ª":6703,"Ġwhy":6704,"Ġwhen":6705,"Ġwhere":6706,"Ġwhate":6707,"Ġwhile":6708,"Ġbeg":6709,"Ġbecom":6710,"come":6711,"Ġreg":6712,"Ġrel":6713,"Ġreach":6714,"Ġrepr":6715,"Ġrealiz":6716,"ĠPur":6717,"ĠPers":6718,"ĠPlat":6719,"ĠPearl":6720,"à¤°à¤«à¤Ł":6721,"à¤°à¤«à¤³":6722,"à¤°à¤«à¤Łà¤²":6723,"rop":6724,"rovement":6725,"à¤¾:!":6726,"idence":6727,"à¤¢à¤µà¤ªà¤£":6728,"ĠTV":6729,"ĠTeap":6730,"à¤ĭà¤ļ":6731,"Ġà¤°à¤¤à¤¨à¤¹":6732,"Ġ>>>>>":6733,"Ġà¤®à¤¦à¤¤à¤¨":6734,"à¥¨à¥¦à¥§à¥¨":6735,"à¤®à¤³à¤¨":6736,"Ġà¤īà¤ľà¤³":6737,"Ġà¤īà¤ľà¤³à¤²":6738,"Ġfore":6739,"umber":6740,"ĠGod":6741,"à¤ªà¤³à¤¸":6742,"urp":6743,"ural":6744,"ures":6745,"upid":6746,"ĠDem":6747,"à¥ĩâĢĻ,":6748,"indu":6749,"index":6750,"ache":6751,"ried":6752,"ribut":6753,"ĠRo":6754,"ĠRed":6755,"ĠRoy":6756,"à¥§à¥¯à¥¬à¥¦":6757,"very":6758,"à¤²à¤Ńà¤¤":6759,"à¤²à¤Ńà¤¡à¤ķ":6760,"Ġà¤¤à¤¡à¤«à¤¡":6761,"Ġà¤ĵà¤ĺà¤³":6762,"oogle":6763,"!!!!!!!":6764,"!!!!!!!!":6765,"Ġà¥¨à¥¦à¥¦à¥©":6766,"Ġà¥¨à¥¦à¥¦à¥ª":6767,"Ġà¥¨à¥¦à¥¦à¥¬":6768,"Ġjh":6769,"Ġjumped":6770,"Ġà¤ľà¤¯à¤ĺ":6771,"Ġà¤Ĺà¤²à¤¬à¤¤":6772,"Ġà¥§à¥«à¥«à¥§":6773,"ĠKatha":6774,"ĠKuru":6775,"à¥ŀà¤ķ":6776,"iful":6777,"Ġà¤¦à¤µà¤¡à¤¤":6778,"cies":6779,"Ġà¤ķà¤ļà¤±":6780,"à¤¦à¤®à¤¯à¤ķ":6781,"ogic":6782,"ogue":6783,"ograp":6784,"Ġà¤¦à¤®à¤¡":6785,"Ġà¤ľà¤²à¤§":6786,"ĠĠĠĠĠ":6787,"ĠĠĠĠĠĠ":6788,"Ã¢n":6789,"ĠFaz":6790,"à¤ıà¤¨à¤ıà¤¨":6791,"Ġallow":6792,"Ġalso":6793,"Ġalways":6794,"Ġalumni":6795,"Ġexper":6796,"Ġexcept":6797,"à¥ĭ',":6798,"à¥ĢâĢĿ.":6799,"Ġà¤Ńà¤Łà¤ķà¤¤":6800,"ship":6801,"à¤¾âĢ¦âĢĻâĢĻ":6802,"Ġà¤°à¤®à¤®":6803,"Ġà¤ĸà¤Łà¤ªà¤Ł":6804,"Ġà¤ĩà¤¸à¤®à¤¨":6805,"Ġconcept":6806,"à¥Ģà¥¤\"":6807,"Ġà¤¨à¤Ĭà¤µ":6808,"angu":6809,"Ġà¤Ĩà¤¡à¤¦":6810,"à¤Ĩà¤łà¤µà¤¤":6811,"ueblo":6812,"Ġà¤ªà¤łà¤£":6813,"Ġà¤ªà¤łà¤¡":6814,"kshet":6815,"lack":6816,"Ġà¤¦à¤¡à¤ªà¤²":6817,"..!'":6818,"Ġseat":6819,"Ġprim":6820,"ashion":6821,"ĠJosh":6822,"Ġà¤¤à¤¹à¤¹à¤¯":6823,"Ġà¤«à¤¸à¤µà¤²":6824,"à¥¨à¥¦à¥¦à¥ª":6825,"à¥¨à¥¦à¥¦à¥®":6826,"à¥ĩ:-":6827,"Ġ:-).":6828,"à¤¡à¤µà¤²à¤¶":6829,"Ġà¥§à¥Ńà¥¦":6830,"Ġmyself":6831,"ĠMarch":6832,"Ġknowled":6833,".?..":6834,"Ġ||":6835,"à¤¯à¤°à¤ļà¤¨":6836,"product":6837,"à¤¨à¤«à¤Ł":6838,"à¤¨à¤Ľà¤ª":6839,"à¤¨à¤Ĺà¤°à¤ķà¤¡":6840,"Ġmean":6841,"ĠON":6842,"Ġà¤²à¤Łà¤ķà¤µà¤²":6843,"Ġà¤¥à¤°à¤¥à¤°à¤²":6844,"itten":6845,"Ġlihit":6846,"Ġgrowth":6847,"Ġà¥§à¥¯à¥¯à¥¦":6848,"Ġà¥§à¥¯à¥¯à¥®":6849,"Ġà¥§à¥¯à¥Ńà¥¨":6850,"cribed":6851,"ĠYour":6852,"à¤¨à¤Ĭà¤µ":6853,"Ġà¤¦à¤²à¤¦à¤²":6854,"inty":6855,"sssà¤°":6856,"Ġà¥Ńà¥¦à¥¨":6857,"Ġà¥Ńà¥¦à¥©":6858,"125":6859,"150":6860,"tew":6861,"Ġà¤Ŀà¤³à¤ķà¤²":6862,"acter":6863,"plz":6864,"Ġà¤²à¤Łà¤ķà¤²":6865,"Ġà¤°à¤£à¤°à¤£à¤¤":6866,"Ġtrad":6867,"Ġtruth":6868,"Ġ1226":6869,"Ġ12629":6870,"Ġà¥§à¥¯à¥®à¥§":6871,"mail":6872,"à¤įà¤²":6873,"à¥©à¥¨à¥©":6874,"Ġpls":6875,"Ġplz":6876,"Ġdisat":6877,"_______________":6878,"------------------------------------------------------------------------------------------------------------":6879,"******************************************************************************":6880,"Mastch":6881,"ize":6882,"Ġ--'":6883,"Ġupon":6884,"insatiable":6885,"Ġsomeone":6886,"Ġsomething":6887,"assing":6888,"Ġgenius":6889,"à¤Īà¤Īà¤Īà¤Īà¤Īà¤Ī":6890,"184":6891,"ference":6892,"overnment":6893,"pection":6894,"Ġelect":6895,"à¤°à¤Ŀà¤µ":6896,"Ġsacri":6897,"Ġlevel":6898,"à¤¯à¤°à¤¸à¤ļ":6899,"anker":6900,"Ġwritten":6901,"<<<<<<":6902,"à¥¦à¥¦à¥¦à¥¦à¥¦à¥¦à¥¦à¥¦à¥¦à¥¦à¥¦à¥¦à¥¦à¥¦à¥¦à¥¦":6903,"Thank":6904,"Ġarmy":6905,"Ġà¤ıà¤ħà¤°à¤ª":6906,"Ġà¤īà¤ĸà¤¡à¤²":6907,"à¤ķà¤°à¤®à¤°à¤ķà¤°":6908,"Ġseries":6909,"Ġactually":6910,"Ġtech":6911,"Ġtype":6912,"Ġready":6913,"Ġà¤ķà¤¢à¤Ī":6914,"Ġà¤ķà¥ľà¤ķ":6915,"Ġà¤Ĺà¤Ĺà¤¨à¤Ń":6916,"Ġsuper":6917,"alcutta":6918,"Ġbackground":6919,"Ġtwo":6920,"ĠProtein":6921,"Ġexists":6922,"Ġexistence":6923,"Ġproblem":6924,"ESOM":6925,"conom":6926,"Ġentire":6927,"à¤Łà¤Ńà¤Ł":6928,"ertainty":6929,"ency":6930,"Ġnataks":6931,"Ġà¤¤à¤¡à¤«à¤¦":6932,"Ġattribut":6933,"++++++++++++++++":6934,"bbbbbbbb":6935,"Ġgeneral":6936,"ĠSwami":6937,"bollywood":6938,"Ġà¤°à¤Ĺà¥ľ":6939,"Ġpeople":6940,"Ġliving":6941,"Ġyetey":6942,"ĠUpanishads":6943,"Chhan":6944,"Nothing":6945,"ukt":6946,"Ġà¤®à¤ĸà¤®à¤²":6947,"à¤Ĺà¤«à¤£":6948,"Ġà¤Łà¤³à¤Łà¤³":6949,"___/\\___":6950,"Ġwalking":6951,"Ġperfect":6952,"Ġdescribed":6953,"Ġlocker":6954,"Ġinspection":6955,"Ġcharacter":6956,"Ġeverything":6957,"Reduce":6958,"autiful":6959,"cott":6960,"wiki":6961,"Ġunderstand":6962,"à¤ļà¤ªà¤¦à¤¸":6963,"Ġà¤«à¤Łà¤«à¤Ł":6964,"Ġskill":6965,"Ġbelie":6966,"Ġcells":6967,"Ġfriend":6968,"Ġfourth":6969,"Ġdiva":6970,"Ġlimit":6971,"ammelan":6972,"chinese":6973,"ĠStatistics":6974,"Ġkoni":6975,"ĠProcess":6976,"ĠDisorder":6977,"Ġjoin":6978,"Ġshadow":6979,"Ġcommentary":6980,"ĠVishwa":6981,"Ġsexy":6982,"Ġcomplete":6983,"ĠIntegration":6984,"Ġquestion":6985,"ïģ¹ïģ¹":6986,"Admin":6987,"hoop":6988,"journalist":6989,"mamta":6990,"swam":6991,"telligence":6992,"Ġestablish":6993,"Ġïĥł":6994,"Ġà¤ªà¥ľà¤¤":6995,"Ġà¤¦à¤¬à¤¦à¤¬":6996,"Ġà¤ľà¤¯à¤¥à¤¡":6997,"Ġà¤Ńà¤°à¤ľà¤°":6998,"Ġthousand":6999,"Ġmusic":7000,"Ġmoney":7001,"Ġhundred":7002,"Ġdamn":7003,"Ġdanced":7004,"à¤Ĩà¤Īà¤Īà¤Īà¤Īà¤Īà¤Īà¤Īà¤Īà¤Īà¤Īà¤Ī":7005,"ayboli":7006,"Ġgolden":7007,"ĠShankar":7008,"ĠIndian":7009,"etiiii":7010,"Ġwhatever":7011,"ĠPersian":7012,"ĠTeapoy":7013,"ĠDemoc":7014,"ĠRoyal":7015,"ĠKurukshet":7016,"ography":7017,"ĠFazl":7018,"Ġallowed":7019,"ĠJoshi":7020,"Ġknowledge":7021,"ESOME":7022,"bollywoodjournalist":7023,"ĠKurukshetra":7024,"!>>":7025,"!...":7026,"!âĢĿ":7027,"!>>>":7028,"!----------------------------------------------------------------":7029,"\"!":7030,"\"'":7031,"\")":7032,"\">>>":7033,"\").":7034,"\"************************************************************":7035,"'re":7036,"(!":7037,"(?":7038,")*":7039,")*********************":7040,",(":7041,",âĢĺ":7042,".!!!!":7043,".:)":7044,".<<<":7045,".>>>>>>":7046,"._/\\_":7047,"/%":7048,"119":7049,"130":7050,"33":7051,"36":7052,"37":7053,"38":7054,"416":7055,"50":7056,"51":7057,"57":7058,"515":7059,"72":7060,"7416":7061,"85":7062,"95":7063,":(":7064,";)":7065,"?âĢĻ":7066,"AP":7067,"Ab":7068,"Al":7069,"As":7070,"Are":7071,"App":7072,"BE":7073,"Br":7074,"Best":7075,"Bri":7076,"Bear":7077,"Bhar":7078,"Can":7079,"Cha":7080,"Dr":7081,"Dà¤ļ":7082,"DHA":7083,"EO":7084,"ER":7085,"EAL":7086,"FI":7087,"Fru":7088,"Fashion":7089,"GH":7090,"Gu":7091,"God":7092,"Goal":7093,"Ha":7094,"Happy":7095,"ION":7096,"Iceland":7097,"IGH":7098,"Jabardast":7099,"JnÃ¢na":7100,"LY":7101,"Lik":7102,"Lost":7103,"Lord":7104,"MG":7105,"Me":7106,"Mà¤²":7107,"Now":7108,"Nice":7109,"OA":7110,"OT":7111,"Op":7112,"PK":7113,"Pe":7114,"Pad":7115,"Please":7116,"Pueblo":7117,"RY":7118,"Res":7119,"Rather":7120,"SA":7121,"SI":7122,"ST":7123,"Sw":7124,"Simple":7125,"Srd":7126,"Sea":7127,"South":7128,"Te":7129,"Tw":7130,"TII":7131,"Vah":7132,"Vyasa":7133,"WESOME":7134,"YS":7135,"^^":7136,"ax":7137,"aids":7138,"aff":7139,"bo":7140,"band":7141,"ble":7142,"book":7143,"back":7144,"bird":7145,"bination":7146,"breed":7147,"co":7148,"cle":7149,"cade":7150,"cale":7151,"cular":7152,"curity":7153,"cousin":7154,"certainty":7155,"df":7156,"do":7157,"ds":7158,"don":7159,"detail":7160,"ek":7161,"eed":7162,"eet":7163,"fo":7164,"ft":7165,"for":7166,"food":7167,"fare":7168,"fort":7169,"fact":7170,"feh":7171,"go":7172,"gu":7173,"ged":7174,"gic":7175,"guj":7176,"gency":7177,"hn":7178,"hav":7179,"hul":7180,"hala":7181,"human":7182,"hDà¤ļ":7183,"iat":7184,"iot":7185,"ians":7186,"iatic":7187,"iety":7188,"ja":7189,"ject":7190,"jali":7191,"jabardast":7192,"kr":7193,"kin":7194,"kes":7195,"kent":7196,"khan":7197,"kart":7198,"kich":7199,"khar":7200,"khil":7201,"kananda":7202,"les":7203,"land":7204,"lay":7205,"lip":7206,"me":7207,"mp":7208,"mand":7209,"mith":7210,"maj":7211,"mile":7212,"manda":7213,"modi":7214,"ng":7215,"ning":7216,"nch":7217,"net":7218,"nect":7219,"national":7220,"new":7221,"oà¤®":7222,"ole":7223,"oist":7224,"oem":7225,"oids":7226,"pI":7227,"ps":7228,"px":7229,"pin":7230,"por":7231,"pie":7232,"pudh":7233,"que":7234,"rg":7235,"ral":7236,"res":7237,"rad":7238,"rut":7239,"rak":7240,"rore":7241,"rome":7242,"rata":7243,"ranc":7244,"sa":7245,"si":7246,"sp":7247,"sar":7248,"sid":7249,"some":7250,"script":7251,"sava":7252,"sister":7253,"smile":7254,"tl":7255,"ted":7256,"tam":7257,"ttp":7258,"tya":7259,"tiss":7260,"tics":7261,"uz":7262,"ued":7263,"uss":7264,"uest":7265,"uhan":7266,"uia":7267,"uge":7268,"ufact":7269,"vat":7270,"ven":7271,"vic":7272,"vam":7273,"vest":7274,"vance":7275,"vulnerable":7276,"whe":7277,"wow":7278,"word":7279,"water":7280,"xiety":7281,"ying":7282,"yog":7283,"ycl":7284,"ystem":7285,"ytics":7286,"zÃ©":7287,"¡r":7288,"¹ðŁ":7289,"Â°":7290,"Â¿":7291,"ÃŃ":7292,"Ã¡r":7293,"Ġ#":7294,"Ġ$":7295,"Ġ<":7296,"ĠÂł":7297,"Ġur":7298,"Ġill":7299,"Ġ***":7300,"Ġ<<<":7301,"Ġund":7302,"Ġuse":7303,"Ġ__/\\__":7304,"Ġenc":7305,"Ġ03":7306,"Į¹ðŁ":7307,"ı»":7308,"ıðŁ":7309,"ĻıðŁ":7310,"à¤º":7311,"à¥ĺ":7312,"à¥ļ":7313,"à¤¾#":7314,"à¤¾>>":7315,"à¤¾âĢĺ":7316,"à¤¾>>>":7317,"à¤¾à¤¼":7318,"à¥įà¥ĥ":7319,"à¥į'.":7320,"à¥ĩà¥į":7321,"à¥ĩà¥ĩ":7322,"à¤°à¤ªà¤²":7323,"à¤°à¤°à¤ķ":7324,"à¤°à¤µà¤¸":7325,"à¤°à¤¸à¤¤":7326,"à¤°à¤³à¤²":7327,"à¤°à¤¡à¤ķ":7328,"à¤°à¤Ĺà¤°":7329,"à¤°à¤§à¤°":7330,"à¤¤à¤ħ":7331,"à¤¤à¤ķà¤¡":7332,"à¤¤à¤Ĩà¤£":7333,"à¤¤à¤µà¤¨":7334,"à¤¤à¤³à¤²":7335,"à¤¤à¤«à¤°":7336,"à¤¤à¤ĭà¤¤":7337,"à¥Ģ>>>":7338,"à¥Ģà¤¼":7339,"à¤²à¤§":7340,"à¤²à¤·":7341,"à¤²à¤ĺ":7342,"à¤²à¤ªà¤°":7343,"à¤²à¤°à¤µ":7344,"à¤²à¤®à¤¨":7345,"à¤²à¤µà¤°à¤ļ":7346,"à¤²à¤¯à¤®":7347,"à¤²à¤®à¤°":7348,"à¤²à¤§à¤°":7349,"à¤²à¤Īà¤ļ":7350,"à¤²à¤īà¤¤":7351,"à¤²à¤Ĩà¤īà¤Ł":7352,"à¤¯à¤¤à¤²":7353,"à¤¯à¤¦à¤°":7354,"à¤¯à¤ªà¤¨":7355,"à¤¯à¤¯à¤¨":7356,"à¤¯à¤°à¤¹":7357,"à¤¯à¤¶à¤ķ":7358,"à¤¯à¤£à¤¨":7359,"à¤¯à¤¶à¤µ":7360,"à¤¯à¤ľà¤®":7361,"à¤¯à¤ĺà¤Łà¤¨":7362,"à¤¯à¤«à¤³":7363,"à¤¨à¤Ŀ":7364,"à¤¨à¤¯à¤ķ":7365,"à¤¨à¤¸à¤¤":7366,"à¤¨à¤¸à¤°":7367,"à¤¨à¤°à¤ļ":7368,"à¤¨à¤ķà¤¤":7369,"à¤¨à¤Īà¤²":7370,"à¤¨à¤¨à¤ļ":7371,"à¤¨à¤°à¤¸":7372,"à¤¨à¤ī":7373,"à¤¨à¤Łà¤°":7374,"à¤¨à¤°à¤¶":7375,"à¤¨à¤ľà¤¨":7376,"à¤¨à¤¸à¤¨":7377,"à¤¨à¤®à¤¯":7378,"à¤¨à¤ĺà¤¨":7379,"à¤¨à¤µà¤¸à¤¨":7380,"à¤¿(":7381,"à¤¿à¥ĩ":7382,"à¤¿à¤Ĥ.":7383,"à¤¿à¤¼":7384,"à¤ļà¤¬":7385,"à¤ļà¤ĸ":7386,"à¤ļà¤°à¤¤":7387,"à¤ļà¤ªà¤²":7388,"à¤ļà¤ķà¤¡":7389,"à¤ļà¤±":7390,"à¤ļà¤¸à¤®":7391,"à¤ļà¤®à¤¦":7392,"à¤ļà¤ķà¤°à¤ļ":7393,"à¤Ĥ/":7394,"à¤Ĥ''":7395,"à¤Ĥ>>>":7396,"à¤Ĥ'.":7397,"à¤ĤâĢ¦.":7398,"à¤ķà¤Ŀ":7399,"à¤ķà¤Ĭ":7400,"à¤ķà¤¬à¤¦":7401,"à¤ķà¤¶à¤¨":7402,"à¤ķà¤Ĺà¤£":7403,"à¤ķà¤Łà¤°":7404,"à¤ķà¤®à¤¤":7405,"à¤ķà¤®à¤¨":7406,"à¤ķà¤µà¤°à¤ļ":7407,"à¤ķà¤¸à¤ķ":7408,"à¤ķà¤¶à¤ķ":7409,"à¤ķà¤ªà¤Ł":7410,"à¤ķà¤®à¤¹":7411,"à¤ķà¤¬à¤Ĺ":7412,"à¤ķà¤ĵà¤µ":7413,"à¤¹à¤Ĺ":7414,"à¤¹à¤¯à¤²":7415,"à¤¹à¤¸à¤°":7416,"à¤¹à¤ķà¤¤":7417,"à¤¹à¤°à¤¸":7418,"à¤¹à¤Łà¤ķ":7419,"à¤¹à¤³à¤£":7420,"à¤¹à¤¨à¤¹":7421,"à¤¹à¤¨à¤²":7422,"à¤¹à¤²à¤µ":7423,"à¤¹à¤ķà¤¸":7424,"à¤¹à¤¡à¤¸à¤°":7425,"à¤µà¤¯à¤ļ":7426,"à¤µà¤®à¤§":7427,"à¤µà¤ļà¤²":7428,"à¤µà¤¯à¤¨":7429,"à¤µà¤¹à¤¨":7430,"à¤µà¤¹à¤°à¤£":7431,"à¤¸à¤Ĩ":7432,"à¤¸à¤ħ":7433,"à¤¸à¤µà¤¤":7434,"à¤¸à¤®à¤ļ":7435,"à¤¸à¤Łà¤¤":7436,"à¤¸à¤®à¤²":7437,"à¤¸à¤¨à¤ķ":7438,"à¤¸à¤Łà¤¸":7439,"à¤¸à¤¬à¤ķ":7440,"à¤¸à¤ħà¤¹":7441,"à¤¸à¤µà¤°à¤¹":7442,"à¤¸à¤į":7443,"à¥ĭ(":7444,"à¥ĭâĢľ":7445,"à¥ĭ''":7446,"à¥ĭà¤¼":7447,"à¥ĭ\",":7448,"à¥ĭ'.":7449,"à¥ĭ\".":7450,"à¤£à¤¡":7451,"à¤£à¤µà¤°":7452,"à¤£à¤¦à¤°":7453,"à¤£à¤®à¤Ĺ":7454,"à¤£à¤¨à¤¹":7455,"à¤£à¤ĸà¤¤":7456,"à¤£à¤·à¤Łà¤ķ":7457,"Ġà¤ķà¤µà¤°":7458,"Ġà¤ķà¤Ī":7459,"Ġà¤ķà¤Ŀ":7460,"Ġà¤ķà¤¸à¤°":7461,"Ġà¤ķà¤¸à¤®":7462,"Ġà¤ķà¤¨à¤µ":7463,"Ġà¤ķà¤ļà¤ķ":7464,"Ġà¤ķà¤¹à¤¨":7465,"Ġà¤ķà¤£à¤ķ":7466,"à¤®à¤¤à¤°":7467,"à¤®à¤°à¤ķ":7468,"à¤®à¤ķà¤°":7469,"à¤®à¤µà¤¸":7470,"à¤®à¤°à¤ļ":7471,"à¤®à¤¹à¤°":7472,"à¤®à¤³à¤£":7473,"à¤®à¤¯à¤®":7474,"à¤®à¤Łà¤£":7475,"à¤®à¤ľà¤¬":7476,"à¤®à¤¯à¤¸à¤Ń":7477,"Ġà¤Ĩà¤Ĭ":7478,"Ġà¤Ĩà¤¸à¤²":7479,"Ġà¤Ĩà¤¯à¤ķ":7480,"Ġà¤Ĩà¤¡à¤ķ":7481,"Ġà¤Ĩà¤ĵ":7482,"Ġà¤Ĩà¤¸à¤ķ":7483,"Ġà¤Ĩà¤¡à¤¨":7484,"Ġà¤ĨSS":7485,"Ġà¤Ĩà¤Ŀà¤°à¤¬":7486,"Ġà¤Ĩà¤ļà¤°à¤Ł":7487,"Ġà¤®à¤¡":7488,"Ġà¤®à¤¢":7489,"Ġà¤®à¤Łà¤ķ":7490,"Ġà¤®à¤³à¤²":7491,"Ġà¤®à¤ĸà¤°":7492,"Ġà¤®à¤³à¤ķ":7493,"Ġà¤®à¤¯à¤¸à¤Ń":7494,"Ġà¤®à¤«à¤²à¤°":7495,"Ġà¤¤à¤¬à¤²":7496,"Ġà¤¤à¤£à¤¤":7497,"Ġà¤¤à¤®à¤ķ":7498,"Ġà¤¤à¤Ĺà¤¡":7499,"Ġà¤¤à¤¹à¤¨":7500,"à¤ªà¤ľ":7501,"à¤ªà¤Ń":7502,"à¤ªà¤Ŀ":7503,"à¤ªà¤ªà¤£":7504,"à¤ªà¤¸à¤°":7505,"à¤ªà¤ķà¤²":7506,"à¤ªà¤Ľ":7507,"à¤ªà¤µà¤¨":7508,"à¤ªà¤ľà¤²":7509,"à¤ªà¤¸à¤£":7510,"à¤ªà¤ķà¤Ł":7511,"à¤ªà¤³à¤µ":7512,"à¤ªà¤®à¤§à¤²":7513,"Ġà¤ªà¤ļ":7514,"Ġà¤ªà¤¢":7515,"Ġà¤ªà¤°à¤²":7516,"Ġà¤ªà¤°à¤ļ":7517,"Ġà¤ªà¤µà¤³":7518,"Ġà¤ªà¤Ĺà¤¡":7519,"Ġà¤ªà¤ļà¤µà¤²":7520,"Ġà¤ªà¤ļà¤ķà¤²":7521,"à¥Ĥ/":7522,"à¥ĤâĢĿ":7523,"à¥Ĥ\"\"":7524,"à¥Ĥ\",":7525,"Ġà¤¹à¤®à¤²":7526,"Ġà¤¹à¤®à¤¨":7527,"Ġà¤¹à¤®à¤ķ":7528,"Ġà¤¹à¤¸à¤¨":7529,"Ġà¤¹à¤Łà¤£":7530,"Ġà¤¹à¤¬à¤ķà¤²":7531,"Ġà¤¸à¤ķà¤°":7532,"Ġà¤¸à¤Łà¤°":7533,"Ġà¤¸à¤Łà¤ķ":7534,"Ġà¤¸à¤£à¤¸":7535,"Ġà¤¸à¤µà¤¡":7536,"Ġà¤¸à¤²à¤µ":7537,"Ġà¤¸à¤ªà¤ķ":7538,"Ġà¤¸à¤¬à¤¸":7539,"Ġà¤¸à¤¨à¤¦":7540,"Ġà¤¸à¤£à¤µ":7541,"Ġà¤¸à¤£à¤ķ":7542,"Ġà¤¸à¤µà¤°à¤²":7543,"Ġà¤¸à¤µà¤²à¤¤":7544,"à¤Ĺà¤·":7545,"à¤Ĺà¤ªà¤£":7546,"à¤Ĺà¤°à¤µ":7547,"à¤Ĺà¤¸à¤®":7548,"à¤Ĺà¤ľà¤°":7549,"à¤Ĺà¤ªà¤ļ":7550,"à¤Ĺà¤ķà¤£":7551,"à¤Ĺà¤ľà¤¬":7552,"à¤Ĺà¤µà¤³à¤£":7553,"Ġà¤ħà¤ł":7554,"Ġà¤ħà¤µà¤¨":7555,"Ġà¤ħà¤²à¤ķ":7556,"Ġà¤ħà¤§à¤¨":7557,"Ġà¤ħà¤²à¤Ĺ":7558,"Ġà¤ħà¤µà¤¡":7559,"Ġà¤ħà¥ŀ":7560,"Ġà¤ħà¤¥à¤ª":7561,"à¤¦à¤¡":7562,"à¤¦à¤§":7563,"à¤¦à¤ķà¤¡":7564,"à¤¦à¤«":7565,"à¤¦à¤ªà¤°":7566,"à¤¦à¤µà¤£":7567,"à¤¦à¤¬à¤¦":7568,"à¤¦à¤ķà¤³":7569,"à¤¦à¤ĸà¤²":7570,"à¤¦à¤®à¤§à¤²":7571,"à¤¦à¤£à¤ķ":7572,"à¤Łà¤ħ":7573,"à¤Łà¤°à¤ķ":7574,"à¤Łà¤ªà¤°":7575,"à¤Łà¤®à¤¸":7576,"à¤Łà¤¸à¤®":7577,"à¤Łà¤¸à¤¹":7578,"à¤Łà¤µà¤ķ":7579,"Ġà¤µà¤ļ":7580,"Ġà¤µà¤µ":7581,"Ġà¤µà¤Ł":7582,"Ġà¤µà¤Ĺà¤°":7583,"Ġà¤µà¤¤à¤¨":7584,"Ġà¤µà¤ļà¤ķ":7585,"à¤¡à¤Ŀ":7586,"à¤¡à¤ªà¤²":7587,"à¤¡à¤¬à¤°":7588,"à¤¡à¤ªà¤°":7589,"à¤¡à¤®à¤ļ":7590,"à¤¡à¤Ĺà¤¤":7591,"à¤¡à¤¨à¤ļ":7592,"à¤¡à¤®à¤²":7593,"à¤¡à¤µà¤¨":7594,"à¤¡à¤¬à¤²":7595,"à¤¡à¤¸à¤¨":7596,"à¤¡à¤°à¤¨":7597,"à¤¡à¤ĳ":7598,"à¤¡à¤ĳà¤«":7599,"Ġà¤¨à¤¨":7600,"Ġà¤¨à¤¬":7601,"Ġà¤¨à¤¡à¤²":7602,"Ġà¤¨à¤°à¤®":7603,"Ġà¤¨à¤¡à¤¤":7604,"à¤³à¤¦":7605,"à¤³à¤§":7606,"à¤³à¤ķà¤¤":7607,"à¤³à¤¤à¤ļ":7608,"à¤³à¤²à¤¤":7609,"à¤³à¤Ĺà¤¡":7610,"à¤³à¤ķà¤¨":7611,"à¤³à¤¸à¤µ":7612,"à¤ľà¤«":7613,"à¤ľà¤ķà¤°":7614,"à¤ľà¤ªà¤°":7615,"à¤ľà¤¯à¤ķ":7616,"à¤ľà¤®à¤ļ":7617,"à¤ľà¤¤à¤ļ":7618,"à¤ľà¤°à¤¸":7619,"à¤ľà¤¸à¤®":7620,"à¤ľà¤¯à¤µ":7621,"à¤ľà¤ªà¤ļ":7622,"à¤ľà¤ľà¤µà¤³":7623,"à¤ľà¤ķà¤¨":7624,"à¤ľà¤®à¤§à¤²":7625,"à¤ľà¤³à¤ķ":7626,"à¤ľà¤³à¤Ĺ":7627,"à¤ľà¤°à¤ļà¤¨":7628,"à¤¶à¤Ł":7629,"à¤¶à¤°à¤£":7630,"à¤¶à¤ķà¤°":7631,"à¤¶à¤°à¤®":7632,"à¤¶à¤²à¤¤":7633,"à¤¶à¤²à¤ļ":7634,"à¤¶à¤¸à¤ļ":7635,"Ġà¤¬à¤°à¤£":7636,"Ġà¤¬à¤Ĺà¤¤":7637,"Ġà¤¬à¤°à¤ĸ":7638,"Ġà¤¬à¤§à¤¤":7639,"Ġà¤¬à¤Łà¤£":7640,"Ġà¤¬à¤³à¤µ":7641,"Ġà¤¦à¤«":7642,"Ġà¤¦à¤°à¤ķ":7643,"Ġà¤¦à¤¬à¤²":7644,"Ġà¤¦à¤³à¤Ń":7645,"à¤¬à¤°à¤£":7646,"à¤¬à¤¸à¤¤":7647,"à¤¬à¤¬à¤²":7648,"à¤¬à¤Łà¤¨":7649,"à¤¬à¤¸à¤¨":7650,"à¤¬à¤¨à¤µ":7651,"à¤¬à¤ļà¤ķ":7652,"à¤¬à¤ķà¤µ":7653,"à¤¬à¤¹à¤²":7654,"Ġà¤ľà¤ĸ":7655,"Ġà¤ľà¤¡à¤¤":7656,"Ġà¤ľà¤²à¤ķ":7657,"Ġà¤ľà¤¨à¤¹":7658,"Ġà¤ľà¤²à¤µ":7659,"Ġà¤ľà¤¡à¤ļ":7660,"Ġà¤ľà¤²à¤¸":7661,"Ġà¤ľà¤¯à¤ķà¤°":7662,"à¤§à¤Ł":7663,"à¤§à¤ĸ":7664,"à¤§à¤ķà¤¡":7665,"à¤§à¤°à¤²":7666,"à¤§à¤¤à¤ļ":7667,"à¤§à¤ªà¤ļ":7668,"à¤§à¤Łà¤ļ":7669,"à¤§à¤ķà¤µ":7670,"à¤§à¤µà¤Łà¤ļ":7671,"Ġà¤²à¤ľ":7672,"Ġà¤²à¤¬":7673,"Ġà¤²à¤ł":7674,"Ġà¤²à¤ªà¤£":7675,"Ġà¤²à¤µà¤²":7676,"Ġà¤²à¤µà¤£":7677,"Ġà¤²à¤Łà¤ª":7678,"Ġà¤ħà¤¸à¤°":7679,"Ġà¤ħà¤¸à¤¸":7680,"Ġà¤ħà¤¸à¤¹à¤¨":7681,"Ġà¤ħà¤¸à¤«à¤²":7682,"à¤·à¤²":7683,"à¤·à¤ľ":7684,"à¤·à¤¶":7685,"à¤·à¤¸à¤²":7686,"à¤·à¤¤à¤ķ":7687,"Ġà¤Ĺà¤¸":7688,"Ġà¤Ĺà¤§":7689,"Ġà¤Ĺà¤Ī":7690,"Ġà¤Ĺà¤®à¤ļ":7691,"Ġà¤Ĺà¤¬à¤¦":7692,"Ġà¤Ĺà¤²à¤ķ":7693,"Ġà¤Ĺà¤ªà¤ļ":7694,"Ġà¤Ĺà¤Łà¤£":7695,"Ġà¤Ĺà¤²à¤¬":7696,"Ġà¤Ĺà¤¢à¤µ":7697,"Ġà¤Ĺà¤Ĺà¤¨à¤ļ":7698,"à¤ĸà¤¯":7699,"à¤ĸà¤§":7700,"à¤ĸà¤°à¤¤":7701,"à¤ĸà¤ķà¤°":7702,"à¤ĸà¤µà¤¸":7703,"à¤ĸà¤®à¤¸":7704,"à¤ĸà¤¸à¤®":7705,"à¤ĸà¤µà¤Ł":7706,"à¤ĸà¤¨à¤ķ":7707,"Ġà¤¯à¤¯":7708,"Ġà¤¯à¤¨":7709,"Ġà¤¯à¤¦":7710,"Ġà¤¯à¤µà¤¢":7711,"Ġà¤¯à¤ľà¤®":7712,"..âĢľ":7713,"à¤µà¤°à¤Ł":7714,"à¤µà¤°à¤µà¤°":7715,"à¤µà¤°à¤ªà¤°":7716,"à¤µà¤°à¤Ńà¤ķ":7717,"Ġà¤°à¤¹à¤¤":7718,"Ġà¤°à¤£à¤¬":7719,"Ġà¤ķà¤°à¤²":7720,"Ġà¤¶à¤¯":7721,"Ġà¤¶à¤µ":7722,"Ġà¤¶à¤·":7723,"Ġà¤¶à¤¯à¤¨":7724,"Ġà¤¶à¤®à¤µ":7725,"à¤łà¤¶":7726,"à¤łà¤µà¤°":7727,"à¤łà¤ªà¤£":7728,"à¤łà¤ªà¤°":7729,"à¤łà¤°à¤µ":7730,"à¤łà¤£à¤ļ":7731,"à¤łà¤°à¤µà¤²":7732,"à¤łà¤£à¤²":7733,"Ġà¤ļà¤¦":7734,"Ġà¤ļà¤¡":7735,"Ġà¤ļà¤¶":7736,"Ġà¤ļà¤µà¤¤":7737,"Ġà¤ļà¤ķà¤°":7738,"Ġà¤ļà¤µà¤³":7739,"Ġà¤ļà¤²à¤²":7740,"Ġà¤ļà¤®à¤¨":7741,"Ġà¤ļà¤·à¤ķ":7742,"Ġà¤ļà¤ªà¤Ł":7743,"Ġà¤ļà¤°à¤ķà¤²":7744,"Ġà¤ļà¤Łà¤ªà¤Ł":7745,"Ġà¤ļà¤ĺà¤³à¤²":7746,"Ġà¤Ĩà¤£à¤µà¤²":7747,"à¤¥à¤Ĺ":7748,"à¤¥à¤°à¤ķ":7749,"à¤¥à¤ķà¤²":7750,"à¤¥à¤²à¤ķ":7751,"à¤¥à¤°à¤¥":7752,"Ġà¤ıà¤£":7753,"Ġà¤ıà¤µà¤¡":7754,"Ġà¤ıà¤¯à¤°":7755,"Ġà¤ıà¤¡à¤µà¤°":7756,"Ġà¤ıà¤ħà¤°à¤²":7757,"Ġà¤ıà¤¯à¤°à¤ª":7758,"Ġà¤ĺà¤°à¤²":7759,"Ġà¤ĺà¤Łà¤¤":7760,"Ġà¤ĺà¤Łà¤ª":7761,"Ġà¤Ńà¤¦":7762,"Ġà¤Ńà¤·":7763,"Ġà¤Ńà¤µà¤¨":7764,"Ġà¤Ńà¤Łà¤¨":7765,"Ġà¤Ńà¤¡à¤µ":7766,"Ġà¤Ńà¤³à¤Ń":7767,"Ġà¤Ńà¤ĵà¤Ĺ":7768,"Ġà¤ıà¤ķà¤ª":7769,"Ġà¤ıà¤ķà¤ıà¤ķ":7770,"Ġà¤ıà¤ķà¤ªà¤¤":7771,"à¤¹à¤£à¤µà¤²":7772,"à¤¹à¤£à¤µà¤¤":7773,"à¤Ńà¤Ł":7774,"à¤Ńà¤¶":7775,"à¤Ńà¤Ī":7776,"à¤Ńà¤¡à¤µ":7777,"Ġà¤īà¤µ":7778,"Ġà¤īà¤ķà¤¡":7779,"Ġà¤īà¤ªà¤°":7780,"Ġà¤īà¤®à¤²":7781,"Ġà¤īà¤Ĺà¤ļ":7782,"Ġà¤īà¤Ĺà¤µ":7783,"Ġà¤īà¤ķà¤³":7784,"Ġà¤īà¤¬à¤³":7785,"Ġà¤īà¤¬à¤Ĺ":7786,"Ġà¤Ŀà¤°à¤¤":7787,"Ġà¤Ŀà¤¡à¤²":7788,"Ġà¤Ŀà¤Łà¤¤":7789,"Ġà¤Ŀà¤¬à¤²":7790,"Ġà¤Ŀà¤Ĺà¤¡":7791,"Ġà¤ĸà¤¸":7792,"Ġà¤ĸà¤ªà¤²":7793,"Ġà¤ĸà¤°à¤µ":7794,"Ġà¤ĸà¤ªà¤¤":7795,"Ġà¤ĸà¤³à¤Ĺ":7796,"Ġà¤ĸà¤ªà¤µà¤²":7797,"Ġà¤ĸà¤£à¤²":7798,"Ġà¤ĸà¤°à¤ķà¤Ł":7799,"Ġà¤ĸà¤ªà¤µà¤£":7800,"Ġà¤ĸà¤°à¤®à¤°":7801,"âĢķ":7802,"Ġà¤¤à¤°à¤¹":7803,"Ġà¤¤à¤°à¤¸":7804,"Ġà¤¤à¤°à¤³à¤¤":7805,"Ġà¤¤à¤°à¤³à¤²":7806,"Ġà¤«à¤¨":7807,"Ġà¤«à¤£":7808,"Ġà¤«à¤¸à¤¤":7809,"Ġà¤«à¤ľà¤²":7810,"Ġà¤«à¤Łà¤ķà¤¨":7811,"à¤Īà¤Ĩ":7812,"à¤Īà¤ªà¤£":7813,"à¤Īà¤¦à¤°":7814,"à¤Īà¤¤à¤ļ":7815,"à¤Īà¤¡à¤¸":7816,"à¤Īà¤ķà¤ļ":7817,"à¤Īà¤¡à¤ļ":7818,"à¤Īà¤¤à¤ķà¤ļ":7819,"à¤Īà¤Ĺà¤¡à¤¬à¤¡":7820,"à¤Ĩà¤ĺ":7821,"à¤Ĩà¤¯à¤ļ":7822,"à¤Ĩà¤ķà¤¡":7823,"à¤Ĩà¤«":7824,"à¤Ĩà¤°à¤£":7825,"à¤Ĩà¤°à¤ķ":7826,"à¤Ĩà¤ķà¤°":7827,"à¤Ĩà¤°à¤¸":7828,"à¤Ĩà¤¸à¤®":7829,"à¤Ĩà¤ĵ":7830,"à¤Ĩà¤¡à¤µ":7831,"à¤Ĩà¤¯à¤¬":7832,"à¤Ĩsssss":7833,"à¤Ŀà¤¤":7834,"à¤Ŀà¤¯":7835,"à¤Ŀà¤¸":7836,"à¤Ŀà¤µà¤²":7837,"à¤Ŀà¤µà¤£":7838,"à¤Ŀà¤¡à¤£":7839,"à¤Ŀà¤Łà¤ªà¤Ł":7840,"à¤¢à¤¸":7841,"à¤¢à¤ª":7842,"à¤¤à¤°à¤®":7843,"à¤¤à¤°à¤¦":7844,"à¤¤à¤°à¤ķà¤¥":7845,"à¤ĺà¤ķà¤¥":7846,"à¤¯à¤ļà¤ļ":7847,"à¤¯à¤ļà¤ķ":7848,"à¤°à¤¤à¤²":7849,"à¤°à¤¤à¤¯":7850,"à¤°à¤¤à¤¸":7851,"à¤°à¤¤à¤ľ":7852,"à¤°à¤¤à¤µà¤°":7853,"à¤°à¤¤à¤Ń":7854,"à¤ħà¤ªà¤°":7855,"à¤ħà¤¨à¤ļ":7856,"à¤ħà¤°à¤¸":7857,"à¤ħà¤ªà¤¨":7858,"à¤ħà¤µà¤¶":7859,"à¤ħà¤Ĺà¤°":7860,"à¤ħà¤ĵ":7861,"à¤ħà¤µà¤ľ":7862,"à¤ħà¤«à¤²":7863,"à¤ħà¤łà¤°":7864,"à¤¤à¤²à¤ļ":7865,"à¤¤à¤²à¤µ":7866,"à¤¤à¤²à¤ĸ":7867,"à¤Ĭà¤ªà¤£":7868,"à¤Ĭà¤¦à¤²":7869,"à¤Ĭà¤ľà¤°":7870,"à¤Ĭà¤¸à¤®à¤§":7871,"à¤Ĭà¤Ŀà¤°":7872,"à¤ªà¤²à¤ª":7873,"Ġà¤Ĩà¤²à¤¬":7874,"Ġà¤ĩà¤¡":7875,"Ġà¤ĩà¤Ŀ":7876,"Ġà¤ĩà¤ħà¤°":7877,"Ġà¤ĩà¤¨à¤ķ":7878,"Ġà¤ĩà¤¸à¤¨":7879,"Ġà¤ĩà¤¤à¤¸":7880,"Ġà¤ĩà¤¸à¤ķ":7881,"Ġà¤ĩà¤¹à¤²":7882,"Ġà¤ĩà¤ľà¤¯":7883,"Ġà¤ĩà¤°à¤«":7884,"Ġà¤ĩà¤¯à¤°à¤ļ":7885,"à¥Ī'":7886,"à¥Ī|":7887,"à¥Īà¤Ĥ.":7888,"à¤µà¤²à¤ļ":7889,"à¤¯à¤²à¤°":7890,"à¤¯à¤²à¤Łà¤²":7891,"à¤¯à¤²à¤Łà¤¨":7892,"Ġà¤ħà¤¸à¤¤à¤ļ":7893,"Ġà¤Łà¤£":7894,"Ġà¤Łà¤¬":7895,"Ġà¤Łà¤ķà¤²":7896,"Ġà¤Łà¤£à¤ķ":7897,"Ġà¤Łà¤°à¤ķà¤²":7898,"Ġà¤Łà¤°à¤¬":7899,"à¤ķà¤¡à¤¯":7900,"à¤«à¤Ĺ":7901,"à¤«à¤ĸ":7902,"à¤«à¤°à¤£":7903,"à¤«à¤°à¤²":7904,"à¤«à¤°à¤¸":7905,"à¤«à¤Łà¤°":7906,"à¤«à¤¨à¤¨":7907,"à¤«à¤Łà¤ª":7908,"à¤«à¤¸à¤¬":7909,"à¤«à¤¸à¤µà¤£":7910,"à¤Ĺà¤²à¤¬":7911,"à¤Ĺà¤²à¤®à¤§":7912,"à¤Ĺà¤²à¤®à¤¯":7913,"à¤¹à¤¤à¤µ":7914,"à¤¾,(":7915,"à¤¾,.":7916,"Ġà¤łà¤ª":7917,"Ġà¤łà¤¸à¤ķ":7918,"Ġà¤łà¤ªà¤ķ":7919,"à¤°à¤£à¤ľ":7920,"à¤°à¤£à¤°à¤£à¤¤":7921,"à¤¡à¤²à¤ķà¤°":7922,"à¥ĩ,âĢľ":7923,"à¥ĩ,``":7924,"à¥ħ,":7925,"à¥ħà¤¾":7926,"Ġà¤¡à¤ķ":7927,"Ġà¤¡à¤¹":7928,"Ġà¤¡à¤¸à¤²":7929,"Ġà¤¡à¤¬à¤¡":7930,"Ġà¤¡à¤µà¤°à¤²":7931,"Ġà¤¡à¤Ŀà¤¨":7932,"Ġà¤¡à¤Ĺà¤®à¤Ĺà¤£":7933,"à¤Ĺà¤³à¤®":7934,"à¤°à¤ķà¤³":7935,"à¤°à¤ķà¤°à¤ļ":7936,"Ġà¤µà¤°à¤¹":7937,"Ġà¤µà¤°à¤®":7938,"à¥Ģ,.":7939,"à¥Ģ,âĢĿ":7940,"Ġà¤§à¤¤":7941,"Ġà¤§à¤Ĺ":7942,"Ġà¤§à¥ľ":7943,"Ġà¤§à¤Ĺà¤§":7944,"Ġà¤¨à¤µà¤¯":7945,"Ġà¤¨à¤µà¤ľ":7946,"Ġà¤¨à¤µà¤ĺà¤°":7947,"Ġà¤¨à¤µà¤µà¤§":7948,"à¤°à¤²à¤²":7949,"à¤°à¤²à¤¯":7950,"à¤°à¤²à¤ļ":7951,"Ġà¤ħà¤¨à¤°":7952,"Ġà¤ħà¤¨à¤²":7953,"Ġà¤ħà¤¨à¤ķ":7954,"Ġà¤ħà¤¨à¤¬":7955,"Ġà¤ħà¤¨à¤¸à¤°":7956,"à¤®à¤§à¤°":7957,"à¤®à¤§à¤¡":7958,"Ġà¤ķà¤°à¤¤à¤¨":7959,"à¤ķà¤°à¤°":7960,"à¤ķà¤°à¤¹":7961,"à¤ķà¤°à¤ª":7962,"à¤ķà¤°à¤µà¤°":7963,"à¤ķà¤°à¤®à¤§":7964,"à¤Łà¤²à¤®":7965,"à¤Łà¤²à¤°à¤¨":7966,"à¤¬à¤°à¤µ":7967,"à¤¬à¤°à¤¸":7968,"à¤¬à¤°à¤®":7969,"à¤¬à¤°à¤Ĺ":7970,"à¤¬à¤°à¤¡":7971,"à¤¬à¤°à¤µà¤²":7972,"à¤µà¤¸à¤¹":7973,"à¤µà¤¸à¤Ī":7974,"Ġà¤¸à¤®à¤¹":7975,"Ġà¤¸à¤®à¤µà¤¨":7976,"Ġà¤®à¤²à¤¬":7977,"à¤ªà¤°à¤¨":7978,"à¤ªà¤°à¤Ł":7979,"à¤ªà¤°à¤¶":7980,"à¤ªà¤°à¤®à¤§":7981,"Ġà¥Ļ":7982,"à¤¸à¤²à¤°":7983,"à¤¯à¤ķà¤ķ":7984,"Ġà¤Ĩà¤¤à¤¤":7985,"Ġà¤Ĩà¤¤à¤µà¤°":7986,"à¤¸à¤¤à¤¤à¤ļ":7987,"à¤¤à¤ķà¤¹":7988,"à¤¸à¤°à¤¨":7989,"à¤¸à¤°à¤®":7990,"à¤¸à¤°à¤¦":7991,"Ġà¤¸à¤°à¤ļ":7992,"Ġà¤¸à¤°à¤ĸ":7993,"Ġà¤¸à¤°à¤ªà¤Ł":7994,"Ġà¤¸à¤°à¤ªà¤Łà¤²":7995,"à¤°à¤ļà¤ķ":7996,"Ġà¤¥à¤ª":7997,"Ġà¤¥à¤¬à¤ķ":7998,"Ġà¤¥à¤ķà¤µà¤£":7999,"....'":8000,"....\"\"":8001,"....''":8002,"....!!!":8003,"....:)":8004,"....?????":8005,"à¤ıà¤Ĺ":8006,"à¤ıà¤ł":8007,"à¤ıà¤Ī":8008,"à¤ıà¤ķà¤¤":8009,"à¤ıà¤Łà¤°":8010,"à¤ıà¤ħà¤°":8011,"à¤ıà¤²à¤ļ":8012,"à¤ıà¤²à¤¸":8013,"à¤ıà¤²à¤ľ":8014,"à¤ıà¤ļà¤¡":8015,"Ġà¤Ĩà¤µà¤ķ":8016,"à¤µà¤£à¤¸":8017,"à¤µà¤£à¤ķà¤°":8018,"à¤Ĺà¤¤à¤¯":8019,"à¤Ĺà¤¤à¤ªà¤°":8020,"à¤ķà¤²à¤¤":8021,"Ġà¤ªà¤°à¤³":8022,"Ġà¤ªà¤°à¤¸à¤¬":8023,"Ġà¤®à¤¨à¤µà¤²":8024,"à¤¦à¤°à¤°":8025,"à¤¦à¤°à¤ª":8026,"à¤¦à¤°à¤¬":8027,"à¤¦à¤°à¤ĸ":8028,"Ġà¤®à¤§à¤®à¤¦":8029,"à¥¦à¥§":8030,"à¤°à¤ĸà¤¤":8031,"à¤°à¤ĸà¤¡":8032,"à¤°à¤µà¤Ĺ":8033,"Ġà¤ĺà¤°à¤ĺà¤°":8034,"Ġà¤ĺà¤°à¤Ĺà¤¡":8035,"Ġà¤¬à¤ĺà¤¯":8036,"Ġà¤¬à¤ĺà¤ļ":8037,"à¤µà¤³à¤ķà¤°":8038,"à¤µà¤³à¤¸à¤°":8039,">>(":8040,">>.":8041,"à¤ĩà¤¯":8042,"à¤ĩà¤¦":8043,"à¤ĩà¤¯à¤¤":8044,"à¤ĩà¤¯à¤®":8045,"à¤ĩà¤¨à¤²":8046,"à¤ĩà¤Łà¤µà¤°":8047,"à¥Ģà¤Ĥ!":8048,"à¥Ģà¤Ĥ,":8049,"à¥Į!":8050,"à¥Į\"":8051,"à¤Īà¤²à¤²":8052,"à¤Ľà¤ª":8053,"à¤Ľà¤¡":8054,"à¤Ľà¤ªà¤£":8055,"Ġà¤Ľà¤³à¤²":8056,"Ġà¤Ľà¤³à¤µ":8057,"à¤¤à¤ļà¤¤":8058,"à¤¤à¤ļà¤ĸ":8059,"Ġà¤ĵà¤¨":8060,"Ġà¤ĵà¤µà¤°":8061,"Ġà¤ĵà¤«":8062,"Ġà¤ĵà¤ľà¤¸":8063,"Ġà¤ĵà¤¤à¤£":8064,"Ġà¤ĵà¥Ŀ":8065,"Ġà¤ĵà¤°à¤ĸà¤¡":8066,"Ġ'\"":8067,"Ġ',":8068,"Ġ,\"":8069,"à¤¨à¤ļà¤°":8070,"Ġ(=":8071,"ĠâĢķ":8072,"à¤°à¤¸à¤®":8073,"à¤°à¤¸à¤ª":8074,"à¤°à¤¸à¤®à¤£":8075,"à¤³à¤¤à¤¯":8076,"Ġà¤Ĩà¤ľà¤°":8077,"Ġà¤Ĩà¤ľà¤¨":8078,"Ġà¤Ĩà¤ľà¤Ĺ":8079,"Ġà¤Ĩà¤ľà¤¤à¤ķ":8080,"Ġà¤Ĩà¤ľà¤ĺà¤¡":8081,"à¤ıà¤ķà¤ķ":8082,"à¤ıà¤ķà¤¶":8083,"à¤ıà¤ķà¤µà¤°":8084,"à¤Ĩà¤£à¤¤":8085,"à¤ĥ:":8086,"à¤ļà¤²à¤°":8087,"à¤¬à¤¦à¤¨":8088,"à¤·à¤£à¤ļ":8089,"à¤·à¤£à¤Ńà¤°à¤ļ":8090,"à¤·à¤£à¤ķà¤µà¤ļ":8091,"******":8092,"*******":8093,"Ġà¤®à¤¹à¤¸":8094,"Ġà¤®à¤¹à¤®à¤¦":8095,"à¤īà¤¤à¤°":8096,"à¤īà¤ªà¤ļ":8097,"à¤īà¤²à¤µ":8098,"à¤īà¤ªà¤¹":8099,"à¤īà¤ªà¤µ":8100,"à¤īà¤łà¤£":8101,"à¤īà¤¤à¤°à¤²":8102,"à¤īà¤ĺà¤¡à¤²":8103,"à¤¶à¤¨à¤®":8104,"à¤¶à¤¨à¤ª":8105,"à¤¶à¤¨à¤¸à¤°":8106,"à¤¶à¤¨à¤ľà¤µà¤³":8107,"à¤¶à¤¨à¤ľà¤µà¤³à¤ļ":8108,"...)":8109,"à¤¯à¤¤à¤¤":8110,"Ġà¤Ĩà¤®à¤¨":8111,"Ġà¤Ĩà¤®à¤¸à¤Ń":8112,"-------":8113,"à¥§à¥¦à¥¦à¥¦à¥¦à¥¦à¥¦à¥¦à¥¦à¥¦à¥¦à¥¦à¥¦à¥¦à¥¦à¥¦à¥¦":8114,"à¤²à¤¤à¤¯":8115,"Ġà¤Ĳà¤¹":8116,"Ġà¤Ĳà¤Ł":8117,"Ġà¤Ĳà¤¸à¤ª":8118,"à¤Ĺà¤£à¤®à¤§":8119,"Ġà¤ħà¤ľà¤°":8120,"Ġà¤ħà¤ľà¤¯à¤²":8121,"à¤°à¤¶à¤ķ":8122,"à¤¸à¤®à¤¤":8123,"à¤¸à¤®à¤°à¤ķ":8124,"Ġà¤¸à¤®à¤ľà¤µà¤²":8125,"Ġà¤¸à¤®à¤ľà¤¤à¤ļ":8126,"à¤ªà¤¨à¤¸":8127,"à¤ªà¤¨à¤²à¤¹à¤°":8128,"à¤®à¤Ĺà¤°":8129,"Ġà¤¸à¤¹à¤°":8130,"Ġà¤¸à¤¹à¤¦":8131,"Ġà¤¸à¤¹à¤ķà¤°":8132,"Ġà¤¸à¤¹à¤¨à¤¶":8133,"Ġà¤ĸà¤°à¤ª":8134,"à¤Łà¤ķà¤³":8135,"Ġà¤ķà¤¸à¤¬à¤¸":8136,"à¤®à¤¤à¤¤":8137,"this":8138,"then":8139,"à¤°à¤ľà¤¸":8140,"à¤°à¤ľà¤µà¤³":8141,"à¤°à¤ľà¤¨à¤¨":8142,"à¤°à¤ľà¤¬à¤°à¤¦à¤¸":8143,"Ġà¤¬à¤¸à¤¶":8144,"à¤Ĥ,âĢĿ":8145,"à¤¹à¤°à¤°":8146,"à¤¹à¤°à¤¥":8147,"à¤¹à¤°à¤µà¤°à¤ļ":8148,"à¤µà¤¨à¤ķà¤¡":8149,"à¤µà¤¨à¤ªà¤°":8150,"à¤µà¤¨à¤°à¤¸":8151,"âĢĿâĢĺ":8152,"à¤¯à¤µà¤§":8153,"à¤²à¤ķà¤µ":8154,"à¤²à¤ķà¤°à¤£":8155,"Ġà¤ķà¤®à¤µà¤²":8156,"à¤µà¤Łà¤¹":8157,"Ġ-\"":8158,"Ġ-'":8159,"Ġ-.":8160,"iner":8161,"ining":8162,"ince":8163,"inem":8164,"inks":8165,"inary":8166,"inator":8167,"inates":8168,"anu":8169,"anta":8170,"anie":8171,"anner":8172,"anakas":8173,"Ġà¤ªà¤¡à¤²à¤¯":8174,"à¤³à¤²à¤²":8175,"Ġà¤Ĩà¤Īà¤¯":8176,"Ġà¤Ĩà¤Īà¤¹":8177,"Ġà¤Ĩà¤Īà¤¨à¤¸":8178,"à¤§à¤¨à¤®":8179,"Ġà¤ĳà¤ķà¤°":8180,"Ġà¤ĳà¤®à¤²":8181,"Ġà¤ĳà¤°à¤Ĺ":8182,"Ġà¤ĳà¤Ĺà¤·":8183,"Ġà¤Ĩà¤¯à¤¸":8184,"Ġà¤īà¤¦à¤Ĺ":8185,"Ġà¤īà¤¦à¤¯à¤ļ":8186,"Ġà¤īà¤¦à¤¯à¤ª":8187,"à¤¬à¤²à¤ķà¤¡":8188,"à¤Ńà¤°à¤¦":8189,"eration":8190,"erely":8191,"ergency":8192,"Ġà¤īà¤ªà¤ª":8193,"Ġà¤īà¤ªà¤ĸ":8194,"Ġà¤īà¤ªà¤Łà¤²":8195,"Ġà¤īà¤ªà¤ľà¤¤":8196,"à¤ľà¤¨à¤¨":8197,"à¤ľà¤¨à¤ª":8198,"à¤ľà¤¨à¤ªà¤¦":8199,"!!(":8200,"!!@":8201,"!!..":8202,"!!âĢĻ":8203,"à¤µà¤¶à¤¤":8204,"à¤®à¤¨à¤Ĺà¤°":8205,"à¤ªà¤¤à¤¸":8206,"à¤ªà¤¤à¤Ĺà¤¡":8207,"à¤Ĺà¤°à¤¦":8208,"à¤Ĺà¤°à¤¬":8209,"à¤Ĺà¤°à¤Ĺà¤Ł":8210,"à¤Ĩà¤ľà¤¸":8211,"à¤Ĩà¤ľà¤µà¤°à¤ļ":8212,"Ġà¤ħà¤ªà¤ª":8213,"Ġà¤ħà¤ªà¤Ń":8214,"à¤¯à¤®à¤¯":8215,"à¤¯à¤®à¤®":8216,"Ġà¤°à¤¸à¤ª":8217,"à¤ŀà¤¯":8218,"à¤£à¤¤à¤¹":8219,"Ġthree":8220,"Ġthird":8221,"ato":8222,"atul":8223,"atter":8224,"atik":8225,"Ġà¤¬à¤¹à¤²":8226,"Ġà¤¬à¤¹à¤®à¤¨":8227,"à¤ľà¤²à¤¯":8228,"à¤¨à¤¹à¤¸":8229,"à¤ħà¤¸à¤¹":8230,"Ġà¤¨à¤¸à¤¶":8231,"Ġà¥¨à¥¨à¥¦à¥¦":8232,"ons":8233,"à¤²à¤¯à¤ľ":8234,"à¤²à¤¯à¤®à¤¸":8235,"arb":8236,"arn":8237,"arth":8238,"aras":8239,"arind":8240,"arya":8241,"arge":8242,"arany":8243,"à¤¹à¤®à¤¯":8244,"Ġss":8245,"Ġsing":8246,"Ġsel":8247,"Ġsil":8248,"Ġset":8249,"Ġsus":8250,"Ġsap":8251,"Ġsoo":8252,"Ġsnow":8253,"Ġsimp":8254,"Ġslow":8255,"Ġsarv":8256,"Ġsimil":8257,"à¤®à¤ķà¤¶":8258,"Ġà¤ľà¤Ĺà¤ª":8259,"Ġà¤ľà¤Ĺà¤ľ":8260,"........\"":8261,"...............":8262,"............\"":8263,"à¤°à¤¹à¤ľà¤°":8264,"Ġà¤ħà¤µà¤¤à¤°à¤¤":8265,"Ġà¤ħà¤µà¤ľà¤¡":8266,"Ġà¤ªà¤¤à¤¸":8267,"à¤ĸà¤°à¤¬":8268,"Ġà¤ľà¤¨à¤¸":8269,"Ġà¤ľà¤¨à¤ľ":8270,"à¤Łà¤¨à¤¨":8271,"à¤¸à¤ļà¤¦":8272,"Ġà¤ľà¤®à¤¶":8273,"Ġà¤ľà¤®à¤µà¤£":8274,"Ġà¤ľà¤®à¤¤à¤ļ":8275,"à¤ħà¤¨à¤®":8276,"à¤ħà¤¨à¤Ŀ":8277,"à¤Īà¤¨à¤¨":8278,"à¤Īà¤¨à¤¸":8279,"à¤Īà¤¨à¤®à¤§":8280,"à¤ļà¤¨à¤®":8281,"à¥«à¥¬":8282,"à¥«à¥§à¥¨à¥«":8283,"à¤²à¤¨à¤ª":8284,"à¤²à¤¨à¤ķà¤°":8285,"à¤ħà¤¶à¤ķ":8286,"Ġaj":8287,"Ġav":8288,"Ġapan":8289,"Ġajun":8290,"Ġavad":8291,"orr":8292,"orre":8293,"oriz":8294,"orward":8295,"Ġà¤ķà¤ªà¤¬à¤¶":8296,"isk":8297,"ised":8298,"ising":8299,"ision":8300,"Ġà¤Ńà¤°à¤¦":8301,"Ġà¤Ńà¤°à¤¡":8302,"Ġà¤Ńà¤°à¤§":8303,"Ġà¤Ńà¤°à¤Ńà¤ķ":8304,"Ġà¤ĵà¤³à¤ĸà¤ļ":8305,"Ġà¤ĵà¤³à¤ĸà¤¶":8306,"à¤°à¤¦à¤¯à¤¸":8307,"à¤Īà¤Łà¤¸":8308,"à¤µà¤ķà¤°à¤ļ":8309,"à¤¨à¤µà¤ľà¤¨":8310,"Ġwom":8311,"Ġwish":8312,"Ġworth":8313,"Ġwild":8314,"Ġwaiting":8315,"Ġwinter":8316,"Ġwork":8317,"Ġwanker":8318,"ena":8319,"ene":8320,"enom":8321,"ench":8322,"eness":8323,"Ġà¤ªà¤¡à¤¨":8324,"Ġà¤ªà¤¡à¤µ":8325,"Ġà¤µà¤¸à¤µ":8326,"Ġà¤µà¤¸à¤Īà¤ļ":8327,"à¥©à¥ª":8328,"à¥¯à¥¨":8329,"Ġà¤ķà¤¡à¤ļ":8330,"Ġà¤ķà¤¡à¤§":8331,"Ġà¤¸à¤°à¤ķà¤£":8332,"Ġà¤¸à¤°à¤ķà¤µà¤£":8333,"alf":8334,"alas":8335,"aling":8336,"algic":8337,"à¤¯à¤°à¤¨":8338,"à¤¯à¤°à¤¨à¤ļ":8339,"Ġthese":8340,"Ġtheory":8341,"à¤°à¤ªà¤Łà¤ļ":8342,"Ġà¤¸à¤ķà¤¸":8343,"Ġà¤¸à¤ķà¤Ł":8344,"à¤¡à¤¸à¤¹":8345,"à¤¡à¤¸à¤µ":8346,"=========-'":8347,"Ġà¤Ĩà¤ķà¤³à¤²":8348,"itin":8349,"itation":8350,"itual":8351,"itude":8352,"Ġà¤§à¤¨à¤²":8353,"Ġà¤§à¤¨à¤¸":8354,"Ġà¤§à¤¨à¤§":8355,"Ġà¤§à¤¨à¤µà¤¨":8356,"Ġà¤ªà¤¦à¤§à¤¤":8357,"Ġbad":8358,"Ġbod":8359,"Ġbus":8360,"Ġbig":8361,"Ġbold":8362,"Ġbased":8363,"Ġbaby":8364,"Ġbanner":8365,"à¤¨à¤¸à¤£":8366,"à¤¨à¤¸à¤¶":8367,"Ġà¤Ĩà¤ªà¤¦":8368,"à¤ľà¤µà¤³à¤Ĺ":8369,"à¤¸à¤¹à¤¨":8370,"à¤¸à¤¹à¤ķ":8371,"Ġà¤¨à¤ľà¤°à¤¹":8372,"Ġà¤Ĩà¤µà¤¡à¤¤à¤ļ":8373,"Ġtar":8374,"Ġtit":8375,"Ġtre":8376,"Ġtag":8377,"Ġtab":8378,"Ġtra":8379,"Ġtax":8380,"Ġca":8381,"Ġcel":8382,"Ġcop":8383,"Ġcra":8384,"Ġcreat":8385,"Ġclo":8386,"Ġcru":8387,"Ġcamp":8388,"Ġcrit":8389,"Ġcinem":8390,"à¤ĸà¤¨à¤ķà¤²":8391,"Ġmi":8392,"Ġmin":8393,"Ġmed":8394,"Ġmak":8395,"Ġmul":8396,"Ġmur":8397,"Ġmind":8398,"Ġmach":8399,"Ġmight":8400,"Ġmov":8401,"Ġmode":8402,"Ġmob":8403,"Ġmorn":8404,"Ġmaids":8405,"à¤µà¤ľà¤µ":8406,"à¤µà¤ľà¤¯à¤¨":8407,"à¤²à¤µà¤Łà¤²":8408,"à¤§à¤¤à¤¶":8409,"à¤ļà¤ķà¤¹":8410,"à¤ļà¤ķà¤µ":8411,"à¤ļà¤ķà¤µà¤°":8412,"à¤ļà¤ķà¤ªà¤£":8413,"à¤¸à¤£à¤µ":8414,"Ġà¤Īà¤ķ":8415,"Ġà¤Īà¤Ĺà¤²":8416,"Ġà¤Īà¤¯à¤°":8417,"à¤·à¤ķà¤¹":8418,"edy":8419,"edic":8420,"edha":8421,"à¤ķà¤³à¤ļ":8422,"à¤ķà¤³à¤¶":8423,"Ġput":8424,"Ġpus":8425,"Ġpah":8426,"Ġphil":8427,"Ġpust":8428,"Ġppl":8429,"Ġpati":8430,"Ġpara":8431,"Ġpudh":8432,"Ġpict":8433,"Ġpract":8434,"asim":8435,"aspx":8436,"asthen":8437,"asons":8438,"Ġà¤Ĺà¤°à¤Ĺà¤°":8439,"à¤ªà¤Łà¤ª":8440,"Ġà¤Ĩà¤µà¤¡à¤¨":8441,"Ġà¤Ĩà¤µà¤¡à¤¹":8442,"à¤¹à¤¨à¤°":8443,"à¤¹à¤¨à¤¦":8444,"Ġob":8445,"Ġobl":8446,"Ġoper":8447,"Ġopin":8448,"à¤ķà¤¨à¤ªà¤°":8449,"à¤ķà¤¨à¤¸à¤²":8450,"âĢ¦!":8451,"âĢ¦âĢĻ":8452,"âĢ¦âĢĻâĢĻ":8453,"âĢ¦âĢ¦.":8454,"à¥ªà¥¯":8455,"à¥ªà¥«à¥¦":8456,"à¤¬à¤Īà¤ª":8457,"à¤¬à¤Īà¤¬":8458,"à¤¬à¤Īà¤ķà¤¡":8459,"Ġà¤¢à¤³":8460,"à¥¬à¥§":8461,"à¥¬à¥®":8462,"à¥¬à¥Ń":8463,"à¤Ĩà¤ªà¤£à¤¹":8464,"à¤ķà¤¦à¤ļ":8465,"à¤Łà¤£à¤®":8466,"rew":8467,"reci":8468,"relat":8469,"Ġhus":8470,"Ġhear":8471,"Ġhttp":8472,"à¤¶à¤²à¤¸":8473,"Ġà¤īà¤²à¤¥à¤µ":8474,"ssà¤¤":8475,"à¤®à¤£à¤¶":8476,"à¤°à¤¥à¤¨":8477,"Ġà¤ļà¤°à¤¬":8478,"à¤¹à¤³à¤¦":8479,"omatic":8480,"omise":8481,"omba":8482,"à¥Ģ-\"":8483,"à¤ļà¤µà¤¦":8484,"à¤£à¤¯à¤ľ":8485,"Ġà¤ĩà¤¤à¤ªà¤¤à¤ļ":8486,"Ġà¥©à¥¨":8487,"Ġà¥©à¥®":8488,"Ġà¥©à¥Ń":8489,"Ġà¥©à¥«à¥¦":8490,"Ġà¥©à¥¬à¥¦":8491,"Ġà¥©à¥©à¥¨":8492,"Ġà¥©à¥§à¥§à¥©":8493,"icha":8494,"Ġfi":8495,"Ġfan":8496,"Ġfar":8497,"Ġfav":8498,"Ġfly":8499,"Ġful":8500,"Ġfur":8501,"Ġfear":8502,"Ġfood":8503,"Ġfight":8504,"Ġfive":8505,"Ġfeat":8506,"Ġfound":8507,"Ġflow":8508,"Ġfire":8509,"à¤ľà¤£à¤µ":8510,"Ġdin":8511,"Ġdad":8512,"Ġdil":8513,"Ġdim":8514,"Ġdid":8515,"Ġdone":8516,"Ġdays":8517,"Ġdied":8518,"Ġdirect":8519,"Ġduty":8520,"Ġdenom":8521,"Ġà¤īà¤¡à¤ª":8522,"ande":8523,"andel":8524,".....(":8525,".....\"\"":8526,"à¤¤à¤³à¤Ń":8527,"à¤¬à¤¡à¤µà¤°":8528,"ela":8529,"eli":8530,"elig":8531,"elock":8532,"elcome":8533,"Ġà¤¹à¤¸à¤¬à¤¨":8534,"Ġlot":8535,"Ġlab":8536,"Ġlist":8537,"Ġlif":8538,"Ġlitt":8539,"Ġluck":8540,"Ġliter":8541,"Ġlandline":8542,"Ġlogic":8543,"à¥Ńà¥¦à¥¦":8544,"à¥Ńà¥®à¥¬":8545,"Ġà¤īà¤łà¤µà¤¤":8546,"Ġ17":8547,"Ġ++":8548,"à¤ªà¤¡à¤ļ":8549,"à¤Ĩà¤Īà¤Ĺ":8550,"à¤Ĩà¤Īà¤¶":8551,"à¤Ĩà¤Īà¤ķà¤¡":8552,"Ġà¤Ĺà¤£à¤µ":8553,"à¤¾'(":8554,"à¤īà¤¨à¤®":8555,"Ġà¤ħà¤²à¤µà¤°":8556,"Ġà¤īà¤ļà¤²à¤¤à¤ļ":8557,"à¤ªà¤¦à¤µ":8558,"Ġinst":8559,"Ġinher":8560,"Ġintelligence":8561,"Ġinbreed":8562,"Ġà¤ķà¤³à¤¤à¤¹":8563,"à¥ĩ)!":8564,"Ġnak":8565,"Ġnear":8566,"Ġnost":8567,"Ġnight":8568,"Ġnice":8569,"Ġnorth":8570,"à¤¨à¤°à¤¬à¤³":8571,"Ġà¤īà¤ĺà¤¡à¤ļ":8572,"Ġà¤īà¤ĺà¤¡à¤Ŀ":8573,"Ġà¤¬à¤¦à¤ķ":8574,"ams":8575,"aming":8576,"amine":8577,"amaz":8578,"amrut":8579,"amarind":8580,"Ġà¤Ĩà¤Ĺà¤ª":8581,"à¤°à¤¡à¤¯":8582,"adi":8583,"ads":8584,"aduation":8585,"à¤°à¤¯à¤·":8586,"Ġà¤¹à¤¸à¤¤à¤®":8587,"ili":8588,"iled":8589,"..\".":8590,"Ġà¤¸à¤¹à¤ľà¤ª":8591,"à¤¾),":8592,"à¤¾)?":8593,"à¤Łà¤¸à¤ħ":8594,"cha":8595,"chid":8596,"chÃ¢":8597,"à¤¾\"?":8598,"Ġà¤ªà¤³à¤Ńà¤°":8599,"à¤¬à¤¨à¤ªà¤°":8600,"à¤¬à¤¨à¤Ĺà¤°":8601,"Ġà¤¯à¤¶à¤¹":8602,"à¤µà¤Ńà¤ķ":8603,"à¤½à¤¹":8604,"à¤½à¤¹à¤®":8605,"à¤¡à¤°à¤¬à¤°":8606,"Ġà¤ľà¤®à¤²à¤¯":8607,"Ġà¤ļà¤¢à¤µà¤¤":8608,"Ġà¤ļà¤¢à¤īà¤¤":8609,"Ġà¤Ńà¤°à¤²à¤¯":8610,"à¥§à¥§à¥§à¥§à¥§":8611,"aya":8612,"ayan":8613,"aysh":8614,"ayacha":8615,"Ġgf":8616,"Ġgot":8617,"Ġgir":8618,"Ġgive":8619,"Ġghet":8620,"Ġguy":8621,"Ġgovernment":8622,"Ġà¤ĭà¤¯":8623,"à¤ľà¤¯à¤ª":8624,"à¤ľà¤¯à¤¶":8625,"à¤ĸà¤£à¤ķ":8626,"à¤ĸà¤£à¤ĸà¤£":8627,"Ġà¤§à¤¡à¤ªà¤¡à¤²":8628,"__________/\\":8629,"Ġà¤Ķà¤Ĺà¤¸":8630,"Ġà¤Ĺà¤¡à¤Ĺà¤¡à¤²":8631,"Ġà¤¨à¤µà¤°à¤¯":8632,"Ġà¤Ńà¤¯à¤ªà¤Ł":8633,"Ġà¥ªà¥¬":8634,"Ġà¥ªà¥®":8635,"Ġà¥ªà¥©à¥¨":8636,"Ġà¥ªà¥ªà¥¦à¥¦":8637,"Ġà¤µà¤³à¤ļà¤£":8638,"Ġà¤µà¤³à¤µà¤³à¤£":8639,"Ġà¤ĩà¤¨à¤Ł":8640,"Ġà¤ĩà¤¨à¤¬":8641,"ower":8642,"à¤¨à¤Ĺà¤°à¤²":8643,"hter":8644,"Ġà¤¸à¤®à¤ľà¤¤à¤¯":8645,"lege":8646,"legory":8647,"ĠMI":8648,"ĠMa":8649,"ĠMad":8650,"ĠMot":8651,"ĠMog":8652,"ĠMEN":8653,"ĠMinal":8654,"ĠMOVE":8655,"ĠMeg":8656,"ĠMandal":8657,"ĠMurp":8658,"ĠMukt":8659,"ĠSC":8660,"ĠSe":8661,"ĠSat":8662,"ĠShar":8663,"ĠSex":8664,"ĠSoup":8665,"ĠSOR":8666,"ĠSabkha":8667,"ĠSports":8668,"ĠSpock":8669,"ĠStew":8670,"ĠSammelan":8671,"ĠSystem":8672,"ĠSzÃ©":8673,"à¥Ģ\"!":8674,"ĠIE":8675,"ĠIt":8676,"ĠIceland":8677,"ĠISI":8678,"Ġà¤²à¤¢à¤µà¤²":8679,"Ġà¤²à¤¢à¤µà¤£":8680,"Ġà¤Ĳà¤ķà¤¤à¤ļ":8681,"Ġtold":8682,"Ġà¤¸à¤°à¤³à¤¸":8683,"Ġà¤¸à¤°à¤³à¤¸à¤°à¤³":8684,"Ġà¥§à¥¯à¥¦à¥¦":8685,"Ġà¥§à¥¯à¥§à¥§":8686,"Ġà¥§à¥¯à¥¨à¥¦":8687,"Ġà¥§à¥¯à¥«à¥¦":8688,"Ġà¥§à¥¯à¥©à¥¨":8689,"Ġà¥§à¥¯à¥©à¥§":8690,"Ġà¥§à¥¯à¥©à¥©":8691,"Ġà¥§à¥¯à¥ªà¥¦":8692,"enter":8693,"Ġye":8694,"à¤¾âĢĻ.":8695,"à¤¾âĢĻ?":8696,"à¤²à¤¹à¤µ":8697,"Ġà¤ĩà¤ķà¤¡à¤²":8698,"Ġà¥ŀà¤³":8699,"Ġà¥ŀà¤°à¤ķ":8700,"Ġ24":8701,"Ġ26":8702,"à¤§à¤ķà¤¹":8703,"stit":8704,"ung":8705,"unch":8706,"unny":8707,"à¤²à¤®à¤¡à¤²":8708,"Ġek":8709,"Ġequ":8710,"Ġeyes":8711,"Ġemail":8712,"Ġeconom":8713,"Ġà¤°à¤¤à¤¨à¤¸à¤®":8714,"Ġà¤ķà¤łà¤ª":8715,"Ġà¤īà¤®à¤°à¤ĸ":8716,"Ġà¤īà¤®à¤ľà¤¤":8717,"...................":8718,".....................":8719,"......................":8720,"à¤Ĳà¤ķà¤¤":8721,"à¤Ĳssà¤¯":8722,"Ġà¤¦à¤Ĺà¤¡à¤§":8723,"Ġà¤¦à¤Ĺà¤¡à¤«":8724,"Ġà¤ľà¤ªà¤ľ":8725,"Ġking":8726,"Ġkad":8727,"Ġkuth":8728,"à¤®à¤¶à¤¹":8729,"Ġà¤ªà¤°à¤µà¤¡à¤¤":8730,"à¤³à¤ķà¤°à¤²":8731,"à¥ĩ',":8732,"Ġà¤¤à¤³à¤¹":8733,"Ġà¤¤à¤³à¤®à¤ľà¤²":8734,"à¤¡à¤¨à¤®à¤§à¤²":8735,"Ġà¤Łà¤ķà¤Łà¤ķ":8736,"avd":8737,"aving":8738,"avad":8739,"Ġà¤Ĭà¤¦":8740,"Ġà¤Ĭà¤¬":8741,"Ġà¤Ĭà¤Ń":8742,"Ġà¤Ĭà¤¸à¤¤":8743,"cts":8744,"ctions":8745,"à¤Łà¤®à¤³":8746,"à¤Łà¤®à¤³à¤£":8747,"ceiv":8748,"ĠCC":8749,"ĠCo":8750,"ĠCar":8751,"ĠCol":8752,"ĠCha":8753,"ĠCuc":8754,"ĠCLA":8755,"ĠCPU":8756,"ĠConnor":8757,"ĠCalico":8758,"ĠCalcutta":8759,"ĠCrore":8760,"à¤ĩà¤¨à¤®":8761,"à¤ĳà¤ķ":8762,"à¤ĳà¤Ł":8763,"à¤ĳà¤¬":8764,"à¤ĳà¤ķà¤²":8765,"à¤ĳà¤¨à¤²":8766,"à¤ĳà¤«à¤ķ":8767,"oday":8768,"utras":8769,"à¤¹à¤¸à¤Ĺ":8770,"à¤°à¤ķà¤°à¤£à¤ļ":8771,"Ġà¤°à¤¡à¤Ĺ":8772,"à¤Ĭà¤²à¤ĸ":8773,"à¤ľà¤®à¤ľ":8774,"ĠâĢ¦!":8775,"ĠâĢ¦âĢ¦":8776,"ĠâĢ¦>>>>>":8777,"ima":8778,"ims":8779,"imita":8780,"ĠBB":8781,"ĠBl":8782,"ĠBig":8783,"ĠBHA":8784,"ĠBird":8785,"ĠBhÃ¢":8786,"ĠBeng":8787,"ĠBlock":8788,"à¤ħà¤µà¤ĺà¤¡à¤²":8789,"à¤¨à¤¯à¤¶":8790,"à¤¨à¤¯à¤Ń":8791,"ivious":8792,"à¤¾à¤ģ.":8793,"à¤£à¤µà¤¤à¤¯":8794,"à¤ħà¤Ĺà¤®":8795,"à¤ĩà¤²à¤µà¤°":8796,"agal":8797,"usion":8798,"Ġones":8799,"Ġonline":8800,"Ġà¤¸à¤¦à¤Ĺ":8801,"abeb":8802,"iginal":8803,"ĠAl":8804,"ĠAss":8805,"ĠAsh":8806,"ĠAry":8807,"ĠAnal":8808,"ĠAkbar":8809,"ĠASA":8810,"ĠAWESOME":8811,"Ġyoung":8812,"aka":8813,"akh":8814,"aki":8815,"akes":8816,"irt":8817,"iry":8818,"irany":8819,"Ġà¤¬à¤¡à¤¦":8820,"Ġà¤¬à¤¡à¤ľ":8821,"Ġà¤¬à¤¡à¤µà¤¤":8822,"Ġà¥®à¥ª":8823,"olate":8824,"à¥ĢâĢĻ,":8825,"à¤Ĺà¤®à¤Ĺà¤¤":8826,"à¤·à¤°à¤ĵà¤³à¤ĸ":8827,"Ġà¤īà¤¸à¤¸":8828,"Ġà¤īà¤¸à¤µà¤¤":8829,"à¤½à¤½à¤¯":8830,"à¤½à¤½à¤½à¤½à¤½":8831,"Ġvo":8832,"Ġvol":8833,"Ġvirus":8834,"à¤¯à¤£à¤²":8835,"Ġà¤¸à¤ľà¤Ĺà¤¤":8836,"Ġà¥¬à¥«":8837,"Ġà¥¬à¥©":8838,"Ġà¥¬à¥¯":8839,"Ġà¥¬à¥®":8840,"Ġà¤ĵà¤¢à¤µ":8841,"Ġà¤Ńà¤°à¤¤à¤ļ":8842,"Ġwhite":8843,"Ġbear":8844,"Ġbeing":8845,"Ġbeautiful":8846,"Ġà¤Łà¤ªà¤ķà¤²":8847,"comment":8848,"communication":8849,"Ġref":8850,"Ġrequ":8851,"Ġreceiv":8852,"ĠPost":8853,"ĠPAR":8854,"ĠPRO":8855,"à¤¼à¥ĩ":8856,"à¤¼à¥Ģ":8857,"à¤²à¤¬à¤Ĺ":8858,"à¤¬à¤ĺà¤µà¤¤":8859,"istic":8860,"istory":8861,"à¤ĸà¤¤à¤¯":8862,"Ġà¤ĸà¤°à¤ļà¤Łà¤²":8863,"Ġà¥§à¥¦à¥¦à¥¦à¥¦à¥¦à¥¦":8864,"roying":8865,"à¤¾:\"":8866,"à¤¾:'":8867,"à¤¾:,":8868,"à¤¾:-":8869,"à¤ªà¤¡à¤¤à¤ļ":8870,"aph":8871,"apter":8872,"ido":8873,"Ġà¤ħà¤«à¤°":8874,"Ġà¤ħà¤«à¤µ":8875,"Ġà¤ħà¤«à¤¸à¤°":8876,"esterday":8877,"hanun":8878,"ĠTO":8879,"ĠThan":8880,"ĠTash":8881,"ĠTHE":8882,"ĠTabeb":8883,"Ġanus":8884,"à¤ĭà¤¯":8885,"Ġà¤®à¤¦à¤¦":8886,"à¥¨à¥¦à¥§à¥§":8887,"à¥¨à¥¦à¥¨à¥¦":8888,"à¥¨à¥¦à¥§à¥«":8889,"-----------------------------------------":8890,"------------------------------------------------------------":8891,"à¤®à¤³à¤ªà¤£":8892,"Ġà¤īà¤ľà¤µà¤²":8893,"à¤ĩà¤¤à¤°à¤µ":8894,"Ġfork":8895,"Ġ199":8896,"Ġ1954":8897,"Ġ1964":8898,"Ġ1990":8899,"Ġ1966":8900,"ume":8901,"uminates":8902,"ĠGree":8903,"Ġà¤¹à¤®à¤¦à¤°":8904,"......!":8905,"url":8906,"uring":8907,"Ġà¤ıà¤®à¤ª":8908,"**************************************":8909,"uper":8910,"upta":8911,"Ġ2000":8912,"Ġ2018":8913,"Ġran":8914,"Ġred":8915,"Ġrun":8916,"Ġright":8917,"Ġrice":8918,"Ġround":8919,"Ġride":8920,"ĠDr":8921,"ĠDay":8922,"ĠDSS":8923,"ĠDION":8924,"à¤¸à¤¬à¤®":8925,"itheat":8926,"Ġà¥§à¥¨à¥«":8927,"Ġà¤įà¤²":8928,"Ġà¤įà¤¨":8929,"Ġà¤įà¤¸":8930,"à¤¦à¤°à¤®à¤¸":8931,"à¤¦à¤°à¤®à¤ľà¤²":8932,"india":8933,"indian":8934,"indset":8935,"Ġstar":8936,"Ġstart":8937,"Ġstop":8938,"Ġstock":8939,"Ġstated":8940,"Ġstep":8941,"Ġstupid":8942,"Ġstaff":8943,"2016":8944,"2092":8945,"acharya":8946,"ĠLG":8947,"ĠLI":8948,"ĠLon":8949,"ĠLand":8950,"ĠLol":8951,"ĠLight":8952,"ĠLib":8953,"ĠLocal":8954,"ĠLAV":8955,"Ġà¤¸à¤¨à¤¬à¤°":8956,"ahit":8957,"ĠRe":8958,"ĠRÃ¢":8959,"ĠRep":8960,"ĠRAW":8961,"ĠRAMA":8962,"ĠRelig":8963,"Ġà¤¹à¤Łà¤µà¤¤":8964,"à¤¬à¤¦à¤²à¤¤":8965,"à¤¬à¤¦à¤²à¤²":8966,"Ġà¤īà¤ªà¤¨à¤¦":8967,"Ġà¥¯à¥¨":8968,"Ġà¥¯à¥©":8969,"Ġà¥¯à¥¬":8970,"à¥§à¥¯à¥ªà¥¨":8971,"à¥§à¥¯à¥®à¥«":8972,"à¥§à¥¯à¥¯à¥©":8973,"vert":8974,"veral":8975,"ĠHe":8976,"ĠHow":8977,"ĠHind":8978,"ĠHarv":8979,"ĠHappy":8980,"ĠHirany":8981,"ĠHistory":8982,"Ġà¤ĵà¤ĺà¤³à¤²":8983,"à¥Ģ;âĢľ":8984,"Ġà¤¸à¤¬à¤¬":8985,"Ġxxx":8986,"Ġà¥¨à¥¦à¥¦à¥¨":8987,"Ġà¥¨à¥¦à¥¦à¥¯":8988,"Ġà¥¨à¥«à¥¦à¥¦":8989,"000":8990,"Ġjan":8991,"Ġjast":8992,"Ġjpr":8993,"Ġjournal":8994,"Ġjaysh":8995,"Ġà¤ľà¤¯à¤ľà¤¯à¤ķ":8996,"arts":8997,"artup":8998,"article":8999,"Ġ31":9000,"Ġ35":9001,"Ġ330":9002,"à¤¤à¤¬à¤¤à¤ķ":9003,"à¤Ĥ-\"":9004,"à¤¬à¤Łà¤¶":9005,"Ġà¤Ĺà¤²à¤¬à¤²":9006,"Ġà¥§à¥§à¥¨":9007,"Ġà¥§à¥§à¥®à¥¦":9008,"Ġwithout":9009,"ĠKB":9010,"ĠKing":9011,"ĠKir":9012,"ĠWe":9013,"ĠWorld":9014,"ĠWelling":9015,"ĠWhats":9016,"ĠWuhan":9017,"Ġà¤ªà¤¸à¤°à¤µà¤£":9018,"ified":9019,"Ġà¤ıà¤¨à¤ľ":9020,"à¥Īà¤Ĥ'":9021,"Ġshar":9022,"Ġshit":9023,"Ġshort":9024,"Ġshall":9025,"ources":9026,"ourney":9027,"Ġcome":9028,"Ġcomes":9029,"Ġcomments":9030,"Ġcommunication":9031,"Ġcombination":9032,"cial":9033,"cially":9034,"cipl":9035,"ciety":9036,"ĠEd":9037,"ĠEither":9038,"ĠEvery":9039,"ĠEarth":9040,"ĠNJ":9041,"ĠNY":9042,"ĠNe":9043,"ĠNo":9044,"ĠVs":9045,"ĠVir":9046,"ĠVive":9047,"ĠVirus":9048,"à¤¯à¤ľà¤ķà¤°":9049,"à¤³à¤¸à¤Ł":9050,"à¥§à¥«à¥ª":9051,"oga":9052,"ogn":9053,"ogs":9054,"Ġhavelock":9055,"illa":9056,"ternational":9057,"Ã¢d":9058,"Ã¢yana":9059,"à¥§à¥¦à¥§":9060,"Ġalread":9061,"Ġallegory":9062,"ssssss":9063,"sssssssss":9064,"Ġnever":9065,"================================================":9066,"tain":9067,"à¤¬à¤°à¤¤à¤ļ":9068,"Ġà¤ľà¤¨à¤°à¤²à¤²":9069,":))":9070,"à¤¹à¤¯à¤·":9071,"Ġà¤ķà¤£à¤Ńà¤°":9072,"Ġà¤ķà¤£à¤Ńà¤°à¤¹":9073,"à¤³à¤ķà¤°à¤¹":9074,"à¤³à¤ķà¤°à¤ªà¤£":9075,"Ġà¤ļà¤®à¤ķà¤£":9076,"ards":9077,"Ġchal":9078,"Ġchhan":9079,"Ġcharts":9080,"à¤¾âĢĿ!":9081,"Ġà¤Ńà¤Łà¤ķà¤²":9082,"à¤ĩà¤¸à¤®à¤²":9083,"à¥§à¥¨à¥©":9084,"essages":9085,"1930":9086,"1929":9087,"oster":9088,"shi":9089,"shya":9090,"à¥ĩâĢ¦âĢĻâĢĻ":9091,"Ġà¤Ĩà¤ĸà¤¡à¤¤":9092,"Ġà¤¨à¤¯à¤¨à¤°à¤®":9093,"Ġà¤ĸà¤Łà¤ķà¤¤":9094,"Ġà¤ĩà¤¸à¤®à¤ķà¤¡":9095,"Ġconcl":9096,"Ġcondition":9097,"Ġconnect":9098,"________________\"":9099,"ief":9100,"raj":9101,"racott":9102,"Ġà¤¦à¤°à¤®à¤¹":9103,"Ġà¤¦à¤°à¤®à¤ľà¤²":9104,"That":9105,"pty":9106,"Ġà¤°à¤Ŀà¤µ":9107,"à¤ıà¤¸à¤Ł":9108,"Ġasel":9109,"....................................":9110,"à¤ıà¤®à¤ıà¤¸":9111,"Ġmany":9112,"Ġmanufact":9113,"âĢ¦âĢ¦âĢ¦.":9114,"Ġnote":9115,"lained":9116,"ĠUn":9117,"ĠUren":9118,"à¥ĩâĢĿ,":9119,"à¥ĩâĢĿ.":9120,"Ġseem":9121,"Ġsecon":9122,"Ġseveral":9123,"Ġpray":9124,"Ġprone":9125,"Ġproduct":9126,"Ġpratis":9127,"Ġpromise":9128,"à¤¯à¤Ńà¤Ł":9129,"Ġà¤ıà¤¡à¤ľà¤¸":9130,"Ġweather":9131,"ashak":9132,"ashree":9133,"uded":9134,"udent":9135,"udhil":9136,"ĠJune":9137,"Ġà¤®à¤³à¤µà¤Ł":9138,"Ġà¤®à¤³à¤ķà¤Ł":9139,"Ġà¤®à¤³à¤®à¤³":9140,"Ġà¤«à¤¸à¤µà¤¤":9141,"Ġà¥§à¥ªà¥¦à¥¦":9142,"à¥¨à¥¦à¥¦à¥«":9143,"à¥¨à¥¦à¥¦à¥©":9144,"à¥¨à¥¦à¥¦à¥¯":9145,"à¥¨à¥¦à¥¦à¥¬":9146,"urekh":9147,"Ġorchid":9148,"Ġoriginal":9149,"Ġà¤¨à¤Ĺà¤°à¤¸":9150,"Ġà¤¨à¤Ĺà¤°à¤ķà¤°":9151,"Ġà¤īà¤¡à¤¤à¤ļ":9152,"Ġheaven":9153,"aheb":9154,"harach":9155,"quent":9156,"ĠXà¤°":9157,"Ġatm":9158,"à¥ĭâĢĻ.":9159,"à¤¬à¤¬à¤¨à¤°":9160,"Ġà¥§à¥Ńà¥¨à¥®":9161,"ortant":9162,"Ġproper":9163,"Ġprove":9164,"Ġproved":9165,"Ġdevel":9166,"Ġdepress":9167,"..!!!!!":9168,"Ġà¥§à¥®à¥¦à¥¦":9169,"ording":9170,"ought":9171,"??????":9172,"Ġ1946":9173,"load":9174,"people":9175,"pecially":9176,"pratik":9177,"ustom":9178,"à¤Ķà¤ķ":9179,"à¤¨à¤«à¤¡":9180,"à¤®à¤łà¤®à¤§":9181,"Ġà¤°à¤ĸà¤¡à¤²":9182,"Ġà¤īà¤°à¤ķà¤£":9183,"Ġà¥§à¥©à¥¦à¥¦":9184,"ategory":9185,"Ġamph":9186,"Ġaahet":9187,"Ġmeet":9188,"âĺºï¸ıâĺºï¸ı":9189,"ĠOn":9190,"ĠOut":9191,"Ġà¤Ĩà¤¸à¤¨à¤¸":9192,"à¤Īà¤«à¤¸":9193,"à¤«à¤³à¤Ń":9194,"Ġà¤¡à¤¬à¤²à¤¡":9195,"Ġable":9196,"Ġabove":9197,"Ġabsol":9198,"Ġliber":9199,"Ġground":9200,"Ġgraduation":9201,"Ġgraph":9202,"Ġà¥§à¥¯à¥¯à¥¨":9203,"Ġà¥§à¥¯à¥¯à¥¬":9204,"Ġà¥§à¥¯à¥Ńà¥¬":9205,"aja":9206,"exc":9207,"pper":9208,"à¤ĵà¤³à¤ĸà¤¤":9209,"à¤ĵà¤³à¤ĸà¤²":9210,"allow":9211,"à¥§à¥§à¥§à¥§à¥§à¥§":9212,"karni":9213,"Ġ90":9214,"Ġ99":9215,"à¤°à¤ĺà¤³":9216,"Ġà¤īà¤®à¤°à¤Ĺ":9217,"Ġà¤Ŀà¤Łà¤ķà¤¤":9218,"Ġà¤Ŀà¤³à¤ķà¤¤":9219,"Ġahet":9220,"endra":9221,"Ġ1000":9222,"SSà¤°":9223,"plug":9224,"à¥įâĢĮ.":9225,"à¤µà¤®à¤¦à¤¤":9226,"Ġà¤¦à¤£à¤ķà¤Ł":9227,"Ġà¤°à¤£à¤¶":9228,"Ġà¤īà¤°à¤¤à¤ļ":9229,"Ġtrue":9230,"Ġ1214":9231,"Ġinterview":9232,"Ġgreater":9233,"Ġà¥§à¥¯à¥®à¥¨":9234,"Ġà¥§à¥¯à¥®à¥«":9235,"Ġà¥§à¥¯à¥®à¥¯":9236,"Ġà¥§à¥¯à¥®à¥®":9237,"Ġà¥¨à¥¦à¥§à¥¬à¥§à¥¬":9238,"292092":9239,"blue":9240,"blued":9241,"osed":9242,"osop":9243,"à¤įà¤ķ":9244,"à¤įà¤¸":9245,"Ġà¤Ĩà¤Ĭà¤Łà¤¡":9246,"Ġà¤łà¤³à¤ķà¤ªà¤£":9247,"Ġà¥²à¤²":9248,"Ġà¥²à¤¨":9249,"Ġà¥²à¤¡":9250,"ensions":9251,"Ġplan":9252,"Ġplug":9253,"_____________":9254,"Ġevent":9255,"Ġevidence":9256,"********************************************************************************************************************************":9257,"Ġcompens":9258,"Ġcompiled":9259,"Ġcomposed":9260,"1111":9261,"ized":9262,"Ġ75":9263,"Ġunivers":9264,"Ġuniverse":9265,"Ġuncertainty":9266,"à¤µà¤Īà¤¬":9267,"Ġà¤Ĩà¤ķà¤²à¤¨à¤¶à¤ķ":9268,"Ġà¤¬à¤°à¤ļà¤¸":9269,"Ġà¤ĺà¤¸à¤ĺà¤¶":9270,"Ġà¥¦à¥§":9271,"Ġà¥¦à¥¯à¥®":9272,"___\"":9273,"ferent":9274,"ocolate":9275,"overy":9276,"pective":9277,"Ġelev":9278,"Ġâĺºï¸ıâĺºï¸ıâĺºï¸ı":9279,"Ġà¤·à¤Ļ":9280,"à¥ĢâĢ¦âĢĻ":9281,"à¥ĢâĢ¦âĢĻâĢĻ":9282,"à¤¹à¤¸à¤¤à¤ĸ":9283,"à¤£à¤Ńà¤ľ":9284,"Ġà¤ľà¤³à¤«à¤³":9285,"Ġsaf":9286,"issue":9287,"?????\"":9288,"?????......":9289,"à¥¤à¥¤à¥¤":9290,"Ġlekhan":9291,"ĠSwelling":9292,"ĠSwallow":9293,"ĠInc":9294,"ĠInternational":9295,"Any":9296,"manthan":9297,"obson":9298,"wealth":9299,"Ġquite":9300,"Ġquench":9301,"à¤®à¤·à¤Łà¤ķà¤®":9302,"..''''":9303,"à¤Ńà¤Ĺà¤µà¤¦":9304,"à¤ħà¤«à¤Ĺ":9305,"Ġà¤łà¤¸à¤µà¤£":9306,"Ġà¤¸à¤®à¤Ŀà¤¤":9307,"à¤ıà¤«à¤µ":9308,"ankadun":9309,"Ġappear":9310,"Ġwrong":9311,"Ġwriting":9312,"Ġwriter":9313,"à¥©à¥©à¥©":9314,"***********************":9315,"---------------------":9316,"-----------------------":9317,"Ġanyone":9318,"Ġhistoric":9319,"Ġhistoricity":9320,"Ġaround":9321,"Ġarose":9322,"à¤¯à¤¬à¤°à¤¬":9323,"à¤¸à¤µà¤²à¤¤":9324,"Ġà¤¤à¤¸à¤¤à¤¶":9325,"à¤Ĩà¤ļà¤°à¤£":9326,"à¤īà¤ªà¤¨à¤Ĺà¤°":9327,"Ġadvert":9328,"Ġacting":9329,"Ġteach":9330,"icked":9331,"Ġgoing":9332,"Ġitself":9333,"Ġreading":9334,"Ġ1935":9335,"Ġ1939":9336,"Ġrespect":9337,"Ġresult":9338,"Ġresearch":9339,"âĹıâĹıâĹıâĹıâĹıâĹıâĹıâĹıâĹıâĹıâĹıâĹıâĹıâĹıâĹıâĹıâĹıâĹıâĹıâĹı":9340,"âĹıâĹıâĹıâĹıâĹıâĹıâĹıâĹıâĹıâĹıâĹıâĹıâĹıâĹıâĹıâĹıâĹıâĹıâĹıâĹıâĹıâĹıâĹıâĹıâĹıâĹıâĹıâĹıâĹıâĹıâĹıâĹı":9341,"317416":9342,"nique":9343,"ughter":9344,"uja":9345,"Ġimprovement":9346,"Ġimposter":9347,"Ġimportant":9348,"à¤¹à¤¹à¤Ĺà¤²":9349,"Ġà¤°à¤¬à¤°à¤¬":9350,"Ġà¤ĺà¤¨à¤ĺ":9351,"Ġspeed":9352,"Ġspeak":9353,"Ġwarning":9354,"Ġtwist":9355,"Ġtwice":9356,"Ġchange":9357,"Ġphone":9358,"Ġperspective":9359,"Ġà¥©à¥¬à¥«":9360,"Ġemp":9361,"Ġemergency":9362,"Ġempty":9363,"Ġvachun":9364,"Ġvachayla":9365,"ĠPresident":9366,"ulnerability":9367,"ĠTrump":9368,"================================================================================================================================":9369,"==============-'":9370,"Khupach":9371,"One":9372,"Once":9373,"Startup":9374,"Student":9375,"ebr":9376,"Ġentry":9377,"à¤¨à¤¯à¤¨à¤°à¤®":9378,"Ġà¤²à¤ĸà¤²à¤ĸà¤¤":9379,"Ġà¤Ĺà¤ľà¤¬à¤ľ":9380,"Ġà¤Ńà¤°à¤ķà¤Łà¤µ":9381,"à¤Ĩà¤Ĭà¤Łà¤¡":9382,"Ġthinking":9383,"Ġsystem":9384,"Ġagree":9385,"Ġhumanity":9386,"Ġhumanoids":9387,"Ġnatural":9388,"Ġnahiye":9389,"=======================-'":9390,"Ġà¤īà¤®à¤Łà¤µà¤¤":9391,"Ġà¤¬à¤³à¤ķà¤Łà¤ªà¤£":9392,"Ġforms":9393,"Ġà¤¤à¤¡à¤«à¤¡à¤¤":9394,"Ġà¤¤à¤¡à¤«à¤¡à¤£":9395,"_________________\"":9396,"................................................................................................................................":9397,"Ġattach":9398,",,,":9399,"485":9400,"LEAS":9401,"PSC":9402,"Shrad":9403,"mmmm":9404,"Ã©rv":9405,"à¤°à¤³à¤ķà¤ªà¤£":9406,"Ġà¤ķà¤µà¤¡à¤¸":9407,"Ġà¤®à¤¸à¤²à¤¤":9408,"à¤Ĺà¤Ĺà¤¨à¤Ĺ":9409,"Ġà¤µà¤°à¤£à¤Ń":9410,"Ġà¤¦à¤¡à¤ªà¤¶":9411,"Ġà¤ĺà¤¸à¤°à¤¡":9412,"Ġà¤ĸà¤³à¤ĸà¤³à¤£":9413,"atched":9414,"Ġbring":9415,"Ġbridge":9416,"Ġbrigade":9417,"Ġlawn":9418,"Ġlives":9419,"ĠParishad":9420,"-----------------------------------------------------":9421,"------------------------------------------------------":9422,"à¥§à¥¯à¥¬à¥«":9423,"ĠVeda":9424,"ĠĠĠĠĠĠĠĠĠĠĠĠĠĠĠĠ":9425,"ðŁĳĮ":9426,"Ġpersonal":9427,"Ġpersonality":9428,"MeatRich":9429,"dpatil":9430,"ficult":9431,"hadarany":9432,"hadashak":9433,"rons":9434,"ronicity":9435,"ritus":9436,"Ġ-------":9437,"Ġrock":9438,"à¥²à¤ķ":9439,"à¥²à¤®":9440,"Ġà¤ļà¤ªà¤²à¤ĸ":9441,"Ġà¤«à¤¡à¤«à¤¡":9442,"Ġà¤«à¤¡à¤«à¤¡à¤µà¤²":9443,"Ġà¤Łà¤®à¤Łà¤®":9444,"Ġà¥łà¤·":9445,"___/\\____":9446,"Ġthrill":9447,"Ġthrough":9448,"Ġspace":9449,"Ġassoci":9450,"Ġmonth":9451,"Ġparcel":9452,"Ġpreach":9453,"Ġpreetiiii":9454,"ictable":9455,"Ġfamous":9456,"Ġfamily":9457,"Ġfacts":9458,"Ġdestination":9459,"Ġdestroying":9460,"Ġdifferent":9461,"Ġdifficult":9462,"Ġinsatiable":9463,"ĠAsiatic":9464,"Ġrecycl":9465,"Ġremember":9466,"---------------------------------------------":9467,"umbers":9468,"umbai":9469,"Ġshakat":9470,"Ġshakel":9471,"Ġcommons":9472,"Ġexciting":9473,"__________________\"":9474,"alization":9475,"Ġà¤°à¤ĸà¤°à¤ĸà¤¤":9476,"Ġà¤ķà¤°à¤®à¤°à¤ķà¤°à¤¬":9477,"Ġmentioned":9478,"Ġauthorship":9479,"562":9480,"978":9481,"Comp":9482,"WAKE":9483,"field":9484,"kdam":9485,"kulkarni":9486,"mastach":9487,"{{{":9488,"}}}":9489,"Ġimag":9490,"Ġirr":9491,"Ġarticle":9492,"Ġà¤İà¤ķà¤¤":9493,"à¤¶à¤®à¤¨à¤¦à¤²":9494,"Ġà¤¦à¤®à¤Łà¤ªà¤£":9495,"à¤§à¤ľà¤°à¤¤":9496,"Ġà¤°à¤ľà¤¤à¤¶":9497,"Ġà¤ļà¤£à¤ļà¤£":9498,"Ġà¤«à¤¡à¤£à¤µ":9499,"à¤īà¤ļà¤²à¤£":9500,"thanks":9501,"Ġsalute":9502,"Ġsolids":9503,"Ġsignature":9504,"Ġblood":9505,"Ġbhaag":9506,"Ġcheck":9507,"Ġpositive":9508,"Ġnames":9509,"ĠMrs":9510,"ĠSocial":9511,"ĠSociety":9512,"iversity":9513,"ĠAuto":9514,"ĠAutomatic":9515,"Ġvisions":9516,"ĠRamayan":9517,"à¥§à¥¯à¥Ńà¥§":9518,"Ġjamlay":9519,"ĠWarfare":9520,"Ġconfuse":9521,"Ġcontacts":9522,"Ġatoms":9523,"Ġdiscuss":9524,"Ġdiscovery":9525,"Ġ7057":9526,"Ġaccount":9527,"Ġtyping":9528,"ĠBrahma":9529,"ĠBrahman":9530,"ðŁĳįðŁĳį":9531,"Ġcalculator":9532,"Ġindividualistic":9533,"935317416":9534,"ACH":9535,"Civet":9536,"Diagonally":9537,"Dhany":9538,"Trump":9539,"When":9540,"mohor":9541,"mission":9542,"twist":9543,"Ġespecially":9544,"ĠÃĤll":9545,"à¥łà¤·":9546,"à¤²à¤ĸà¤²à¤ĸà¤¤":9547,"Ġà¤Ĩà¤īà¤Łà¤²":9548,"Ġà¤ªà¤ĸà¤°à¤£":9549,"à¤Ĺà¤¤à¤ķà¤ķ":9550,"à¤Ĺà¤®à¤°à¤µà¤°":9551,"à¤¡sssssss":9552,"à¤§à¤¡à¤ķà¤ªà¤£":9553,"à¤§à¤¡à¤ªà¤¡à¤¤":9554,"Ġà¤¯à¤µà¤¤à¤®":9555,"Ġà¤¶à¤¤à¤ªà¤¥":9556,"Ġà¤ļà¥Ŀà¤£":9557,"à¤Ĩà¤¶à¤¯à¤Ĺ":9558,"Ġà¤łà¤£à¤łà¤£":9559,"Ġà¤ĵà¤¬à¤¡à¤§":9560,"à¥§à¥¦à¥¦à¥¦à¥¦à¥¦à¥¦":9561,"Ġawareness":9562,"____/\\_____":9563,"itanya":9564,"Ġbreath":9565,"Ġtomato":9566,"Ġcaptain":9567,"Ġcurrent":9568,"Ġmetro":9569,"Ġmissing":9570,"Ġoption":9571,"Ġà¤ħà¤¡à¤ĸà¤³à¤¤":9572,"Ġdelete":9573,"Ġdialogue":9574,"ĠSandracott":9575,"ĠCerny":9576,"ĠBMW":9577,"Ġbegins":9578,"Ġbecomes":9579,"Ġregards":9580,"Ġrelate":9581,"Ġrepresent":9582,"Ġrealize":9583,"ĠPurÃ¢na":9584,"ĠPlato":9585,"Ġjhali":9586,"anguage":9587,"Ġ12264":9588,"Ġelectrons":9589,"Ġsacrific":9590,"Ġtechnique":9591,"Ġentirely":9592,"Ġattributes":9593,"Ġlockerà¤®à¤§":9594,"Ġskills":9595,"Ġbelieve":9596,"swamini":9597,"ĠShankaracharya":9598,"ĠDemocritus":9599,"130562":9600,"Brihadarany":9601,"Bhari":9602,"FILE":9603,"Fruit":9604,"Likes":9605,"Open":9606,"Padma":9607,"details":9608,"fortable":9609,"fehÃ©rv":9610,"kesfehÃ©rv":9611,"majja":9612,"nchronicity":9613,"rancis":9614,"tissues":9615,"vamedha":9616,"wordpress":9617,"Ġurge":9618,"Ġilluminates":9619,"Ġundef":9620,"Ġencour":9621,"ĻıðŁı»":9622,"à¤¯à¤¶à¤ķà¤Ł":9623,"à¤¸à¤Ĩà¤¦à¤¤":9624,"Ġà¤ķà¤ļà¤ķà¤ļ":9625,"Ġà¤¤à¤£à¤¤à¤£à¤¤":9626,"Ġà¤¸à¤Łà¤°à¤«à¤Łà¤°":9627,"Ġà¤¸à¤£à¤¸à¤£":9628,"Ġà¤µà¤¤à¤¨à¤¦":9629,"à¤¡à¤ĳà¤ĩà¤²à¤ļ":9630,"Ġà¤¦à¤³à¤Ńà¤¦":9631,"Ġà¤Ĺà¤²à¤¬à¤²à¤¤":9632,"à¤¥à¤°à¤¥à¤°à¤¤":9633,"Ġà¤īà¤®à¤²à¤¤":9634,"Ġà¤ĸà¤°à¤µà¤¡à¤¤":9635,"à¤ħà¤Ĺà¤°à¤¬à¤¤":9636,"à¤ħà¤µà¤ľà¤¡":9637,"à¤«à¤Łà¤ªà¤¸":9638,"Ġà¤§à¤Ĺà¤§à¤Ĺà¤¤":9639,"atuldpatil":9640,"Ġselect":9641,"Ġsilent":9642,"Ġsarvankadun":9643,"orrect":9644,"orizon":9645,"Ġwishes":9646,"Ġbusy":9647,"Ġtrack":9648,"Ġcelebr":9649,"Ġcritic":9650,"Ġmaking":9651,"Ġmachine":9652,"Ġmobile":9653,"Ġmorning":9654,"Ġpusat":9655,"Ġphilosop":9656,"Ġpicture":9657,"asimove":9658,"asthenes":9659,"Ġoblivious":9660,"Ġopinion":9661,"relative":9662,"Ġhusband":9663,"Ġheart":9664,"Ġhttps":9665,"Ġfurther":9666,"Ġfeatures":9667,"Ġdimensions":9668,"Ġdenominator":9669,"Ġlittle":9670,"Ġinstru":9671,"Ġinherent":9672,"Ġinbreeding":9673,"Ġnakki":9674,"Ġnostalgic":9675,"amrutmanthan":9676,"Ġgirl":9677,"__________/\\____________":9678,"ĠMogul":9679,"ĠMegasthenes":9680,"ĠMurphy":9681,"ĠMuktananda":9682,"ĠShark":9683,"ĠSexual":9684,"ĠSORRY":9685,"ĠSzÃ©kesfehÃ©rv":9686,"Ġequations":9687,"ĠCLASS":9688,"ĠBHAG":9689,"ĠBengal":9690,"ĠAshvamedha":9691,"ĠAryanakas":9692,"ĠAnalytics":9693,"Ġreceived":9694,"ĠPROFILE":9695,"ĠTashkent":9696,"ĠTabebuia":9697,"ĠGreeks":9698,"ĠDSSC":9699,"ĠDIONYS":9700,"itheater":9701,"Ġsteps":9702,"ĠLibido":9703,"ĠLAVK":9704,"ĠRepublic":9705,"ĠHarvard":9706,"Ġjpradnya":9707,"Ġjayshree":9708,"ĠWellington":9709,"cipline":9710,"ĠVivekananda":9711,"Ġalready":9712,"Ġmanufacturing":9713,"ĠUrenus":9714,"Ġsecond":9715,"Ġdevelop":9716,"Ġamphitheater":9717,"Ġ12148":9718,"bluedot":9719,"Ġplugin":9720,"Ġuniversal":9721,"Ġà¤·à¤Ļà¤°":9722,"ĠSwellingIncrease":9723,"============================================================================================================================================================":9724,"LEASE":9725,"Ġrecycled":9726,"Ġ7057292092":9727,"ĠSandracottus":9728,"Brihadaranyaka":9729,"ĠSzÃ©kesfehÃ©rvÃ¡r":9730}