{"<s>":0,"<pad>":1,"</s>":2,"<unk>":3,"<mask>":4,"### सूचना:":5,"### उत्तर:":6,"### इनपुट:":7,"!":8,"\"":9,"#":10,"$":11,"%":12,"&":13,"'":14,"(":15,")":16,"*":17,"+":18,",":19,"-":20,".":21,"/":22,"0":23,"1":24,"2":25,"3":26,"4":27,"5":28,"6":29,"7":30,"8":31,"9":32,":":33,";":34,"<":35,"=":36,">":37,"?":38,"@":39,"A":40,"B":41,"C":42,"D":43,"E":44,"F":45,"G":46,"H":47,"I":48,"J":49,"K":50,"L":51,"M":52,"N":53,"O":54,"P":55,"Q":56,"R":57,"S":58,"T":59,"U":60,"V":61,"W":62,"X":63,"Y":64,"Z":65,"[":66,"\\":67,"]":68,"^":69,"_":70,"`":71,"a":72,"b":73,"c":74,"d":75,"e":76,"f":77,"g":78,"h":79,"i":80,"j":81,"k":82,"l":83,"m":84,"n":85,"o":86,"p":87,"q":88,"r":89,"s":90,"t":91,"u":92,"v":93,"w":94,"x":95,"y":96,"z":97,"{":98,"|":99,"}":100,"~":101,"¡":102,"¢":103,"£":104,"¤":105,"¥":106,"¦":107,"§":108,"¨":109,"©":110,"ª":111,"«":112,"¬":113,"®":114,"¯":115,"°":116,"±":117,"²":118,"³":119,"´":120,"µ":121,"¶":122,"·":123,"¸":124,"¹":125,"º":126,"»":127,"¼":128,"½":129,"¾":130,"¿":131,"À":132,"Á":133,"Â":134,"Ã":135,"Ä":136,"Å":137,"Æ":138,"Ç":139,"È":140,"É":141,"Ê":142,"Ë":143,"Ì":144,"Í":145,"Î":146,"Ï":147,"Ð":148,"Ñ":149,"Ò":150,"Ó":151,"Ô":152,"Õ":153,"Ö":154,"×":155,"Ø":156,"Ù":157,"Ú":158,"Û":159,"Ü":160,"Ý":161,"Þ":162,"ß":163,"à":164,"á":165,"â":166,"ã":167,"ä":168,"å":169,"æ":170,"ç":171,"è":172,"é":173,"ê":174,"ë":175,"ì":176,"í":177,"î":178,"ï":179,"ð":180,"ñ":181,"ò":182,"ó":183,"ô":184,"õ":185,"ö":186,"÷":187,"ø":188,"ù":189,"ú":190,"û":191,"ü":192,"ý":193,"þ":194,"ÿ":195,"Ā":196,"ā":197,"Ă":198,"ă":199,"Ą":200,"ą":201,"Ć":202,"ć":203,"Ĉ":204,"ĉ":205,"Ċ":206,"ċ":207,"Č":208,"č":209,"Ď":210,"ď":211,"Đ":212,"đ":213,"Ē":214,"ē":215,"Ĕ":216,"ĕ":217,"Ė":218,"ė":219,"Ę":220,"ę":221,"Ě":222,"ě":223,"Ĝ":224,"ĝ":225,"Ğ":226,"ğ":227,"Ġ":228,"ġ":229,"Ģ":230,"ģ":231,"Ĥ":232,"ĥ":233,"Ħ":234,"ħ":235,"Ĩ":236,"ĩ":237,"Ī":238,"ī":239,"Ĭ":240,"ĭ":241,"Į":242,"į":243,"İ":244,"ı":245,"Ĳ":246,"ĳ":247,"Ĵ":248,"ĵ":249,"Ķ":250,"ķ":251,"ĸ":252,"Ĺ":253,"ĺ":254,"Ļ":255,"ļ":256,"Ľ":257,"ľ":258,"Ŀ":259,"ŀ":260,"Ł":261,"ł":262,"Ń":263,"à¤":264,"à¥":265,"Ġà¤":266,"à¤¾":267,"à¥į":268,"à¤°":269,"à¥ĩ":270,"à¥Ģ":271,"à¤¤":272,"à¤¯":273,"à¤²":274,"à¤¿":275,"à¤¨":276,"à¤Ĥ":277,"à¤ķ":278,"à¤µ":279,"à¤ļ":280,"à¤¸":281,"à¤¹":282,"à¤£":283,"à¥ĭ":284,"Ġà¤ķ":285,"à¤®":286,"Ġà¤Ĩ":287,"à¥ģ":288,"Ġà¤¸":289,"Ġà¤ª":290,"Ġà¤®":291,"à¤ª":292,"à¤¾à¤Ĥ":293,"Ġà¤¤":294,"à¤¦":295,"à¥Ĥ":296,"Ġà¤ħ":297,"à¤Ĺ":298,"Ġà¤µ":299,"à¤Ł":300,"à¤ľ":301,"à¤¡":302,"Ġà¤¹":303,"Ġà¤¯":304,"à¤§":305,"Ġà¤¨":306,"à¤¶":307,"à¤³":308,"Ġà¤¦":309,"à¥ĩ.":310,"à¤·":311,"Ġà¤Ĩà¤¹":312,"Ġà¤ľ":313,"à¤¬":314,"Ġà¤°":315,"Ġà¤¬":316,"Ġà¤ķà¤°":317,"Ġà¤¶":318,"Ġà¤ħà¤¸":319,"à¤ł":320,"Ġà¤Ĺ":321,"Ġà¤²":322,"à¤¥":323,"à¤ĸ":324,"à¤µà¤°":325,"Ġà¤Ĩà¤£":326,"à¤Ń":327,"Ġà¤ļ":328,"Ġà¤Ń":329,"Ġà¤ī":330,"Ġà¥":331,"Ġà¤ĺ":332,"Ġà¤ı":333,"à¥Ģ.":334,"à¤¾.":335,"Ġà¤Ŀ":336,"à¥ĩà¤Ĥ":337,"à¤°à¤ķ":338,"Ġà¤ĸ":339,"Ġà¤ıà¤ķ":340,"à¤¤à¤°":341,"à¤Ī":342,"Ġà¤ķà¤°à¤£":343,"Ġà¤«":344,"à¤¿à¤Ĥ":345,"à¤°à¤¤":346,"à¤®à¤§":347,"à¤¢":348,"à¤ķà¤°":349,"Ġà¤Ĩà¤²":350,"à¥ī":351,"à¥ĩ,":352,"à¥ĥ":353,"Ġà¤®à¤¹":354,"à¤¹à¤£":355,"Ġà¤ªà¤°":356,"Ġà¤Ł":357,"à¤°à¤£":358,"à¤¯à¤ķ":359,"Ġà¤¤à¤°":360,"à¥Ī":361,"Ġà¤ĩ":362,"à¤ĺ":363,"à¤°à¤®":364,"à¥Ģ,":365,"Ġà¤Ĩà¤ª":366,"à¥Ģà¤Ĥ":367,"Ġà¤ł":368,"à¤Ĭ":369,"à¥ħ":370,"à¤µà¤¸":371,"à¤«":372,"Ġà¤¸à¤°":373,"Ġ(":374,"Ġà¤¡":375,"à¤ķà¤¡":376,"Ġà¤ħà¤¸à¤²":377,"à¤°à¤µ":378,"Ġà¤¸à¤®":379,"à¤ªà¤°":380,"à¤¤à¤²":381,"Ġà¤§":382,"à¥¦":383,"Ġà¤ħà¤¨":384,"Ġà¤µà¤°":385,"à¤¾,":386,"à¤¼":387,"à¥ģà¤Ĥ":388,"Ġà¤ħà¤¸à¤¤":389,"Ġ'":390,"à¤µà¤²":391,"Ġà¤ķà¤°à¤¤":392,"à¤¼à¥į":393,"Ġà¤Ĩà¤ªà¤²":394,"Ġà¤ħà¤¶":395,"Ġà¤īà¤ª":396,"à¤°à¤¸":397,"Ġà¤¶à¤ķ":398,"à¤µà¤¤":399,"Ġà¥§":400,"Ġà¤ħà¤§":401,"à¤¸à¤°":402,"à¤µà¤£":403,"à¤Ĺà¤²":404,"à¤Ŀ":405,"à¥Į":406,"><":407,"</":408,"à¤°à¤ļ":409,"à¤¯à¤®":410,"à¤¦à¤°":411,"à¤ħ":412,"Ġà¤Ĩà¤¤":413,"à¤·à¤£":414,"à¤Ĺà¤¤":415,"à¤ľà¤¨":416,"à¤µà¤¡":417,"à¤ı":418,"à¤¬à¤°":419,"à¤®à¤ļ":420,"Ġà¥¨":421,"à¤¯à¤¤":422,"à¤ĥ":423,"à¤Ĺà¤°":424,"à¥ĭ.":425,"Ġà¤Ĩà¤°":426,"à¤¡à¤²":427,"à¤°à¤²":428,"Ġà¤¨à¤µ":429,"Ġà¥§à¥":430,"à¤Ĭà¤¨":431,"Ġ-":432,"à¤Ĩ":433,"à¤¶à¤¨":434,"à¤ªà¤¨":435,"Ġ1":436,"à¤¬à¤¤":437,"à¤ģ":438,"Ġà¤īà¤¤":439,"à¤¹à¤¤":440,"Ġà¤ªà¤£":441,"à¤Łà¤²":442,"Ġà¤Ĩà¤ľ":443,"à¤°à¤ª":444,"Ġ</":445,"à¤²à¤¯":446,"Ġ2":447,"Ġà¤¶à¤ķà¤¤":448,"à¤µà¤³":449,"Ġà¤®à¤§":450,"à¤Łà¤°":451,"à¤°à¤¶":452,"à¤Ĺà¤£":453,"à¤Łà¤¨":454,"à¤Īà¤²":455,"à¤¸à¤²":456,"Ġ:":457,"à¤¹à¤°":458,"Ġà¤¤à¤¸":459,"à¤ĩ":460,"à¤ķà¤²":461,"Ġà¤¸à¤¹":462,"Ġà¤Ĩà¤®":463,"à¥§":464,"Ġà¤¸à¤°à¤ķ":465,"à¤¸à¤¨":466,"à¤¤à¤ķ":467,"à¥ĭà¤Ĥ":468,"Ġà¤ħà¤°":469,"à¤ªà¤£":470,"à¤²à¤ķ":471,"Ġà¤¥":472,"à¤¯à¤ļ":473,"Ġà¤Ĩà¤¯":474,"à¤¦à¤²":475,"à¤Łà¤ķ":476,"Ġà¤ķà¤®":477,"Ġà¤ĳ":478,"à¤¯à¤²":479,"à¤Ĺà¤³":480,"à¤®à¤¤":481,"Ġ\"":482,"à¤Ĥ.":483,"Ġà¤īà¤¦":484,"à¤¸à¤¤":485,"à¥¨":486,"Ġà¤Ĩà¤µ":487,"Ġà¤®à¤¨":488,"à¤®à¤¨":489,"Ġà¤ħà¤Ń":490,"Ġà¤ĸà¤°":491,"à¤°à¤¦":492,"à¤¨à¤ļ":493,"Ġà¤ĺà¤°":494,"à¤µà¤¨":495,"Ġà¤ĵ":496,"à¤ªà¤¯":497,"Ġà¤ªà¤¦":498,"à¤ªà¤¤":499,"à¤¬à¤Ī":500,"ar":501,"Ġà¤Ĩà¤ªà¤£":502,"in":503,"an":504,"at":505,"à¤¹à¤£à¤ľ":506,"à¤ŀ":507,"à¤°à¤ĸ":508,"à¤¸à¤¹":509,"à¤£à¤¤":510,"à¤°à¤ľ":511,"Ġà¤¹à¤ľ":512,"à¤²à¤¨":513,"à¤³à¤¤":514,"Ġà¤ªà¤¹":515,"Ġà¤¦à¤°":516,"à¤¦à¤¨":517,"Ġà¤ħà¤ª":518,"à¤·à¤ķ":519,"Ġà¤²à¤ķ":520,"Ġà¤ªà¤¤":521,"à¤ĸà¤²":522,"à¥«":523,"Ġà¤®à¤°":524,"à¤¡à¤£":525,"Ġà¤®à¤²":526,"à¤ľà¤ª":527,"Ġà¤ªà¤ķ":528,"Ġà¥©":529,"à¤¨à¤²":530,"à¤¤à¤®":531,"à¤¬à¤¦":532,"Ġà¤ħà¤¤":533,"on":534,"Ġà¤®à¤¤":535,"à¤Ľ":536,"Ġà¤Ĩà¤§":537,"à¤¸à¤ļ":538,"à¤¯à¤¦":539,"Ġà¥¨à¥¦":540,"Ġà¤ľà¤¨":541,"Ġà¤ķà¤²":542,"Ġà¤¸à¤¤":543,"er":544,"à¤¯à¤¨":545,"à¤ħà¤°":546,"Ġà¤¤à¤¯":547,"Ġà¤ħà¤®":548,"Ġ20":549,"à¤ľà¤ķ":550,"Ġà¤¶à¤¹à¤°":551,"Ġà¤Ľ":552,"à¤¹à¤¨":553,"à¤ľà¤°":554,"Ġà¤Ĩà¤¦":555,"à¤¤à¤ļ":556,"à¤µà¤¡à¤£":557,"à¤®à¤ķ":558,"Ġ.":559,"à¤²à¤¤":560,"à¤¾à¤ģ":561,"à¤ľà¤¯":562,"à¤§à¤¨":563,"à¤³à¤£":564,"à¤¯à¤µà¤¸":565,"à¤¦à¤¤":566,"à¤ļà¤¨":567,"es":568,"à¤±":569,"à¥ª":570,"à¤·à¤¯":571,"Ġà¥¤":572,"à¥¯":573,"à¤°à¤¨":574,"Ġà¤¬à¤°":575,"à¤µà¤¯":576,"à¤ĵ":577,"à¤¨à¤µ":578,"à¥©":579,"à¤ķà¤¤":580,"Ġà¤ľà¤°":581,"à¤°à¤ķà¤°à¤£":582,"ĠM":583,"à¤ķà¤°à¤£":584,"à¤¨à¤¸":585,"à¤ķà¤¸":586,"à¤£à¤¯":587,"à¤¤à¤µ":588,"à¤¡à¤¤":589,"à¥Ĥà¤Ĥ":590,"Ġà¤ļà¤°":591,"Ġà¤°à¤¸":592,"à¤¤à¤ķà¤°":593,"à¥®":594,"à¤°à¤Ń":595,"Ġà¤¨à¤ķ":596,"Ġà¤®à¤¹à¤¤":597,"Ġà¤ĩà¤¤à¤°":598,"Ġà¥«":599,"à¤°à¤¯à¤¤":600,"Ġà¤ķà¤¸":601,"ĠS":602,"Ġà¤ĺà¤Łà¤¨":603,"à¥Ń":604,"à¥¬":605,"à¤°à¤¹":606,"à¤ļà¤²":607,"à¤§à¤µ":608,"à¤¡à¤ķ":609,"..":610,"à¤µà¤ļ":611,"Ġà¥ª":612,"al":613,"Ġà¤¸à¤ķ":614,"à¤°à¤ªà¤Ł":615,"à¤ī":616,"à¤²à¤¬":617,"Ġà¤¹à¤µ":618,"Ġà¤¬à¤¦à¤²":619,"Ġà¤Łà¤ķ":620,"à¤¯à¤µ":621,"à¤¢à¤²":622,"à¤ªà¤²":623,"à¤Ńà¤°":624,"Ġà¤ħà¤ľ":625,"à¤²à¤ļ":626,"or":627,"Ġà¤ľà¤®":628,"Ġà¤īà¤ªà¤¸":629,"à¤Ĺà¤¦":630,"Ġà¤µà¤¸":631,"Ġà¤¤à¤ª":632,"à¤³à¤²":633,"Ġ3":634,"à¤¸à¤®":635,"Ġà¤¸à¤§":636,"en":637,"à¤¡à¤³":638,"Ġà¤®à¤¦à¤¤":639,"Ġà¤Ĩà¤µà¤¶":640,"à¤µà¤ķ":641,"Ġà¤Ĩà¤ł":642,"Ġt":643,"à¤ªà¤¦":644,"à¤Łà¤¤":645,"Ġà¤ªà¤¡à¤²":646,"Ġà¤ªà¤µ":647,"à¥ĭ,":648,"à¤¹à¤®":649,"Ġà¤¦à¤°à¤®":650,"à¤§à¤¤":651,"à¤¡à¤ļ":652,"à¤¬à¤²":653,"à¤¹à¤Łà¤²":654,"à¤¦à¤µ":655,"Ġ!":656,"à¤¢à¤¤":657,"Ġà¤Ĩà¤®à¤ļ":658,"à¥ī.":659,"Ġà¤¬à¤¹":660,"à¤¸à¤ķ":661,"à¤²à¤Ĺ":662,"Ġà¤Ĩà¤¶":663,"Ġà¤¨à¤¸à¤²":664,"ew":665,"Ġà¤¬à¤¸":666,"ĠP":667,"à¤µà¤¶":668,"Ġà¤ħà¤¸à¤£":669,"à¤Łà¤ļ":670,"à¤¤à¤¨":671,"it":672,"à¤§à¤ķ":673,"Ġà¤¸à¤¦":674,"à¤³à¤µ":675,"Ġà¤¸à¤®à¤ľ":676,"Ġà¤°à¤ķ":677,"Ġà¤īà¤Ń":678,"Ġà¤Ĳ":679,"Ġà¤ħà¤²":680,"à¤Ĺà¤µ":681,"ews":682,"à¤®à¤Ĺ":683,"à¤¾-":684,"Ġà¤Ķ":685,"Ġà¤Ĩà¤ķ":686,"Ġà¤īà¤®":687,"Ġà¤ľà¤Ĺ":688,"à¤¶à¤²":689,"ĠN":690,"Ġà¤²à¤Ĺ":691,"à¥¦à¥¦":692,"à¤ªà¤ķ":693,"à¤ķà¤£":694,"Ġà¤¶à¤°":695,"à¤°à¤§":696,"à¤¤à¤ª":697,"à¤Ĺà¤¡":698,"Ġà¤ķà¤§":699,"ic":700,"Ġà¤§à¤°":701,"à¤²à¤µ":702,"ĠA":703,"Ġ5":704,"Ġà¤Ĺà¤°à¤ľ":705,"Ġ?":706,"à¤¨à¤¹":707,"à¤¹à¤£à¤¤":708,"Ġà¤ħà¤µ":709,"à¤Ńà¤µ":710,"hi":711,"Ġà¤¸à¤Ń":712,"Ġà¤Ĩà¤®à¤¦":713,"à¤¯à¤¸":714,"00":715,"Ġà¤Ĺà¤°":716,"Ġà¥¬":717,"à¤·à¤¦":718,"Ġà¤¸à¤Ĺà¤³":719,"as":720,"Ġà¤®à¤¤à¤¦":721,"à¤¨à¤°":722,"Ġà¤Ĩà¤¢":723,"à¤ªà¤·":724,"Ġà¤ľà¤µà¤³":725,"Ġà¤¯à¤¶":726,"Ġà¤ªà¤°à¤¤":727,"à¤²à¤²":728,"Ġà¤«à¤ķ":729,"à¤¡à¤µ":730,"à¤¯à¤°":731,"Ġà¤Ĩà¤¨":732,"à¤Īà¤¨":733,"à¤ļà¤°":734,"à¤¨à¤ķ":735,"Ġ4":736,"he":737,"Ġ)":738,"Ġà¤ĩà¤¤à¤ķ":739,"à¤®à¤¸":740,"à¤µà¤¢":741,"Ġà¥Ń":742,"Ġà¤ħà¤ķ":743,"Ġà¤īà¤ªà¤²à¤¬":744,"is":745,"à¥Ģ-":746,"à¤¸à¤¦":747,"Ġà¤®à¤Ĺ":748,"à¤¾?":749,"à¤¥à¤®":750,"Ġà¤¦à¤¹":751,"Ġà¤ľà¤£":752,"à¤µà¤ķà¤°":753,"à¤ĸà¤°":754,"à¤ıà¤¸":755,"à¤¤à¤³":756,"ĠT":757,"à¤ªà¤Ł":758,"à¤¾'":759,"à¤ķà¤¶":760,"ĠI":761,"Ġà¥§à¥¯":762,"à¤¸à¤£":763,"Ġà¤¬à¤¨":764,"Ġà¤Ĩà¤Ĺ":765,"Ġà¤ĵà¤³":766,"à¤¤à¤¹":767,"à¤¶à¤ķ":768,"à¤¯à¤ª":769,"ĠC":770,"à¤¢à¤£":771,"à¤ľà¤²":772,"à¤¶à¤¯":773,"le":774,"à¤łà¤ķ":775,"Ġà¤¨à¤¯":776,"à¤®à¤°":777,"Ġà¤īà¤²":778,"Ġà¤Ĺà¤£":779,"Ġà¥®":780,"à¤ķà¤Ł":781,"Ġà¤¶à¤¬":782,"à¤¿.":783,"à¤łà¤²":784,"Ġà¤ķà¤ª":785,"Ġà¤Ńà¤°":786,"à¤§à¤°":787,"à¤²à¤£":788,"Ġ,":789,"à¤ĺà¤Łà¤¨":790,"Ġà¤°à¤µ":791,"and":792,"ad":793,"Ġà¤Ī":794,"Ġà¤ĳà¤«":795,"à¥Ģ'":796,"à¤µà¤°à¤£":797,"Ġà¤Ĺà¤Ł":798,"Ġà¤¸à¤²":799,"Ġà¤īà¤ļ":800,"à¤£à¤¸":801,"ed":802,"Ġà¤ĩà¤¤":803,"ĠG":804,"à¤®à¤µ":805,"à¤¬à¤¸":806,"),":807,"à¤¤à¤¤":808,"Ġà¤ıà¤ķà¤¦":809,"Ġà¤¤à¤ķ":810,"à¤Ĥ,":811,"am":812,"à¤°à¤ķà¤²":813,"à¤¨à¤Ĺà¤°":814,"à¤µà¤ª":815,"à¤µà¤Ł":816,"à¥ĩ.\\":817,"Ġà¤ħà¤¦":818,"à¤®à¤²":819,"om":820,"Ġà¤ıà¤¸":821,"à¤®à¤£":822,"Ġà¤ıà¤ĸ":823,"Ġs":824,"Ġà¤īà¤ªà¤ļ":825,"Ġà¥¯":826,"à¥ĩà¤Ĥ.":827,"ur":828,"Ġà¤²à¤¹":829,"Ġà¤¸à¤¦à¤¸":830,"Ġà¥¨à¥¦à¥§":831,"à¤ķà¤¨":832,"à¤¬à¤³":833,"ol":834,"à¤Ĩà¤¯":835,"à¤ķà¤®":836,"à¤¸à¤µ":837,"à¤Łà¤£":838,"Ġà¤īà¤ĺ":839,"ĠNews":840,"à¤µà¤ľ":841,"Ġà¤ĺà¤¡à¤²":842,"Ġà¤ĩà¤¨":843,"Ġc":844,"à¤®à¤¦":845,"Ġà¤¤à¤¤":846,"à¤ķà¤¦":847,"Ġà¥§à¥¦":848,"Ġ202":849,"ĠB":850,"Ġà¤²à¤¸":851,"à¤¹à¤ķ":852,"Ġà¤ħà¤ĸ":853,"Ġà¤¨à¤Ĺà¤°":854,"ion":855,"Ġà¤¨à¤¸à¤¤":856,"Ġà¤¬à¤ĺ":857,"à¤¯à¤ķà¤°":858,"à¤ľà¤¤":859,"Ġà¤ħà¤¹":860,"à¤®à¤ª":861,"à¤łà¤µ":862,"à¤ķà¤ļ":863,"à¤¨à¤Ĺ":864,"ĠR":865,"à¤¥à¤ķ":866,"à¥Ģ)":867,"à¤¥à¤³":868,"à¤ĩà¤¨":869,"Ġà¤¹à¤²":870,"ing":871,"Ġf":872,"Ġà¤Ĩà¤£à¤ĸ":873,"Ġn":874,"Ġà¤²à¤µà¤ķà¤°":875,"à¤µà¤§":876,"Ġà¤¨à¤¸":877,"Ġà¤Ĩà¤ĺ":878,"Ġà¤ĩà¤ļ":879,"Ġà¤ķà¤¶":880,"ĠD":881,"Ġà¤¬à¤¸à¤²":882,"Ġ6":883,"à¤¨à¤¨":884,"Ġà¤Ĩà¤ľà¤ļ":885,"Ġà¤°à¤¹":886,"à¤°à¤¯":887,"Ġà¤¸à¤®à¤¸":888,"Ġà¤ľà¤¬":889,"à¤µà¤Ń":890,"à¤ļà¤£":891,"Ġà¤¸à¤¨":892,"Ġà¤Ĩà¤Ī":893,"à¤Ĺà¤ļ":894,"Ġà¤¸à¤¹à¤ķ":895,"Ġà¤¨à¤°":896,"Ġà¤ľà¤¨à¤¤":897,"à¤Ĺà¤ª":898,"à¤¡à¤°":899,"ra":900,"à¤ªà¤ļ":901,"à¤ľà¤µà¤³":902,"Ġ201":903,"à¤ĺà¤°":904,"Ġà¤ªà¤¡":905,"Ġà¤ħà¤Ĺà¤¦":906,"Ġà¤ħà¤Łà¤ķ":907,"à¤®à¤¹":908,"Ġ9":909,"Ġà¤łà¤°à¤²":910,"à¤µà¤°à¤ļ":911,"Ġà¤¢":912,"à¤²à¤°":913,"Ġà¤ıà¤ķà¤¤":914,"à¤Łà¤®à¤§":915,"à¤Ĺà¤¸":916,"à¤ļà¤µ":917,"Ġà¤µà¤¡":918,"à¤ľà¤µ":919,"Ġà¥§à¥«":920,"Ġà¤Ĩà¤µà¤¡":921,"Ġà¤ªà¤°à¤µ":922,"Ġà¤ıà¤®":923,"à¤¬à¤¤à¤ļ":924,"Ġ7":925,"Ġà¤ħà¤Ĺ":926,"Ġà¤ªà¤¡à¤¤":927,"Ġin":928,"à¤³à¤ľ":929,"à¤ķà¤³":930,"ent":931,"Ġand":932,"Ġà¤®à¤ľ":933,"ĠL":934,"Ġà¤¸à¤¹à¤Ń":935,"à¤¨à¤®à¤§":936,"à¥Ģà¤Ĥ.":937,"Ġà¥§à¥¨":938,"Ġà¤īà¤ªà¤¯":939,"à¤ıà¤®":940,"et":941,"Ġà¤ĩà¤¥":942,"Ġà¤ªà¤Ł":943,"un":944,"Ġà¤ĩà¤®":945,"à¥ĩ?":946,"ha":947,"Ġà¤¸à¤ļ":948,"à¤·à¤§":949,"à¤Ĩà¤°":950,"Ġà¥¥":951,"Ġà¤ħà¤¡":952,"Ġthe":953,"à¤°à¤µà¤ł":954,"Ġ8":955,"Ġà¤µà¤ķ":956,"à¤ĸà¤µ":957,"ĠMar":958,"Ġà¤¸à¤ª":959,"à¤°à¤¥à¤®":960,"Ġà¤łà¤°à¤µ":961,"à¤Īà¤Ł":962,"à¤¡à¤¸":963,"Ġà¤ıà¤µà¤¢":964,"à¤§à¤²":965,"à¤¾à¥ĩ":966,"à¤·à¤¤":967,"us":968,".\\":969,"à¤ľà¤Ĺ":970,"Ġà¤µà¤¯":971,"à¤¥à¤µ":972,"Ġà¤¹à¤¸":973,"Ġà¤ĵà¤³à¤ĸ":974,"Ġw":975,"à¤Īà¤ķ":976,"re":977,"Ġà¤īà¤¡":978,"à¤Ĭà¤¸":979,"à¤ĩà¤Ł":980,"Ġp":981,"Ġà¤Ķà¤·à¤§":982,"à¤¤à¤µà¤£":983,"à¤¦à¤ķ":984,"Ġ10":985,"à¤¨à¤¸à¤Ń":986,"Ġà¤¨à¤¦":987,"Ġà¤ªà¤¶":988,"Ġà¤ĺà¤¡":989,"à¤¦à¤°à¤®":990,"à¤¬à¤Īà¤¤":991,"à¤ľà¤ªà¤ļ":992,"à¤¹à¤²":993,"athi":994,"Ġo":995,"à¤¡à¤£à¤µ":996,"à¤°à¤ķà¤°":997,"à¤Łà¤ª":998,"id":999,"à¤¢à¤µ":1000,"har":1001,"à¤¸à¤ª":1002,"il":1003,"à¤¸à¤®à¤§":1004,"Ġà¤¹à¤°":1005,"à¤¡à¤¨":1006,"Ġà¤ļà¤µ":1007,"à¥ĩ;":1008,"Ġb":1009,"ro":1010,"Ġà¤Ńà¤µ":1011,"à¤¤à¤¸":1012,"Ġà¤ĳà¤ķ":1013,"Ġà¤¹à¤¤":1014,"à¤ķà¤µ":1015,"à¤ķà¤ª":1016,"à¤ķà¤®à¤¤":1017,"ve":1018,"Ġà¥¨à¥¦à¥¨":1019,"à¤ľà¤¸":1020,"Ġà¤Ĩà¤łà¤µà¤¡":1021,"Ġà¤µà¤¨":1022,"Ġà¤«à¤¡à¤£à¤µ":1023,"Ġà¤ķà¤µ":1024,"à¤¡à¤ª":1025,"Ġà¤ıà¤ª":1026,"Ġà¤ĳà¤¨à¤²":1027,"à¤³à¤Ĺ":1028,"à¤¶à¤µ":1029,"à¤¤à¤¦":1030,"à¤¨à¤¦":1031,"Ġon":1032,"Ġ19":1033,"Ġà¤¨à¤®":1034,"à¤ĸà¤®":1035,"ĠE":1036,"à¤¡à¤ķà¤°":1037,"ĠMarathi":1038,"à¤ľà¤£":1039,"Ġà¥§à¥®":1040,"à¤¡à¤ļà¤£":1041,"Ġà¤ıà¤ķà¤®":1042,"à¤°à¤®à¤§":1043,"à¤ľà¤ļ":1044,"Ġm":1045,"Ġà¤ħà¤ªà¤ĺ":1046,"Ġà¤Ĭ":1047,"à¤¹à¤³":1048,"à¤°à¤Ĺ":1049,"à¤²à¤¦":1050,"à¤³à¤ķ":1051,"Ġà¤Ĩà¤£à¤²":1052,"Ġà¤ķà¤¡":1053,"Ġà¥§à¥§":1054,"Ġà¤ħà¤¡à¤ļà¤£":1055,"Ġà¤ıà¤¨":1056,"Ġà¤§à¤¨":1057,"Ġà¤łà¤°":1058,"à¤ıà¤²":1059,"à¤Ĺà¤¨":1060,"Ġà¤¸à¤µ":1061,"Ġà¤ķà¤ł":1062,"à¤Īà¤ļ":1063,"Ġà¤§à¤ķ":1064,"est":1065,"ay":1066,"18":1067,"à¤§à¤£":1068,"à¤Ĺà¤¦à¤°":1069,"Ġà¤ħà¤¹à¤µ":1070,"à¥¤":1071,"à¤¡à¤Ĺ":1072,"à¤ļà¤¤":1073,"à¤¹à¤¸":1074,"Ġà¤Łà¤ª":1075,"Ġà¤ľà¤¯":1076,"à¤°à¤¦à¤°":1077,"à¤²à¤¸":1078,"Ġa":1079,"Ġà¤¦à¤²":1080,"Ġà¤¨à¤Ĺ":1081,"à¥Ĥ,":1082,"Ġà¤¦à¤ķ":1083,"à¤¸à¤Ĺ":1084,"Ġà¤²à¤¢":1085,"à¤ļà¤ķ":1086,"Ġà¤īà¤°":1087,"à¤Łà¤«":1088,"à¤Łà¤µà¤°":1089,"Ġà¤¸à¤®à¤°":1090,"à¤¹à¤°à¤£":1091,"Ġà¤ķà¤¨":1092,"à¤¶à¤®":1093,"à¥ĩà¤Ĥ,":1094,"Ġà¤¤à¤¥":1095,"à¤ľà¤®":1096,"à¥ĩ-":1097,"Ġà¤īà¤¤à¤°":1098,"à¤ĸà¤£":1099,"à¥ĩ'":1100,"Ġnews":1101,"à¤¨à¤¤":1102,"à¤¯à¤µà¤¹":1103,"Ġà¤¶à¤¨":1104,"à¤¬à¤µ":1105,"à¤¹à¤£à¤£":1106,"Ġd":1107,"à¤«à¤¤":1108,"à¤Łà¤®":1109,"Ġà¤ľà¤ĸà¤®":1110,"Ġà¤«à¤²":1111,"Ġà¤¶à¤°à¤¦":1112,"Ġà¤ķà¤¦":1113,"Ġà¤¶à¤¹":1114,"nd":1115,"à¤Łà¤¸":1116,"à¤¾)":1117,"Ġà¤ļà¤ķ":1118,"à¤°à¤¬":1119,"Ġà¤¬à¤³":1120,"à¤·à¤®à¤¤":1121,"Ġà¤ħà¤ļ":1122,"Ġà¤Ĩà¤£à¤£":1123,"ht":1124,"à¤¦à¤¯":1125,"Ġà¤ªà¤¥à¤ķ":1126,"ak":1127,"à¤¥à¤¨":1128,"Ġà¥©à¥¦":1129,"Ġà¤¤à¤¬":1130,"Ġl":1131,"Ġà¤īà¤ªà¤ķ":1132,"à¤°à¤ªà¤¤":1133,"à¤ªà¤°à¤²":1134,"Ġà¤ªà¤¸":1135,"Ġà¤Ńà¤°à¤¤":1136,"Ġà¥¨à¥«":1137,"à¤Ĩà¤§":1138,"Ġà¤īà¤ĺà¤¡":1139,"à¤¸à¤¬":1140,"Ġà¤ĺà¤Łà¤ķ":1141,"Ġà¤ľà¤ª":1142,"ĠF":1143,"20":1144,"à¤ıà¤ķ":1145,"à¤Ĺà¤³à¤µ":1146,"à¤£à¤µ":1147,"Ġà¤Ĳà¤ķ":1148,"Ġà¤ķà¤¥":1149,"Ġà¤ķà¤³":1150,"à¤ªà¤¸":1151,"à¤Ĭà¤¤":1152,"à¤°à¤µà¤°":1153,"el":1154,"Ġ15":1155,"ct":1156,"à¤¯à¤¯":1157,"ation":1158,"Ġà¤ľà¤¸":1159,"à¤²à¤®à¤§":1160,"ch":1161,"Ġof":1162,"à¤ķà¤®à¤¤à¤µà¤°":1163,"à¤·à¤®":1164,"Ġà¤¯à¤¶à¤¸":1165,"à¤¯à¤°à¤²":1166,"ut":1167,"à¤¡à¤®à¤§":1168,"Ġà¥§à¥ª":1169,"à¥Ģà¤Ĥ,":1170,"à¤µà¤ľà¤¨":1171,"à¤®à¤¯":1172,"à¤³à¤ļ":1173,"à¤¤à¤°à¤°":1174,"à¤¤à¤ªà¤£":1175,"à¥ģà¤ĥ":1176,"Ġ12":1177,"ter":1178,"à¤£à¤ªà¤£":1179,"à¤ĩà¤²":1180,"ul":1181,"Ġà¤§à¤°à¤£":1182,"Âº":1183,"Ġà¤«à¤³":1184,"Ġà¤Ĩà¤°à¤ķ":1185,"à¤¨à¤ª":1186,"à¤¿,":1187,"Ġà¤²à¤µà¤ķà¤°à¤ļ":1188,"Ġà¥§à¥¬":1189,"ir":1190,"à¤¦à¤£":1191,"Ġà¤ĩà¤¶":1192,"à¤¯à¤£":1193,"à¤®à¤µà¤°":1194,"Ġà¥«à¥¦":1195,"à¤ķà¤¸à¤Ń":1196,"Ġà¤ıà¤ķà¤¨":1197,"Ġà¤¹à¤³":1198,"Ġà¤¨à¤Ĺà¤°à¤¸":1199,"Ġà¤ľà¤µà¤³à¤ª":1200,"Ġà¤¬à¤¨à¤µ":1201,"ia":1202,"à¤°à¤¡":1203,"Ġà¥§à¥Ń":1204,"à¤¤à¤°à¤£":1205,"à¤ªà¤®":1206,"Ġà¤¬à¤ľ":1207,"Âºà¤¯":1208,"um":1209,"à¤°à¤¥":1210,"Ġà¤Ńà¤ķ":1211,"à¤Łà¤µ":1212,"à¤®à¤¹à¤¤":1213,"à¤¾à¤ĥ":1214,"à¤°à¤³":1215,"ĠH":1216,"Ġà¤µà¤¤":1217,"à¤¸à¤°à¤²":1218,"Ġà¤®à¤¸":1219,"à¤Ĳ":1220,"Ġà¤Ĺà¤¤":1221,"à¤ĸà¤¤":1222,"Ġà¤ħà¤¥à¤µ":1223,"Ġà¥§à¥©":1224,"Ġà¤īà¤¨":1225,"Ġà¤Ľà¤¤":1226,"à¤ĸà¤¨":1227,"Ġà¤¬à¤¨à¤²":1228,"ĠK":1229,"à¤Ĺà¤®":1230,"Ġà¤¹à¤ķ":1231,"ment":1232,"à¤¬à¤°à¤ļ":1233,"Ġà¤Ńà¤°à¤²":1234,"Ġà¤Ĩà¤¢à¤³":1235,"à¥ģ,":1236,"Ġà¤¶à¤ķà¤²":1237,"à¤°à¤®à¤£":1238,"Ġà¤¬à¤²":1239,"Ġà¤łà¤°à¤¤":1240,"à¤³à¤µà¤²":1241,"Ġà¤ĭ":1242,"ri":1243,"à¥ĩ)":1244,"à¥Ģ?":1245,"Ġà¤ĩà¤¸":1246,"ot":1247,"Ġà¤ħà¤¬":1248,"pp":1249,"à¤Ŀà¤°":1250,"Ġà¤ħà¤µà¤²":1251,"Ġà¤Ĩà¤ķà¤¡":1252,"à¤¯à¤Ł":1253,"à¤ıà¤¨":1254,"Ġà¤¤à¤¶":1255,"à¤¨à¤®":1256,"à¤³à¤µà¤£":1257,"ain":1258,"à¤²à¤®":1259,"Ġà¤¸à¤¤à¤¤":1260,"à¤¾!":1261,"Ġà¤·":1262,"à¤µà¤Łà¤ļ":1263,"à¤¶à¤¨à¤ļ":1264,"Ġto":1265,"à¥¨à¥¦":1266,"à¤£à¤¨":1267,"Ġà¤¸à¤¹à¤ľ":1268,"Ġ0":1269,"...":1270,"ive":1271,"Ġà¤°à¤¦":1272,"Ġà¤ĳà¤Ĺà¤¸":1273,"os":1274,"Ġà¤°à¤¶":1275,"Ġà¤«à¤°":1276,"à¤ªà¤¡":1277,"ag":1278,"à¤²à¤ķà¤°":1279,"à¤ªà¤¡à¤²":1280,"Ġà¤¤à¤³":1281,"ĠJ":1282,"Ġà¤īà¤ļà¤²":1283,"Ġà¤ĳà¤¸":1284,"Ġà¤¸à¤¦à¤°":1285,"Ġà¤Ķà¤°":1286,"Ġà¤ªà¤ķà¤¡":1287,"Ġà¤ªà¤¡à¤£":1288,"Ġà¤®à¤¶":1289,"Ġà¤¤à¤ľ":1290,"à¤¼à¤¾":1291,"Ġà¤µà¤ľà¤¨":1292,"Ġà¤ħà¤µà¤ĺ":1293,"Ġà¥¨à¥¦à¥¦":1294,"à¥Ĥ.":1295,"Ġà¤ķà¤Ł":1296,"Ġà¤¶à¤¤à¤ķ":1297,"à¤¾;":1298,"Ġà¤Ĩà¤¦à¤°":1299,"à¤¸à¤µà¤°":1300,"ĠW":1301,"à¤ªà¤µ":1302,"Ġà¤ħà¤ªà¤¡":1303,"à¤¤à¤¡":1304,"Ġ11":1305,"à¤°à¤µà¤£":1306,"à¤²à¤ª":1307,"Ġ/":1308,"à¤ļà¤ª":1309,"à¤°à¤ªà¤£":1310,"à¤£à¤µà¤¤":1311,"Ġà¤¦à¤¹à¤¶":1312,"à¥Ģ;":1313,"ess":1314,"à¤¸à¤¸":1315,"à¤¯à¤ķà¤¤":1316,"à¤¨à¤¶":1317,"ai":1318,"à¤µà¤°à¤¹":1319,"à¤¸à¤³":1320,"Ġà¤µà¤Ĺ":1321,"Ġà¤ħà¤µà¤¸":1322,"Ġà¤ĸà¤¡":1323,"Ġà¤Ĩà¤¯à¤ª":1324,"Ġà¤®à¤¨à¤¸":1325,"à¥Īà¤Ĥ":1326,"Ġà¤Ĺà¤¡":1327,"Ġà¤ĩà¤²":1328,"ĠPol":1329,"Ġà¤¬à¤ļ":1330,"à¤Ĳà¤µà¤ľ":1331,"Ġà¥¨à¥ª":1332,"Ġ18":1333,"Ġà¤Ĩà¤µà¤¡à¤¤":1334,"à¤£à¤ķ":1335,"Ġà¤ķà¤ªà¤¡":1336,"Ġà¤Ńà¤°à¤£":1337,"Ġ30":1338,"à¤¬à¤¡":1339,"à¤£à¤§":1340,"à¤ıà¤«":1341,"à¤¬à¤¨":1342,"à¤Ľà¤¤":1343,"à¤¦à¤³":1344,"à¤ħà¤²":1345,"Ġà¤¤à¤²":1346,"à¤¨à¤¯":1347,"à¤²à¤Ń":1348,"ĠO":1349,"à¤¥à¤²":1350,"Ġà¤ıà¤ķà¤ļ":1351,"à¤¯à¤¶":1352,"Ġà¤¶à¤¸":1353,"Ġà¤Ĩà¤¢à¤³à¤²":1354,"ow":1355,"ant":1356,"à¤®à¤¶":1357,"Ġà¤¸à¤ľ":1358,"ob":1359,"Ġà¤Ĩà¤¸":1360,"Ġà¤ıà¤²":1361,"à¤ħà¤¸":1362,"à¤ĩà¤µ":1363,"à¥Įà¤Ĥ":1364,"Ġ200":1365,"à¤°à¤Ĺà¤¤":1366,"à¤°à¤ķà¤¡":1367,"Ġà¤ħà¤«":1368,"à¤Łà¤°à¤¨":1369,"à¥Ģ.\\":1370,"Ġà¤Ĺà¤³":1371,"à¤Łà¤°à¤ļ":1372,"Ġ25":1373,"à¤¢à¤ļ":1374,"Ġà¤«à¤°à¤ķ":1375,"ĠMa":1376,"Ġà¤ªà¤²":1377,"Ġà¤ªà¤¦à¤µ":1378,"Ġà¤¦à¤¤":1379,"Ġà¤Ĩà¤ķà¤°":1380,"Ġà¥¨à¥§":1381,"itic":1382,"à¤¾.\\":1383,"à¤³à¤ķà¤°":1384,"Ġà¤Ńà¤°à¤ª":1385,"à¤ĸà¤ķ":1386,"Ġà¤ĵà¤³à¤ĸà¤²":1387,"à¤¬à¤°à¤¦":1388,"',":1389,"Ġà¤īà¤²à¤Ł":1390,"ĠV":1391,"à¤ĳ":1392,"à¤¶à¤¨à¤²":1393,"à¤łà¤µà¤²":1394,"ĠGo":1395,"Ġfor":1396,"Ġà¤Ńà¤Ĺà¤µ":1397,"Ġà¤·à¤Łà¤ķ":1398,"Ġà¤¦à¤°à¤°":1399,"à¤£à¤ļ":1400,"à¤¯à¤¬":1401,"Ġà¤ªà¤°à¤®":1402,"Ġ14":1403,"à¤¤à¤°à¤ļ":1404,"Ġà¤ħà¤®à¤°":1405,"Ġà¤°à¤®":1406,"Ġà¥§à¥¦à¥¦":1407,"à¤ĸà¤µà¤²":1408,"Ġà¤Ĭà¤°":1409,"od":1410,"Ġ13":1411,"Ġà¤ľà¤µ":1412,"asht":1413,"Ġà¤¦à¤Ĺà¤¡":1414,"à¥§à¥¯":1415,"à¤¦à¤ļ":1416,"Ġà¤«à¤Łà¤ķ":1417,"Ġà¤ľà¤Ĺà¤¤":1418,"Ġà¤īà¤ªà¤®":1419,"Ġà¤¸à¤®à¤ľà¤²":1420,"Ġà¤ĺà¤Ł":1421,"Ġà¤¦à¤¹à¤¶à¤¤à¤µ":1422,"à¤®à¤®à¤§":1423,"Ġà¤Ĩà¤Ń":1424,"Ġà¤¸à¤®à¤ľà¤¤":1425,"ĠRe":1426,"Ġà¥¨à¥¨":1427,"Ġà¤ĵà¤²":1428,"à¥ģ.":1429,"ce":1430,"ashtra":1431,"Ġà¤ªà¤°à¤¦":1432,"ĠPolitic":1433,"à¤¢à¤°":1434,"Ġh":1435,"à¤ªà¤¹":1436,"à¤«à¤°":1437,"ĠIn":1438,"Ġà¤ħà¤Ł":1439,"à¥ħà¤Ĥ":1440,"à¤ªà¤°à¤£":1441,"ver":1442,"à¤ıà¤ļ":1443,"Ġà¤ľà¤Ĺà¤Ńà¤°":1444,"à¤µà¤¦":1445,"harashtra":1446,"à¤ħà¤¨":1447,"up":1448,"ig":1449,"Ġ50":1450,"Ġà¤²à¤·":1451,"à¤¦à¤¶":1452,"Ġà¤īà¤¶":1453,"à¤ħà¤ª":1454,"Ġà¤°à¤ļà¤¨":1455,"à¤ļà¤¬à¤°":1456,"Ġà¤ªà¤³":1457,"ort":1458,"à¤ªà¤°à¤¤":1459,"ik":1460,"Ġà¤¦à¤°à¤µ":1461,"à¤¶à¤Ńà¤°":1462,"Ġà¥ªà¥¦":1463,"à¤ķà¤®à¤§":1464,"à¤µà¤µ":1465,"Ġà¤Ĩà¤ľà¤¹":1466,"Ġà¤Ĩà¤łà¤µà¤£":1467,"à¤¥à¤°":1468,"à¥īà¤Ĥ":1469,"à¤§à¤³":1470,"Ġg":1471,"Ġà¤ķà¤²à¤®":1472,"ĠU":1473,"à¤¯à¤µà¤°":1474,"Ġ16":1475,"à¤²à¤¬à¤ľ":1476,"han":1477,"oc":1478,"à¥Ģ!":1479,"Ġà¤ľà¤²":1480,"Ġà¤¨à¤ľà¤°":1481,"à¤Ĺà¤µà¤¡":1482,"Ġà¤ħà¤¹à¤®":1483,"à¤°à¤«":1484,"à¥ĩà¤ĥ":1485,"Ġà¤°à¤¤":1486,"Ġà¤¬à¤¦":1487,"Ġà¤®à¤¦":1488,"à¤³à¤µà¤³":1489,"à¤¯à¤ķà¤µ":1490,"Ġà¤¸à¤°à¤ª":1491,"ric":1492,"Ġ2022":1493,"à¤Ĭà¤²":1494,"à¤¾à¥ħ":1495,"à¤·à¤°":1496,"Ġà¤§à¤®à¤ķ":1497,"atest":1498,"Ġà¥¦":1499,"à¥ĩ!":1500,"à¤®à¤²à¤¬à¤ľ":1501,"à¤¯à¤¥":1502,"Ġà¤«à¤¸":1503,"ab":1504,"Ġà¤ĵà¤µ":1505,"à¤¨à¤µà¤°":1506,"Ġ2021":1507,"Ġà¤į":1508,"Ġà¤Ńà¤¯":1509,"rom":1510,"à¤Łà¤ķà¤°":1511,"nà¤®":1512,"à¤²à¤ķà¤®":1513,"Ġà¤Ĩà¤ļ":1514,"Ġà¤ĸà¤³":1515,"Ġà¤¹à¤¦":1516,"à¤Ĩà¤ªà¤²":1517,"à¤Łà¤¬":1518,"à¤¡à¤®":1519,"av":1520,"à¤Īà¤¤":1521,"our":1522,"à¤łà¤µà¤£":1523,"Ġà¤ļà¤³à¤µà¤³":1524,"Ġà¥¨à¥©":1525,"Ġà¤¨à¤Ĭ":1526,"Ġv":1527,"à¤¸à¤±":1528,"Ġà¤ªà¤¸à¤°à¤²":1529,"im":1530,"à¤²à¤ĸ":1531,"st":1532,"à¤¯à¤°à¤¤":1533,"à¤¢à¤µà¤£":1534,"à¤ªà¤³":1535,"à¤ĸà¤¡":1536,"à¤¬à¤Īà¤ļ":1537,"Ġà¤¤à¤°à¤¤":1538,"Ġà¤°à¤£":1539,"Ġà¤¬à¤¦à¤²à¤²":1540,"à¤¯à¤°à¤¸":1541,"000":1542,"Ġà¤®à¤¹à¤¸":1543,"à¤¶à¤ļ":1544,"à¤¯à¤Łà¤¨":1545,"à¤°à¤°":1546,"à¤Īà¤¸":1547,"Ġ24":1548,"Ġà¤¹à¤®":1549,"à¤¥à¤¸":1550,"Ġà¥¨à¥®":1551,"à¤¡à¤µà¤°":1552,"Ġà¤ļà¤¹":1553,"Ġà¥¨à¥¬":1554,"Ġà¤¤à¤¹à¤¸":1555,"Ġà¤¨à¤µà¤°":1556,"à¤Ĩà¤¤":1557,"à¤Ńà¤ķ":1558,"ub":1559,"une":1560,"Ġà¤Īà¤¶":1561,"umb":1562,"Ġ17":1563,"à¤¯à¤ķà¤²":1564,"Ġà¤²à¤¢à¤¤":1565,"Ġà¤µà¤¨à¤¸":1566,"Ġà¤īà¤¸":1567,"Ġà¤ĺà¤¡à¤¤":1568,"à¤¤à¤°à¤¹":1569,"à¤ľà¤¦":1570,"Ġà¤ķà¤¬":1571,"Ġà¤ħà¤£":1572,"Ġà¤§à¤¡":1573,"Ġà¤ķà¤ļà¤°":1574,"nà¤¸":1575,"Ġà¤łà¤°à¤£":1576,"à¤¨à¤¡":1577,"Ġà¤ľà¤³à¤Ĺ":1578,"à¤°à¤·":1579,").":1580,"à¤ļà¤µà¤¡":1581,"Ġà¤¦à¤ĸà¤²":1582,"ĠSt":1583,"Ġà¤īà¤·":1584,"Ġà¤®à¤ľà¤¬":1585,"Ġà¤Ĺà¤®":1586,"Ġà¤Ĩà¤¢à¤³à¤¤":1587,"à¤¡à¤µà¤²":1588,"ĠLive":1589,"Ġà¤¸à¤¹à¤¨":1590,"à¤¬à¤°à¤²":1591,"Ġà¤ļà¤¢":1592,"Ġà¤īà¤ľ":1593,"Ġà¤¬à¤ĺà¤¤":1594,"kar":1595,"ĠInd":1596,"ile":1597,"Ġà¥¨à¥Ń":1598,"Ġà¤§à¤°à¤²":1599,"Ġà¤ıà¤¸à¤Ł":1600,"à¤Łà¤¯":1601,"à¥Ģà¤ĥ":1602,"Ġà¥©à¥§":1603,"ind":1604,"Ġà¤Ĩà¤«":1605,"Ġe":1606,"Ġfrom":1607,"hat":1608,"Ġà¤¶à¤¤":1609,"à¤³à¤¸":1610,"Ġ22":1611,"à¤²à¤®à¤¤":1612,"Ġà¤ķà¤³à¤¤":1613,"à¤¨à¤Ĺà¤°à¤ª":1614,"Ġà¤łà¤°à¤µà¤²":1615,"à¤¬à¤¹":1616,"Ġà¤ķà¤¦à¤®":1617,"Ġà¤¦à¤°à¤µà¤°":1618,"à¤ľà¤®à¤§":1619,"Ġà¤µà¤Ĺà¤³":1620,"op":1621,"ĠMaharashtra":1622,"à¤¯à¤¡":1623,"Ġà¤«à¤¸à¤µà¤£":1624,"ers":1625,"à¤¦à¤Ĺ":1626,"Ġà¤ľà¤µà¤³à¤ļ":1627,"Ġ[":1628,"à¤Īà¤¡":1629,"Ġà¤¬à¤¸à¤µ":1630,"à¤°à¤Ł":1631,"Ġà¥©à¥«":1632,"ya":1633,"--":1634,"à¤ļà¤¸":1635,"à¤ļà¤ļ":1636,"à¤¦à¤¨à¤Ĺà¤°":1637,"Ġà¤¸à¤£":1638,"à¤µà¤¹":1639,"Ġà¤ªà¤Ĺ":1640,"Ġà¤ĸà¤³à¤¬à¤³":1641,"à¤Ĺà¤Ł":1642,"à¤Ĺà¤¦à¤ªà¤¤":1643,"Ġà¤¬à¤¡":1644,"ĠGoa":1645,"Ġ2020":1646,"Ġà¤ıà¤ķà¤¹":1647,"nà¤ª":1648,"à¤īà¤¤":1649,"Ġ21":1650,"umbai":1651,"à¤·à¤ªà¤¦":1652,"Ġà¤¦à¤¬":1653,"à¤ľà¤ªà¤¨":1654,"à¤¯à¤Ĺ":1655,"à¤¦à¤®":1656,"Ġà¤¬à¤¸à¤£":1657,"ap":1658,"Ġà¤īà¤ł":1659,"Ġà¤¥à¤°":1660,"Ġà¤¸à¤¬à¤¸":1661,"à¤Ĩà¤£":1662,"Ġà¤ħà¤¯":1663,"à¤ħà¤Ń":1664,"à¤¯à¤Łà¤ķ":1665,"Ġà¤¬à¤¦à¤²à¤¤":1666,"Ġà¤¬à¤¨à¤µà¤£":1667,"à¤·à¤¨":1668,"ate":1669,"à¥Ĥ-":1670,"Ġà¤Ĺà¤£à¤ªà¤¤":1671,"Ġ:-":1672,"if":1673,"à¤¨à¤¤à¤³":1674,"Ġà¤Ĺà¤ª":1675,"Ġà¤¡à¤¬":1676,"à¤²à¤µà¤£":1677,"à¤¤à¤ķà¤±":1678,"Ġà¤ķà¤¡à¤ķ":1679,"Ġà¤ķà¤ļ":1680,"Ġà¤¥à¤ķ":1681,"Ġà¤¹à¤¨":1682,"à¤Ńà¤µà¤¤":1683,"Ġà¤Ĺà¤ľ":1684,"à¤¶à¤°":1685,"Ġ100":1686,"à¤µà¤¸à¤Ńà¤°":1687,"Ġà¤¨à¤·":1688,"Ġà¤¬à¤¨à¤µà¤²":1689,"Ġà¤ķà¤ķ":1690,"à¤¸à¤³à¤²":1691,"ĠSp":1692,"ĠAnd":1693,"à¤¶à¤ª":1694,"Ġà¤¬à¤¸à¤¤":1695,"Ġà¤¤à¤£":1696,"Ġà¤¸à¤¹à¤¸":1697,"ck":1698,"à¤®à¤ľ":1699,"Ġà¤ıà¤«":1700,"à¤ļà¤¯":1701,"à¤°à¤®à¤ķ":1702,"à¤°à¤µà¤²":1703,"Ġà¤¹à¤ľà¤°":1704,"end":1705,"Ġà¤¶à¤ķà¤£":1706,"à¤Ĩà¤ľ":1707,"19":1708,"Ġà¤īà¤ªà¤µ":1709,"Ġà¤®à¤ľà¤²":1710,"Ġà¤ħà¤ªà¤°":1711,"Ġà¤§à¤¡à¤ķ":1712,"obile":1713,"Ġà¤¦à¤¶":1714,"Ġà¤¦à¤¶à¤ķ":1715,"Ġà¤Ĺà¤µ":1716,"à¤Ĺà¤®à¤§":1717,"Ġà¤Ĳà¤¤":1718,"Ġà¤µà¤°à¤ļ":1719,"à¤¬à¤°à¤¦à¤¸":1720,"nà¤ķ":1721,"og":1722,"Ġà¤ıà¤ķà¤Ł":1723,"Ġà¥¨à¥¦à¥¨à¥§":1724,"Ġà¤ªà¤Łà¤ķ":1725,"à¤£à¤Ĺ":1726,"Ġà¥¤à¥¤":1727,"à¤ĺà¤¨":1728,"à¤¯à¤®à¤ļ":1729,"Ġà¤īà¤¤à¤°à¤²":1730,"à¤ªà¤¯à¤¶":1731,"Ġà¥¬à¥¦":1732,"th":1733,"à¤¯à¤ľ":1734,"à¤¡à¤¬":1735,"à¤£à¤ªà¤¤":1736,"Ġà¤ıà¤ļ":1737,"Ġà¤ľà¤¬à¤°à¤¦à¤¸":1738,"Ġà¤¬à¤¦à¤²à¤£":1739,"Ġà¤ħà¤¡à¤¥à¤³":1740,"Ġà¤Ĺà¤°à¤®":1741,"à¤·à¤Ńà¤°":1742,"à¤¸à¤°à¤£":1743,"ĠMobile":1744,"Ġà¤īà¤Ĺ":1745,"à¤®à¤°à¤£":1746,"Ġk":1747,"à¤·à¤¯à¤ķ":1748,"à¤°à¤ķà¤¤":1749,"Ġà¤¸à¤²à¤Ĺ":1750,"à¤¢à¤¦":1751,"ĠEn":1752,"Ġà¤ĩà¤°":1753,"Ġà¤ĺà¤¡à¤µ":1754,"Ġà¤ªà¤°à¤¸":1755,"ĠGet":1756,"Ġ40":1757,"Ġà¤¨à¤Ĺà¤°à¤ª":1758,"ov":1759,"em":1760,"à¤¤à¤ªà¤¤":1761,"Ġà¤ĵà¤¢":1762,"Ġà¥¨à¥¯":1763,"à¤īà¤¦":1764,"ist":1765,"à¤µà¤Ĺ":1766,"Ġà¤ħà¤ªà¤¯à¤¶":1767,"à¤Ĩà¤®":1768,"à¤¯à¤Ńà¤°":1769,"à¤Łà¤°à¤µà¤°":1770,"Ġà¤Īà¤¡":1771,"à¤ĸà¤³":1772,"à¤¾\"":1773,"Ġà¤¤à¤¡":1774,"nà¤¯":1775,"Ġâ":1776,"à¤ķà¤µà¤°":1777,"Ġà¤¸à¤ĸ":1778,"à¤ªà¤¥":1779,"à¤Ĺà¤ľ":1780,"à¤¯à¤Ń":1781,".\"":1782,"Ġà¤ıà¤¡":1783,"all":1784,"à¤¤à¤¬":1785,"à¤¹à¤µ":1786,"Ġà¤ªà¤ł":1787,"Ġà¤ıà¤ķà¤°":1788,"Ġat":1789,"Ġà¤ľà¤¹":1790,"Ġà¤®à¤¨à¤ª":1791,"Ġis":1792,"Ġà¤Ķà¤¦":1793,"à¤¡à¤¯":1794,"ĠIndia":1795,"iv":1796,"à¤Ŀà¤¨":1797,"à¤°à¤ļà¤¨":1798,"Ġà¤¤à¤ªà¤¶":1799,"Ġà¤¬à¤ķ":1800,"à¤ħà¤®":1801,"Ġà¤ķà¤³à¤²":1802,"ĠSa":1803,"à¤ĩà¤¡":1804,"Ġy":1805,"Ġ2019":1806,"à¥Ģ\"":1807,"à¤µà¤¸à¤¨":1808,"Ġà¥ªà¥«":1809,"à¤īà¤¨":1810,"ok":1811,"à¤³à¤ª":1812,"Ġà¥¨à¥¦à¥¨à¥¦":1813,"nà¤¤":1814,"à¤¤à¤°à¤¤":1815,"à¤Ļ":1816,"....":1817,"ies":1818,"à¤¸à¤²à¤®":1819,"Ġà¥§à¥¯à¥¯":1820,"Ġà¤ĺà¤°à¤ļ":1821,"Ġà¤īà¤ªà¤¨":1822,"à¤§à¤ļ":1823,"Ġà¤ľà¤Ĺà¤£":1824,"Ġà¤¸à¤®à¤¨":1825,"à¤ľà¤§":1826,"Ġ23":1827,"à¤ĩà¤¸":1828,"Ġà¤ĳà¤ªà¤°":1829,"à¤ĩà¤¬":1830,"ec":1831,"à¤¬à¤£":1832,"Ġà¤ĸà¤Łà¤²":1833,"ĠRead":1834,"Ġà¤īà¤§":1835,"à¤¬à¤Ł":1836,"Ġà¤ĵà¤¬":1837,"Ġà¤ħà¤¡à¤ķà¤²":1838,"ou":1839,"Ġà¤¸à¤µà¤¯":1840,"à¤¬à¤ķ":1841,"Ġà¤Ĩà¤ªà¤¤":1842,"Ġre":1843,"à¤¯à¤Ĺà¤¡":1844,"Ġà¤ĳà¤°":1845,"à¤ķà¤µà¤£":1846,"Ġà¤ĭà¤·":1847,"à¤ļà¤µà¤£":1848,"à¤Īà¤®":1849,"à¥ĩ\"":1850,"à¤ĩà¤®":1851,"OS":1852,"à¤°à¤¹à¤£":1853,"Ġà¤¸à¤«":1854,"à¤¯à¤ªà¤¦":1855,"à¤¦à¤µà¤²":1856,"Ġà¥¨à¥¦à¥§à¥¯":1857,"à¤ªà¤®à¤§":1858,"Ġà¤ªà¤¨":1859,"roid":1860,"Ġà¤ĸà¤¤":1861,"à¤®à¤Ł":1862,"à¤·à¤ª":1863,"à¤²à¤µà¤°":1864,"ep":1865,"Ġà¤ľà¤¨à¤ľ":1866,"à¥ĭ-":1867,"Ġà¤īà¤¦à¤¯":1868,"Ġby":1869,"à¤ħà¤¶":1870,"ĠAndroid":1871,"Ġà¤°à¤ľ":1872,"à¤Īà¤ªà¤°":1873,"à¤°à¤Ńà¤°":1874,"à¤ķà¤¹":1875,"à¤ķà¤ľ":1876,"à¤²à¤¹":1877,"à¤ľà¤ªà¤²":1878,"à¤¾\\":1879,"à¤®à¤³":1880,"à¤·à¤¸":1881,"à¤Ĺà¤¶":1882,"à¤³à¤¶":1883,"à¤¬à¤ļ":1884,"Ġà¥¨à¥¦à¥¨à¥¨":1885,"Ġà¤¸à¤²à¤®":1886,"à¤¿à¤ĥ":1887,"Ġà¤¬à¤ļà¤¤":1888,"Ġà¤¤à¤®":1889,"à¤§à¤¶":1890,"ĠPolitics":1891,"Ġà¤Ĳà¤ķà¤²":1892,"Ġà¤Ĩà¤µà¤°":1893,"à¤Łà¤¦":1894,"à¤Ńà¤²":1895,"à¤µà¤²à¤¤":1896,"à¤°à¤ªà¤°":1897,"Ġà¤ľà¤¡":1898,"Ġst":1899,"ide":1900,"Ġà¤ĸà¤¡à¤¸":1901,"Ġà¤īà¤ªà¤ķà¤°à¤£":1902,"à¤łà¤¯":1903,"Ġà¤īà¤°à¤²":1904,"Ġ26":1905,"Ġà¤ªà¤°à¤¤à¤²":1906,"à¤Łà¤ªà¤£":1907,"Ġà¤ļà¤²":1908,"à¤ħà¤§":1909,"Ġà¤Ĩà¤¯à¤¸":1910,"Ġà¤ĳà¤«à¤°":1911,"aj":1912,"à¤Ĥ?":1913,"Ġà¤ıà¤ľ":1914,"à¥¦à¥¦à¥¦":1915,"à¤Īà¤µ":1916,"Ġà¤ĳà¤²":1917,"ish":1918,"Ġà¥®à¥¦":1919,"à¤ĸà¤µà¤¤":1920,"Ġà¤Łà¤¨":1921,"Ġà¤ħà¤¶à¤ķ":1922,"Ġà¤ķà¤·":1923,"Ġà¤Ĺà¤²":1924,"à¤Ĺà¤µà¤¤":1925,"ction":1926,"ĠSaam":1927,"ure":1928,"Ġà¤Ĩà¤Īà¤ļ":1929,"Ġà¤¨à¤¶":1930,"à¥«à¥¦":1931,"lo":1932,"Ġà¤ªà¤ķà¤¡à¤²":1933,"à¥Ģ\\":1934,"ĠMumbai":1935,"à¤µà¤ļà¤·à¤ķ":1936,"à¤Łà¤°à¤®à¤§":1937,"ates":1938,"Ġà¤®à¤°à¤£":1939,"ill":1940,"Ġà¤ķà¤¸à¤²":1941,"ip":1942,"à¤ĸà¤µà¤£":1943,"à¤Łà¤ªà¤Ł":1944,"à¤ľà¤¬":1945,"à¤²à¤Ł":1946,"Ġà¤²à¤µ":1947,"Ġà¤¹à¤²à¤ķ":1948,"50":1949,"tain":1950,"à¤¯à¤¬à¤°":1951,"à¤³à¤ĸ":1952,"Ġà¥Ńà¥¦":1953,"ity":1954,"Ġà¤ıà¤ħà¤°":1955,"Ġà¤¨à¤µà¤¨":1956,"Ġà¤²à¤ĺ":1957,"aw":1958,"Ġà¤¬à¤¨à¤¤":1959,"Ġà¤ªà¤¡à¤¦":1960,"Ġà¤¸à¤¬":1961,"à¤ľà¤¨à¤ķ":1962,"à¤Ĺà¤£à¤ķ":1963,"à¤³à¤¨":1964,"Ġà¤īà¤ĺà¤¡à¤ķ":1965,"Ġà¤Ĭà¤¸":1966,"à¤®à¤§à¤²":1967,"à¥§à¥¦":1968,"Ġ27":1969,"Ġà¤¹à¤°à¤ķà¤¤":1970,"Ġà¤ıà¤Ł":1971,"à¤¤à¤ľ":1972,"Ġà¤¸à¤°à¤¦":1973,"Ġà¤¸à¤°à¤³":1974,"Ġà¤ıà¤ķà¤¦à¤®":1975,"ĠY":1976,"à¤łà¤¡":1977,"à¤ıà¤¸à¤Ł":1978,"Ġà¤Ĩà¤£à¤¤":1979,"Ġà¤¨à¤«":1980,"à¤²à¤µà¤¤":1981,"à¤¹à¤¨à¤¤":1982,"orts":1983,"Ġà¤ķà¤³à¤µ":1984,"Ġr":1985,"à¥§à¥®":1986,"Ġà¤Ĩà¤µà¤¡à¤²":1987,"Ġà¤ħà¤µà¤ĺà¤¡":1988,"ĠPune":1989,"art":1990,"Ġlatest":1991,"Ġà¤īà¤ļà¤²à¤²":1992,"Ġà¤Ĺà¤¡à¤ķà¤°":1993,"Ġà¤ļà¤¤":1994,"Ġà¤ĭà¤¤":1995,"Ġ2023":1996,"Ġà¥©à¥¨":1997,"à¥©à¥¦":1998,"à¤ĩà¤ķ":1999,"Ġ28":2000,"à¤ľà¤µà¤°":2001,"Ġà¤µà¤ļà¤¨":2002,"ang":2003,"à¤¶à¤¦":2004,"Ġà¤ħà¤ľà¤¯":2005,"ĠIOS":2006,"à¤µà¤¹à¤¨":2007,"à¥ĭ'":2008,"Ġà¤¸à¤µà¤²à¤¤":2009,"Ġà¤ľà¤²à¤¸":2010,"à¤²à¤µà¤²":2011,"ult":2012,"à¤²à¤¡":2013,"Ġapp":2014,"Ġà¤¹à¤Ł":2015,"Ġà¤°à¤ķà¤®":2016,"à¤¹à¤ľ":2017,"Ġà¤ĩà¤ķ":2018,"à¤ĩà¤¤à¤ķ":2019,"ly":2020,"Ġà¥«à¥¦à¥¦":2021,"Ġà¤ħà¤«à¤Ĺ":2022,"Ġcon":2023,"nà¤¹":2024,"à¤¨à¤Ń":2025,"Ġ31":2026,"à¤«à¤³":2027,"à¤¶à¤¨à¤®à¤§":2028,"à¤°à¤¸à¤¨":2029,"Ġà¤ħà¤µà¤ķ":2030,"à¤¦à¤ª":2031,"Ġà¤Ĩà¤Ł":2032,"Ġà¤µà¤³à¤£":2033,"uc":2034,"Ġà¥©à¥Ń":2035,"ĠSports":2036,"à¤µà¤®":2037,"à¤¨à¤Ī":2038,"à¤¡à¤ĸ":2039,"à¤µà¤¡à¤²":2040,"à¤¦à¤²à¤ļ":2041,"ug":2042,"à¤¥à¤Ĺ":2043,"tainment":2044,"Ġà¤īà¤ľà¤µ":2045,"ial":2046,"Ġà¥¨à¥¦à¥§à¥®":2047,"à¤ªà¤°à¤ķà¤°":2048,"à¤ķà¤¡à¤ļ":2049,"ice":2050,"à¤ľà¤¬à¤³":2051,"Ġà¤Ĺà¤¹":2052,"ĠEnter":2053,"me":2054,"à¤¦à¤¹":2055,"Ġà¤īà¤ĺà¤¡à¤²":2056,"ĠPolitical":2057,"Ġà¤ħà¤¹à¤®à¤¦":2058,"à¤ķà¤²à¤¨":2059,"Ġcom":2060,"Ġà¤ĵà¤®":2061,"Ġà¤ļà¤®à¤ļ":2062,">'":2063,"Ġà¤²à¤¢à¤£":2064,"Ġà¤Ńà¤Ł":2065,"ud":2066,"Ġà¤ľà¤µà¤³à¤ľà¤µà¤³":2067,"ma":2068,"ĠEntertainment":2069,"Ġà¤¤à¤°à¤ļ":2070,"Ġà¤ľà¤¨à¤°à¤²":2071,"à¤łà¤£":2072,"à¤ķà¤ªà¤£":2073,"Ġà¤Ĩà¤³":2074,"Ġà¤ħà¤ķà¤°":2075,"à¤¹à¤ļà¤²":2076,"Ġà¤®à¤ľà¤ķ":2077,"à¤«à¤²":2078,"à¥ĭ.\\":2079,"à¤¯à¤¨à¤°":2080,"à¤ıà¤®à¤¸":2081,"Ġà¤ıà¤®à¤Ĩà¤¯":2082,"Ġà¥©à¥¬":2083,"à¤¨à¤ªà¤£":2084,")\\":2085,"Ġà¤īà¤ªà¤ľ":2086,"Ġup":2087,"Ġà¤Ĩà¤ĸ":2088,"Ġà¤Ĩà¤łà¤µà¤²":2089,"à¤łà¤®":2090,"à¤¯à¤¸à¤¨":2091,"à¤Ĺà¤®à¤¨":2092,"Ġà¤ļà¤®à¤ķ":2093,"Ġ60":2094,"Ġà¤µà¤§":2095,"Ġà¤¸à¤°à¤¸":2096,"à¥ĩ.\"":2097,"ath":2098,"à¤¬à¤¦à¤²":2099,"à¤Ĩà¤ªà¤£":2100,"Ġà¤µà¤Ĺà¤³à¤¤":2101,"à¤ķà¤·":2102,"à¤¢à¤°à¤ª":2103,"ine":2104,"Ġà¤Ĩà¤ľà¤ªà¤°":2105,"à¤¶à¤¹":2106,"à¤¬à¤µà¤£":2107,"Ġà¥¯à¥¦":2108,"à¤łà¤ª":2109,"à¤¯à¤¹":2110,"à¤¬à¤§":2111,"à¤ĸà¤¦":2112,"Ġà¤¦à¤®à¤¦":2113,")</":2114,"Ġà¤Ĩà¤¸à¤ª":2115,"Ġà¤ĺà¤°à¤Ĺ":2116,"own":2117,"Ġ29":2118,"Ġà¤¦à¤¯":2119,"Ġà¤ľà¤²à¤¦":2120,"à¤ļà¤¶":2121,"à¤ħà¤°à¤ļ":2122,"Ġj":2123,"Ġà¤®à¤ķ":2124,"à¤Ĭà¤¨à¤ļ":2125,"Ġà¤ķà¤£":2126,"ith":2127,"Ġà¤ħà¤ªà¤®":2128,"à¤¬à¤µà¤²":2129,"ĠTV":2130,"aking":2131,"à¤¸à¤³à¤§":2132,"Ġan":2133,"à¤µà¤°à¤ķà¤°":2134,"Ġà¤ķà¤®à¤¤à¤°à¤¤":2135,"Ġà¤¢à¤ķà¤²":2136,"Ġà¤īà¤ķ":2137,"are":2138,"Ġà¥©à¥ª":2139,"Ġà¤ħà¤ªà¤µ":2140,"à¥§à¥Ń":2141,"à¥¯à¥¯":2142,"à¤ĺà¤¤":2143,"à¤ķà¤ľà¤£":2144,"ĠShar":2145,"à¤¤à¤¶":2146,"Ġà¤®à¤¨à¤®":2147,"à¤¹à¤ļ":2148,"Ġà¤ĩà¤ķà¤¡":2149,"à¤¹à¤¯":2150,"Ġà¤ĩà¤¥à¤²":2151,"à¤¨à¤ķà¤°":2152,"dates":2153,"à¤¤à¤®à¤§":2154,"à¤Łà¤²à¤®à¤§":2155,"Ġà¤ĳà¤Ł":2156,"Ġà¥¨à¥¦à¥§à¥Ń":2157,"à¤ķà¤°à¤¤":2158,"Ġà¤Ĳà¤µà¤ľ":2159,"Ġà¤Ŀà¤Łà¤ķ":2160,"Ġà¤ķà¤°à¤µ":2161,"à¤ıà¤Ł":2162,"Ġà¤Ĳà¤ķà¤¤":2163,"ast":2164,"Ġà¥Ńà¥«":2165,"ac":2166,"à¤¸à¤Ń":2167,"Ġà¤¦à¤µ":2168,"Ġà¤Ńà¤²":2169,"à¤¦à¤¨à¤¶":2170,"Ġà¤Ŀà¤ª":2171,"à¥Į.":2172,"à¤ĺà¤ķ":2173,"à¤ĵà¤®à¤§":2174,"30":2175,"his":2176,"à¤Ĩà¤¯à¤ļ":2177,"Ġà¤¯à¤¶à¤µ":2178,"Ġbe":2179,"à¤®à¤®":2180,"à¤ªà¤µà¤¯":2181,"esh":2182,"à¤¨à¤µà¤£":2183,"à¤£à¤²":2184,"Ġà¥©à¥©":2185,"à¥§à¥¨":2186,"à¥§à¥«":2187,"à¤°à¤¥à¤®à¤ļ":2188,"Ġà¤Ńà¤µà¤¨":2189,"ard":2190,"Ġ2018":2191,"Ġà¤µà¤¹":2192,"Ġà¥¨à¥¦à¥§à¥ª":2193,"à¤ľà¤¶":2194,"à¤Ńà¤£":2195,"Ġà¤ĸà¤¡à¤ķ":2196,"Ġà¤ħà¤°à¤µ":2197,"ome":2198,"Ġà¤¦à¤¶à¤²à¤ķ":2199,"Ġà¤Ŀà¤³":2200,"Ġà¤ĸà¤¬à¤°à¤¦":2201,"Ġà¤Ĺà¤¦":2202,"Ġà¤¸à¤¸":2203,"Ġà¤ĺà¤¸à¤°à¤£":2204,"Ġà¤¶à¤ªà¤¥":2205,"à¤Ĩà¤¯à¤¨":2206,"10":2207,"nà¤µ":2208,"Ģ¢":2209,"à¤Ĺà¤Ń":2210,"à¤°à¤µà¤ķ":2211,"io":2212,"à¥ĩ\\":2213,"à¤¨à¤ĸ":2214,"à¤¸à¤«":2215,"Ġà¤¹à¤²à¤µ":2216,"Ġà¤Łà¤°":2217,"Ġà¤ĵà¤Ł":2218,"Ġà¤ħà¤¡à¤ķ":2219,"Ġà¤ħà¤¹à¤®à¤¦à¤¨à¤Ĺà¤°":2220,"à¥ĭ;":2221,"ho":2222,"und":2223,"hav":2224,"Ġ199":2225,"one":2226,"à¤¯à¤Ŀ":2227,"Ġà¤ħà¤µà¤¶":2228,"Ġà¤īà¤ªà¤¨à¤Ĺà¤°":2229,"ama":2230,"reaking":2231,"à¤łà¤Ń":2232,"oron":2233,"à¤¯à¤¸à¤Ń":2234,"Ġà¤ľà¤®à¤²":2235,"rice":2236,"Ġà¤°à¤ĸ":2237,"à¥ĩ',":2238,"Ġà¤¸à¤¤à¤°":2239,"Ġà¤ĵà¤°":2240,"ev":2241,"à¤ļà¤¦":2242,"à¤ªà¤¶":2243,"Ġ35":2244,"à¤ıà¤¶à¤¨":2245,"Ġà¤Ĩà¤łà¤µ":2246,"à¤¤à¤µà¤²":2247,"à¤łà¤°":2248,"à¤§à¤¨à¤ķ":2249,"à¤®à¤Ń":2250,"Ġ..":2251,"Ġà¤īà¤łà¤²":2252,"à¤½":2253,"à¤µà¤°à¤¤":2254,"à¥¨à¥¨":2255,"à¤¸à¤ķà¤¡":2256,"à¥ĥà¤Ĥ":2257,"ainik":2258,"ted":2259,"à¤¡à¤µà¤£":2260,"ian":2261,"Ġà¤®à¤ļ":2262,"à¤ķà¤§":2263,"Ġà¤ľà¤¶":2264,"à¤ıà¤²à¤ļ":2265,"à¤Ķ":2266,"Ġà¤ķà¤¹":2267,"ef":2268,"mit":2269,"à¤¾...":2270,"Ġà¥¨à¥¦à¥§à¥¬":2271,"Ġ80":2272,"à¤¨à¤§":2273,"à¤¶à¤¸":2274,"Ġà¤¬à¤ĺà¤£":2275,"eb":2276,"à¤¨à¤¬":2277,"Ġà¥§à¥¯à¥®":2278,"Ġà¤ĩà¤ľ":2279,"Ġà¤ħà¤¨à¤§":2280,"à¥§à¥§":2281,"ĠDainik":2282,"à¤ªà¤µà¤°":2283,"à¤¨à¤ªà¤¤":2284,"à¤Ĩà¤ª":2285,"ase":2286,"à¤£à¤®":2287,"Ġà¤¬à¤Ł":2288,"à¤ķà¤ķ":2289,"à¥ĭ?":2290,"à¤¡à¤¶":2291,"à¥ĭà¤Ĥ.":2292,"Ġ]":2293,"à¤£à¤ª":2294,"Ġà¤Ńà¤Łà¤ķ":2295,"Ġà¤ªà¤°à¤°":2296,"Ġà¤ħà¤µà¤¯":2297,"à¥ĥ.":2298,"Ġà¤ľà¤Ĺà¤¦":2299,"ne":2300,"Ġà¤®à¤¯":2301,"ism":2302,"à¤¢à¤µà¤²":2303,"omant":2304,"iness":2305,"24":2306,"Ġà¤Ĩà¤Ŀ":2307,"Ġà¤¯à¤ľ":2308,"à¤ıà¤®à¤ª":2309,"Ġà¤ĸà¤¨":2310,"à¤ªà¤¡à¤¤":2311,"Ġà¤ļà¤²à¤¨":2312,"à¤°à¤£à¤ªà¤£":2313,"Ġà¤ĳà¤¡":2314,"omantak":2315,"à¤³à¤µà¤¤":2316,"à¥§à¥¬":2317,"ĠGomantak":2318,"Ġà¤Ĺà¤¡à¤ļ":2319,"12":2320,"à¤Ĭà¤ķ":2321,"à¤²à¤ªà¤£":2322,"Ġà¤ħà¤·":2323,"Ġà¤ħà¤µà¤¤":2324,"Ġà¤¢à¤Ĺ":2325,"Ġà¤¯à¤¥":2326,"à¥¨à¥§":2327,"Ġà¤ªà¤¦à¤ķ":2328,"Ġà¥§à¥¯à¥Ń":2329,"Ġà¤ıà¤°":2330,"ĠLatest":2331,"16":2332,"Ġà¤ªà¤Łà¤²":2333,"ĠPrice":2334,"iz":2335,"à¤¨à¤£":2336,"à¤¶à¤¬":2337,"à¤µà¤¤à¤®":2338,"à¤¬à¤Īà¤ķà¤°":2339,"Ġà¥©à¥®":2340,"Ġdo":2341,"à¤ļà¤µà¤²":2342,"Ġà¤ķà¤®à¤²":2343,"à¤£à¤§à¤°":2344,"Ġà¤µà¤ľ":2345,"à¤°à¤µà¤¤":2346,"Ġà¤īà¤ªà¤¦":2347,"Ġà¤®à¤§à¤²":2348,"à¤ķà¤µà¤²":2349,"à¤ľà¤µà¤²":2350,"Ġà¤Ĩà¤¯à¤Ł":2351,"Ġà¤®à¤£":2352,"Ġà¤°à¤ļà¤²":2353,"à¤Ĺà¤ķ":2354,"Ġ#":2355,"ff":2356,"Ġà¤µà¤¨à¤µ":2357,"Ġà¤¶à¤¶":2358,"Ġà¤Ĩà¤Ĺà¤®à¤¨":2359,"à¤¯à¤µà¤§":2360,"à¤²à¤ĺà¤°":2361,"ress":2362,"Ġà¤¸à¤¯":2363,"à¤ħà¤¹à¤®":2364,"à¥§à¥ª":2365,"Ġà¥ªà¥®":2366,"15":2367,"à¤¸à¤§":2368,"à¤Łà¤¹":2369,"Ġà¤ªà¤°à¤¬":2370,"Ġà¤¸à¤®à¤¤":2371,"age":2372,"à¤¶à¤®à¤¨":2373,"à¤²à¤ľ":2374,"Ġà¤ħà¤Ĺà¤°":2375,"Ġà¤°à¤ĺ":2376,"Ġà¤ıà¤ķà¤µ":2377,"à¤²à¤Ĺà¤¤":2378,"Ġà¤¦à¤¸":2379,"à¤·à¤°à¤¶":2380,"Ġà¤²à¤ª":2381,"ĠApp":2382,"à¤Ĩà¤®à¤ļ":2383,"Ġà¥«à¥«":2384,"'s":2385,"Ġà¤ªà¤§":2386,"à¤Ĭà¤¯":2387,"Ġà¤¬à¤¸à¤¸":2388,"Ġà¤¸à¤®à¤ľà¤£":2389,"Ġà¥§à¥¯à¥¬":2390,"usiness":2391,"Ġupdates":2392,"Ġà¤ħà¤ªà¤ķ":2393,"ĠBreaking":2394,"nà¤ľ":2395,"Ġà¤«à¤µ":2396,"Ġà¤īà¤ĺà¤¡à¤£":2397,"Ġà¤ļà¤°à¤£":2398,"Ġà¤«à¤²à¤ķ":2399,"Ġà¤ľà¤¨à¤¸":2400,"Ġ&":2401,"load":2402,"\",":2403,"Ġà¤ĺà¤¡à¤£":2404,"atch":2405,"nP":2406,"Ġ70":2407,"ink":2408,"Ġà¤®à¤®à¤¤":2409,"Ġà¤ħà¤Ńà¤¯":2410,"qu":2411,"à¤¤à¤£":2412,"à¤¨à¤§à¤¨":2413,"à¤¬à¤Īà¤²":2414,"à¤ķà¤°à¤ļ":2415,"à¥Ģ),":2416,"Ġà¤¹à¤ª":2417,"Ġà¤¬à¤¦à¤¨":2418,"à¤ĺà¤®":2419,"à¤ħà¤ķ":2420,"à¤Ĭà¤¨à¤¹":2421,"ana":2422,"nà¤¦":2423,"Ġà¤ıà¤µ":2424,"à¤¬à¤°à¤ª":2425,"à¤ľà¤¨à¤ļ":2426,"Ġà¤¬à¤¨à¤µà¤¤":2427,"11":2428,"Ġà¤µà¤¨à¤¡":2429,"Ġ+":2430,"Ġà¤¶à¤®":2431,"ĠAg":2432,"à¤¨à¤ªà¤°":2433,"à¤°à¤®à¤¨":2434,"22":2435,"bo":2436,"à¤¤à¤ķÂºà¤¯":2437,"ownload":2438,"Ġ45":2439,"à¤°à¤ªà¤¦":2440,"à¤ĵà¤ļ":2441,"Ġ;":2442,"Ġà¤ªà¤¨à¤µ":2443,"Ġà¤«à¤Ł":2444,"à¤ķà¤ł":2445,"Ġà¤¦à¤®":2446,"à¤¤à¤Ń":2447,"Ġà¥¨à¥¦à¥§à¥«":2448,"karn":2449,"Ġà¤Ĩà¤¬":2450,"à¤Ńà¤µà¤²":2451,"ary":2452,"ĠDownload":2453,"Ġà¤Ĩà¤Īà¤²":2454,"à¤ªà¤¬":2455,"ĠSar":2456,"Ġà¥ªà¥¨":2457,"Ġ2017":2458,"Ġà¤¹à¤³à¤¦":2459,"à¤·à¤µ":2460,"à¤Īà¤ª":2461,"nà¤¬":2462,"à¤¥à¤¤":2463,"à¤§à¤¶à¤¤à¤ķ":2464,"à¤Ĺà¤¹":2465,"Ġà¥ªà¥ª":2466,"Ġà¥¬à¥«":2467,"Ġà¤¹à¤¸à¤¤":2468,"à¤ĺà¤Ł":2469,"Ġ>":2470,"à¤¸à¤ħ":2471,"ocal":2472,"à¤Łà¤°à¤¸":2473,"Ġà¤Ĩà¤łà¤µà¤¤":2474,"erm":2475,"ket":2476,"Ġ*":2477,"Ġà¤Ńà¤Ĺà¤¤":2478,"Ġà¤°à¤£à¤ľ":2479,"nà¤°":2480,"Ġà¤¸à¤°à¤ļ":2481,"ash":2482,"à¥Ģ',":2483,"à¥ĩ...":2484,"Ġà¤Ĩà¤¯à¤¡":2485,"nà¤¶":2486,"orm":2487,"ass":2488,"à¤ĩà¤Łà¤µà¤°":2489,"Ġà¤¨à¤µà¤²":2490,"à¤Ĩà¤¯à¤Ł":2491,"Ġà¤¤à¤¹":2492,"Ġà¤Ĩà¤ľà¤µà¤°":2493,"ĠSh":2494,"Ġà¤ľà¤³":2495,"à¤ĸà¤Ń":2496,"Ġà¤ħà¤µà¤¯à¤µ":2497,"à¤ķà¤ħà¤ª":2498,"à¤¸à¤°à¤¤":2499,"à¤®à¤¬":2500,"à¤¦à¤°à¤ļ":2501,"à¥¨à¥«":2502,"Ġà¤®à¤¤à¤Ń":2503,"à¥į.":2504,"Ġà¤®à¤³":2505,"ld":2506,"ank":2507,"nà¤¨":2508,"Ġà¤¹à¤Łà¤µ":2509,"à¤Ĩà¤¯à¤¸":2510,"ĠBusiness":2511,"Ġwith":2512,"à¤¯à¤«":2513,"Ġà¤Ľà¤³":2514,"Ġà¥ªà¥¬":2515,"Ġà¥§à¥¯à¥ª":2516,"à¤®à¤ĸ":2517,"Ġà¥ªà¥Ń":2518,"Ġà¤ªà¤°à¤ķ":2519,"Ġà¤ĵà¤ªà¤¨":2520,"Ġà¤Ĩà¤Īà¤¨":2521,"Ġà¤µà¤³":2522,"à¤łà¤¤":2523,"à¤°à¤ķà¤Ł":2524,"ID":2525,"à¤ľà¤ªà¤®à¤§":2526,"Ġà¤¥à¤ķà¤¬":2527,"à¤µà¤¬":2528,"Ġà¤¯à¤µà¤¤à¤®":2529,"à¥Ī.":2530,"ational":2531,"ĠShare":2532,"Ġà¤ħà¤¡à¤µ":2533,"ail":2534,"Ġà¤Ńà¤Ĺ":2535,"Ġà¤°à¤ĸà¤¡à¤²":2536,"ram":2537,"à¤ıà¤¸à¤¸":2538,"Ġà¤ıà¤®à¤Ĩà¤¯à¤¡":2539,"Ġà¤ļà¤®à¤¤":2540,"Ġà¤ªà¤ķà¤¡à¤£":2541,"Ġha":2542,"à¤ļà¤®à¤§":2543,"Ġà¤ªà¤µà¤¨":2544,"Ġà¤¨à¤³":2545,"à¤ľà¤³à¤Ĺ":2546,"à¤¡à¤°à¤ļ":2547,"à¥¨à¥©":2548,"à¤¤à¤Ĺ":2549,"à¤ļà¤®":2550,"à¤¡à¤«":2551,"à¤¯à¤ªà¤£":2552,"Ġà¤īà¤²à¤Ĺ":2553,"à¤¸à¤°à¤ļ":2554,"à¤¯à¤®à¤µà¤°":2555,"karnama":2556,"Ġà¤°à¤¡":2557,"Ġà¤²à¤¢à¤µ":2558,"Ġth":2559,"à¤¸à¤ĸ":2560,"à¤¬à¤°à¤®à¤§":2561,"ĠThe":2562,"Ġà¤ĸà¤²":2563,"à¤Īà¤ľ":2564,"à¥ĩ,\"":2565,"à¥§à¥©":2566,"Ġà¤Ĩà¤°à¤¤":2567,"Ġà¤§à¤®":2568,"Ġà¤Ĩà¤°à¤Ł":2569,"Ġà¤ħà¤°à¤¬":2570,"à¤¹à¤¨à¤ļ":2571,"ĠSarkarnama":2572,"ear":2573,"Ġà¤īà¤¡à¤µ":2574,"à¥ĩà¤Ĥ;":2575,"vern":2576,"ah":2577,"à¤¾à¤Ĥ,":2578,"à¤ħà¤ĸ":2579,"Ġà¤īà¤ªà¤°":2580,"27":2581,"à¥Ģ)</":2582,"Ġ2014":2583,"à¤ħà¤¹à¤®à¤¦à¤¨à¤Ĺà¤°":2584,"Ġà¤²à¤ĸà¤¨":2585,"Ġcont":2586,"Ġà¤¨à¤ľ":2587,"Ġà¤ħà¤ªà¤¹à¤°à¤£":2588,"hack":2589,"à¤ĸà¤°à¤ļ":2590,"Ġà¤¸à¤°à¤¨":2591,"à¤¯à¤®à¤¸":2592,"Ġà¤ıà¤¨à¤¸":2593,"à¤¥à¤ļ":2594,"ber":2595,"ue":2596,"à¤£à¤µà¤²":2597,"Ġà¤ıà¤ķà¤¤à¤°":2598,"Ġà¥©à¥¯":2599,"à¤°à¤ĺ":2600,"à¤ªà¤Ĺ":2601,"Ġà¤¬à¤±":2602,"ore":2603,"ĠAl":2604,"Ġ75":2605,"à¤ľà¤¹":2606,"à¤¬à¤°à¤ªà¤°":2607,"à¤¥à¤ª":2608,"à¥ĩ,'":2609,"Ġà¤ĵà¤³à¤ĸà¤¤":2610,"à¥Ģ...":2611,"Ġà¤°à¤¹à¤¸":2612,"à¤«à¤¨":2613,"ost":2614,"nà¤Ĺ":2615,"à¤¯à¤¨à¤²":2616,"à¤·à¤²":2617,"Ġà¤łà¤°à¤µà¤£":2618,"endra":2619,"Ġà¤²à¤¤":2620,"Ġà¤²à¤²":2621,"à¤ļà¤¹":2622,"Ġà¤¬à¤¨à¤£":2623,"Ġ2015":2624,"à¤¦à¤®à¤§":2625,"Ġ)</":2626,"Ġà¤¬à¤³à¤ķà¤Ł":2627,"hacker":2628,"uk":2629,"ĠTo":2630,"à¤¾',":2631,"Ġthat":2632,"ust":2633,",\"":2634,"ans":2635,"21":2636,"Ġà¤°à¤¨":2637,"Ġà¤ĺà¤Łà¤¸":2638,"Ġà¤ħà¤®à¤²":2639,"ĠCh":2640,"hackeray":2641,"à¤¢à¤µà¤¤":2642,"----":2643,"à¤¶à¤¹à¤°":2644,"à¤¸à¤°à¤ª":2645,"awar":2646,".'":2647,"Ġà¤Ĩà¤µà¤³":2648,"à¤§à¤®":2649,"Ġà¤Ĳà¤¶":2650,"à¤Ĩà¤¹":2651,"à¤Ĺà¤£à¤µ":2652,"Ġ...":2653,"à¤¸à¤®à¤µ":2654,"Ġà¤Ĳà¤ķà¤£":2655,"Ġà¤īà¤ļà¤²à¤£":2656,"Ġà¤łà¤ª":2657,"à¤Ĭà¤°":2658,"Ġà¤īà¤¤à¤°à¤¤":2659,"à¤Ĺà¤µà¤²":2660,"à¤Ĺà¤§":2661,"à¤Łà¤°à¤²":2662,"Ġà¥©à¥¦à¥¦":2663,"Ġà¤¨à¤Ĺà¤°à¤ªà¤°":2664,"Ġà¤ıà¤ķà¤¸":2665,"Ġà¤§à¤°à¤¤":2666,"Ġ2016":2667,"per":2668,"à¤ªà¤µà¤²":2669,"à¤Ĭà¤Ł":2670,"Ġà¤¸à¤¹à¤®à¤¤":2671,"ĠPat":2672,"Ġà¤¹à¤¸à¤¨":2673,"Ġà¤®à¤¤à¤®":2674,"à¤ıà¤²à¤®à¤§":2675,"Ġà¥ªà¥©":2676,"ach":2677,"ect":2678,"Ġà¤Ĺà¤µà¤¤":2679,"vernment":2680,"ĠX":2681,"à¤²à¤°à¤ļ":2682,"Ġà¤Ĩà¤·":2683,"Ġà¤ıà¤ľà¤¨":2684,"à¤ķà¤°à¤¨":2685,"Ġà¤¸à¤¹à¤ľà¤ªà¤£":2686,"Ġà¤ªà¤¥":2687,"à¤ĺà¤£":2688,"à¤µà¤¡à¤¤":2689,"Ġà¤Ĩà¤¡à¤µ":2690,"lection":2691,"__":2692,"Ġà¤ľà¤²à¤µ":2693,"Ġà¤ĺà¤¸à¤°à¤²":2694,"à¤¼à¤¾à¤Ĥ":2695,"Ġnot":2696,"à¥Ĥ'":2697,"Ġà¤ĩà¤µ":2698,"Ġà¤Ĩà¤¯à¤°":2699,"Ġ500":2700,"Ġ37":2701,"Ġà¤¶à¤°à¤£":2702,"Ġ32":2703,"ĠAs":2704,"ry":2705,"à¤Ķà¤°":2706,"Ma":2707,"Ġà¤ªà¤°à¤Ńà¤£":2708,"Ġà¥«à¥¨":2709,"Ġ36":2710,"à¤¯à¤°à¤¸à¤ļ":2711,"à¤¾),":2712,"Ġà¤®à¤ķà¤°":2713,"ee":2714,"à¥¥":2715,"ated":2716,"Ġà¤µà¤¸à¤¤":2717,"Ġà¤¦à¤¸à¤°":2718,"Ġà¤ĩà¤¯à¤¤":2719,"à¤ķà¤¬":2720,"Ġà¤ħà¤¨à¤¨":2721,"Ġà¤«à¤¡à¤ķ":2722,"ell":2723,"à¤®à¤¡":2724,"Ġà¤¨à¤¸à¤£":2725,"Ġà¤Ĩà¤µà¤ķ":2726,"Ġi":2727,"Ġà¤¦à¤°à¤¬":2728,"à¤µà¤¡à¤°":2729,"à¤¶à¤¨à¤µà¤°":2730,"Ġà¤Ĩà¤¯à¤ķà¤°":2731,"hed":2732,"ĠEd":2733,"à¤¨à¤ªà¤¦":2734,"à¤Īà¤²à¤ļ":2735,"oh":2736,"à¤ªà¤°à¤¸":2737,"Ġà¤Ĳà¤¨":2738,"Ġyou":2739,"à¤Ĩà¤°à¤¡":2740,"à¤Łà¤µà¤¡":2741,"Ġà¤§à¤¡à¤ª":2742,"Ġà¤¤à¤¨":2743,"à¤§à¤ª":2744,"Ġ198":2745,"à¤Ĥ!":2746,"à¤¦à¤¸":2747,"Ġà¤¨à¤¹":2748,"à¤ĺà¤¡":2749,"ens":2750,"hik":2751,"ĠHe":2752,"orona":2753,",'":2754,"ĠSub":2755,"Ġ90":2756,"ex":2757,"pur":2758,"Ġà¤Ĩà¤¡":2759,"Ġà¤¤à¤²à¤µ":2760,"Ġà¤¦à¤£":2761,"oun":2762,"Ġ=":2763,"à¤Ĺà¤µà¤£":2764,"Ġà¤¨à¤®à¤¸":2765,"ence":2766,"Ġà¤¯à¤ķ":2767,"à¤¶à¤®à¤§":2768,"Ġà¤¨à¤µà¤¨à¤µ":2769,"ru":2770,"à¤®à¤ł":2771,"Ġà¤Ĺà¤³à¤¤":2772,"à¤°à¤£à¤¤":2773,"nà¤Ń":2774,"à¤ħà¤Ĺ":2775,"Ġà¤ĵà¤Ŀ":2776,"Ġwe":2777,"99":2778,"Ġà¤ĸà¤ľ":2779,"à¤¬à¤®à¤§":2780,"Ġà¤Ĩà¤ľà¤ª":2781,"hiv":2782,"PL":2783,"Ġà¤¦à¤¡":2784,"Ġà¤Ńà¤¤":2785,"ame":2786,"rime":2787,"ĠUp":2788,"Ġà¤ªà¤¦à¤°":2789,"à¤Ńà¤®":2790,"à¤¦à¤¯à¤µ":2791,"à¤°à¤µà¤¡":2792,"ĠThackeray":2793,"à¤¹à¤¬":2794,"à¤®à¤£à¤ľ":2795,"à¤Ĩà¤°à¤ª":2796,"à¤ĵà¤²":2797,"Ġà¤ļà¤°à¤¬":2798,"Ġpro":2799,"à¤¤à¤Ĺà¤¤":2800,"à¤¨à¤ľ":2801,"Ġà¥«à¥¬":2802,"com":2803,"à¤¿-":2804,"à¤ķà¤¥":2805,"à¤¬à¤¡à¤¤":2806,"à¤Ńà¤¤":2807,"à¤£à¤¹":2808,"à¤ªà¤µà¤£":2809,"Ġwatch":2810,"li":2811,"ĠPawar":2812,"Ġà¥ªà¥¯":2813,"Ġ33":2814,"à¤µà¤ľà¤£":2815,"Ġà¤īà¤¤à¤°à¤£":2816,"à¥Ģ.\"":2817,"à¤īà¤¨à¤²":2818,"Ġà¤¢à¤µà¤³":2819,"à¤²à¤«":2820,"à¤³à¤¯":2821,"arm":2822,"à¤¶à¤¨à¤°":2823,"ock":2824,"ys":2825,"à¥Ģ/":2826,"à¤¦à¤¦":2827,"Ġà¤°à¤¥":2828,"à¤µà¤°à¤²":2829,"à¤Ŀà¤®":2830,"à¥ªà¥¦":2831,"mitted":2832,"?\"":2833,"Ġà¤Ńà¤°à¤Ńà¤°":2834,"à¤°à¤¸à¤®à¤ľ":2835,"Ġà¤ħà¤µà¤§":2836,"17":2837,"à¤¶à¤¤":2838,"ulture":2839,"à¤·à¤Ń":2840,"Ġà¤ıà¤ħ":2841,"ake":2842,"ight":2843,"Ġà¤īà¤¦à¤¯à¤¨à¤°":2844,"à¤µà¤ĺ":2845,"à¤Łà¤Ĺ":2846,"Ġà¤¨à¤ĸ":2847,"Ġà¤ľà¤¤":2848,"Ġà¤ĵà¤ķ":2849,"Ġex":2850,"à¤¬à¤¤à¤¹":2851,"ucation":2852,"à¤¯à¤¬à¤³":2853,"Ġà¥«à¥®":2854,"ord":2855,"à¤Īà¤¬":2856,"à¤¸à¤ķà¤°":2857,"à¤¹à¤°à¤²":2858,"à¤ľà¤¦à¤°":2859,"Ġà¤īà¤ªà¤¸à¤°à¤ª":2860,"à¤ªà¤¦à¤ķ":2861,"à¤ĳà¤ķ":2862,"Ġall":2863,"23":2864,"Ġà¤°à¤¬":2865,"Ġà¤ıà¤¨à¤¡":2866,"Ġà¤ļà¤ķà¤®à¤ķ":2867,"Ind":2868,"ood":2869,"ĠÂ":2870,"à¤Īà¤«":2871,"Ġà¥§à¥«à¥¦":2872,"BI":2873,"Ġhe":2874,"Ġà¤Ĩà¤¸à¤¨":2875,"Ġ).":2876,"Ġit":2877,"à¤·à¤£à¤®":2878,"Ġà¤Ĺà¤³à¤«":2879,"Ġà¤ªà¤ļà¤¨":2880,"à¤ıà¤¶à¤¨à¤ļ":2881,"Ġà¤ªà¤¸à¤°à¤¤":2882,"à¤°à¤¸à¤°à¤£":2883,"anc":2884,"à¤īà¤²":2885,"ge":2886,"ax":2887,"nà¤ħ":2888,"à¤¸à¤¸à¤¹":2889,"à¤Ĩà¤¯à¤ª":2890,"à¤ľà¤ªà¤ķà¤¡":2891,"edia":2892,"à¤·à¤ļ":2893,"14":2894,"ack":2895,"à¤¸à¤ľ":2896,"Ġà¤µà¤³à¤µ":2897,"à¤¾..":2898,"ong":2899,"à¤Łà¤ķà¤¨":2900,"Ġà¤ĳà¤ª":2901,"âĢ¢":2902,"riculture":2903,"ww":2904,"Ġà¤īà¤¦à¤°":2905,"Ġà¤Ĩà¤¶à¤¯":2906,"Ġà¥¨à¥¦à¥§à¥©":2907,"à¤³à¤®":2908,"à¤ĺà¤¡à¤²":2909,"Ġ:</":2910,"à¤ªà¤¡à¤ªà¤Ł":2911,"à¤¡à¤¦":2912,"à¤ĵà¤¨":2913,"à¤īà¤Ł":2914,"Ġà¤¦à¤¹à¤¶à¤¤":2915,"ĠInter":2916,"az":2917,"Ġà¤®à¤Ĭ":2918,"à¤Ĺà¤ł":2919,"à¤Ĺà¤ªà¤¤":2920,"Ġà¤ĺà¤°à¤ķ":2921,"à¤Ńà¤ª":2922,"Ġvs":2923,"form":2924,"à¤¨à¤ķà¤¡":2925,"Ġà¥§à¥¯à¥«":2926,"à¤¸à¤°à¤ķ":2927,"Ġà¤ķà¤¤":2928,"Ġà¤ıà¤¬":2929,"Ġà¤ķà¤®à¤ķ":2930,"13":2931,"à¤¯à¤Ŀà¤°":2932,"à¤°à¤ļà¤²":2933,"Ġà¤Ĩà¤¦à¤®":2934,"her":2935,"à¤ľà¤µà¤£":2936,"à¤²à¤¶":2937,"Ġà¤Ĩà¤ĸà¤²":2938,"à¥Ģà¤Ĥ;":2939,"à¤°à¤¸à¤¹":2940,"à¤¯à¤®à¤¨":2941,"Ġà¤Ĩà¤ľà¤ķ":2942,"ib":2943,"à¤Ĺà¤µà¤°":2944,"Ġà¥®à¥«":2945,"ubl":2946,"ps":2947,"Ġà¥ªà¥¦à¥¦":2948,"Ġhave":2949,"Ġà¤¯à¤ľà¤®":2950,"Ġà¤ĺà¤Łà¤²":2951,"à¤¾.\"":2952,"à¤Ĩà¤¨":2953,"Ġpl":2954,"Ġà¥«à¥©":2955,"Ġà¤¦à¤°à¤®à¤¹":2956,"Ġà¤Ĺà¤£à¤¨":2957,"irus":2958,"à¤Ŀà¤²":2959,"ace":2960,"hot":2961,"à¥ĩ..":2962,"Ġà¤ħà¤«à¤µ":2963,"Ġà¥ªà¥§":2964,"Ġ34":2965,"25":2966,"à¤£à¤ķà¤°":2967,"old":2968,"Ġà¥«à¥ª":2969,"Pune":2970,"Ġà¤Ĩà¤°à¤¸":2971,"Ġà¤Ĺà¤Ĺà¤¨":2972,"à¤ĩà¤«":2973,"anj":2974,"Ġà¤¬à¤¸à¤ļ":2975,"à¥¨à¥ª":2976,"à¤Ńà¤µà¤¨":2977,"Ġà¤ĵà¤¸":2978,"à¤Łà¤ħà¤ª":2979,"Ġà¤łà¤¸":2980,"Ġà¥¬à¥ª":2981,"à¤£à¤¬":2982,"à¥ĭà¤Ĥ,":2983,"à¥¨à¥¬":2984,"Ġà¤¤à¤¦":2985,"à¤ľà¤µà¤Ł":2986,"Ġà¤Ĺà¤®à¤µ":2987,"Ġà¤Ńà¤ľà¤¨":2988,"Ġà¥¨à¥¦à¥¨à¥©":2989,"PS":2990,"Ġà¤µà¤³à¤²":2991,"à¤ľà¤ªà¤¤":2992,"erv":2993,"Ġour":2994,"Ġà¤²à¤ªà¤µ":2995,"Ġà¤ĺà¤¨":2996,"ream":2997,"ermal":2998,"Ġà¤ľà¤¯à¤¸":2999,"à¤µà¤¨à¤ķ":3000,"Ġas":3001,"à¤ħà¤°à¤®à¤§":3002,"Ġ48":3003,"pr":3004,"Ġà¤ľà¤Ĺà¤¨":3005,"à¤ıà¤¡":3006,"ermalink":3007,"ous":3008,"Ġà¤Ľà¤Ĺà¤¨":3009,"ĠSubmitted":3010,"à¤Ĥ'":3011,"à¤µà¤ł":3012,"Ġà¥«à¥Ń":3013,"Ġà¤¬à¤¸à¤µà¤²":3014,"Ġlive":3015,"à¤Łà¤°à¤ª":3016,"Ġà¤ħà¤¸à¤¹":3017,"Ġà¤ĩà¤¸à¤®":3018,"ĠEducation":3019,"IC":3020,"dd":3021,"ga":3022,"Ġam":3023,"à¤¹à¤±":3024,"à¤«à¤°à¤¨":3025,"à¤¡à¤ĺ":3026,"ĠOn":3027,"ĠZ":3028,"Ġle":3029,"à¤ļà¤µà¤¤":3030,"Ġà¤Ŀà¤³à¤ķ":3031,"Ġus":3032,"Ġà¤ľà¤¤à¤¨":3033,"à¤ħà¤°à¤µà¤°":3034,"Ġà¤ªà¤Łà¤µ":3035,"à¤¦à¤°à¤²":3036,"Ġà¤ĵà¤ł":3037,"Ġà¤ĵà¤°à¤¡":3038,"ĠCom":3039,"Ġà¥¨à¥¦à¥§à¥¨":3040,"Ġwill":3041,"à¥į,":3042,"à¤£à¤ªà¤¦à¤ķ":3043,"Ġà¤ªà¤³à¤µ":3044,"Ġà¤¨à¤²":3045,"à¤°à¤ªà¤Łà¤¸":3046,"ĠLif":3047,"Ġà¤ľà¤¯à¤ª":3048,"à¤µà¤¨à¤¶":3049,"ĠPro":3050,"Ġà¤ħà¤ªà¤²":3051,"à¥¨à¥®":3052,"iss":3053,"ade":3054,"?\\":3055,"ST":3056,"yle":3057,"à¤¨à¤Ł":3058,"Ġà¤¹à¤°à¤µà¤²":3059,"à¤¶à¤µà¤²":3060,"Ġà¤¨à¤µà¤µ":3061,"à¤¶à¤¨à¤¸":3062,"Ġà¤¬à¤¸à¤µà¤£":3063,"ĠTour":3064,"Ġà¥§à¥¯à¥©":3065,"IN":3066,"Ġad":3067,"à¥ĭ!":3068,"à¤¥à¤¶":3069,"à¤Ĩà¤¡":3070,"à¤ŀà¤¤":3071,"Ġà¤ĩà¤¤à¤°à¤¹":3072,"Ġà¥¬à¥Ń":3073,"ĠChan":3074,"Ġà¤ªà¤¬":3075,"à¥ĩ.'":3076,"à¤ķà¤°à¤°":3077,"à¤ľà¤¨à¤¨":3078,"à¤ĵà¤¤":3079,"à¤ıà¤¨à¤ľ":3080,"à¤ķà¤µà¤¤":3081,"Ġà¤Ĺà¤µà¤³":3082,"à¤¤à¤¯":3083,"à¤¡à¤¹":3084,"Ġà¤īà¤łà¤µ":3085,"à¤¤à¤°à¤ª":3086,"Ġà¤łà¤³à¤ķ":3087,"inde":3088,"40":3089,"à¤Īà¤ĵ":3090,"Ġà¤ªà¤°à¤«":3091,"à¤¤à¤ķà¤ļ":3092,"Ġà¤ĵà¤ĺ":3093,"60":3094,"cc":3095,"Ġà¤µà¤²":3096,"à¤Ńà¤¦":3097,"Ġà¤łà¤°à¤µà¤¤":3098,"ks":3099,"Ġà¤§à¤¨à¤Ĺà¤°":3100,"ari":3101,"ena":3102,"In":3103,"Ġor":3104,"Ġà¤¬à¤Łà¤£":3105,"Ġà¤ķà¤¸à¤¬":3106,"Ġà¥¨à¥¦à¥§à¥§":3107,"Ġà¤Ĺà¤¡à¤¦":3108,"ED":3109,"à¤ĭ":3110,"Ġà¤®à¤¯à¤¤":3111,"ise":3112,"à¤¶à¤¨à¤¨":3113,"Home":3114,"Ġà¤Ľà¤ª":3115,"Ġà¤®à¤¦à¤¨":3116,"à¤·à¤¬":3117,"Ġà¤ĩà¤Łà¤²":3118,"à¤Ŀà¤µ":3119,"à¤¤à¤°à¤£à¤ļ":3120,"obs":3121,"à¤łà¤µà¤¤":3122,"à¤Ńà¤§":3123,"à¤ĺà¤µ":3124,"Ġà¤§à¤µà¤¨":3125,"à¤¬à¤°à¤¨":3126,"Ġà¤µà¤¸à¤Ī":3127,"Ġà¤Ĳà¤¸":3128,"cl":3129,"Ġà¤ĸà¤ļ":3130,"à¤µà¤³à¤£":3131,"à¤µà¤¨à¤¸à¤¤":3132,"à¤ĵà¤µ":3133,"Ġsu":3134,"nPermalink":3135,"à¥ĩ),":3136,"ons":3137,"Ġà¥«à¥§":3138,"Ġà¤Īà¤®":3139,");":3140,"à¤£à¤¦":3141,"Ġà¤Ńà¤°à¤µ":3142,"à¤Łà¤²à¤ļ":3143,"à¤£à¤£":3144,"à¤²à¤¢":3145,"Ġà¤¸à¤¹à¤µ":3146,"Ġà¥¬à¥©":3147,"Ġà¤¯à¤¤":3148,"à¤°à¤®à¤µ":3149,"ĠRes":3150,"Ġ99":3151,"Ġà¤ľà¤¯à¤¶":3152,"à¤²à¤ªà¤°":3153,"!!":3154,"Ġare":3155,"à¤¹à¤¦":3156,"Ġà¤¸à¤¦à¤¨":3157,"Ġà¤Ńà¤¡":3158,"à¤§à¤µà¤Ł":3159,"Ġà¥¬à¥®":3160,"able":3161,"JP":3162,"orld":3163,"à¤ļà¤²à¤¨":3164,"Ġà¤¶à¤²":3165,"Ġà¤īà¤£":3166,"à¤Ĩà¤ķ":3167,"Ġà¥®à¥ª":3168,"Ġà¤Ĺà¤¤à¤µà¤°":3169,"Ġà¤°à¤ļ":3170,"à¤ħà¤¤":3171,"ines":3172,"Ġgo":3173,"Ġà¤ªà¤ª":3174,"Ġà¤ħà¤Łà¤²":3175,"à¤Ńà¤¯":3176,"Ġà¤¤à¤¡à¤ľ":3177,"à¤¨à¤µà¤¤":3178,"Ġà¥¬à¥¬":3179,"row":3180,"EO":3181,"Ġun":3182,"à¤ļà¤ªà¤¤":3183,"Ġà¤ĩà¤·":3184,"à¤Ĭà¤ļ":3185,"Ġthis":3186,"Ġà¥¯à¥«":3187,"à¤¸à¤³à¤¤":3188,"à¤³à¤Ĺà¤£":3189,"Ġà¤ķà¤°à¤®":3190,"ĠEx":3191,"Ġà¥Ńà¥¨":3192,"ĠTourism":3193,"'.":3194,"nel":3195,"à¤ĸà¤ļ":3196,"à¤¯à¤¨à¤¶":3197,"Ġlocal":3198,"à¤«à¤ķ":3199,"Ġà¥«à¥¯":3200,"Ġ38":3201,"à¤¯à¤¨à¤ļ":3202,"à¤Łà¤¨à¤ļ":3203,"Ġ65":3204,"Ġ2010":3205,"ush":3206,"odi":3207,"Maharashtra":3208,"AT":3209,"aut":3210,"à¤¯à¤¡à¤°":3211,"à¤¬à¤µà¤¤":3212,"Ġà¤¸à¤¹à¤²":3213,"à¤¬à¤Īà¤®à¤§":3214,"arathi":3215,"ideo":3216,"Ġà¤°à¤£à¤¨":3217,"à¤łà¤ļ":3218,"à¤ķà¤°à¤²":3219,"à¤īà¤¸":3220,"itle":3221,"à¥ģ-":3222,"Ġ--":3223,"Ġà¤ĵà¤¡":3224,"\".":3225,"ts":3226,"à¤¸à¤Ł":3227,"à¤¦à¤µà¤£":3228,"à¤ħà¤°à¤®à¤¨":3229,"à¥ªà¥«":3230,"Ġà¥Ńà¥Ń":3231,"ĠDiv":3232,"estyle":3233,"Ġà¤¯à¤®":3234,"ĠPM":3235,"ctor":3236,"rig":3237,"à¤µà¤®à¤§":3238,"à¤īà¤ª":3239,"htt":3240,"à¤¹à¤ª":3241,"Ġà¤ĸà¤Ł":3242,"à¤²à¤ķà¤¤":3243,"à¤¦à¤¶à¤¹":3244,"PO":3245,"à¤¸à¤³à¤£":3246,"à¤¶à¤Ńà¤ķ":3247,"Ġà¤°à¤£à¤µ":3248,"Ġà¤Ĩà¤ļà¤°à¤£":3249,":/":3250,"à¤¦à¤Ń":3251,"Ġ55":3252,"Ġcan":3253,"ments":3254,"ĠJobs":3255,"Ġà¤īà¤ªà¤®à¤¹":3256,"Ġà¥®à¥®":3257,"à¤ıà¤µà¤¢":3258,"à¤Ĩà¤¦":3259,"à¤Ĥ.\\":3260,"à¤¦à¤¤à¤µ":3261,"Ġà¤ħà¤²à¤°":3262,"à¤ľà¤µà¤³à¤ļ":3263,"Ġag":3264,"na":3265,"à¤¸à¤¶":3266,"Ġà¤Ĩà¤¯à¤«":3267,"ale":3268,"Ġsp":3269,"ions":3270,"ĠMarket":3271,"nà¤²":3272,"à¤¯à¤¯à¤¨":3273,"ical":3274,"à¤¤à¤°à¤ķ":3275,"à¤µà¤µà¤¤":3276,"à¤³à¤ªà¤Ł":3277,"Ġ300":3278,"ĠAn":3279,"Ġ),":3280,"hone":3281,"Ġà¤¶à¤µà¤µ":3282,"Ġà¤Ĺà¤Łà¤¨":3283,"à¤¬à¤µà¤°":3284,"à¤¸à¤ķà¤Ł":3285,"ĠPl":3286,"à¤ıà¤®à¤ıà¤¸":3287,"ĠLifestyle":3288,"ire":3289,"à¤ĸà¤Ł":3290,"Ġà¤īà¤ĺà¤¡à¤¤":3291,"://":3292,"!\\":3293,"à¤ĩà¤ľ":3294,"Ġà¤īà¤®à¤°":3295,"reaming":3296,"Ch":3297,"nath":3298,"port":3299,"à¤°à¤µà¤¸":3300,"à¤ªà¤°à¤µ":3301,"à¤ıà¤Łà¤°":3302,"à¤Ĩà¤Ī":3303,"Ġà¤ĳà¤¬":3304,"Ġà¤īà¤®à¤Łà¤²":3305,"Ġso":3306,"à¤ļà¤°à¤£":3307,"Ġà¤®à¤Ł":3308,"Ġà¤ĩà¤¬":3309,"orp":3310,"Ġà¤«à¤²à¤Łà¤£":3311,"à¥Ģ..":3312,"Ġà¤ıà¤ķà¤ľ":3313,"ata":3314,"ĠAr":3315,"Ġà¥Ńà¥¬":3316,"Ġà¤ļà¤ª":3317,"Ġà¤īà¤¡à¤¤":3318,"rit":3319,"Ġà¤ľà¤¬à¤°":3320,"Ġà¤Ńà¤¡à¤ķ":3321,"Ġà¤¬à¤¸à¤®à¤§":3322,"Ġà¤¸à¤Ł":3323,"Ġ44":3324,"Ġà¥§à¥¯à¥¦":3325,"ĠStreaming":3326,"Ġà¤ļà¤®à¤ķà¤¦":3327,"Ġà¤§à¤¡à¤ªà¤¡":3328,"à¥ĭà¤ĥ":3329,"oll":3330,"Ġà¤ĵà¤³à¤ĸà¤£":3331,"ĠPolice":3332,"Ġ$":3333,"à¤Ńà¤³":3334,"Ġà¤Ńà¤°à¤§":3335,"Ġà¤ĳà¤¨":3336,"à¥¨à¥Ń":3337,"ĠChannel":3338,"à¥Ģ,\"":3339,"à¤µà¤¡à¤ķ":3340,"Ġà¥¯à¥¯":3341,"à¤Īà¤Łà¤µà¤°":3342,"ĠâĢ¢":3343,"Ġà¤ĥ":3344,"Ġà¤ľà¤ªà¤£":3345,"Ġà¤²à¤¢à¤µà¤£":3346,"ime":3347,"Ġà¤ļà¤®":3348,"Ġà¤ªà¤¦à¤Ń":3349,"ati":3350,"Ġà¤ªà¤Łà¤ķà¤¨":3351,"ss":3352,"Ġà¤ĩà¤Ł":3353,"ance":3354,"Ġà¥Ńà¥®":3355,"ĠTv":3356,"national":3357,"Ġà¤¦à¤Ĺà¤¡à¤«":3358,"hy":3359,"à¦":3360,"à¤³à¤ķà¤¤":3361,"Ġà¤¬à¤Ĺ":3362,"Ġà¤ļà¤¢à¤²":3363,"Ġà¤īà¤ªà¤Ĺ":3364,"Ġà¤Ĩà¤°à¤¬":3365,"se":3366,"à¤²à¤ªà¤Ł":3367,"à¤Łà¤¸à¤¹":3368,"à¤Ĩà¤ĺ":3369,"à¤®à¤ķà¤¤":3370,"led":3371,"à¤µà¤ªà¤ķ":3372,"à¥¬à¥¦":3373,"Ġà¤īà¤¤à¤°à¤µ":3374,"à¤ĵà¤ª":3375,"à¤µà¤ªà¤³":3376,"Ġà¥¯à¥®":3377,"à¤·à¤¶":3378,"à¤īà¤²à¤Ł":3379,"ister":3380,"Ġà¤ªà¤°à¤³":3381,"Ġà¤Ĩà¤ªà¤£à¤ļ":3382,"à¥©à¥Ń":3383,"Ġà¥¯à¥Ń":3384,"Ġà¤ıà¤®à¤ıà¤¸":3385,"ĠJio":3386,"Mumbai":3387,"Ġà¤µà¤³à¤¤":3388,"Ġà¤²à¤¯":3389,"Ġà¤Ńà¤¨":3390,"Ġà¤īà¤¬à¤¦":3391,"à¤¾à¤¾":3392,"à¤ªà¤ª":3393,"à¤«à¤ļ":3394,"Ġà¥¬à¥¯":3395,"ays":3396,"à¤Ĥ-":3397,"à¤µà¤¯à¤ķ":3398,"Ġà¤²à¤µà¤ļ":3399,"Ġà¤µà¤°à¤¦":3400,"Ġjour":3401,"à¤£à¤ĺ":3402,"Ġà¤ħà¤łà¤°":3403,"Ġà¤¨à¤Ł":3404,"Ġà¤°à¤¡à¤¤":3405,"à¤¤à¤°à¤¦":3406,"à¤Īà¤²à¤µà¤°":3407,"Ġà¤¥à¤ķà¤µ":3408,"adi":3409,"ĠPatil":3410,"à¤ľà¤³":3411,"à¤ıà¤ª":3412,"olog":3413,"ute":3414,"à¤ļà¤ªà¤¦":3415,"Ġà¤¹à¤Łà¤ķ":3416,"à¤¬à¤²à¤ķ":3417,"Ġà¤ħà¤µà¤®":3418,"Ġà¥Ńà¥ª":3419,"ĠDe":3420,"ĠDivya":3421,"à¥į'":3422,"Ġà¤µà¤¸à¤²":3423,"à¤ĩà¤ª":3424,"Ġ42":3425,"Ġ47":3426,"Ġà¤īà¤²à¤Łà¤²":3427,"Ġ197":3428,"à¤¹à¤¶":3429,"à¥ĭ)":3430,"à¤·à¤µà¤°":3431,"Ġà¤ªà¤°à¤µà¤¡à¤£":3432,"à¤¸à¤¨à¤²":3433,".)":3434,"à¤¶à¤Ń":3435,"Ġà¤¦à¤Ĺ":3436,"ory":3437,"eed":3438,"à¤®à¤ķà¤°":3439,"Ġà¤ķà¤®à¤°":3440,"ĠTe":3441,"agar":3442,"Ġà¤¢à¤ķà¤²à¤£":3443,"Ġà¤īà¤ªà¤ª":3444,"ished":3445,"Ġ150":3446,"IDEO":3447,"à¤Ĺà¤¬":3448,"Ġà¤µà¤³à¤¸":3449,"à¤¡à¤°à¤²":3450,"ities":3451,"à¤ıà¤«à¤ļ":3452,"Ġal":3453,"Ġà¤²à¤¡":3454,"Ġà¤¥à¤ķà¤²":3455,"rib":3456,"à¤Ĩà¤¶":3457,"Ġ2011":3458,"ogle":3459,"ĠShinde":3460,"Ġà¤īà¤ªà¤Ń":3461,"à¤Ĺà¤¤à¤ļ":3462,"à¤ªà¤°à¤¹":3463,"ĠMin":3464,"ĠPr":3465,"Ġà¤ĳà¤«à¤²":3466,"à¤¶à¤ķà¤°":3467,"à¤ķà¤°à¤¦":3468,"à¥ħà¤ģ":3469,"à¥¨à¥¯":3470,"ani":3471,"à¤¡à¤³à¤ķà¤°":3472,"ĠGen":3473,"Ġà¤īà¤¡à¤µà¤²":3474,"ations":3475,"eet":3476,"à¤ľà¤ķà¤¡":3477,"à¤ľà¤µà¤¤":3478,"Ġà¤ľà¤®à¤¤":3479,"à¤Ńà¤¨":3480,"Ġà¤Ĩà¤¢à¤³à¤£":3481,"ĠTitle":3482,"Ġ@":3483,"à¥ĩà¥ĩ":3484,"à¤¯à¤°à¤ļ":3485,"à¤·à¤²à¤µ":3486,"Ġà¤Ńà¤²à¤¤":3487,"à¥īà¤ģ":3488,"à¤°à¤¶à¤ķ":3489,"à¤®à¤¨à¤¸":3490,"ont":3491,"Ġà¤¨à¤ķà¤³à¤¤":3492,"hats":3493,"Ġà¤ħà¤µà¤°":3494,"à¤Ĺà¤°à¤ļ":3495,"Ġà¤¨à¤°à¤¸":3496,"à¤ħà¤ľ":3497,"ond":3498,"Ġà¥¨à¥¦à¥¦à¥¯":3499,"hu":3500,"Ġà¤¹à¤¡à¤ª":3501,"Ġà¤ķà¤¸à¤°à¤¤":3502,"alth":3503,"Ġ2012":3504,"Ġind":3505,"Ġwho":3506,"ĠFor":3507,"PM":3508,"à¤¯à¤ĺà¤Łà¤¨":3509,"à¤ķà¤ķà¤°":3510,"à¤¾à¤Ĥà¤Ĥ":3511,"à¤Ńà¤µà¤£":3512,"à¤Ĩà¤²":3513,"à¤ľà¤¡":3514,"Ġà¤²à¤Łà¤ķ":3515,"à¤ĵà¤¸":3516,"ings":3517,"vel":3518,"à¤£à¤®à¤§":3519,"Ġà¤ªà¤¸à¤°":3520,"Ġà¤®à¤ł":3521,"Ġà¤²à¤¢à¤²":3522,"à¤ĸà¤¨à¤¨":3523,"Ġà¥Ńà¥¯":3524,"Ġà¤Ńà¤Ĺà¤¤à¤¸":3525,"26":3526,"ni":3527,"ook":3528,"à¤¨à¤¤à¤°":3529,"à¤¨à¤¸à¤°":3530,"Ġà¤īà¤°à¤£":3531,"Ġ400":3532,"Ġ196":3533,"Ġà¤¯à¤¹":3534,"à¤ĩà¤¨à¤ļ":3535,"GB":3536,"Ġà¤£":3537,"Ġà¤¸à¤¹à¤¯":3538,"à¤¹à¤¨à¤¹":3539,"Ġà¤Ķà¤ªà¤ļ":3540,"Ġhas":3541,"less":3542,"Ġà¤¦à¤³à¤µ":3543,"Ġà¤Ĺà¤¸":3544,"ater":3545,"Ġ39":3546,"Ġà¤īà¤ļà¤²à¤¤":3547,"à¤¨à¤¸à¤¹":3548,"Ġà¤ķà¤³à¤£":3549,"Ġà¤ħà¤¨à¤²":3550,"à¤ľà¤¨à¤¶":3551,"à¥©à¥«":3552,"ĠElection":3553,"gl":3554,"pl":3555,"à¤¤à¤Ĳà¤µà¤ľ":3556,"à¤£à¤ľ":3557,"Ġà¤Ĺà¤¯":3558,"Ġà¥¯à¥¬":3559,"à¤Ĩà¤¯à¤Ĩà¤°":3560,"à¤ıà¤®à¤Ĩà¤°à¤¡":3561,"red":3562,"à¤£à¤µà¤£":3563,"à¤³à¤®à¤§":3564,"Ġà¤¬à¤¬":3565,"Ġà¤ķà¤°à¤ª":3566,"Ġà¤ıà¤ķà¤®à¤¤":3567,"à¥Ģ,'":3568,"à¤¾?\"":3569,"Ġ2007":3570,"à¤®à¤ļà¤°":3571,"à¤Ĭà¤¨à¤®":3572,"Ġà¤ķà¤®à¤³":3573,"Ġà¥¨à¥¦à¥¦à¥¦":3574,"ali":3575,"Ġà¤Ķà¤ļ":3576,"à¤¨à¤¯à¤Ń":3577,"Ġà¤īà¤¦à¤°à¤¨":3578,"pt":3579,"à¤°à¤¬à¤³":3580,"Ġà¤ļà¤¢à¤¤":3581,"Ġà¤ıà¤®à¤ª":3582,"Ġà¤Ĺà¤£à¤µ":3583,"Ġà¤Ĩà¤Īà¤µà¤¡":3584,"à¤³à¤ªà¤°":3585,"à¤ıà¤¸à¤ļ":3586,"Ġ43":3587,"Ġà¤Ĺà¤Łà¤µ":3588,"knath":3589,"Ġà¤¶à¤ª":3590,"à¤¶à¤¨à¤¶":3591,"à¤¡à¤¨à¤®à¤§":3592,"à¥®à¥¦":3593,"ala":3594,"Ġà¥§à¥¨à¥¦":3595,"à¤¾/":3596,"à¤ļà¤Ĺ":3597,"Ġà¤Ĺà¤ľà¤°":3598,"à¤¢à¤¤à¤ļ":3599,"ingh":3600,"à¤Ĩà¤°à¤Ł":3601,"Ġà¤²à¤¢à¤µà¤²":3602,"ĠVIDEO":3603,"Â·":3604,"à¤Īà¤°":3605,"Ġà¤ªà¤°à¤¤à¤«":3606,"Ġà¥¨à¥«à¥¦":3607,"Ġà¤įà¤ķ":3608,"CB":3609,"Ġà¤ķà¤µà¤ļ":3610,"ere":3611,"Ġà¥¬à¥¨":3612,"ĠCrime":3613,"Ġà¤¸à¤«à¤°à¤ļ":3614,"orpor":3615,"80":3616,"à¤¯à¤¡à¤¨":3617,"à¤ķà¤ĺà¤°":3618,"à¤¸à¤¨à¤Ĺà¤°":3619,"à¤ĵà¤®":3620,"Ġà¥®à¥¯":3621,"ident":3622,"Ġà¤¦à¤¡à¤ªà¤£":3623,"nà¤ļ":3624,"Ġà¤ªà¤³à¤¤":3625,"à¤ľà¤¯à¤ķ":3626,"Ġà¤ıà¤°à¤µ":3627,"à¤Īà¤®à¤§":3628,"Ġà¤Ĩà¤°à¤¡":3629,"à¤§à¤µà¤°":3630,"à¤¬à¤°à¤¤":3631,"à¤°à¤¶à¤¸":3632,"Ġà¤ªà¤Łà¤µà¤°":3633,"Ġà¤¹à¤Łà¤µà¤£":3634,"ĠUpd":3635,"ublished":3636,"à¤¸à¤°à¤ķà¤°":3637,"Ġà¤ªà¤¡à¤¸":3638,"Ġà¤ĺà¤¡à¤µà¤£":3639,"ocial":3640,"Ġà¤ªà¤¡à¤³à¤ķà¤°":3641,"Ġà¤²à¤¶":3642,"Ġà¥¬à¥§":3643,"Ġà¥®à¥¬":3644,"à¤ªà¤¡à¤£":3645,"Ġà¤¡à¤¹":3646,"à¤¯à¤ļà¤ķ":3647,"Ġà¤ĺà¤°à¤«":3648,"à¥ĩà¤¼":3649,"Ġà¤ļà¤·":3650,"à¤Ĭà¤¦":3651,"à¤Ĺà¤£à¤¨":3652,"ĠSc":3653,"Ġà¥®à¥Ń":3654,"oss":3655,"ĠAgriculture":3656,"à¤µà¤¨à¤ļ":3657,"à¤µà¤§à¤°":3658,"Ġà¤ĸà¤¬à¤°":3659,"Ġà¤ªà¤°à¤¶":3660,"à¤į":3661,"à¤¸à¤«à¤°":3662,"Ġà¤Ĩà¤Ĺà¤³":3663,"Ġà¤ķà¤°à¤¦":3664,"à¤Ĩà¤Ĺ":3665,"ina":3666,"ane":3667,"Ġà¤ķà¤¡à¤ķà¤¡":3668,">\"":3669,"sk":3670,"Ġà¤ªà¤Łà¤¤":3671,"Ġà¤ĩà¤«":3672,"Ġà¤ħà¤¨à¤ª":3673,"Ġà¥¯à¥ª":3674,"Ġà¤¨à¤Ĺà¤°à¤µ":3675,"à¤¤à¤¸à¤°":3676,"Ġà¤¦à¤³à¤£":3677,"ich":3678,"ĠInternational":3679,"Ġà¤¶à¤ªà¤¥à¤µ":3680,"te":3681,"Ġà¤¨à¤¬":3682,"Ġà¤ľà¤Ł":3683,"Ġà¤¬à¤¤":3684,"à¤Īà¤¨à¤ļ":3685,"à¤°à¤®à¤¶":3686,"à¤ıà¤®à¤ļ":3687,"à¤Ĩà¤°à¤¸":3688,"Ġà¤Ĩà¤ªà¤£à¤¹":3689,"Ġà¤īà¤®à¤Ł":3690,"Ġà¥¯à¥¨":3691,"Ġà¥¨à¥¦à¥§à¥¦":3692,"Ġà¤µà¤¡à¤Ĺ":3693,"Ġwas":3694,"Ġà¥¨à¥¦à¥¦à¥®":3695,"SE":3696,"out":3697,"à¤Ĭà¤¨à¤²":3698,"Ġà¤¦à¤°à¤¡":3699,"ĠModi":3700,"mer":3701,"nà¤ıà¤ķ":3702,"à¤ħà¤®à¤°":3703,"Ġ2013":3704,"2016":3705,"à¤ļà¤µà¤Ł":3706,"à¤®à¤ªà¤£":3707,"Ġà¤²à¤¹à¤°":3708,"à¤Ĩà¤ł":3709,"à¥©à¥©":3710,"ork":3711,"ĠAt":3712,"Ġà¤ıà¤¨à¤Ĩà¤¯":3713,"Ġà¤ıà¤ļà¤¡":3714,"IA":3715,"ta":3716,"ĠQ":3717,"à¤¹à¤°à¤ļ":3718,"Ġà¤Ĺà¤ļ":3719,"Ġà¤ļà¤·à¤ķ":3720,"à¤Łà¤ķà¤ļ":3721,"Ġà¤ĵà¤¢à¤²":3722,"Ġà¤īà¤ªà¤¸à¤Ń":3723,"Ġ46":3724,"Ġà¤ķà¤³à¤µà¤²":3725,"Ġà¤Ĺà¤¡à¤¬à¤¡":3726,"à¤¸à¤Ĺà¤¡":3727,"à¤¶à¤µà¤¤":3728,"à¤Īà¤µà¤°":3729,"Ġ52":3730,"à¤¯à¤¶à¤¸":3731,"oy":3732,"à¤µà¤¸à¤®":3733,"à¤ĩà¤¤":3734,"Ġà¤¸à¤®à¤ķ":3735,"à¤¾à¥ħ.":3736,"AN":3737,"à¤®à¤£à¤¤":3738,"Ġà¤Ĩà¤ī":3739,"Ġà¤¨à¤°à¤ķ":3740,"Ġà¤¨à¤µà¤ľ":3741,"Ġà¤ĵà¤³à¤ĸà¤ªà¤¤":3742,"anjay":3743,"Ġhtt":3744,"Ġà¤ķà¤¬à¤¡":3745,"Ġà¤¹à¤¯":3746,"Ġà¤Ĺà¤ł":3747,"Ġà¤Ĩà¤ªà¤Ł":3748,"Ġres":3749,"Ġgovernment":3750,"CP":3751,"à¤Łà¤ĸ":3752,"right":3753,"Ġà¤ıà¤ķà¤ª":3754,"Ġà¤¸à¤®à¤µ":3755,"cess":3756,"à¤°à¤Ĺà¤°":3757,"Ġà¤¯à¤·":3758,"Ġà¤¨à¤¤":3759,"Ġà¤ľà¤¯à¤¦":3760,"Ġà¤ļà¤¢à¤µ":3761,"à¤²à¤ķà¤²":3762,"Ġà¤°à¤®à¤£":3763,"Ġà¥¯à¥©":3764,"Ġ64":3765,"Ġà¥§à¥®à¥¯":3766,"ddhav":3767,"]\\":3768,"à¤°à¤¤à¤°à¤¤":3769,"à¤ļà¤°à¤²":3770,"Ġà¤Ĩà¤µà¤°à¤£":3771,"Ġà¤®à¤°à¤¤":3772,"à¤ªà¤ªà¤¤":3773,"à¤Ĩà¤ľà¤ļ":3774,"its":3775,"à¤°à¤³à¤®à¤§":3776,"Ġà¤īà¤²à¤Ĺà¤¡":3777,"à¥ĳ":3778,"à¤¿'":3779,"à¤µà¤¬à¤³":3780,"à¤¬à¤Ĺ":3781,"à¤ĸà¤°à¤ª":3782,"à¤°à¤®à¤¸":3783,"Ġà¤ªà¤°à¤¤à¤¤":3784,"Ġà¥Ńà¥©":3785,"amb":3786,"BJP":3787,"Ġra":3788,"à¤ķà¤¸à¤¹":3789,"à¤ķà¤°à¤®":3790,"à¤ĥ-":3791,"à¤¯à¤²à¤Ł":3792,"à¥«à¥Ń":3793,"bout":3794,"à¤¯à¤Ĺà¤°":3795,"à¤¯à¤®à¤¯":3796,"ney":3797,"Ġà¤Ĩà¤ķà¤²à¤¨":3798,"Ġà¤¤à¤Łà¤ķà¤°":3799,"à¤¦à¤ĸ":3800,"à¤¡à¤µà¤¤":3801,"Ġ139":3802,"Ġà¤µà¤Ĺà¤³à¤£":3803,"à¤°à¤³à¤ķ":3804,"à¥Ģ(":3805,"Ġà¤Ĩà¤¯à¤¤":3806,"Ġà¤ľà¤¯à¤ķ":3807,"Ġà¤°à¤ľà¤¨":3808,"Ġ56":3809,"lect":3810,"Ġ01":3811,"ign":3812,"App":3813,"ove":3814,"à¤ªà¤ķà¤°":3815,"à¤Ĺà¤°à¤®":3816,"à¤·à¤ªà¤£":3817,"à¤°à¤ķà¤ļ":3818,"Ġà¤¸à¤®à¤¯":3819,"à¥¨à¥¦à¥¦":3820,"ashik":3821,"ĠIt":3822,"Ġà¤Ĩà¤Īà¤¸":3823,"Ġà¤ĺà¤¡à¤µà¤²":3824,"Shiv":3825,"à¤µà¤ĸ":3826,"Ġà¤®à¤®":3827,"à¤¶à¤ľ":3828,"à¥Ī,":3829,"Ġà¤ĩà¤Ĺ":3830,"Ġà¤Īà¤¸":3831,"avirus":3832,"::":3833,"jit":3834,"à¤ļà¤µà¤°":3835,"Ġà¤¬à¤¨à¤¸":3836,"Ġà¤ļà¤Łà¤ķ":3837,"Ġà¥¬à¥¦à¥¦":3838,"29":3839,"ðŁ":3840,"Ġà¤īà¤łà¤µà¤²":3841,"Ġà¤Ĩà¤ªà¤¸":3842,"oronavirus":3843,"à¤¾(":3844,"à¤ķà¤«":3845,"à¤Ńà¤Ł":3846,"à¤Ńà¤°à¤£":3847,"à¤¸à¤¨à¤ļ":3848,"à¤¨à¤¸à¤¶":3849,"à¤Ĩà¤¯à¤¡":3850,"Ġà¤Ĭà¤¨":3851,"à¤¤à¤ĸ":3852,"Ġà¤Ĩà¤Ĭà¤Ł":3853,"Ġà¤¤à¤µ":3854,"à¤Łà¤¡":3855,"à¤«à¤¸à¤«":3856,"Ġà¥Ńà¥§":3857,"à¥ĩ?\\":3858,"Raj":3859,"nav":3860,"à¤¨à¤°à¤ļ":3861,"à¤ķà¤ķà¤²":3862,"à¤§à¤¡":3863,"Ġà¤ľà¤¨à¤¹":3864,"adl":3865,"ĠBy":3866,"Ġà¤ªà¤°à¤®à¤¬":3867,"Ġhy":3868,"hoto":3869,"Ġà¤ĺà¤¶":3870,"Ġà¤«à¤¡":3871,"Ġà¤µà¤°à¤³":3872,"ara":3873,"arn":3874,"à¤¤à¤®à¤ľ":3875,"Ġà¤§à¤¡à¤ķà¤²":3876,"AM":3877,"à¤¨à¤«":3878,"Ġà¤¸à¤¡":3879,"Ġà¤ķà¤°à¤¨":3880,"à¤ķà¤²à¤ļ":3881,"enc":3882,"ite":3883,"Ġà¤įà¤¸":3884,"ie":3885,"mber":3886,"à¥Ĵ":3887,"à¤Ĥ;":3888,"Ġà¤ħà¤¯à¤¶à¤¸":3889,"ree":3890,"à¤ıà¤¨à¤ı":3891,"agram":3892,"28":3893,"Ġà¤Ĩà¤¤à¤¡":3894,"Ġà¤īà¤®à¤Łà¤¤":3895,"Ġ41":3896,"à¤ıà¤¸à¤Ī":3897,"200":3898,"les":3899,"day":3900,"ral":3901,"Ġà¤Ĩà¤ĸà¤£":3902,"Ġà¤®à¤Ĺà¤°":3903,"à¤ªà¤¦à¤°":3904,"Ġà¤¤à¤Ĺ":3905,"à¤°à¤¸à¤Ń":3906,"à¤ħà¤¹":3907,"stagram":3908,"Ġà¤ĺà¤¸à¤°":3909,"à¤¹à¤£à¤²":3910,"vers":3911,"à¤²à¤Ĺà¤¤à¤ļ":3912,"SS":3913,"Ġà¤°à¤¯à¤¤":3914,"Ġà¤Ŀà¤°":3915,"Ġà¤«à¤¤":3916,"à¥©à¥®":3917,"Ġ?\"":3918,"Ġ250":3919,"47":3920,"CC":3921,"Ġ51":3922,"Ġà¤īà¤łà¤¤":3923,"Ġà¤¢à¤ķà¤²à¤²":3924,"à¥ĩà¥¤":3925,"Ġ('":3926,"Ġà¤¸à¤¦à¤°à¤ļ":3927,"!\"":3928,"à¤Łà¤µà¤¸":3929,"Ġà¤¨à¤µà¤¸":3930,"Ġà¤¬à¤°à¤¸":3931,"à¤¾,\"":3932,"Ġà¤ľà¤¨à¤°":3933,"ĠAd":3934,"Ġ95":3935,"à¤ıà¤¸à¤Ĩà¤¯":3936,"ĠChi":3937,"ĠGoogle":3938,"man":3939,"Ãĳ":3940,"Ġà¤Ńà¤¦":3941,"Ġà¤Łà¤³à¤²":3942,"à¤ĺà¤Łà¤ķ":3943,"à¤¾,'":3944,"à¤Łà¤¨à¤®à¤§":3945,"Ġà¤¸à¤°à¤ķà¤¤":3946,"Ġà¤ıà¤®à¤¬":3947,"Ġà¤ĭà¤£":3948,"Ġà¤įà¤¡":3949,"An":3950,"nHome":3951,"à¤¾à¥Ī":3952,"à¤ļà¤ªà¤°":3953,"Ġà¤ľà¤ªà¤²":3954,"à¤ıà¤ĸ":3955,"à¤®à¤¨à¤Ĺà¤°":3956,"ĠSingh":3957,"Ġà¤ªà¤°à¤¤à¤£":3958,"Ġsh":3959,"à¤µà¤Ī":3960,"Ġà¤ļà¤¢à¤£":3961,"Ġà¤ªà¤¤à¤¸":3962,"Ġ49":3963,"274":3964,"ï¿":3965,"à¤ļà¤°à¤ļ":3966,"Ġà¤¹à¤°à¤Ńà¤°":3967,"à¤¾.]\\":3968,"Ġà¤ĸà¤£":3969,"à¤°à¤£à¤µ":3970,"Ġà¤ĩà¤°à¤«":3971,"à¥ªà¥®":3972,"à¥©à¥¨":3973,"à¤īà¤°":3974,"ased":3975,"Ġà¤ªà¤¸à¤°à¤µ":3976,"India":3977,"à¤·à¤¯à¤°":3978,"ourt":3979,"Ġà¤ıà¤«à¤Ĩà¤¯à¤Ĩà¤°":3980,"Ġà¤ªà¤łà¤£":3981,"Ġà¤¸à¤Ĺ":3982,"à¤¾à¤Ĥ.":3983,"à¤Łà¤ªà¤°":3984,"à¤ŁÃĳ":3985,"à¤¤à¤ļà¤°":3986,"Ġà¤ľà¤®à¤µ":3987,"ĠStain":3988,"gh":3989,"Ġà¤ķà¤Łà¤ķ":3990,"Ġà¤ħà¤³":3991,"à¤Ĺà¤°à¤£":3992,"Ġà¤«à¤¸à¤µ":3993,"à¤ľà¤ªà¤µà¤°":3994,"Ġà¥®à¥©":3995,"Ġà¤°à¤£à¤¬":3996,"ĠGenes":3997,"de":3998,"med":3999,"Ġà¤ħà¤ªà¤¤":4000,"Ġà¤¬à¤ľà¤°":4001,"à¤ĸà¤¸":4002,"à¤«à¤¡à¤£à¤µ":4003,"à¤µà¤¨à¤¸":4004,"à¤µà¤§à¤Ĺ":4005,"Ġ85":4006,"ĠJind":4007,"ission":4008,"ĠJindal":4009,"31":4010,"Ġà¤Ĩà¤¯à¤ķ":4011,"Ġà¤¸à¤«à¤°":4012,"Ġà¤ľà¤¸à¤ª":4013,"Ġà¤Ŀà¤²à¤ķ":4014,"à¤Ĭà¤¨à¤®à¤§":4015,"Ġà¤Ĩà¤¯à¤Ĩà¤¯à¤Ł":4016,"à¥ªà¥Ń":4017,"Ġ195":4018,"ĠStainless":4019,"ĠGenesys":4020,"bi":4021,"Ġhi":4022,"Ġà¤®à¤µ":4023,"à¤³à¤Ĺà¤²":4024,"à¤Ńà¤°à¤¤":4025,"à¤¤à¤°à¤²":4026,"Ġà¤īà¤ªà¤ħà¤§":4027,"ini":4028,"ital":4029,"olice":4030,"Ġde":4031,"Ġà¤ĭà¤·à¤Ń":4032,"ï¿½":4033,"03":4034,"à¤ªà¤³à¤Ĺ":4035,"Ġà¤ħà¤¥":4036,"Ġà¤¹à¤°à¤µ":4037,"ins":4038,"Ġà¤®à¤²à¤Ī":4039,"Ġà¤¸à¤¤à¤¤à¤ļ":4040,"à¤®à¤¸à¤Ń":4041,"lease":4042,"adlines":4043,"der":4044,"à¤ļà¤¡":4045,"Ġà¤«à¤¸à¤²":4046,"Ġà¤¡à¤¬à¤²":4047,"Ġà¤Ĩà¤¯à¤Łà¤®":4048,"à¥¯à¥¦":4049,"à¤¾?\\":4050,"ung":4051,"à¤ıà¤«à¤¸":4052,"ecial":4053,"Ġà¤¹à¤¡à¤ªà¤¸à¤°":4054,"nà¤Ĩà¤ªà¤²":4055,"à¤¹à¤Ĺà¤¡":4056,"à¤ľà¤¯à¤¨":4057,"Ġà¤²à¤ĸ":4058,"à¤¤à¤ķà¤®":4059,"Ġà¤ĩà¤¤à¤°à¤¤":4060,"Ġà¥®à¥¨":4061,"Ġà¤Īà¤µ":4062,"ents":4063,"à¤ıà¤®à¤Ł":4064,"45":4065,"à¤¬à¤²à¤ļ":4066,"Ġà¤ķà¤®à¤ľ":4067,"/-":4068,"ti":4069,"Ġà¤ķà¤«":4070,"Ġà¤ķà¤¡à¤µ":4071,"Ġà¤¸à¤Ī":4072,"à¤ªà¤°à¤®":4073,"à¤ľà¤Ń":4074,"à¤¸à¤¨à¤¸":4075,"à¤ıà¤¸à¤ıà¤¸":4076,"adnav":4077,"à¤µà¤Łà¤ªà¤°":4078,"gaon":4079,"adnavis":4080,"à¤°à¤¤à¤°":4081,"à¤ķà¤¸à¤¤":4082,"Ġà¤¸à¤ķà¤²":4083,"à¤Łà¤¶":4084,"à¤¶à¤¤à¤ķ":4085,"Ġà¤¦à¤£à¤ķ":4086,"Ġ',":4087,"Ġà¤ķà¤®à¤µ":4088,"Ġà¤ıà¤¸à¤¯":4089,"ĠRaj":4090,"Ġà¤ķà¤³à¤¸":4091,"Ġ2009":4092,"à¤¬à¤§à¤¬":4093,"evendra":4094,"gan":4095,"Ġx":4096,"à¤¤à¤ľà¤®":4097,"à¤¸à¤¬à¤°":4098,"à¤¸à¤ªà¤£":4099,"à¤Ĺà¤ľà¤¨":4100,"Ġà¤²à¤ł":4101,"Ġà¤¸à¤®à¤²":4102,"à¤°à¤ªà¤¡":4103,"à¤µà¤³à¤²":4104,"à¤ªà¤£à¤¨":4105,"Ġ58":4106,"à¤¹à¤²à¤ªà¤®":4107,"Ġme":4108,"Ġ2008":4109,"--------":4110,"way":4111,"à¤°à¤£à¤¹":4112,"Ġà¤¸à¤®à¤Ń":4113,"à¤¸à¤²à¤ļ":4114,"à¥Ńà¥«":4115,"Ġà¤ıà¤²à¤Īà¤¡":4116,"ount":4117,"AR":4118,"ron":4119,"Ġà¤ķà¤¢":4120,"Ġà¤¤à¤Łà¤¸":4121,"Ġà¤ħà¤²à¤Ĺ":4122,"Ġà¤°à¤¬à¤°":4123,"Ġà¤Ĺà¤¨":4124,"Ġà¤īà¤Ĺà¤®":4125,"à¤Īà¤¶":4126,"à¤ķà¤°à¤µ":4127,"Ġà¥¨0":4128,"Ġà¤ħà¤ķà¤¬à¤°":4129,"ĠWhats":4130,"Ġyour":4131,"):":4132,"35":4133,"Corona":4134,"à¤¸à¤ĺ":4135,"à¤¡à¤ķà¤¡":4136,"à¤¬à¤°à¤®":4137,"à¤ĺà¤¡à¤£":4138,"ams":4139,"Ġà¤²à¤ĺà¤µ":4140,"sh":4141,"Ġà¤¬à¤¡à¤Ĺ":4142,"Ġà¤ıà¤Ĺ":4143,"Ġà¤ĸà¤Ĺ":4144,"à¤°à¤ĸà¤°":4145,"à¤°à¤ªà¤Łà¤Ĺ":4146,"eng":4147,"Ġsc":4148,"irst":4149,"Ġà¥§à¥¦à¥¦à¥¦":4150,"Ġà¤Ŀà¤³à¤ķà¤²":4151,"Ġà¤ķà¤£à¤ķ":4152,"à¥Ĥ)":4153,"Ġà¤¹à¤°à¤£":4154,"à¤³à¤Ń":4155,"à¤³à¤Ĺà¤¤":4156,"à¤łà¤ªà¤£":4157,"à¤ıà¤¸à¤ķ":4158,"à¤¬à¤Īà¤¹":4159,"à¥«à¥«":4160,"à¤ľà¤°à¤¨":4161,"à¤ıà¤¸à¤ª":4162,"Ġà¥®à¥§":4163,"Ġà¥®à¥¦à¥¦":4164,"à¤ĳà¤«":4165,"ube":4166,"MP":4167,"act":4168,"lar":4169,"nà¤Ł":4170,"à¤¾à¥¤":4171,"à¤¸à¤¦à¤°":4172,"Ġà¤¸à¤¡à¤ķ":4173,"Ġà¤ªà¤Ĺà¤¡":4174,"Ġà¤¨à¤¯à¤¨":4175,"à¤łà¤¬à¤³":4176,"à¤¯à¤ķà¤¡":4177,"Ġà¤§à¤¬à¤§à¤¬":4178,"Ġà¤Ĩà¤ľà¤®":4179,"à¤¸à¤¨à¤¨":4180,"Ġà¤Ľà¤Ł":4181,"à¥Ńà¥¦":4182,"ĠHeadlines":4183,"Ġsupp":4184,"Ġà¤ľà¤³à¤ľ":4185,"à¥©à¥§":4186,"ics":4187,"Ġà¤¸à¤¨à¤¦":4188,"Ġpe":4189,"Ġà¤īà¤ĺà¤¡à¤ªà¤£":4190,"ĠKhan":4191,"ĠOf":4192,"Ġà¤ļà¤¢à¤µà¤²":4193,"Ġà¤ķà¤¹à¤°":4194,"ĠYou":4195,"Ġhyper":4196,"à¤ĩà¤¤à¤°":4197,"Ġ2000":4198,"Ġpr":4199,"37":4200,"Phone":4201,"Shar":4202,"bs":4203,"mb":4204,"à¤¹à¤ķà¤°":4205,"Ġà¤¤à¤«":4206,"Ġà¤Ŀà¤Ĺ":4207,"à¤¯à¤¤à¤ķ":4208,"Ġà¤Ĩà¤°à¤ª":4209,"Ġà¤ķà¤²à¤°":4210,"ĠAM":4211,"Ġ54":4212,"Ġse":4213,"Ġ67":4214,"Ġread":4215,"acc":4216,"book":4217,"Ġà¤¦à¤³à¤£à¤µà¤³à¤£":4218,"IPL":4219,"Ġà¤ķà¤µà¤¡":4220,"Ġà¤¨à¤µà¤µà¤°":4221,"à¤ĵà¤°à¤¡":4222,"à¥©à¥ª":4223,"ition":4224,"Ġco":4225,"rap":4226,"ious":4227,"ET":4228,"Sh":4229,"nà¤«":4230,"à¥ĩ(":4231,"à¤¬à¤°à¤µà¤°":4232,"à¤¬à¤Īà¤¸":4233,"Ġà¥§à¥®à¥®":4234,"Ġà¤ªà¤¸à¤°à¤µà¤£":4235,"ĠWorld":4236,"SC":4237,"rol":4238,"à¤²à¤¥":4239,"à¤£à¤°":4240,"Ġà¤Ĩà¤°à¤®":4241,"Ġà¤®à¤¥":4242,"Ġà¤¨à¤¡":4243,"Ġà¤īà¤ķà¤³":4244,"Ġà¤Ŀà¤Łà¤ªà¤Ł":4245,"à¤°à¤®à¤ļ":4246,"à¤°à¤µà¤³":4247,"à¤Ĩà¤īà¤Ł":4248,"à¤¬à¤Īà¤¤à¤²":4249,"ors":4250,"Ġtake":4251,"Ġà¤Ĩà¤Īà¤¬":4252,"lic":4253,"rans":4254,"Ġim":4255,"Ġà¤¹à¤°à¤²":4256,"à¤Łà¤²à¤µà¤°":4257,"à¤Łà¤¨à¤°":4258,"à¤¬à¤Īà¤¸à¤¹":4259,"à¤ıà¤®à¤Ĩà¤¯":4260,"Ġabout":4261,"DA":4262,"wit":4263,"à¤¯à¤ªà¤°":4264,"Ġà¤¸à¤¶à¤¸":4265,"à¤Ĭà¤¥":4266,"à¤¼à¥ĩ":4267,"Ġà¤Ĩà¤®à¤¨":4268,"Ġà¤ľà¤¨à¤ķ":4269,"à¥©à¥¬":4270,"Ġcities":4271,"St":4272,"The":4273,"mp":4274,"à¤µà¤ªà¤¦":4275,"Ġà¤¤à¤Ł":4276,"à¤ĺà¤²":4277,"à¤ıà¤¬":4278,"à¤®à¤²à¤¦":4279,"Ġà¥¯à¥§":4280,"Ġmedia":4281,"Ġà¤¹à¤³à¤¹à¤³":4282,"Ġhous":4283,"ĠâĢ":4284,"à¤²à¤¬à¤°":4285,"à¤µà¤ªà¤Ł":4286,"Ġà¤ªà¤°à¤ª":4287,"Ġà¤ĩà¤®à¤°":4288,"à¤Ĩà¤¯à¤²":4289,"à¤ĩà¤Łà¤ļ":4290,"Ġà¥Ńà¥¦à¥¦":4291,"hak":4292,"à¤ĳà¤°":4293,"vert":4294,"ĠAll":4295,"ĠMinister":4296,"mi":4297,"vi":4298,"à¤Ĥà¤Ĥ":4299,"Ġà¤¤à¤¬à¤²":4300,"à¤¦à¤ľ":4301,"à¤¡à¤§":4302,"à¤·à¤ľ":4303,"Ġà¤¬à¤ķà¤°":4304,"Ġà¤ļà¤¨":4305,"à¤ĥ,":4306,"à¤²à¤¬à¤ļ":4307,"Ġà¤īà¤Ńà¤¯à¤¤":4308,"ĠIPL":4309,"90":4310,"à¤¯à¤°à¤¨":4311,"Ġà¤ħà¤¸à¤®à¤°":4312,"Ġà¤ĺà¤£":4313,"à¥Ģ.'":4314,"à¤ħà¤µ":4315,"à¤ħà¤°à¤¸":4316,"à¤ıà¤ķà¤¦":4317,"à¤Īà¤²à¤®à¤§":4318,"Ġà¤ĵà¤¢à¤£":4319,"arendra":4320,"ĠBl":4321,"ips":4322,"Ġà¤ľà¤³à¤ľà¤³":4323,"34":4324,"MC":4325,"local":4326,"nal":4327,"à¤µà¤ľà¤¯":4328,"à¤¦à¤¬":4329,"à¥Ĥà¤Ĥ.":4330,"Ġà¤ħà¤ķà¤¸":4331,"Ġà¤ļà¤Łà¤£":4332,"à¤ħà¤°à¤¨":4333,"à¥ªà¥ª":4334,"uld":4335,"Ġà¤ĸà¤³à¤¬à¤³à¤ľà¤¨à¤ķ":4336,"nà¤®à¤¹":4337,"so":4338,"Ġà¤Ĩà¤ķà¤¸":4339,"Ġà¤Ĺà¤µà¤¸":4340,"Ġà¤Ŀà¤Ł":4341,"à¤ķà¤¡à¤²":4342,"à¤Ĺà¤²à¤ļ":4343,"à¤ĵà¤µà¤°":4344,"à¥©à¥¯":4345,"à¤ļà¤²à¤ķà¤°":4346,"Ġà¥§à¥¨à¥«":4347,"à¤°à¤«à¤³":4348,"uj":4349,"à¤¯à¤§":4350,"à¤ķà¤¯":4351,"Ġà¤¸à¤°à¤¸à¤ķà¤Ł":4352,"Ġsame":4353,"à¤¡à¤°à¤µà¤°":4354,"ose":4355,"Ġà¥©à¥«à¥¦":4356,"ongress":4357,"Go":4358,"app":4359,"Ġà¤®à¤¦à¤°":4360,"à¤ľà¤µà¤¡":4361,"à¤·à¤£à¤Ńà¤°":4362,"Ġ53":4363,"Ġà¤¹à¤²à¤µà¤£":4364,"ike":4365,"oin":4366,"Ġà¤Ĩà¤¦à¤²":4367,"Ġ1000":4368,"Ġà¤ħà¤ľà¤®":4369,"Ġà¤ªà¤¸à¤°à¤£":4370,"Ġ02":4371,"Ġ03":4372,"Ġhyperlocal":4373,"02":4374,"LA":4375,"à¤®à¤°à¤¸":4376,"Ġà¤µà¤£":4377,"à¤¶à¤ķà¤¤":4378,"Ġà¤ļà¤Ł":4379,"Ġà¤ıà¤ķà¤²":4380,"à¤ķà¤²à¤®à¤§":4381,"Ġà¤ķà¤³à¤µà¤£":4382,"Ġ06":4383,"Ġ08":4384,"à¤ĳà¤¨à¤²":4385,"à¤ķà¤Ĺ":4386,"Ġà¤Ĺà¤¢":4387,"Ġà¤ħà¤¨à¤°":4388,"Ġ04":4389,"eg":4390,"Ġà¤Ĩà¤µà¤¡à¤£":4391,"Ġà¤¹à¤¸à¤²":4392,"à¤Ĩà¤°à¤ļ":4393,"à¤¶à¤¨à¤¹":4394,"Ġ120":4395,"à¤ĩà¤²à¤ļ":4396,"Ġ!\"":4397,"à¥¤à¥¤":4398,"IS":4399,"TC":4400,"Ġà¤µà¤£à¤µ":4401,"Ġà¤°à¤¤à¤¨":4402,"à¤¥à¤ªà¤£":4403,"Ġà¤ıà¤¸à¤¬":4404,"Ġ72":4405,"Ġà¤ĸà¤¡à¤¤à¤°":4406,"32":4407,"ft":4408,"ple":4409,"Ġà¤ħà¤¸à¤®":4410,"à¤µà¤°à¤ķ":4411,"Ġà¤ļà¤¹à¤²":4412,"à¤ľà¤ªà¤¸":4413,"ĠMay":4414,"à¤¸à¤®à¤°":4415,"ĠGovernment":4416,"Ġà¤īà¤¸à¤³à¤²":4417,"Ġà¤Ĩà¤Ŀà¤®":4418,"ext":4419,"ER":4420,"IT":4421,"Te":4422,"line":4423,"zon":4424,"à¤¦à¤ķà¤°":4425,"à¤Łà¤ķà¤¡":4426,"Ġà¤ľà¤¯à¤°":4427,"à¥ħà¤¾":4428,"à¤ıà¤ıà¤¸":4429,"Ġà¤ªà¤£à¤ľ":4430,"Ġà¤ĵà¤¤":4431,"à¤ĵà¤¹":4432,"Ġshar":4433,"Ġpm":4434,"Ġà¥§à¥Ńà¥«":4435,"epend":4436,"now":4437,"Ġà¤²à¤ªà¤²":4438,"à¤Ŀà¤¡":4439,"à¥ĭ.\"":4440,"Ġwh":4441,"ĠVideo":4442,"à¤Łà¤°à¤®":4443,"à¤¡à¤¨à¤ļ":4444,"Ġà¤īà¤§à¤³":4445,"à¤Ĩà¤ļ":4446,"icle":4447,"Ġà¤ľà¤¸à¤ľà¤¸":4448,"Ġà¥¨à¥¦à¥¦à¥«":4449,"Ġà¥¨à¥¦à¥¦à¥Ń":4450,"Ġà¤¦à¤¶à¤°à¤¥":4451,"ke":4452,"à¤·à¤¹":4453,"à¤ıà¤¨à¤ª":4454,"Ġwww":4455,"Ġmy":4456,"ĠFadnavis":4457,"Ġà¤¹à¤Łà¤µà¤²":4458,"fter":4459,"à¤Łà¤Ńà¤°":4460,"à¤ĸà¤ªà¤£":4461,"à¤µà¤°à¤¸":4462,"Ġà¤īà¤°à¤¤":4463,"Ġà¤ıà¤®à¤¸":4464,"à¤ķà¤²à¤ķ":4465,"à¤¦à¤²à¤¹":4466,"Ġ59":4467,"Ġ05":4468,"very":4469,"Ġà¤Ĩà¤¡à¤¨":4470,"à¤¬à¤ľ":4471,"à¤¾.'":4472,"Ġà¤®à¤¹à¤°":4473,"Ġà¤Ĩà¤¤à¤®à¤§":4474,"à¥¬à¥«":4475,"ĠIm":4476,"Ġ66":4477,"Ġ74":4478,"hay":4479,"Ġà¤µà¤Ĺà¤³à¤²":4480,"IM":4481,"à¤¤à¤¨à¤ļ":4482,"à¤¹à¤ļà¤µ":4483,"Ġà¤ľà¤²à¤¯":4484,"Ġà¤Ŀà¤Ĺà¤¡":4485,"à¤Īà¤ªà¤²":4486,"à¤Ĺà¤¤à¤ľ":4487,"Ġ57":4488,"ĠFace":4489,"à¤¡à¤µà¤²à¤¶":4490,"à¤¯à¤ªà¤¦à¤ķ":4491,"Ġà¤ķà¤£à¤ķà¤µà¤²":4492,"witter":4493,"nà¤ĸ":4494,"ual":4495,"à¤ķà¤ħ":4496,"à¤¡à¤ªà¤¤":4497,"à¤§à¤¸":4498,"à¥ĩ....":4499,"Ġà¤īà¤¡à¤£":4500,"à¤°à¤¸à¤¤":4501,"ert":4502,"à¤¨à¤µà¤ľ":4503,"ĠPar":4504,"hah":4505,"à¥ĩ\",":4506,"Ġà¤²à¤ĸà¤¨à¤Ĭ":4507,"oj":4508,"à¤¦à¤ķà¤¤":4509,"à¤ľà¤«":4510,"Ġà¤¯à¤¦":4511,"Ġà¤²à¤ľ":4512,"hir":4513,"à¤¨à¤Ĺà¤°à¤®à¤§":4514,"Ġà¤¹à¤¤à¤¬à¤²":4515,"Ah":4516,"à¤°à¤ĺà¤°":4517,"à¤¾à¤Ĥ'":4518,"Ġà¤Ńà¤¸":4519,"ĠTh":4520,"ĠIndian":4521,"ĠEngl":4522,"____":4523,"38":4524,"Ġà¤ķà¤¤à¤°":4525,"Ġà¤¤à¤¡à¤ķ":4526,"Ġà¤¬à¤¬à¤¨":4527,"Ġà¤ĺà¤¸":4528,"à¤¾.,":4529,"à¤ĺà¤ļ":4530,"Ġcr":4531,"Ġà¥§à¥®à¥¦":4532,"à¥ĩ).":4533,"à¤ĳà¤¸":4534,"ific":4535,"07":4536,"HO":4537,"ave":4538,"Ġ%":4539,"à¥Ĥ?":4540,"à¤³à¤¹":4541,"Ġà¤ĸà¤±":4542,"à¤¯à¤®à¤®à¤§":4543,"...\\":4544,"à¤ıà¤¸à¤ıà¤¨":4545,"Ġà¥§à¥¦à¥®":4546,"uture":4547,"opy":4548,"uccess":4549,"mail":4550,"mission":4551,"rat":4552,"sc":4553,"à¤¤à¤µà¤°":4554,"à¤²à¤ķà¤¡":4555,"à¤¨à¤Īà¤ļ":4556,"à¤ļà¤ªà¤£":4557,"à¤¸à¤ªà¤°":4558,"Ġà¤ħà¤ļà¤²":4559,"à¤§à¤¹":4560,"Ġà¤ıà¤¶":4561,"Ġ\",":4562,"ĠDr":4563,"Ġ09":4564,"ĠApple":4565,"ĠWhatsApp":4566,"à¥Ģà¥¤":4567,"Ġà¤µà¤¯à¤¸":4568,"ories":4569,"ĠIN":4570,"Ġà¤ħà¤ĸà¤¤":4571,"Ġ800":4572,"aper":4573,"Ġà¤īà¤łà¤£":4574,"ife":4575,"armer":4576,"à¤¸à¤ħà¤ª":4577,"à¤Ĺà¤ķà¤°":4578,"Ġà¤µà¤°à¤¤":4579,"Ġà¤ıà¤²à¤ª":4580,"à¤ıà¤¤":4581,"à¤Ĩà¤Ĭà¤Ł":4582,"agpur":4583,">(":4584,"la":4585,"à¤¤à¤¥":4586,"à¤¸à¤Ĺà¤³":4587,"à¤¡à¤¸à¤¹":4588,"Ġà¤¦à¤ª":4589,"Ġà¤ľà¤Ĺà¤²":4590,"à¤ĸà¤ª":4591,"Ġà¤ĸà¤µà¤²":4592,"Ġà¤īà¤ªà¤¹":4593,"à¤¯à¤ķà¤²à¤µà¤°":4594,"nA":4595,"Ġar":4596,"Ġà¤ħà¤Ŀ":4597,"Ġà¤ħà¤²à¤ķ":4598,"à¤¡à¤ªà¤£":4599,"Ġà¤ķà¤°à¤¡":4600,"Ġà¤īà¤°à¤ķ":4601,"à¤¤à¤°à¤®":4602,"à¤·à¤£à¤¹":4603,"à¤¹à¤°à¤¨":4604,"à¤īà¤ļ":4605,"ĠRaut":4606,"iral":4607,"ĠJul":4608,"igh":4609,"ĠSpecial":4610,"ead":4611,"ting":4612,"Ġro":4613,"à¥ĩ/":4614,"à¤¹à¤ļà¤£":4615,"Ġà¤Ĩà¤¤à¤²":4616,"Ġà¤¤à¤¹à¤ķ":4617,"Ġà¤µà¤¦":4618,"à¤Ĩà¤¯à¤ķà¤¡":4619,"Ġà¥§à¥®à¥Ń":4620,"ower":4621,"à¤¨à¤Ńà¤°à¤ª":4622,"Ġcontin":4623,"Ġsupport":4624,"36":4625,"ON":4626,"nà¤Ĩ":4627,"à¤¤à¤¤à¤³":4628,"à¤¸à¤®à¤¨":4629,"à¥ĭ\"":4630,"Ġà¤¸à¤¶à¤ķ":4631,"Ġà¤¹à¤°à¤Ń":4632,"à¤³à¤°":4633,"à¤¸à¤²à¤¤":4634,"Ġà¤ħà¤ªà¤¹":4635,"à¤¹à¤¨à¤§":4636,"ĠMan":4637,"Ġà¤¤à¤ªà¤ķ":4638,"ĠIPO":4639,"Ġ600":4640,"Ġà¤°à¤¹à¤¦":4641,"Ġà¥¨à¥¦à¥¦à¥ª":4642,"à¤°à¤°à¤ķ":4643,"à¤¬à¤®":4644,"Ġà¤°à¤«":4645,"Ġà¤Ŀà¤¡à¤¤":4646,"à¤ĺà¤¡à¤¤":4647,"Ġà¤ĵà¤ª":4648,"Ġà¤ľà¤¨à¤Ĺà¤£à¤¨":4649,"à¤¸à¤®à¤¸":4650,"Ġà¤«à¤³à¤¬":4651,"Ġà¤¤à¤³à¤®à¤³":4652,"ool":4653,"à¤¤à¤ªà¤¦":4654,"Ġà¤ħà¤ªà¤¨":4655,"Ġà¤¹à¤°à¤ª":4656,"à¤³à¤ªà¤£":4657,"à¤¥à¤µà¤°":4658,"Ġà¤ıà¤¨à¤°":4659,"à¤Ĩà¤¯à¤µ":4660,"à¤Łà¤²à¤°":4661,"à¤°à¤ªà¤ķ":4662,"Ġà¤ĵà¤¤à¤£":4663,"Ġà¤īà¤Ńà¤¯":4664,"ĠCourt":4665,"Ġ2024":4666,"Ġ62":4667,"à¤¸à¤°à¤¸":4668,"à¤¸Âºà¤¯":4669,"Ġà¤®à¤²à¤ķ":4670,"Ġà¤ħà¤¥à¤ķ":4671,"atform":4672,"ĠAug":4673,"Ġà¤īà¤¤à¤°à¤µà¤²":4674,"Ġ07":4675,"ĠiPhone":4676,"formation":4677,"Social":4678,"Ġà¤ķà¤²à¤ķà¤¤":4679,"à¤®à¤ķà¤°à¤£":4680,"Ġà¤¸à¤°à¤¤":4681,"à¤°à¤¤à¤®":4682,"ĠPlease":4683,"Ġ68":4684,"Ġà¤Ĩà¤łà¤µà¤¡à¤¯":4685,"elhi":4686,"Ġà¤¹à¤®à¤ĸ":4687,"Ġà¤īà¤ķà¤³à¤¤":4688,"ĠÂ»":4689,"ĠâĢº":4690,"09":4691,"IV":4692,"aid":4693,"à¤¦à¤µà¤¡":4694,"à¤ľà¤ķà¤¤":4695,"ĠDay":4696,"Ġpost":4697,"ĠRec":4698,"Ġher":4699,"ople":4700,"Ġà¤¤à¤¡à¤«":4701,"à¥¯à¥¯à¥¯":4702,"Ġà¤Ńà¤¡à¤ķà¤²":4703,"05":4704,">-":4705,"chi":4706,"fer":4707,"Ġà¤¬à¤¢à¤¤":4708,"Ġà¥Ĳ":4709,"Ġà¤ĺà¤Łà¤¤":4710,"à¤«à¤Ł":4711,"Ġà¤¥à¤Ł":4712,"Ġà¤ķà¤®à¤²à¤¨":4713,"Ġà¤īà¤¦à¤ĺ":4714,"Ġà¤ıà¤®à¤ıà¤®à¤Ĩà¤°à¤¡":4715,"Ġà¤²à¤¢à¤µà¤¤":4716,"à¤ıà¤ļà¤¡":4717,"Ġà¤Ŀà¤³à¤ķà¤£":4718,"Ġà¤ļà¤¡":4719,"à¤Ĥ...":4720,"à¤®à¤¨à¤°":4721,"à¤µà¤¨à¤®":4722,"Ġà¤ľà¤¨à¤®":4723,"à¥¯à¥«":4724,"Ġ71":4725,"à¤ıà¤®à¤®à¤§":4726,"Ġ88":4727,"à¤ĩà¤²à¤µà¤°":4728,"ages":4729,"Ġà¥¨à¥¦à¥¦à¥¬":4730,"Ġhttps":4731,"lip":4732,"ule":4733,"Ġz":4734,"à¤¹à¤Ĺ":4735,"Ġà¤¸à¤¨à¤°":4736,"Ġà¤¹à¤¬":4737,"à¤¶à¤µà¤°":4738,"à¤Ńà¤Ĺ":4739,"Ġà¤Ńà¤°à¤µà¤£":4740,"à¤°à¤®à¤ª":4741,"à¤¨à¤Ĺà¤°à¤ļ":4742,"Ġ61":4743,"Ġ2004":4744,"min":4745,"à¥įà¤¼":4746,"à¤¯à¤Łà¤°":4747,"à¤¨à¤Ĺà¤¡":4748,"à¤µà¤ļà¤¨":4749,"Ġà¤¬à¤°à¤ĸ":4750,"à¤¥à¤¡":4751,"Ġà¤ļà¤£":4752,"à¤¤à¤°à¤ľ":4753,"Ġà¤¸à¤¹à¤ľà¤¤":4754,"Ġà¥¯à¥¦à¥¦":4755,"Ġfuture":4756,"à¥ĩ'.":4757,"Ġà¥¦à¥§":4758,"mazon":4759,"Ġcontrib":4760,"ny":4761,"nà¤ªà¤£":4762,"sp":4763,"Ġu":4764,"Ġhis":4765,"à¤¯à¤¦à¤°":4766,"à¤¨à¤¬à¤°":4767,"Ġà¤Ĩà¤Ĺà¤°":4768,"Ġà¤¦à¤¡à¤²":4769,"à¤°à¤¤à¤ļ":4770,"à¤°à¤®à¤¦":4771,"Ġà¤¤à¤¸à¤¤à¤¸":4772,"Ġà¤ľà¤¨à¤¨":4773,"ĠCup":4774,"Ġcorpor":4775,"Ġ78":4776,"ĠMaha":4777,"Ġà¤°à¤£à¤¦":4778,"ther":4779,"Marathi":4780,"oor":4781,"à¤µà¤Ĺà¤£":4782,"Ġà¤ĩà¤ļà¤²à¤ķà¤°":4783,"à¤°à¤µà¤ļà¤¨":4784,"à¤¯à¤®à¤°":4785,"à¥¬à¥¬":4786,"Ġà¤ľà¤Ĺà¤ľ":4787,"ĠTest":4788,"Ġman":4789,"Ġà¥§à¥§à¥¦":4790,"ĠOff":4791,"Tube":4792,"à¤°à¤Ĺà¤£":4793,"à¤®à¤¸à¤°":4794,"à¤ªà¤¤à¤°":4795,"Ġà¤¬à¤¸à¤¨":4796,"à¤µà¤¤à¤ļ":4797,"à¤¬à¤Īà¤ķà¤¡":4798,"ars":4799,"à¤±à¤¯":4800,"Ġà¤ħà¤µà¤ľà¤¡":4801,"ĠCl":4802,"à¤ıà¤®à¤ıà¤ļ":4803,"ovid":4804,"ukh":4805,"Ġà¤ıà¤ħà¤°à¤²":4806,"48":4807,"EC":4808,"à¤£à¤¬à¤¤":4809,"à¤¬à¤ª":4810,"à¥Ī'":4811,"Ġà¤¸à¤®à¤Ĺ":4812,"à¤¹à¤°à¤®à¤§":4813,"à¤īà¤Ŀ":4814,"Ġ!'":4815,"ĠAir":4816,"ande":4817,"Ġch":4818,"ruit":4819,"à¤ĭà¤¤":4820,"à¤ļà¤ĸ":4821,"à¤¸à¤·":4822,"à¤ľà¤®à¤¹":4823,"Ġà¤°à¤ļà¤£":4824,"Ġà¤łà¤ªà¤ķ":4825,"Ġà¤¡à¤Ŀà¤¨":4826,"à¤ªà¤°à¤Ĺ":4827,"ĠSe":4828,"Ġà¤Ĳà¤¨à¤µ":4829,"Ġ97":4830,"reat":4831,"Ġà¥¨à¥¦à¥¨à¥ª":4832,"ĠInt":4833,"Ġcontinue":4834,"He":4835,"PF":4836,"ty":4837,"à¤£à¤¶":4838,"à¤ľà¤ĺà¤°":4839,"à¤Ńà¤®à¤¨":4840,"à¥Īà¤ĥ":4841,"à¤¯à¤¤à¤¨":4842,"à¥ªà¥¯":4843,"Ġdis":4844,"ries":4845,"Ġhon":4846,"ĠEnglish":4847,"CM":4848,"Devendra":4849,"Ġà¤¸à¤ľà¤µ":4850,"à¤ħà¤°à¤µ":4851,"à¤ĩà¤¥":4852,"Ġà¤ħà¤ľà¤¬":4853,"Ġ96":4854,"ĠJan":4855,"ĠOct":4856,"Ġà¤ıà¤ħà¤°à¤Ł":4857,"Ġjourney":4858,"ology":4859,"Ġindepend":4860,"Coronavirus":4861,"nà¤Ĩà¤¤":4862,"Ġart":4863,"à¤¤à¤«":4864,"à¤¨à¤Ĭ":4865,"Ġà¤Ńà¤µà¤¤":4866,"Ġà¤īà¤«":4867,"à¤°à¤µà¤¯":4868,"Ġà¤Ĩà¤¯à¤¶":4869,"Ġ!\\":4870,"Ġ77":4871,"Ġà¤§à¤°à¤£à¤Ĺ":4872,"ally":4873,".]":4874,"100":4875,"500":4876,"had":4877,"sena":4878,"à¤¬à¤¶":4879,"Ġà¤ªà¤°à¤µà¤¡à¤¤":4880,"à¤ıà¤°":4881,"à¤¬à¤Īà¤¨":4882,"à¤µà¤¶à¤ķ":4883,"Ġplatform":4884,"33":4885,"du":4886,"ris":4887,"Ġ`":4888,"à¤¯à¤«à¤²":4889,"Ġà¤Ĺà¤®à¤¤":4890,"Ġà¤ĺà¤°à¤ª":4891,"à¤¹à¤£à¤µ":4892,"Ġà¤ĺà¤°à¤Ł":4893,"Ġà¤ªà¤¦à¤¯":4894,"ĠMedia":4895,"Ġà¥§à¥¨à¥®":4896,"Ġà¤įà¤ª":4897,"Ġà¤īà¤ľà¤³":4898,"Ġà¥§à¥¯à¥¯à¥¯":4899,"vertise":4900,"49":4901,"AS":4902,"iy":4903,"nS":4904,"oon":4905,"à¤°à¤Ĺà¤²":4906,"à¤°à¤ľà¤¨à¤¨":4907,"Ġà¤¹à¤¸à¤£":4908,"Ġà¤¨à¤¨":4909,"Ġà¤ĵà¤¢à¤¤":4910,"à¤īà¤¨à¤ļ":4911,"Ġte":4912,"Ġà¤Īà¤ª":4913,"Ġà¤ħà¤¡à¤µà¤²":4914,"roup":4915,"Ġone":4916,"Ġà¤ĵà¤¢à¤µà¤²":4917,"Ġà¥©à¥Ńà¥¦":4918,"Ġhouses":4919,"IP":4920,"nB":4921,"ner":4922,"Ġà¤¿":4923,"à¥įà¥į":4924,"à¤¤à¤Ł":4925,"à¤ķà¤µà¤¸":4926,"à¤¡à¤Ľ":4927,"Ġà¤ķà¤°à¤®à¤£":4928,"Ġà¤ĺà¤¸à¤°à¤¤":4929,"à¤¯à¤¤à¤ļ":4930,"Ġà¤Ĩà¤¯à¤ıà¤ıà¤¸":4931,"à¤²à¤¨à¤ķà¤°":4932,"à¥«à¥®":4933,"à¤ľà¤¯à¤¸":4934,"ĠCopy":4935,"IND":4936,"Ġcontribute":4937,"MK":4938,"Uddhav":4939,"à¤¨à¤¤à¤®":4940,"à¤µà¤ĸà¤°":4941,"à¤Łà¤°à¤µ":4942,"à¤µà¤²à¤¨":4943,"à¤°à¤¸à¤®":4944,"Ġà¤Ĩà¤ľà¤µà¤°à¤ļ":4945,"à¤Łà¤°à¤ªà¤°":4946,"à¤ķà¤Łà¤µà¤°":4947,"Ġche":4948,"Ġà¤®à¤¶à¤°":4949,"abad":4950,"PSC":4951,"Ġadvertise":4952,"Sanjay":4953,"nà¤¡":4954,"à¤¹à¤ļà¤¤":4955,"Ġà¤ªà¤Łà¤£":4956,"Ġà¤¤à¤Ĺà¤¡":4957,"Ġà¤ľà¤ªà¤¤":4958,"à¤°à¤®à¤²":4959,"à¤Ĭà¤¬":4960,"à¤ªà¤°à¤ļ":4961,"à¤Łà¤°à¤«":4962,"à¤¨à¤²à¤ļ":4963,"à¤ĵà¤ľ":4964,"Ġà¤Ĳà¤°à¤£":4965,"Ġà¤ıà¤¸à¤ıà¤®à¤ıà¤¸":4966,"Ġ69":4967,"Ġ2005":4968,"Ġjournal":4969,"Ġgovernments":4970,"BC":4971,"à¤ķà¤ķà¤³":4972,"à¤¸à¤¯":4973,"à¤ľà¤Ńà¤µà¤¨":4974,"à¤³à¤ĺ":4975,"Ġà¤°à¤¹à¤®":4976,"Ġà¤īà¤ķà¤²":4977,"à¤ħà¤¬":4978,"à¥ĭ...":4979,"à¤¯à¤²à¤ļ":4980,"à¥¯à¥®":4981,"ĠSep":4982,"à¤īà¤¡":4983,"Ġà¤¨à¤Ĺà¤°à¤®à¤§":4984,"Ġ93":4985,"Ġà¤īà¤¤à¤°à¤µà¤£":4986,"à¤¯à¤¨à¤²à¤®à¤§":4987,"Ġindependent":4988,"06":4989,"hon":4990,"rest":4991,"Ġ00":4992,"à¤¯à¤¬à¤²":4993,"à¤²à¤¸à¤°":4994,"à¤²à¤¸à¤¹":4995,"à¤µà¤¤à¤°":4996,"à¤®à¤¦à¤°":4997,"Ġà¤ĩà¤¯à¤°":4998,"Ġà¤ĺà¤°à¤¬":4999,"ĠRE":5000,"Ġ76":5001,"à¤ıà¤¨à¤¯":5002,"ĠUn":5003,"à¤¯à¤Łà¤¨à¤¸":5004,"istan":5005,"Ġreaders":5006,"01":5007,"39":5008,"af":5009,"Ġà¤¤à¤³à¤£":5010,"Ġà¤ħà¤ĺ":5011,"à¤Ĺà¤¡à¤ļ":5012,"à¤§à¤°à¤£":5013,"Ġà¤¨à¤¥":5014,"Ġà¤ľà¤²à¤ķ":5015,"à¤ĸà¤µà¤Ł":5016,"Ġà¤īà¤łà¤µà¤£":5017,"à¤ĵà¤¬":5018,"à¤°à¤¹à¤ľà¤°":5019,"Ġà¤¬à¤¸à¤ª":5020,"ĠPublished":5021,"à¤Īà¤¨à¤Ĺà¤°":5022,"ĠCO":5023,"Ġchi":5024,"à¤°à¤³à¤ļ":5025,"à¤¨à¤°à¤²":5026,"à¤¹à¤µà¤°":5027,"Ġà¤¸à¤ªà¤ķ":5028,"à¤¦à¤¡":5029,"à¤¦à¤µà¤¨":5030,"Ġà¤µà¤Łà¤µ":5031,"à¥ĩ.)":5032,"Ġà¤²à¤Ĺà¤¤à¤ļ":5033,"à¤Īà¤Łà¤ļ":5034,"Ġà¤¸à¤°à¤²":5035,"à¤¼à¥Ģ":5036,"à¤ħà¤°à¤²":5037,"à¤Ĺà¤¤à¤ª":5038,"à¤¬à¤°à¤ł":5039,"à¤¸à¤²à¤Ĺ":5040,"Ġ!!":5041,"ĠApr":5042,"Ġà¤ħà¤µà¤Ĺà¤¤":5043,"ĠCase":5044,"Ġà¤Ĺà¤£à¤°":5045,"Ġ63":5046,"Ġà¤ªà¤¡à¤Ŀà¤¡":5047,"Ġà¤ıà¤®à¤ıà¤ļ":5048,"rop":5049,"Ġà¤ıà¤¨à¤ª":5050,"Ġà¥¨à¥¦à¥¦à¥§":5051,"à¤ļà¤µà¤¡à¤®à¤§":5052,"à¤½à¤½":5053,"ahul":5054,"Ġsupported":5055,"Ġcorporate":5056,"Ġhonest":5057,"Ġadvertisements":5058,"MS":5059,"ble":5060,"get":5061,"to":5062,"à¤²à¤Ŀ":5063,"à¤ķà¤Łà¤²":5064,"à¤£à¤Ń":5065,"à¤®à¤ľà¤²":5066,"à¥ģ'":5067,"à¤ªà¤ķà¤¤":5068,"Ġà¤ħà¤°à¤£":5069,"Ġà¤¦à¤¡à¤ª":5070,"Ġà¤ľà¤¯à¤µ":5071,"à¤µà¤°à¤¦":5072,"Ġà¤ĺà¤¨à¤¤":5073,"Ġà¤ĵà¤¹":5074,"à¤¤à¤¨à¤ª":5075,"Ġà¤Īà¤¦":5076,"ĠGB":5077,"Ġà¤ļà¤µà¤¦":5078,"Ġà¤¶à¤¹à¤°à¤µ":5079,"Ġà¥§à¥©à¥¦":5080,"riya":5081,"à¤ĳà¤ªà¤°":5082,"oday":5083,"Ġunbi":5084,"Ġjournalism":5085,"Ġunbiased":5086,"nà¤¸à¤°":5087,"à¤µà¤Ĺà¤¡":5088,"Ġà¤ľà¤³à¤¤":5089,"à¤°à¤¦à¤ķ":5090,"à¥¯à¥¬":5091,"andhi":5092,"Ġà¤ħà¤Ĺà¤¦à¤°":5093,"use":5094,"rict":5095,"ipal":5096,"ĠUpdates":5097,"ĠYouTube":5098,".,":5099,"55":5100,"ms":5101,"wad":5102,"à¤ķà¤Ń":5103,"à¤®à¤ªà¤°":5104,"Ġà¤µà¤³à¤µà¤£":5105,"à¤Łà¤°à¤ķà¤¡":5106,"Ġà¤¬à¤¢":5107,"à¤Ĭà¤³":5108,"à¤°à¤¸à¤¦":5109,"Ġà¤ªà¤£à¤¨":5110,"à¤ıà¤¸à¤¬":5111,"Ġà¤Ĺà¤£à¤²":5112,"omen":5113,"Ġ87":5114,"Ġà¤īà¤¡à¤µà¤£":5115,"ĠInstagram":5116,"imes":5117,"stit":5118,"Ġyear":5119,"à¥Ģ\",":5120,"ideos":5121,"Ġcomp":5122,"Dr":5123,"Im":5124,"Pl":5125,"à¤°à¤¹à¤°":5126,"à¤®à¤¸à¤¨":5127,"Ġà¤Ĩà¤Ĭ":5128,"à¤Ĺà¤Ŀ":5129,"Ġà¤¦à¤¹à¤¨":5130,"Ġà¤¬à¤¬à¤²":5131,"à¤ĸà¤¹":5132,"Ġà¤ļà¤¯":5133,"à¤«à¤ĸ":5134,"à¥ªà¥¬":5135,"à¤°à¤¨à¤Ĺà¤°":5136,"à¤ĳà¤¨":5137,"Ġgov":5138,"Ġpeople":5139,"air":5140,"âĢ":5141,"Ġà¤µà¤¶":5142,"Ġà¤µà¤³à¤µà¤²":5143,"à¤¯à¤®à¤²":5144,"à¤Ĩà¤ªà¤ļ":5145,"à¤µà¤³à¤¤":5146,"Ġà¤Ĩà¤®à¤Ł":5147,"Ġà¤®à¤²à¤®":5148,"à¤¨à¤µà¤Ł":5149,"ĠTips":5150,"ami":5151,"unic":5152,"umar":5153,"Ġà¥¨à¥¦à¥¦à¥¨":5154,"Ġà¤°à¤®à¤ľ":5155,"ĠUpdate":5156,"AI":5157,"Ajit":5158,"nà¤Ĩà¤ªà¤£":5159,"yst":5160,"Ġà¤µà¤¨à¤ķ":5161,"à¤ľà¤¨à¤²":5162,"Ġ-\\":5163,"à¤ĩà¤ªà¤²":5164,"à¤Łà¤ķà¤®à¤§":5165,"ĠAmazon":5166,"ĠLok":5167,"2018":5168,"Ġ2001":5169,"uper":5170,"à¤¡à¤µà¤²à¤¦":5171,"ishes":5172,"Ġany":5173,"ĠAss":5174,"ĠCopyright":5175,"44":5176,"kin":5177,"oot":5178,"Ġq":5179,"à¤ķà¤¸à¤¨":5180,"Ġà¤ľà¤ķ":5181,"à¥ĩà¤Ĥ'":5182,"Ġà¤ĸà¤°à¤ļ":5183,"à¤Īà¤Ĺ":5184,"à¤¢à¤³":5185,"à¥«à¥¨":5186,"à¤¯à¤¦à¤³":5187,"Ġà¤¸à¤Ĺà¤³à¤¯":5188,"ashi":5189,"ĠBank":5190,"Ġà¤Ĭà¤¤":5191,"uth":5192,"à¤¯à¤£à¤°":5193,"Ġà¤ıà¤²à¤Ĩà¤¯à¤¸":5194,"emb":5195,"ole":5196,"war":5197,"Ġà¤¬à¤³à¤ľ":5198,"Ġà¤īà¤¬":5199,"Ġà¤ĺà¤¨à¤¦":5200,"à¤Ĩà¤µ":5201,"à¤Łà¤°à¤Ł":5202,"ination":5203,"à¥«à¥¦à¥¦":5204,"Ġà¤²à¤Ĺà¤¬à¤Ĺ":5205,"ĠAcc":5206,"ĠCred":5207,"ĠRs":5208,"Ġ98":5209,"Ġà¤µà¤¨à¤ªà¤°":5210,"ĠEknath":5211,"Ġà¤§à¤¨à¤¶":5212,"Ġà¤¦à¤£à¤¦à¤£":5213,"ľħ":5214,"Ġà¤Ĩà¤³à¤¸":5215,"Ġà¤Ĩà¤īà¤Ł":5216,"Ġà¤¸à¤¶":5217,"à¤ªà¤µà¤¤":5218,"à¤¦à¤Ĺà¤¡":5219,"à¤¶à¤Ł":5220,"Ġà¤ĵà¤¸à¤°à¤²":5221,"à¤ľà¤ªà¤¶":5222,"à¤ħà¤°à¤¬":5223,"à¤¸à¤®à¤¯":5224,"Ġà¤®à¤¦à¤¤à¤¨":5225,"ĠNew":5226,"à¤°à¤§à¤°":5227,"........":5228,"Ġà¤ıà¤ħà¤°à¤ª":5229,"erved":5230,"ollow":5231,"Sharad":5232,"ĠFacebook":5233,"Ar":5234,"TV":5235,"nW":5236,"à¤°à¤ł":5237,"à¤¤à¤¨à¤µ":5238,"Ġà¤ķà¤¯":5239,"Ġà¤®à¤¡":5240,"à¤ªà¤ķà¤²":5241,"à¤ľà¤°à¤ļ":5242,"Ġà¤¶à¤µ":5243,"Ġà¤ĺà¤¨à¤ķ":5244,"à¤°à¤ķà¤¨":5245,"à¤¢à¤¯":5246,"à¤ķà¤°à¤¶":5247,"à¤ħà¤ķà¤°":5248,"Ġà¤Ĩà¤¯à¤ıà¤®":5249,"ating":5250,"ick":5251,"amp":5252,"urr":5253,"Ġcl":5254,"Ġ86":5255,"Ġmar":5256,"chn":5257,"75":5258,"PC":5259,"PI":5260,"PU":5261,"ning":5262,"ĩ¨":5263,"à¤¤à¤µà¤¤":5264,"à¥ģà¥ģ":5265,"à¤¶à¤°à¤¦":5266,"à¤ħà¤ļ":5267,"Ġ:\\":5268,"Ġà¤¸à¤°à¤ķà¤²":5269,"Ġà¤ħà¤®à¤³à¤¨":5270,"à¥ªà¥¨":5271,"à¥¬à¥Ń":5272,"Ġà¤īà¤²à¤¥":5273,"à¤Łà¤£à¤ķà¤°":5274,"rak":5275,"rav":5276,"Ġmarathi":5277,"Ġà¥§à¥¯à¥¯à¥¦":5278,"à¥ĩ\".":5279,"Ġà¤ªà¤¥à¤¦":5280,"ĠPlus":5281,"à¤¤à¤ķà¤²":5282,"Ġà¤ĸà¤Łà¤ªà¤Ł":5283,"à¤°à¤®à¤¹":5284,"Ġà¤¡à¤°":5285,"à¤¬à¤°à¤¡":5286,"Ġà¤Ĩà¤°à¤¶":5287,"à¤ĩà¤¨à¤°":5288,"Ġ....":5289,"à¥ªà¥©":5290,"à¤ĵà¤Ĺ":5291,"Ġà¤Ķà¤¤":5292,"Ġà¤Ķà¤·":5293,"ĠGal":5294,"à¥Ģ).":5295,"à¤µà¤Ńà¤ķ":5296,"Ġma":5297,"à¤°à¤¬à¤¦à¤²":5298,"Ġà¥§à¥¬à¥¦":5299,"Ġà¥¨à¥¦à¥¦à¥©":5300,"Ġà¤¬à¤¡à¤¬à¤¡":5301,"ellig":5302,"ĠHealth":5303,"Indian":5304,"At":5305,"nà¤ħà¤¸":5306,"à¤¾à¥ħà¤Ĥ":5307,"à¤Ńà¤Ĺà¤µ":5308,"à¥Ģ....":5309,"à¤µà¤¸à¤¹":5310,"à¤ıà¤µ":5311,"à¤¡à¤ķà¤ª":5312,"ica":5313,"Ġ?\\":5314,"à¤µà¤°à¤£à¤ª":5315,"ope":5316,"Ġà¤ıà¤«à¤¡":5317,"AC":5318,"DF":5319,"NG":5320,"TI":5321,"nà¤Ĩà¤ľ":5322,"ĠÃ":5323,"à¤ķà¤±":5324,"à¥ģà¥į":5325,"à¤ªà¤ľ":5326,"Ġà¤¬à¤²à¤ķ":5327,"Ġà¤ļà¤ªà¤²":5328,"Ġà¤īà¤¸à¤³":5329,"à¤ķà¤°à¤ª":5330,"Ġà¤¡à¤®":5331,"Ġà¤¬à¤¸à¤µà¤°":5332,"Ġinter":5333,"Ġà¤ħà¤¡à¤µà¤£":5334,"Ġper":5335,"Ġà¤ķà¤³à¤ķà¤³":5336,"Ġà¤Ńà¤¯à¤Ń":5337,"à¤¯à¤°à¤¸à¤®":5338,"Ġâĩ¨":5339,"Mar":5340,"à¤°à¤ľà¤¨":5341,"à¥ĩà¥į":5342,"à¤¸à¤µà¤¡":5343,"à¤¾....":5344,"à¤°à¤Ńà¤ķ":5345,"ĠSuccess":5346,"Ġà¤¨à¤°à¤¹à¤°":5347,"à¥ĩ?\"":5348,"Ġà¤ĺà¤¡à¤µà¤¤":5349,"à¤ĳà¤²":5350,"Ġà¤ıà¤«à¤Ĩà¤°à¤ª":5351,"Ġà¤ĵà¤°à¤¡à¤¤":5352,"azar":5353,"46":5354,"tor":5355,"wood":5356,"à¤²à¤¸à¤ļ":5357,"à¤ļà¤Ń":5358,"Ġà¤ħà¤ł":5359,"Ġà¤ħà¤ķà¤²":5360,"à¤Ĺà¤¯":5361,"à¤ĸà¤²à¤¨":5362,"à¤Łà¤ķà¤ķ":5363,"à¤®à¤ķà¤¥":5364,"à¤ĵà¤¢":5365,"Ġà¤Ńà¤°à¤ĺ":5366,"ĠGandhi":5367,"Ġà¤ıà¤®à¤ıà¤²":5368,"Ġ79":5369,"à¤Ĩà¤°à¤ıà¤«":5370,"Ġ82":5371,"irl":5372,"Ġâľħ":5373,"08":5374,"US":5375,"nà¤¨à¤µ":5376,"nagar":5377,"à¤¾à¤¼":5378,"à¤¨à¤µà¤¡":5379,"Ġà¤ªà¤ļ":5380,"à¤ªà¤§":5381,"Ġà¤ħà¤¥à¤°":5382,"Ġà¤ľà¤¡à¤£":5383,"à¤łà¤Ńà¤°":5384,"Ġà¤ļà¤Łà¤ķà¤¨":5385,"Ġà¤ĸà¤ªà¤µ":5386,"atur":5387,"ĠAct":5388,"Ġà¤ħà¤µà¤ľ":5389,"omb":5390,"Ġà¥§à¥¦à¥«":5391,"Ġbut":5392,"ode":5393,"Ġà¤ľà¤²à¤¤à¤°à¤£":5394,"Ġà¤īà¤Ĺà¤µà¤²":5395,"ency":5396,"elligence":5397,"NCP":5398,"ll":5399,"nà¤®à¤²":5400,"à¤¯à¤ľà¤¨":5401,"à¤µà¤Ľà¤¤":5402,"Ġà¤Ĩà¤Łà¤ª":5403,"à¤¢à¤µà¤³":5404,"à¥ħ.":5405,"à¤µà¤¸à¤ķà¤°":5406,"à¤ľà¤¨à¤¸":5407,"à¤Ĺà¤³à¤¸":5408,"ative":5409,"à¤ľà¤ªà¤µ":5410,"Ġà¤Ľà¤¡":5411,"à¥Ńà¥®":5412,"Ġtime":5413,"à¤¬à¤²à¤µà¤°":5414,"à¤Ĩà¤¯à¤ıà¤¸":5415,"Ġà¤¹à¤²à¤Ĺà¤°":5416,"Ġout":5417,"à¤¤à¤°à¤£à¤¨":5418,"Ġ2003":5419,"ĠUpdated":5420,"59":5421,"?'":5422,"à¤²à¤§":5423,"Ġà¤¤à¤³à¤²":5424,"à¤Ĺà¤Ĺ":5425,"Ġà¤¹à¤°à¤¯":5426,"Ġà¤ĸà¤ª":5427,"Ġà¤ĸà¤Łà¤ķ":5428,"Ġà¤ĸà¤ļà¤²":5429,"à¤ıà¤¨à¤¸":5430,"à¥§à¥¦à¥¦":5431,"à¥¬à¥ª":5432,"ĠToday":5433,"ĠIS":5434,"ĠBhav":5435,"rab":5436,"hapur":5437,"à¤Ĺà¤¨à¤®à¤¤":5438,"Ġà¤¨à¤Ĺà¤°à¤ļ":5439,"Ġà¤ħà¤Łà¤²à¤¬":5440,"Eknath":5441,"vest":5442,"à¥ĭ',":5443,"Ġà¤Ĩà¤ļà¤°":5444,"à¥Ĥà¤ģ":5445,"Ġà¤ľà¤¡à¤²":5446,"à¤Īà¤ķà¤°":5447,"Ġà¤«à¤°à¤¹":5448,"à¥Īà¥¤":5449,"Ġà¤Ĩà¤ªà¤Ĩà¤ªà¤²":5450,"Ġà¤Ĩà¤¦à¤³à¤²":5451,"à¤īà¤®":5452,"Ġ?'":5453,"à¤°à¤Ĺà¤Ł":5454,"Ġoff":5455,"osp":5456,"Ġà¤ĵà¤°à¤¡à¤²":5457,"Ġà¤¬à¤³à¤ľà¤¬à¤°":5458,"IR":5459,"à¤¹à¤¢":5460,"Ġà¤ķà¤ªà¤²":5461,"à¤¥à¤ªà¤°":5462,"Ġà¤ĸà¤¦":5463,"à¤¤à¤²à¤Ĺ":5464,"à¤ħà¤£":5465,"Ġ\"</":5466,"à¥¬à¥®":5467,"het":5468,"Ġà¤®à¤Ĺà¤ļ":5469,"ĠCorona":5470,"Ġno":5471,"Ġà¥§à¥¨à¥¦à¥¦":5472,"Ġà¤ķà¤µà¤ł":5473,"Ġà¤·à¤¡":5474,"Ġ2006":5475,"ĠSharma":5476,"axy":5477,"ĠIntelligence":5478,"Ġà¤ĺà¤¨à¤ķà¤ļà¤°":5479,"04":5480,">>":5481,"iet":5482,"tem":5483,"Ġà¤®à¤¡à¤Ĺ":5484,"Ġà¤¬à¤³à¤ķ":5485,"à¤Īà¤¦":5486,"à¤°à¤¤à¤µ":5487,"Ġà¤Łà¤ļ":5488,"à¤¡à¤²à¤µà¤°":5489,"Ġà¤ªà¤¦à¤ªà¤¥":5490,"à¤ĵà¤Ł":5491,"ited":5492,"Ġà¤¬à¤¨à¤ķà¤°":5493,"Ġà¤ıà¤¸à¤Ĩà¤¯à¤Ł":5494,"Ġfil":5495,"ĠReal":5496,"Ġà¥¦à¥¨":5497,"apur":5498,"Ġà¤īà¤§à¤³à¤£":5499,"under":5500,"earch":5501,"eeds":5502,"rid":5503,"à¤¤à¤¬à¤¦":5504,"à¤¦à¤µà¤¤":5505,"à¥Ĥ!":5506,"Ġà¤°à¤£à¤§":5507,"Ġà¤Ńà¤Ĺà¤µà¤¤":5508,"Ġà¤ĸà¤µ":5509,"à¤Ĺà¤³à¤¯":5510,"inal":5511,"à¥¬à¥¨":5512,"hip":5513,"à¤¡à¤°à¤®à¤§":5514,"Ġ700":5515,"entral":5516,"Ġà¥§à¥Ńà¥¦":5517,"ĠOne":5518,"Ġà¥§à¥¯à¥¯à¥§":5519,"here":5520,"Ġagain":5521,"RT":5522,"nà¤ĩ":5523,"Ä±":5524,"à¥Ģà¤¼":5525,"à¤²à¤¤à¤°":5526,"Ġà¤¸à¤ªà¤¨":5527,"Ġà¤¸à¤ľà¤²":5528,"Ġà¤®à¤¥à¤³":5529,"à¤¡à¤°à¤¨":5530,"à¤łà¤¸":5531,"à¤Ńà¤¸":5532,"à¤¤à¤°à¤ľà¤®":5533,"à¤Īà¤Ī":5534,"à¤°à¤£à¤ļ":5535,"Ġà¤ĩà¤Ĺà¤¤à¤ª":5536,"Ġà¤®à¤¤à¤ª":5537,"ĠNo":5538,"Ġà¤ªà¤°à¤¤à¤µ":5539,"ĠCont":5540,"raj":5541,"enter":5542,"à¤ıà¤®à¤ıà¤²":5543,"Ġmin":5544,"Ġà¤ıà¤¨à¤ıà¤¸":5545,"Ġà¤īà¤Ĺà¤µà¤£":5546,"Ġà¤ħà¤¡à¤ķà¤µ":5547,"Ġagriculture":5548,"ruitment":5549,"ĠGalaxy":5550,"**":5551,",,":5552,"CO":5553,"Com":5554,"à¤¯à¤²à¤¯":5555,"à¤¨à¤Ŀ":5556,"à¤¸à¤¬à¤¦":5557,"à¤®à¤ķà¤¡":5558,"à¤Ĺà¤¸à¤¹":5559,"à¥ĩà¤Ĥ-":5560,"Ġà¤¸à¤®à¤Ŀ":5561,"à¤Ĥ.\"":5562,"à¤µà¤¨à¤¦":5563,"à¥«à¥ª":5564,"ĠTime":5565,"olhapur":5566,"Ġab":5567,"ĠFeb":5568,"ĠFarmer":5569,"Ġà¤įà¤¨":5570,"Ġà¤¨à¤µà¤°à¤¦":5571,"Ġrec":5572,"ohli":5573,"Ġà¤¬à¤¬à¤¨à¤°":5574,"Ġà¤ĺà¤°à¤¬à¤¸à¤²":5575,">à¥¤":5576,"sat":5577,"ward":5578,"à¤¨à¤¬à¤¦":5579,"à¤ļà¤¬":5580,"à¤¸à¤¡":5581,"à¤¸à¤Ńà¤°":5582,"à¤¸à¤į":5583,"Ġà¤«à¤°à¤¶":5584,"Ġà¤«à¤£à¤¸":5585,"à¤Ŀà¤¨à¤®à¤§":5586,"Ġà¤ķà¤²à¤¹":5587,"à¤ĵà¤ķ":5588,"à¤§à¤¤à¤¶":5589,"ĠTable":5590,"à¤ªà¤ļà¤¯":5591,"hag":5592,"Ġdec":5593,"irat":5594,"ough":5595,"ails":5596,"ied":5597,"nF":5598,"rad":5599,"à¤£à¤µà¤°":5600,"Ġà¤ķà¤¥à¤¨":5601,"à¤®à¤²à¤¤":5602,"à¤Īà¤ĺ":5603,"à¤Ŀà¤ļ":5604,"à¤ĩà¤²à¤®à¤§":5605,"à¤¸à¤¹à¤ľ":5606,"Ġà¤ķà¤²à¤¶":5607,"Ġà¤Ĩà¤¦à¤°à¤£":5608,"à¤§à¤¨à¤¸":5609,"Ġà¤ľà¤®à¤£":5610,"ĠBo":5611,"rev":5612,"Ġà¤ķà¤¡à¤§":5613,"Ġà¤ľà¤¯à¤ĺ":5614,"à¤¾).":5615,"chool":5616,"à¤²à¤®à¤¡à¤²":5617,"ĠWe":5618,"Ġà¤Ĺà¤¡à¤¹":5619,"Ġ2002":5620,"Ġà¤ªà¤³à¤¸":5621,"Ġvideos":5622,"Ġà¤ªà¤Łà¤ķà¤¥":5623,"unicipal":5624,"LY":5625,"à¤²à¤ĺ":5626,"Ġà¤¨à¤ķà¤²":5627,"à¤ĸà¤ķà¤°":5628,"Ġà¤ĵà¤¤à¤²":5629,"ese":5630,"org":5631,"à¤¸à¤¦à¤¸":5632,"Ġsho":5633,"Ġà¤ħà¤Łà¤ķà¤ª":5634,"Ġà¥§à¥«à¥¦à¥¦":5635,"Ġafter":5636,"Ġà¤Ĺà¤ľà¤¬":5637,"Ġà¤¸à¤¬à¤¬":5638,"à¤ıà¤¶à¤¨à¤¨":5639,"has":5640,"ject":5641,"à¤¨à¤µà¤¨":5642,"à¤µà¤¦à¤¤":5643,"à¤¦à¤¯à¤°":5644,"à¤Łà¤¬à¤¦":5645,"Ġà¤¬à¤§":5646,"Ġà¤ıà¤ķà¤ķ":5647,"à¤µà¤¸à¤°":5648,"Ġà¤§à¤¨à¤°":5649,"à¤·à¤£à¤ķ":5650,"à¤Ĩà¤®à¤¦":5651,"à¤®à¤¨à¤ļ":5652,"à¥ªà¥§":5653,"à¥®à¥®":5654,"à¥Ńà¥Ń":5655,"Ġ94":5656,"Ġà¤ħà¤¡à¤ķà¤¤":5657,"aya":5658,"ĠMaj":5659,"ĠStories":5660,"57":5661,"à¤µà¤§à¤¨":5662,"à¤¦à¤µà¤°":5663,"à¤Łà¤ľ":5664,"à¤³à¤¦":5665,"à¤¬à¤°à¤£":5666,"Ġà¤¬à¤¹à¤°":5667,"Ġà¤ıà¤²à¤¬":5668,"Ġà¤ªà¤°à¤ĸà¤¡":5669,"Ġ(@":5670,"à¤·à¤£à¤µ":5671,"à¤¯à¤¨à¤¨":5672,"à¥¯à¥¨":5673,"à¤¨à¤¸à¤®":5674,"Ġà¤ľà¤Ĺà¤ª":5675,"olly":5676,"à¤²à¤°à¤®à¤§":5677,"ĠLED":5678,"Ġwork":5679,"Ġpol":5680,"ull":5681,"ĠHigh":5682,"Ġ180":5683,"Ġà¥§à¥¯à¥®à¥¦":5684,"à¤¤à¤ĸà¤³à¤ķà¤°":5685,"54":5686,"Congress":5687,"EN":5688,"Ġà¤ķà¤µà¤¯":5689,"à¤Ĺà¤¢":5690,"à¤¡à¤Ī":5691,"à¤Ńà¤°à¤¹":5692,"à¤ķà¤°à¤®à¤§":5693,"à¤¯à¤ķà¤²à¤ļ":5694,"à¤Ĺà¤°à¤ª":5695,"à¤ªà¤£à¤ľ":5696,"à¤£à¤¤à¤£":5697,"Ġà¤Īà¤¬":5698,"Ġà¤¹à¤²à¤µà¤²":5699,"ily":5700,"ility":5701,"akh":5702,"Ġà¤ĭà¤Ĺ":5703,"ĠJug":5704,"epart":5705,"ather":5706,"con":5707,"ij":5708,"nà¤¦à¤°à¤®":5709,"pe":5710,"Ġen":5711,"à¤¨à¤°à¤¨":5712,"à¤ļà¤ķà¤°":5713,"Ġà¤¸à¤ľà¤Ĺ":5714,"Ġà¤¤à¤¡à¤µ":5715,"Ġà¤ħà¤Ĺà¤¤":5716,"Ġà¤µà¤¤à¤¨":5717,"à¤ľà¤ķà¤²":5718,"à¤ľà¤¸à¤¤":5719,"à¤·à¤µà¤²":5720,"Ġà¤²à¤®":5721,"à¤¥à¤¹":5722,"à¤°à¤ķà¤®":5723,"Ġà¤Łà¤ªà¤°":5724,"ĠShiv":5725,"à¥¬à¥§":5726,"ĠPand":5727,"ĠPaper":5728,"ober":5729,"www":5730,"ollywood":5731,"we":5732,"ÃŃ":5733,"Ġqu":5734,"à¤²à¤ªà¤¤":5735,"Ġà¤¶à¤¹à¤¨":5736,"Ġà¤īà¤ķà¤¡à¤²":5737,"Ġà¤¸à¤°à¤¬à¤¤":5738,"Ġà¤ħà¤¨à¤®":5739,"à¤ħà¤¡":5740,"à¤·à¤£à¤¸":5741,"à¤Łà¤°à¤¹":5742,"à¤ķà¤£à¤ļ":5743,"Ġ5000":5744,"ĠIf":5745,"urn":5746,"...\"":5747,"Ġà¥¦à¥«":5748,"Ġani":5749,"ovember":5750,"MI":5751,"nà¤ħà¤¨":5752,"oo":5753,"à¤¯à¤µà¤¤":5754,"à¤¨à¤ĸà¤¡":5755,"Ġà¤°à¤¡à¤£":5756,"Ġà¤²à¤Ł":5757,"à¤¥à¤¯":5758,"à¤¥à¤¸à¤¹":5759,"Ġà¤«à¤¡à¤£":5760,"à¤ħà¤¸à¤²":5761,"à¤ħà¤Ĺà¤¦":5762,"à¤¶à¤¨à¤ķ":5763,"à¤Ĺà¤£à¤ªà¤¤":5764,"à¤ĵà¤ıà¤¸":5765,"ĠMe":5766,"ĠSu":5767,"à¤¤à¤¤à¤§":5768,"Ġcar":5769,"ĠBhar":5770,"Ġnew":5771,"Ġà¤ıà¤®à¤Ł":5772,"Ġà¤ªà¤ķà¤¡à¤¤":5773,"Ġà¤Ńà¤Ĺà¤µà¤¦":5774,"ĠReport":5775,"Ġget":5776,"......":5777,"Ġà¤Ĩà¤µà¤°à¤¤":5778,"Ġà¤ħà¤¡à¤ķà¤£":5779,"ĠResult":5780,"à¤ķà¤¸à¤¹à¤Ń":5781,"Shivsena":5782,"action":5783,"ka":5784,"nà¤ªà¤°":5785,"oà¤¯":5786,"à¥į-":5787,"Ġà¤¨à¤Łà¤²":5788,"à¤¶à¤ĸ":5789,"Ġà¤ľà¤łà¤°":5790,"Ġà¤¬à¤³à¤µ":5791,"Ġà¤µà¤°à¤µà¤°":5792,"Ġà¤¥à¤°à¤¥":5793,"Ġà¤Ńà¤°à¤¡":5794,"urder":5795,"à¤Ĩà¤¯à¤ıà¤®":5796,"Ġ73":5797,"à¤Ĩà¤°à¤ıà¤¸":5798,"ild":5799,"Ġbo":5800,"2021":5801,"cember":5802,"Ġà¥§à¥¯à¥¯à¥¨":5803,"VID":5804,"Ġà¤ķà¤ªà¤Ł":5805,"à¤®à¤«":5806,"Ġà¤ħà¤®à¤¨":5807,"à¤ľà¤ľ":5808,"Ġà¤¬à¤Ĺà¤²":5809,"à¤µà¤°à¤¨":5810,"Ġà¤ıà¤£":5811,"Ġà¤ĸà¤²à¤¨":5812,"à¤ªà¤°à¤«":5813,"Ġà¤§à¤¸":5814,"Ġà¤Ĩà¤ľà¤¤":5815,"Ġà¤¸à¤¹à¤¸à¤ļ":5816,"à¤µà¤¨à¤Ĺà¤°":5817,"ĠSl":5818,"ĠSena":5819,"als":5820,"Ġà¤ľà¤®à¤¶":5821,"enef":5822,"ita":5823,"ĠThan":5824,"Ġà¤Ĩà¤Ĺà¤°à¤ķà¤°":5825,"ĠCon":5826,"ĠBazar":5827,"Ġà¤ıà¤®à¤¡":5828,"Ġtheir":5829,"Ġmore":5830,"Ġà¤Ĭà¤¸à¤¤":5831,"Ġà¥ªà¥«à¥¦":5832,"Ġà¤īà¤§à¤³à¤²":5833,"Ġà¤¸à¤«à¤²":5834,"Ġà¤ĸà¤¡à¤ķà¤µ":5835,"Ġà¤Ĩà¤µà¤³à¤²":5836,"outh":5837,"ĠQu":5838,"lectric":5839,"66":5840,"ycl":5841,"à¤°à¤¡à¤µ":5842,"à¤ļà¤¦à¤°à¤®":5843,"Ġà¤®à¤¡à¤ķ":5844,"Ġà¤¤à¤Łà¤¬":5845,"à¤Łà¤µà¤²":5846,"à¤¡à¤°à¤¸":5847,"à¤§à¤³à¤²":5848,"Ġà¤ľà¤²à¤ª":5849,"à¤µà¤°à¤ª":5850,"Ġà¤īà¤ĸ":5851,"Ġà¤Ŀà¤¡à¤ª":5852,"à¤Ĭà¤£":5853,"Ġà¤¡à¤ļ":5854,"à¤Ĺà¤²à¤¨":5855,"à¤Ŀà¤¨à¤ļ":5856,"Ġà¤ªà¤£à¤¤":5857,"Ġ\"\"":5858,"Ġà¤ĵà¤¨":5859,"à¥Ńà¥¨":5860,"adesh":5861,"Ġ92":5862,"uss":5863,"2020":5864,"à¤ıà¤¨à¤ıà¤¸":5865,"istrict":5866,"ĠAgrow":5867,"Ġlead":5868,"velop":5869,"mednagar":5870,"ĠJugad":5871,"ĠAgrowon":5872,"'\\":5873,"nN":5874,"à¤²à¤°à¤¨":5875,"Ġà¤µà¤ļà¤ķ":5876,"Ġà¤¹à¤°à¤®":5877,"Ġà¤²à¤¬":5878,"Ġà¤Ńà¤°à¤¦":5879,"à¤«à¤µ":5880,"Ġà¤ħà¤§à¤°":5881,"à¤ıà¤ı":5882,"à¤Łà¤¨à¤¨":5883,"à¥«à¥§":5884,"ĠMP":5885,"Ġà¤¤à¤ªà¤¸":5886,"hil":5887,"ĠIs":5888,"Ġover":5889,"Ġà¤ķà¤łà¤¡":5890,"elf":5891,"ĠKohli":5892,"Ġ130":5893,"Ġà¤ıà¤«à¤¸":5894,"Ġà¤ľà¤²à¤¦à¤Ĺà¤¤":5895,"ffect":5896,"ights":5897,"::::":5898,"ĠTablet":5899,"TT":5900,"à¤¨à¤¸à¤¨":5901,"à¤µà¤¥":5902,"à¤®à¤¸à¤¹":5903,"à¤®à¤ľà¤ª":5904,"Ġà¤Ĩà¤³à¤¶":5905,"à¤Łà¤µà¤£":5906,"Ġà¤Ĺà¤¬":5907,"à¤¤à¤°à¤¸":5908,"Ġà¤«à¤ľ":5909,"à¤°à¤£à¤¯":5910,"à¤¯à¤®à¤¬":5911,"à¤ľà¤¨à¤®à¤§":5912,"à¤¶à¤¨à¤®":5913,"Ġà¤Ĩà¤ľà¤°":5914,"à¥«à¥©":5915,"Ġ350":5916,"ĠNarendra":5917,"ĠTwitter":5918,"Ġsub":5919,"à¤Ĭà¤¸à¤®à¤§":5920,"Ġà¤ļà¤µà¤¥":5921,"Ġacc":5922,"akistan":5923,"2019":5924,"Ġà¤ĸà¤¡à¤¬à¤¡":5925,"igg":5926,"Ġstate":5927,"à¤¨à¤Ńà¤µà¤¨":5928,"Ġà¤®à¤³à¤®à¤³":5929,"epartment":5930,"42":5931,"OR":5932,"ahe":5933,"ye":5934,"Ġà¤Ĩà¤¸à¤°":5935,"Ġà¤Ĩà¤ĸà¤¤":5936,"Ġà¤ªà¤Łà¤¨":5937,"Ġà¤¦à¤¶à¤®":5938,"alk":5939,"ĠAb":5940,"à¤ıà¤¸à¤Ĩà¤°":5941,"Ġ900":5942,"à¤ıà¤®à¤Ĩà¤°":5943,"Ġac":5944,"Ġà¥§à¥ªà¥¦":5945,"Ġà¥¦à¥¦":5946,"ĠCredit":5947,"NS":5948,"ience":5949,"nà¤¤à¤°":5950,"nà¤ľà¤°":5951,"Ĥ¹":5952,"à¤µà¤¦à¤°":5953,"à¤ªà¤ªà¤°":5954,"Ġà¤¯à¤²":5955,"à¤§à¤ªà¤£":5956,"Ġà¤¬à¤¶":5957,"Ġà¤«à¤£":5958,"Ġà¤«à¤²à¤¦":5959,"à¤ĺà¤³":5960,"à¤ħà¤¦":5961,"à¤ķà¤²à¤®":5962,"Ġà¤Ĩà¤¯à¤¬":5963,"Ġà¤ĳà¤Īà¤²":5964,"à¥¯à¥Ń":5965,"à¤¤à¤¨à¤ķ":5966,"ict":5967,"ision":5968,"ĠCS":5969,"ĠCha":5970,"à¤ĩà¤¨à¤®à¤§":5971,"ĠLe":5972,"Ġ89":5973,"Ġà¤®à¤¦à¤¤à¤ķ":5974,"AA":5975,"DR":5976,"LED":5977,"Read":5978,"down":5979,"nà¤ħà¤¶":5980,"uary":5981,"ven":5982,"à¤°à¤°à¤¥":5983,"à¤¯à¤¦à¤²":5984,"Ġà¤®à¤Łà¤ķ":5985,"Ġà¤®à¤Łà¤£":5986,"Ġà¤ħà¤µà¤¨":5987,"à¤µà¤°à¤µ":5988,"Ġà¤ĩà¤¯":5989,"à¤Ĭà¤¸à¤ļ":5990,"à¤¼à¥ģ":5991,"à¤¸à¤°à¤®à¤§":5992,"à¤¤à¤ķà¤£":5993,"Ġà¤īà¤¦à¤Ĺ":5994,"à¤īà¤ľ":5995,"Ġtw":5996,"ĠTH":5997,"Ġà¤ªà¤¸à¤°à¤µà¤²":5998,"ĠHow":5999,"à¤²à¤®à¤ľ":6000,"osted":6001,"ody":6002,"ohit":6003,"à¤£à¤ĸ":6004,"Ġà¤ķà¤µà¤Ł":6005,"à¤ªà¤°à¤ķ":6006,"Ġà¤¨à¤Łà¤°":6007,"Ġà¤īà¤¸à¤¨":6008,"à¤¤à¤°à¤¨":6009,"à¤Īà¤Łà¤¨":6010,"Ġà¤Ĩà¤ªà¤ļ":6011,"à¤¨à¤²à¤µà¤°":6012,"à¥¯à¥ª":6013,"algaon":6014,"ason":6015,"Ġà¤¨à¤Ĺà¤°à¤°à¤ļà¤¨":6016,"à¤°à¤¥à¤®à¤¤":6017,"à¤¾à¤ĥ</":6018,"erson":6019,"ĠMajha":6020,"Dis":6021,"nà¤µà¤°":6022,"ound":6023,"put":6024,"ret":6025,"tack":6026,"à¤Ĥ)":6027,"à¤ķà¤ķà¤¡":6028,"à¤µà¤ªà¤°":6029,"à¤ªà¤Ń":6030,"à¤ľà¤ķà¤°":6031,"à¤§à¤Ĺ":6032,"à¤³à¤¬":6033,"à¤¬à¤±":6034,"Ġà¤Ĺà¤Ŀà¤²":6035,"à¤ľà¤¨à¤µà¤°":6036,"à¤°à¤ľà¤£":6037,"à¤°à¤ľà¤µà¤³":6038,"Ġtra":6039,"ĠTra":6040,"ĠBe":6041,"ĠRed":6042,"à¤Ĩà¤°à¤¬":6043,"Ġà¤ķà¤³à¤ª":6044,"Âºà¤¹":6045,"à¤ĳà¤Ĺà¤¸":6046,"à¤°à¤«à¤¡":6047,"ĠStation":6048,"à¤Ĩà¤£à¤ĸ":6049,"à¤¾\",":6050,"Ġà¥§à¥¯à¥¯à¥«":6051,"Ġbeen":6052,"Ġà¤²à¤ªà¤µà¤²":6053,"Ġ>>":6054,"ystem":6055,"Nashik":6056,"Ref":6057,"UV":6058,"nà¤ħà¤°":6059,"yl":6060,"Â°":6061,"à¤¾à¥ĩà¤Ĥ":6062,"à¤¹à¤Ł":6063,"à¥ĭà¥ĩ":6064,"à¤ľà¤¯à¤ļ":6065,"Ġà¤°à¤¡à¤²":6066,"à¤µà¤°à¤Ĺ":6067,"à¤°à¤µà¤¨":6068,"à¤ıà¤ľ":6069,"à¤ıà¤ķà¤¨":6070,"à¤Ĩà¤¸":6071,"ĠSP":6072,"à¥¬à¥©":6073,"Ġà¤ħà¤ľà¤Ĺà¤°":6074,"ĠNovember":6075,"à¤¨à¤ķà¤ªà¤£":6076,"à¤¾'.":6077,"Ġà¤Ĺà¤Łà¤¶":6078,"Ġà¥§à¥¦à¥¨":6079,"Ġà¤ħà¤¡à¤¸à¤°":6080,"Ġ125":6081,"ĠUS":6082,"Ġà¥§à¥¯à¥¯à¥©":6083,"Ġà¥§à¥¯à¥¯à¥®":6084,"à¤ħà¤¹à¤®à¤¦":6085,"Ġà¤īà¤²à¤Ĺà¤¡à¤²":6086,"sky":6087,"Ġà¤ħà¤ļà¤²à¤ª":6088,"Ġarticle":6089,"Photo":6090,"ix":6091,"press":6092,"à¤¯à¤ĸà¤³":6093,"à¤§à¤¯":6094,"Ġà¤ľà¤Ĺà¤µ":6095,"Ġà¤¬à¤²à¤µ":6096,"à¤°à¤ķà¤®à¤§":6097,"Ġà¤īà¤ªà¤¶":6098,"Ġà¤īà¤ªà¤ķà¤°":6099,"à¤ıà¤Łà¤°à¤®à¤§":6100,"à¥ĭ..":6101,"Ġà¤®à¤¨à¤Ĺà¤Ł":6102,"à¤®à¤¨à¤µ":6103,"Ġà¤ĵà¤¢à¤µ":6104,"ĠNot":6105,"ĠAc":6106,"Ġà¤ĩà¤¨à¤ª":6107,"Ġà¤ľà¤¬à¤¡":6108,"Ġ81":6109,"rod":6110,"ĠFil":6111,"ters":6112,"ĠHome":6113,"Ġà¥§à¥©à¥«":6114,"Ġà¤¸à¤¬à¤®":6115,"Ġà¥§à¥¯à¥ªà¥Ń":6116,"Ġ370":6117,"88":6118,"hal":6119,"à¤¹à¤°à¤®":6120,"à¤Ĺà¤®à¤°":6121,"à¤§à¤°à¤µà¤¡":6122,"à¤³à¤¸à¤°":6123,"Ġà¤¦à¤¬à¤¦":6124,"à¤·à¤°à¤¤":6125,"à¤·à¤¯à¤ļ":6126,"Ġà¤ħà¤¸à¤¹à¤ķ":6127,"à¤Īà¤ķà¤ļ":6128,"à¤°à¤£à¤®":6129,"à¥Ģà¤Ĥ'":6130,"à¤Ĭà¤ľà¤°":6131,"à¤°à¤¸à¤Ĺ":6132,"Ġà¤Ĩà¤¯à¤²":6133,"Ġà¤Ĩà¤¯à¤¨":6134,"à¤Ĥ..":6135,"ator":6136,"ature":6137,"à¤Īà¤¨à¤®à¤§":6138,"ĠThis":6139,"ĠCM":6140,"ĠCard":6141,"Ġfl":6142,"Ġthey":6143,"Ġdet":6144,"eld":6145,"ution":6146,"irth":6147,"ĠJun":6148,"ikas":6149,"à¥ĩ!\\":6150,"Ġà¤ļà¤¢à¤īà¤¤":6151,"Ġà¤¬à¤¡à¤¤à¤°":6152,"apoor":6153,"amsung":6154,"Ġwhich":6155,"ĠRealme":6156,"Ġà¤¦à¤¬à¤¦à¤¬":6157,"43":6158,"77":6159,"pen":6160,"ren":6161,"Ġà¤Ĩà¤¸à¤ķ":6162,"Ġà¤¹à¤°à¤¤":6163,"à¤¶à¤¶":6164,"à¤łà¤¶":6165,"Ġà¤īà¤¥à¤³":6166,"à¤ĩà¤¶":6167,"Ġà¤¸à¤¹à¤¨à¤¶":6168,"à¤¯à¤¨à¤®à¤§":6169,"ĠMal":6170,"Ġà¤ķà¤ªà¤®à¤§":6171,"Ġà¤¸à¤ªà¤¶":6172,"Ġ108":6173,"à¤¹à¤²à¤ªà¤°":6174,"ĠUddhav":6175,"Ġà¤ıà¤ļà¤Ĩà¤¯à¤µ":6176,"arty":6177,"ught":6178,"Ġà¥§à¥¯à¥¬à¥¦":6179,"nPublished":6180,"ĠArt":6181,"Ġà¤īà¤®à¤Łà¤µà¤²":6182,"ĠApril":6183,"AL":6184,"mart":6185,"nM":6186,"net":6187,"wa":6188,"à¤°à¤¡à¤²":6189,"à¤¯à¤īà¤¤":6190,"à¤¨à¤Īà¤¤":6191,"à¤®à¤Ŀ":6192,"Ġà¤¦à¤¯à¤¨":6193,"Ġà¤Ĺà¤¤à¤µ":6194,"Ġà¤ıà¤ıà¤¨":6195,"à¤Ĭà¤¦à¤ļ":6196,"à¤°à¤¸à¤ļ":6197,"Ġà¤®à¤§à¤®":6198,"à¤ĩà¤Łà¤²":6199,"ery":6200,"à¥¯à¥©":6201,"ĠIST":6202,"ĠCorpor":6203,"Ġà¤Īà¤°":6204,"ĠDesh":6205,"ĠJune":6206,"à¤®à¤°à¤£à¤¶à¤ķ":6207,"ĠOctober":6208,"II":6209,"Un":6210,"ful":6211,"à²":6212,"Ġà¤Ĩà¤ĩà¤¸":6213,"à¤Łà¤Ł":6214,"Ġà¤¬à¤Łà¤¨":6215,"Ġà¤īà¤ľà¤¨":6216,"Ġà¤īà¤Ĺà¤µ":6217,"à¤ħà¤¯":6218,"à¤¸à¤¨à¤¹":6219,"à¤²à¤ķà¤Ł":6220,"Ġà¤ĳà¤ĩà¤²":6221,"Ġà¤ħà¤ªà¤¶à¤¬":6222,"Ġà¤®à¤²à¤¬":6223,"à¤¨à¤²à¤®à¤§":6224,"Ġ.\\":6225,"à¤¤à¤¨à¤Ĺà¤°":6226,"ĠNav":6227,"ĠIC":6228,"Ġ83":6229,"Ġ84":6230,"Ġà¤µà¤¨à¤®":6231,"Ġ128":6232,"Ġà¤ªà¤²à¤Łà¤£":6233,"ĠDecember":6234,"Ġalso":6235,"70":6236,"à°":6237,"à¥įà¤Ĥ":6238,"à¤¯à¤°à¤ļà¤¨":6239,"à¤ķà¤Łà¤¤":6240,"Ġà¤ķà¤¬à¤°":6241,"Ġà¤¸à¤ĸà¤²":6242,"à¤ªà¤ĸ":6243,"Ġà¤¤à¤³à¤µ":6244,"à¤ľà¤ĸ":6245,"Ġà¤²à¤Ĺà¤¤":6246,"à¤ķà¤°à¤¸":6247,"Ġà¤¤à¤°à¤µ":6248,"à¤ľà¤¨à¤¤":6249,"à¤Ľà¤¨":6250,"à¥¯à¥§":6251,"Ġà¤ªà¤µà¤Ī":6252,"ĠCo":6253,"urang":6254,"Ġà¥§à¥¦à¥§":6255,"Ġà¥§à¥¨à¥ª":6256,"Ġworld":6257,"ely":6258,"à¥Ģ?\"":6259,"à¤¾!\"":6260,"ĠUV":6261,"abha":6262,"Ġà¤īà¤ķà¤³à¤£":6263,"Ġà¤īà¤ķà¤³à¤²":6264,"ized":6265,"Ġà¤§à¤¡à¤ªà¤¡à¤¤":6266,"Ġà¤¹à¤°à¤Ńà¤ľà¤¨":6267,"IVE":6268,"Plus":6269,"De":6270,"You":6271,"fl":6272,"ness":6273,"ym":6274,"Ġunder":6275,"à¤°à¤§à¤¨":6276,"à¤°à¤¬à¤²":6277,"à¤¹à¤°à¤ª":6278,"Ġà¤ħà¤ľà¤°":6279,"Ġà¤¨à¤Ĺà¤£":6280,"Ġà¤°à¤ľà¤ª":6281,"Ġà¤ĺà¤¨à¤¶":6282,"Ġà¤ĩà¤¦":6283,"Ġà¤ħà¤¨à¤Ń":6284,"à¤·à¤£à¤ļ":6285,"Ġ\".":6286,"à¤¨à¤²à¤²":6287,"à¤¤à¤®à¤°":6288,"ĠSeeds":6289,"Ġà¤¤à¤ªà¤®":6290,"Ġà¤Īà¤Ł":6291,"Ġà¤ıà¤¸à¤ª":6292,"Ġà¤ıà¤®à¤ľ":6293,"chan":6294,"à¤¦à¤³à¤µà¤¨":6295,"à¤°à¤«à¤Łà¤ķ":6296,"ĠâĤ¹":6297,"Ġà¤µà¤ļà¤¨à¤¬à¤¦":6298,"à¤ĭà¤·":6299,"Ġà¤¹à¤°à¤ªà¤²":6300,"Ġà¤¦à¤¡à¤ªà¤¶":6301,"56":6302,"As":6303,"Man":6304,"Sup":6305,"gn":6306,"hadi":6307,"nC":6308,"à¤®à¤ĺ":6309,"Ġà¤¸à¤³":6310,"Ġà¤®à¤£à¤ķ":6311,"Ġà¤¤à¤¨à¤ª":6312,"à¤¦à¤°à¤µ":6313,"Ġà¤¦à¤«à¤¨":6314,"Ġà¤Ńà¤ľ":6315,"Ġà¤Ńà¤°à¤®à¤¸":6316,"à¥Ī)":6317,"à¤°à¤®à¤¤à¤µ":6318,"Ġà¤łà¤ķ":6319,"à¤«à¤¸":6320,"à¥Į-":6321,"à¤¹à¤°à¤Ł":6322,"à¤¯à¤²à¤²":6323,"à¤¤à¤µà¤µ":6324,"hem":6325,"à¤łà¤²à¤°":6326,"ĠRo":6327,"Ġbec":6328,"à¤ıà¤¨à¤¬":6329,"Ġ1996":6330,"ublic":6331,"à¤¬à¤²à¤ļà¤ķ":6332,"embly":6333,"??":6334,"eel":6335,"hen":6336,"par":6337,"tra":6338,"à¤¤à¤ķà¤¡":6339,"à¤¨à¤®à¤¸":6340,"à¤ļà¤ķà¤Ł":6341,"à¤¹à¤Łà¤ķà¤°":6342,"à¤ªà¤ľà¤¨à¤ķ":6343,"à¤µà¤¤à¤¯":6344,"à¤ıà¤¸à¤¨":6345,"à¤Ĺà¤°à¤Ĺ":6346,"à¥«à¥¬":6347,"à¤¤à¤®à¤¹":6348,"à¤Ľà¤µ":6349,"ĠMot":6350,"heme":6351,"à¤®à¤£à¤°":6352,"Ġà¥§à¥¦à¥Ń":6353,"Ġà¤ıà¤®à¤ı":6354,"ĠEV":6355,"SocialLY":6356,"ES":6357,"Ex":6358,"ril":6359,"à¤°à¤¯à¤¸":6360,"à¤¸à¤Ĩà¤ĺ":6361,"Ġà¤Ĩà¤¸à¤®":6362,"Ġà¤®à¤ĸ":6363,"à¤Ĺà¤¨à¤ļ":6364,"à¤Łà¤¸à¤°":6365,"à¤Łà¤ħ":6366,"Ġà¤¬à¤Łà¤°":6367,"Ġà¤ħà¤¸à¤¦":6368,"Ġà¤ªà¤°à¤Ĺà¤£":6369,"Ġà¤ĩà¤¨à¤ķ":6370,"Ġà¤Ĩà¤ªà¤¨":6371,"à¤®à¤¤à¤¦":6372,"ats":6373,"à¤¤à¤®à¤¸":6374,"Ġà¥§à¥¯à¥«à¥¦":6375,"Ġcase":6376,"à¤Ĩà¤°à¤ıà¤«à¤ļ":6377,"Ġpolice":6378,"à¤ľà¤£à¤Ĺ":6379,"à¤ıà¤¨à¤¡":6380,"à¤¯à¤°à¤¸à¤¨":6381,".\"\\":6382,"à¥ĩ.\"\\":6383,"Ġ1999":6384,"ĠCommission":6385,"ĠCorporation":6386,"!'":6387,"Police":6388,"nà¤ķà¤°":6389,"à¤®à¤°à¤¨":6390,"Ġà¤Ĩà¤«à¤¤":6391,"Ġà¤¤à¤°à¤£":6392,"Ġà¤¯à¤¸":6393,"Ġà¤ķà¤°à¤¸":6394,"à¤¥à¤¤à¤ľ":6395,"à¤ĸà¤ªà¤¤":6396,"Ġà¤ıà¤ķà¤¶":6397,"Ġà¤ªà¤°à¤µà¤¡":6398,"à¤°à¤®à¤°":6399,"à¤°à¤®à¤¯":6400,"à¤ĩà¤Ŀ":6401,"à¤¦à¤¨à¤ķ":6402,"à¤¯à¤¨à¤Ĺà¤°":6403,"à¥®à¥«":6404,"à¥¬à¥¯":6405,"ĠPre":6406,"à¤¾?'":6407,"ĠRam":6408,"Ġ91":6409,"Ġà¤µà¤¨à¤ª":6410,"Ġà¤ıà¤¨à¤Ł":6411,"ots":6412,"Ġà¤ªà¤²à¤Ł":6413,"ĠInMarathi":6414,"ĠExam":6415,"à¤ķà¤¸à¤¨à¤¶":6416,"nWeb":6417,"53":6418,"ient":6419,"res":6420,"uck":6421,"à¤ķà¤Łà¤ķ":6422,"à¤ķà¤Łà¤ļ":6423,"Ġà¤ħà¤¡à¤²":6424,"Ġà¤ħà¤Ĺà¤£":6425,"Ġà¤¬à¤²à¤°":6426,"à¤°à¤ķà¤£":6427,"à¤¯à¤ķà¤¥":6428,"à¤°à¤µà¤¶":6429,"à¤¼à¥Ĥ":6430,"à¤¦à¤°à¤ªà¤£":6431,"à¤Ĺà¤¤à¤¤":6432,"à¤ıà¤¶":6433,"à¤Ĺà¤£à¤ĺ":6434,"à¤¹à¤°à¤¹":6435,"à¥«à¥¯":6436,"ern":6437,"à¤īà¤ªà¤¸":6438,"Ġà¤Ĳà¤°":6439,"Ġà¤Ĳà¤¹":6440,"ĠAm":6441,"ĠAmb":6442,"à¥Ģ'.":6443,"ĠBJP":6444,"à¤ıà¤®à¤Ī":6445,"à¤ľà¤Ĺà¤Ńà¤°":6446,"Ġpass":6447,"Ġbl":6448,"anti":6449,"Ġà¤ªà¤²à¤Łà¤µ":6450,"Ġà¥¦à¥ª":6451,"ange":6452,"à¤¯à¤Ŀà¤°à¤ļ":6453,"ebs":6454,"Ġà¤ıà¤ķà¤µà¤Łà¤²":6455,"Ġà¤īà¤²à¤Ĺà¤¡à¤£":6456,"ockdown":6457,"ĠÂ©":6458,"Chand":6459,"Refer":6460,"58":6461,"ration":6462,"yc":6463,"Ġà¤®à¤Łà¤¨":6464,"Ġà¤ħà¤µà¤ļ":6465,"à¤¡à¤ªà¤Ł":6466,"à¤Īà¤¡à¤ļ":6467,"à¤Łà¤²à¤²":6468,"à¤Łà¤²à¤®":6469,"Ġà¤ĵà¤®à¤ª":6470,"ĠSer":6471,"orn":6472,"ĠBh":6473,"Ġinc":6474,"haw":6475,"Ġà¥§à¥§à¥®":6476,"riend":6477,"ants":6478,"Ġà¤ľà¤²à¤¶":6479,"ricket":6480,"Ġà¤īà¤łà¤µà¤¤":6481,"nivers":6482,"à¤ıà¤¸à¤ıà¤¨à¤ıà¤²":6483,"\"\"":6484,"Ad":6485,"yn":6486,"Ġright":6487,"à¤°à¤¬à¤¦":6488,"à¤²à¤ĸà¤¨":6489,"à¤¿à¤¾":6490,"à¤¸à¤®à¤¤":6491,"à¤¸à¤®à¤ķ":6492,"Ġà¤ªà¤³à¤£":6493,"Ġà¤¨à¤°à¤®":6494,"à¤·à¤¦à¤°":6495,"à¤¤à¤°à¤µ":6496,"à¤°à¤¤à¤ľ":6497,"à¤°à¤£à¤ª":6498,"à¤¸à¤°à¤¶":6499,"à¤Ĺà¤²à¤ª":6500,"à¤ıà¤Ĩà¤¯":6501,"à¤°à¤¦à¤¯":6502,"à¤¨à¤ļà¤°":6503,"à¤¹à¤¨à¤®à¤§":6504,"Ġà¥«à¥¦à¥¦à¥¦":6505,"Ġà¤ľà¤®à¤µà¤²":6506,"leg":6507,"ola":6508,"à¤¨à¤®à¤§à¤²":6509,"à¤¾à¤ĥ-":6510,"osc":6511,"Ġà¥§à¥¯à¥¯à¥¬":6512,"udd":6513,"tember":6514,"à¤®à¤¥":6515,"Ġà¤¨à¤ļ":6516,"à¤¶à¤µà¤£":6517,"Ġà¤Łà¤³":6518,"à¤¡à¤²à¤ļ":6519,"à¤°à¤²à¤¯":6520,"à¤Łà¤°à¤Ĺ":6521,"à¤ĩà¤¡à¤ļ":6522,"any":6523,"à¤¦à¤¨à¤µà¤¨":6524,"à¤¹à¤¨à¤¸":6525,"à¥®à¥Ń":6526,"ĠSo":6527,"Ġà¤¬à¤¹à¤°à¤²":6528,"ĠCol":6529,"Ġà¥§à¥¦à¥©":6530,"Ġà¤īà¤Ĺà¤µà¤¤":6531,"ugh":6532,"Ġhttp":6533,"urangabad":6534,"En":6535,"].":6536,"ior":6537,"va":6538,"à¤¨à¤§à¤°":6539,"Ġà¤¸à¤µà¤°":6540,"Ġà¤¤à¤¦à¤¨":6541,"Ġà¤µà¤°à¤£":6542,"Ġà¤¬à¤Łà¤²à¤°":6543,"à¤µà¤°à¤®à¤§":6544,"à¤«à¤¡à¤ķ":6545,"Ġà¤ªà¤¦à¤¸":6546,"anesh":6547,"à¤ľà¤ķà¤¨":6548,"à¥®à¥¨":6549,"à¤°à¤¹à¤¸":6550,"ases":6551,"oli":6552,"Ġà¤ªà¤¡à¤µà¤³":6553,"Ġà¤µà¤¨à¤°à¤ķ":6554,"Ġact":6555,"2022":6556,"Ġà¥§à¥ªà¥ª":6557,"Ġ110":6558,"Ġhad":6559,"indra":6560,"Ġà¤Ĺà¤ľà¤Ń":6561,"Ġà¥§à¥¯à¥Ńà¥§":6562,"Ġà¤Ńà¤°à¤µà¤¶":6563,"Ġà¤ıà¤¨à¤Ĩà¤¯à¤ı":6564,"ĠRecruitment":6565,"Ġà¤ľà¤¡à¤£à¤ĺà¤¡à¤£":6566,"aheb":6567,"Al":6568,"CS":6569,"pro":6570,"à¤¤à¤µà¤¸":6571,"à¤¯à¤±":6572,"à¤¿à¥į":6573,"à¤¨à¤µà¤²":6574,"à¤¸à¤¤à¤°":6575,"à¤¦à¤¶à¤®":6576,"Ġà¤ĺà¤°à¤®":6577,"Ġà¤ıà¤¥":6578,"à¤°à¤®à¤ľ":6579,"à¤°à¤®à¤ķà¤¤":6580,"à¤ľà¤¨à¤µ":6581,"à¤Ĩà¤°à¤¤":6582,"à¤ĩà¤°":6583,"à¤ĩà¤ļ":6584,"à¤°à¤ĸà¤ª":6585,"à¤¹à¤¨à¤¤à¤³":6586,"ĠShah":6587,"à¥Ńà¥§":6588,"à¤¤à¤¨à¤¶":6589,"Ġà¥§à¥¯à¥¨à¥¦":6590,"etrol":6591,"Ġwhat":6592,"à¤°à¤®à¤§à¤²":6593,"ĠKar":6594,"à¤°à¤®à¤£à¤§":6595,"osit":6596,"à¤¤à¤¬à¤Ĺ":6597,"ible":6598,"ervation":6599,"Ġà¤Ĺà¤ľà¤¬à¤ľà¤²":6600,"enefits":6601,"52":6602,"Pro":6603,"Virat":6604,"go":6605,"Ġà¤¾":6606,"à¤ķà¤Ĩà¤īà¤Ł":6607,"à¤®à¤ľà¤¨":6608,"Ġà¤¸à¤ķà¤¸":6609,"à¤ªà¤Łà¤²":6610,"Ġà¤ıà¤ķà¤¸à¤®":6611,"à¤«à¤Ĺ":6612,"à¤ħà¤¸à¤¤":6613,"Ġà¤¨à¤µà¤®":6614,"à¤¶à¤¨à¤ª":6615,"Ġà¤Ĩà¤¯à¤ıà¤¸":6616,"Ġà¤Ľà¤¬":6617,"à¤ĵà¤¡":6618,"ĠSat":6619,"ĠShe":6620,"à¤¡à¤ķà¤³":6621,"Ġà¤¬à¤¸à¤µà¤¤":6622,"Ġà¤Ķà¤Ł":6623,"ĠAh":6624,"à¤Ĩà¤¯à¤ı":6625,"à¤²à¤°à¤µà¤°":6626,"els":6627,"ĠHel":6628,"ĠHind":6629,"à¥¨à¥¦à¥¨à¥§":6630,"à¤²à¤ķà¤°à¤ļ":6631,"ika":6632,"ify":6633,"Ġà¤Ĺà¤µà¤Ī":6634,"à¤Ķà¤·à¤§":6635,"Ġà¤Ńà¤Łà¤ķà¤¤":6636,"Ġà¥§à¥¯à¥Ńà¥¨":6637,"à¤¶à¤ĸà¤¬à¤°":6638,"95":6639,"Sa":6640,"nT":6641,"ran":6642,"tar":6643,"à¤°à¤¬à¤°":6644,"à¤²à¤°à¤¶":6645,"à¤®à¤Ńà¤°":6646,"à¤·à¤¯à¤¨":6647,"Ġà¤ªà¤°à¤²":6648,"Ġà¤ĩà¤¸à¤µ":6649,"Ġà¤§à¤®à¤¨":6650,"à¤¸à¤°à¤¨":6651,"Ġà¤Ĩà¤¤à¤ļ":6652,"Ġà¤¨à¤µà¤ĸ":6653,"Ġà¤¨à¤µà¤±":6654,"à¤°à¤ªà¤³":6655,"à¤²à¤ķà¤ļ":6656,"à¥Ńà¥¬":6657,"ĠNMK":6658,"à¤Ńà¤µà¤µ":6659,"let":6660,"Ġsays":6661,"ĠRel":6662,"Ġpar":6663,"idas":6664,"Ġà¤ıà¤¨à¤ľ":6665,"aik":6666,"à¤®à¤¶à¤¹":6667,"Ġknow":6668,"Ġà¤ļà¤®à¤ķà¤¤":6669,"oney":6670,"Ġits":6671,"ospital":6672,"IL":6673,"hya":6674,"mar":6675,"à¤¯à¤¸à¤®":6676,"à¤²à¤ĸà¤¤":6677,"à¤¹à¤¡":6678,"à¤¦à¤°à¤¸":6679,"à¥Ĥ\"":6680,"à¤Łà¤®à¤¨":6681,"à¤ľà¤¸à¤¹":6682,"à¤¡à¤¨à¤²":6683,"à¤§à¤µà¤¨":6684,"à¤³à¤§":6685,"Ġà¤Ĺà¤«":6686,"à¤¥à¤¦":6687,"à¤ĸà¤ł":6688,"Ġà¤ĺà¤°à¤¤":6689,"Ġà¤Ŀà¤£":6690,"à¤°à¤¤à¤Ńà¤°":6691,"Ġà¤¸à¤°à¤¹à¤¦":6692,"Ġà¤ħà¤¨à¤¸":6693,"à¤¦à¤°à¤¨":6694,"à¤ľà¤¨à¤¹":6695,"à¤¯à¤¤à¤¦":6696,"à¤¶à¤¨à¤¸à¤¹":6697,"à¤ªà¤¨à¤µ":6698,"Ġà¤¸à¤¹à¤ª":6699,"à¤²à¤¨à¤ª":6700,"Ġà¤ħà¤ªà¤ļà¤¨":6701,"Ġà¤ħà¤®à¤°à¤¨":6702,"à¤ªà¤²à¤ļ":6703,"ĠAN":6704,"isha":6705,"à¤®à¤£à¤Ĺ":6706,"ĠRights":6707,"ĠDec":6708,"Ġà¤īà¤¡à¤µà¤¤":6709,"ids":6710,"Ġmon":6711,"à¤¾!\\":6712,"Ġà¤·à¤¡à¤¯":6713,"à¤ıà¤«à¤Ł":6714,"Ġà¤ķà¤ļà¤±":6715,"lood":6716,"Ġà¤Ĺà¤µà¤¸à¤£":6717,"revious":6718,"AP":6719,"BS":6720,"Latest":6721,"TA":6722,"aun":6723,"wal":6724,"¸ı":6725,"ï¸ı":6726,"à¥ĩà¤¾":6727,"à¤ļà¤¨à¤ļ":6728,"Ġà¤®à¤²à¤¯":6729,"Ġà¤¹à¤¶":6730,"à¤¶à¤Ŀ":6731,"à¤¬à¤²à¤¤":6732,"à¤¥à¤®à¤§":6733,"Ġà¤īà¤Ĺà¤²":6734,"Ġà¤ıà¤Ĩà¤¯":6735,"à¤¾.)":6736,"Ġà¤Ŀà¤Łà¤¤":6737,"Ġà¤ĸà¤¤à¤ª":6738,"à¤¤à¤°à¤ªà¤¤":6739,"à¤®à¤§à¤¡":6740,"à¤ĺà¤¦":6741,"Ġà¤łà¤£":6742,"à¤«à¤¡":6743,"à¤«à¤°à¤¸":6744,"à¤ħà¤³":6745,"Ġà¤¨à¤µà¤¦":6746,"Ġà¤¤à¤¸à¤ļ":6747,"à¤®à¤¨à¤®":6748,"à¤¬à¤Īà¤µà¤°":6749,"Ġà¤ľà¤¨à¤®à¤¤":6750,"à¤¸à¤®à¤ľ":6751,"Ġà¤īà¤®à¤¦":6752,"ĠNashik":6753,"icer":6754,"icide":6755,"à¤¯à¤°à¤®à¤§":6756,"Ġà¤Ĺà¤Łà¤¬":6757,"Ġsk":6758,"Ġà¥§à¥¨à¥¬":6759,"à¤ıà¤®à¤ıà¤ķ":6760,"ets":6761,"haj":6762,"Ġà¥§à¥§à¥ª":6763,"riv":6764,"ĠOr":6765,"ĠUs":6766,"Ġva":6767,"ĠStock":6768,"Ġà¤µà¤°à¤ļà¤¢":6769,"Ġcomment":6770,"ruary":6771,"anchay":6772,"Ġagainst":6773,"cha":6774,"nà¤Ĩà¤°":6775,"ĠĠ":6776,"à¥įà¤¾":6777,"Ġà¤ªà¤¯":6778,"Ġà¤¤à¤¸à¤²":6779,"Ġà¤¤à¤ľà¤µ":6780,"à¥Ĥ;":6781,"à¤ľà¤²à¤Ĺ":6782,"Ġà¤¨à¤Ĺà¤¦":6783,"Ġà¤°à¤®à¤²":6784,"à¤µà¤²à¤²":6785,"Ġà¤īà¤ªà¤ĸ":6786,"Ġà¤¸à¤¹à¤ľà¤ļ":6787,"eral":6788,"à¥®à¥©":6789,"ices":6790,"à¤ıà¤¸à¤ı":6791,"ĠTr":6792,"ĠCar":6793,"ĠCPU":6794,"Ġà¤īà¤²à¤Łà¤¸":6795,"ĠDis":6796,"Ġthem":6797,"reme":6798,"à¤ķà¤®à¤¤à¤¨":6799,"Ġà¤°à¤£à¤Ĺ":6800,"Ġreg":6801,"Ġà¤īà¤²à¤Ĺà¤¡à¤¤":6802,"ification":6803,"satta":6804,"'t":6805,"400":6806,"my":6807,"nR":6808,"Ĺı":6809,"Ŀ¤":6810,"à¤®à¤¹à¤°":6811,"Ġà¤µà¤·":6812,"Ġà¤°à¤ļà¤¤":6813,"Ġà¤¬à¤¯":6814,"à¤Ńà¤°à¤ļ":6815,"à¥Ģ.)":6816,"Ġà¤Ŀà¤ķ":6817,"à¤Īà¤¸à¤°":6818,"Ġà¤ªà¤°à¤Ĺ":6819,"Ġà¤ĩà¤¨à¤¸":6820,"Ġà¤Ĩà¤ªà¤ķ":6821,"Ġ(\"":6822,"à¤ªà¤°à¤ĸ":6823,"à¤ªà¤°à¤Ńà¤£":6824,"Ġà¤īà¤ªà¤ħà¤Ń":6825,"à¤ıà¤Ĺ":6826,"à¤Łà¤ķà¤¸à¤°":6827,"à¤®à¤¨à¤ľ":6828,"à¤¸à¤¹à¤ķ":6829,"à¤·à¤ķà¤ªà¤¦":6830,"à¤¡à¤£à¤ķà¤°":6831,"à¤ĵà¤°":6832,"ĠMLA":6833,"ĠSuper":6834,"Ġthan":6835,"à¤ıà¤¸à¤ıà¤®à¤Ł":6836,"ĠTimes":6837,"Ġà¥§à¥¦à¥¯":6838,"Ġà¤¢à¤®":6839,"eth":6840,"à¤Ĩà¤°à¤ı":6841,"Ġber":6842,"Ġlike":6843,"Ġà¤ķà¤³à¤®à¤¨":6844,"ession":6845,"Ġelection":6846,"ovie":6847,"Ġà¥§à¥¯à¥Ńà¥¦":6848,"Ġà¤²à¤ªà¤µà¤£":6849,"arming":6850,"----------------":6851,"ĠSeptember":6852,"Ġà¤¹à¤°à¤®à¤¨à¤ª":6853,"'!":6854,"RC":6855,"mon":6856,"za":6857,"à¤¹à¤®à¤§":6858,"à¤¹à¤ļà¤µà¤£":6859,"à¤ªà¤Ĺà¤¡":6860,"à¤Ĺà¤ĸ":6861,"à¤ľà¤Ĺà¤¡":6862,"à¤¶à¤ªà¤°":6863,"Ġà¤¦à¤«":6864,"Ġà¤Ĺà¤³à¤£":6865,"Ġà¤²à¤°":6866,"Ġà¤²à¤¸à¤£":6867,"à¤Ńà¤ļ":6868,"Ġà¤Ńà¤°à¤ķ":6869,"Ġà¤ĺà¤¬à¤°":6870,"Ġà¤ıà¤ķà¤ľà¤£":6871,"à¤°à¤¤à¤²":6872,"à¤¯à¤ķà¤®":6873,"à¤ªà¤°à¤¨":6874,"à¤¤à¤²à¤¬":6875,"Ġà¥§0":6876,"à¤ħà¤¡à¤ļà¤£":6877,"à¥®à¥¯":6878,"à¥®à¥¬":6879,"ĠSBI":6880,"à¤²à¤¬à¤®à¤§":6881,"ĠNational":6882,"ĠAC":6883,"à¤ıà¤¸à¤¡":6884,"à¤ªà¤Łà¤£":6885,"ĠGa":6886,"Ġsaid":6887,"ural":6888,"Ġcount":6889,"ĠBoss":6890,"Ġà¤ªà¤Łà¤¸":6891,"2015":6892,"Ġà¤¤à¤³à¤ĺà¤°":6893,"à¤ıà¤«à¤ĵ":6894,"Ġà¥¦à¥¬":6895,"à¤°à¤®à¤ķà¤ªà¤£":6896,"Ġà¤ħà¤µà¤¯à¤µà¤¦":6897,"clai":6898,"ĠPlay":6899,"Ġà¤®à¤¦à¤°à¤¶":6900,"ĠSlide":6901,"OC":6902,"gen":6903,"nic":6904,"à¤¾à¥ĩ.":6905,"à¤¯à¤·":6906,"à¤¯à¤«à¤³":6907,"à¤²à¤°à¤²":6908,"à¤¨à¤ī":6909,"à¤ļà¤ľà¤£":6910,"à¤¹à¤°à¤ļà¤¨":6911,"Ġà¤ªà¤¢":6912,"à¥Ĥà¤ĥ":6913,"Ġà¤ªà¤°à¤ľ":6914,"Ġà¤Łà¤°à¤¬":6915,"à¤¯à¤ķà¤ļ":6916,"à¤¬à¤°à¤¹":6917,"à¤ĩà¤¸à¤µà¤°":6918,"Ġà¤ĸà¤°à¤Ĺ":6919,"à¤µà¤¨à¤µ":6920,"à¤ľà¤ªà¤ķ":6921,"Ġà¤ľà¤¨à¤¸à¤®":6922,"ĠSang":6923,"à¤¬à¤²à¤ª":6924,"à¤¤à¤ªà¤Ł":6925,"ĠAS":6926,"Ġday":6927,"à¤¾)</":6928,"ĠFe":6929,"à¤¯à¤£à¤Ĺ":6930,"à¤¤à¤°à¤£à¤ķà¤¡":6931,"Ġà¤«à¤¸à¤µà¤²":6932,"Ġà¤ĸà¤³à¤ĸà¤³":6933,"Ġvis":6934,"nà¤¸à¤§":6935,"ops":6936,"Ġà¥§à¥¯à¥¯à¥ª":6937,"armers":6938,"Ġà¤ıà¤ħà¤°à¤µ":6939,"Ġsuch":6940,"Ġà¤ıà¤¨à¤Ĩà¤¯à¤ıà¤¨":6941,"CCI":6942,"à¤ŁÃĳà¤µ":6943,"anchayat":6944,"98":6945,"ced":6946,"iw":6947,"nI":6948,"nà¤ī":6949,"ph":6950,"à¤¸à¤ıà¤ª":6951,"à¤¹à¤Ń":6952,"Ġà¤¶à¤«":6953,"Ġà¤Ĺà¤¡à¤Ĺ":6954,"à¤°à¤ķà¤¥":6955,"Ġà¤ĸà¤®":6956,"à¤¿à¤Ĥ.":6957,"Ġà¤łà¤£à¤ķ":6958,"à¤µà¤²à¤ķà¤°":6959,"à¤°à¤¸à¤ª":6960,"à¤¸à¤¨à¤°":6961,"Ġà¤ħà¤ªà¤ª":6962,"enot":6963,"ĠPost":6964,"Ġà¤Ĺà¤°à¤ľà¤ļ":6965,"ĠDm":6966,"ĠLIVE":6967,"à¤ıà¤®à¤ı":6968,"Ġwere":6969,"Ġà¥§à¥§à¥§":6970,"oth":6971,"à¤²à¤Ńà¤Ń":6972,"ĠInformation":6973,"à¥ĩ!\"":6974,"ists":6975,"Ġà¥§à¥¯à¥¯à¥Ń":6976,"ffic":6977,"Ġà¤ªà¤¦à¤Ńà¤°à¤¤":6978,"lipi":6979,"ĠOnePlus":6980,"ebsite":6981,"NL":6982,"Top":6983,"ey":6984,"jp":6985,"mukh":6986,"Ã¼":6987,"âĦ":6988,"à¤®à¤ªà¤¤":6989,"Ġà¤Ĩà¤¡à¤ķ":6990,"Ġà¤°à¤ľà¤¤":6991,"Ġà¤¶à¤¬à¤°":6992,"Ġà¤¡à¤²":6993,"à¤¼à¤¿":6994,"à¤µà¤£à¤ķà¤°":6995,"à¤¯à¤¤à¤¶":6996,"à¤Łà¤°à¤¦":6997,"à¤®à¤¨à¤¦":6998,"atop":6999,"à¥ªà¥¦à¥¦":7000,"ĠSur":7001,"à¥Ńà¥ª":7002,"..\\":7003,"iti":7004,"itya":7005,"à¤ķà¤£à¤®":7006,"icrit":7007,"ĠAT":7008,"Ġà¤ħà¤µà¤¤à¤°à¤²":7009,"ĠTrans":7010,"ĠCity":7011,"ĠGroup":7012,"ĠRBI":7013,"ĠDelhi":7014,"rao":7015,"ĠHD":7016,"à¤²à¤Ńà¤¤":7017,"Ġà¤ħà¤«à¤²":7018,"Ġà¤ĵà¤²à¤¸à¤°":7019,"Ġà¤ħà¤¹à¤®à¤¦à¤¨":7020,"Ġà¥¦à¥¯":7021,"ives":7022,"asses":7023,"ĠJanuary":7024,"Image":7025,"enotril":7026,"HA":7027,"How":7028,"Nagpur":7029,"bal":7030,"vis":7031,"ĠðŁ":7032,"ĨĴ":7033,"à¤°à¤Ĺà¤¡":7034,"à¤¤à¤ªà¤°":7035,"à¤µà¤ķà¤²":7036,"Ġà¤ķà¤£à¤¸":7037,"à¤¦à¤ķà¤¡":7038,"à¤¦à¤ªà¤£":7039,"Ġà¤µà¤ĸ":7040,"Ġà¤¨à¤°à¤µ":7041,"à¤¬à¤®à¤¨":7042,"Ġà¤Ńà¤°à¤µà¤²":7043,"à¤¢à¤±":7044,"à¤¹à¤£à¤ķà¤°":7045,"à¤Ĭà¤¡":7046,"à¥¦à¥«":7047,"Ġà¤ħà¤¨à¤ĺ":7048,"à¤ľà¤¨à¤¬à¤¦":7049,"Ġà¤ĵà¤¶":7050,"à¤ķà¤°à¤£à¤¹":7051,"à¥ĭ,'":7052,"ĠAjit":7053,"isul":7054,"à¤²à¤£à¤ķà¤°":7055,"ĠRain":7056,"Ġpre":7057,"Ġà¥§à¥§à¥«":7058,"Ġà¤¨à¤Ĺà¤°à¤ķà¤°":7059,"uti":7060,"ular":7061,"irc":7062,"ĠKapoor":7063,"airo":7064,"Ġà¤Ĺà¤¡à¤Ĺà¤¡":7065,"ĠStory":7066,"aprod":7067,"ĠâĿ¤":7068,"ĠChand":7069,"Ġà¤łà¤³à¤ķà¤ªà¤£":7070,"IAL":7071,"Ġcheck":7072,"aprodom":7073,"RR":7074,"uy":7075,"Ġol":7076,"à¤¨à¤¯à¤¨":7077,"à¤¨à¤Īà¤¨":7078,"Ġà¤ªà¤Ľ":7079,"à¤ªà¤ł":7080,"à¤ªà¤±":7081,"Ġà¤ħà¤Ĺà¤¸":7082,"Ġà¤µà¤Ł":7083,"Ġà¤¹à¤£à¤®":7084,"Ġà¤Ĺà¤¹à¤¨":7085,"à¤ªà¤°à¤¦":7086,"à¤Łà¤°à¤¬":7087,"à¤§à¤¨à¤Ĺ":7088,"ĠMet":7089,"à¤ķà¤°à¤£à¤ļ":7090,"à¤ķà¤¸à¤ķ":7091,"ĠST":7092,"à¥Ńà¥©":7093,"à¤¨à¤°à¤®à¤§":7094,"ĠII":7095,"ĠIT":7096,"ĠCap":7097,"Ġà¤Īà¤¦à¤ļ":7098,"Ġfirst":7099,"Ġwater":7100,"Ġà¤¦à¤²à¤¦à¤²":7101,"Ġlife":7102,"Ġ1500":7103,"ĠHy":7104,"ĠHor":7105,"Ġà¤¸à¤ľà¤µà¤²":7106,"Ġvacc":7107,"Ġà¤§à¤¡à¤§à¤¡":7108,"ĠState":7109,"à¤¯à¤¸à¤¨à¤®":7110,"Ġà¤Ŀà¤³à¤ķà¤¤":7111,"efur":7112,"ĠChia":7113,"Ġà¤²à¤Łà¤ķà¤²":7114,"ĠThanks":7115,"âĦ¢":7116,"68":7117,"Narendra":7118,"Pol":7119,"da":7120,"ger":7121,"lim":7122,"ox":7123,"rus":7124,"sur":7125,"àª":7126,"Ġà¤¸à¤°à¤®":7127,"Ġà¤¦à¤¬à¤²":7128,"Ġà¤Ĺà¤¡à¤ķ":7129,"à¤Īà¤Ŀ":7130,"Ġà¤Ĩà¤ªà¤Łà¤²":7131,"à¤µà¤²à¤Ĺ":7132,"à¤¯à¤®à¤¹":7133,"à¤ħà¤ªà¤°":7134,"à¤ªà¤¨à¤¦":7135,"à¤¯à¤²à¤¢":7136,"Ġà¤ĺà¤°à¤Ń":7137,"ĠSec":7138,"asaheb":7139,"Ġà¤Ńà¤°à¤µà¤¸":7140,"à¤°à¤¥à¤®à¤¦à¤°":7141,"Ġonly":7142,"ĠFood":7143,"ĠKumar":7144,"Ġtoday":7145,"à¥¨à¥¦à¥§à¥¯":7146,"...'":7147,"Ġà¤µà¤ľà¤¨à¤¦":7148,"à¥Ģ!\\":7149,"ova":7150,"Ġà¤ĩà¤ķà¤¬":7151,"Ġà¤ıà¤®à¤Ĩà¤¯à¤ıà¤®à¤ļ":7152,"Ġà¤¦à¤®à¤Ľ":7153,"pratop":7154,"Inter":7155,"Ġshared":7156,"rested":7157,"isulide":7158,",</":7159,"41":7160,"51":7161,"?)":7162,"EL":7163,"On":7164,"à¤°à¤Ĺà¤³":7165,"Ġà¤¹à¤°à¤¦":7166,"à¤§à¤Ń":7167,"Ġà¤ļà¤ªà¤³":7168,"à¤Īà¤¹":7169,"à¤ķà¤°à¤Ńà¤°à¤¤":7170,"à¤ĺà¤Ĺà¤°":7171,"Ġà¤¡à¤ķ":7172,"à¤Ŀà¤µà¤£":7173,"à¤®à¤¨à¤µà¤®":7174,"à¤ľà¤ªà¤ª":7175,"à¤¯à¤¨à¤µ":7176,"esident":7177,"ĠMade":7178,"ĠMunicipal":7179,"à¤īà¤¥":7180,"Ġà¤īà¤®à¤Łà¤µ":7181,"à¤¯à¤¸à¤°à¤ķ":7182,"ĠIM":7183,"Ġsur":7184,"Ġchan":7185,"ĠRCB":7186,"à¤Īà¤ķà¤µà¤°":7187,"estions":7188,"ĠOD":7189,"Ġà¤¸à¤ľà¤µà¤£":7190,"Ġ144":7191,"Ġà¥¦à¥©":7192,"ival":7193,"999":7194,"Ġexam":7195,"Ġà¤¬à¤°à¤¸à¤²":7196,"ï¿½ï¿½":7197,"toridas":7198,"Ġà¤ıà¤®à¤ıà¤²à¤¡":7199,"claimer":7200,"efurica":7201,")-":7202,"nà¤Ĩà¤£":7203,"vax":7204,"Ġà¥į":7205,"à¤¤à¤ĺ":7206,"à¤¯à¤µà¤¤à¤®":7207,"à¤¨à¤¨à¤Ĺà¤°":7208,"Ġà¤ħà¤¤à¤°":7209,"Ġà¤ħà¤ľà¤¨":7210,"Ġà¤ħà¤¦à¤²":7211,"à¤ĸà¤®à¤§":7212,"Ġà¤ĩà¤¡":7213,"à¤Ĭà¤ªà¤£":7214,"à¤¦à¤°à¤µà¤°":7215,"Ġà¤ĳà¤¥":7216,"ĠNe":7217,"Ġ4000":7218,"omat":7219,"Ġà¤Ĩà¤Īà¤ķà¤¡":7220,"Ġà¤ĩà¤¥à¤ªà¤°":7221,"Ġdough":7222,"Ġvideo":7223,"imp":7224,"imvax":7225,"aji":7226,"ĠComp":7227,"Ġà¤ªà¤ªà¤Ī":7228,"à¤¸à¤Ĺà¤¡à¤®à¤§":7229,"nBy":7230,"velopment":7231,"We":7232,"yt":7233,"Ġed":7234,"Ġhar":7235,"Ġif":7236,"à¤¯à¤ĸ":7237,"à¤µà¤ĺà¤°":7238,"à¤¸à¤ªà¤Ł":7239,"à¤®à¤¸à¤²à¤¤":7240,"Ġà¤ªà¤ļà¤µ":7241,"Ġà¤®à¤¸à¤²à¤¤":7242,"à¤¡à¤ħà¤³":7243,"Ġà¤¹à¤¸à¤°":7244,"Ġà¤¹à¤³à¤µ":7245,"Ġà¤°à¤®à¤¤":7246,"Ġà¤¬à¤µ":7247,"Ġà¤ĸà¤°à¤ª":7248,"Ġà¤ıà¤ķà¤°à¤ķà¤®":7249,"Ġà¤¤à¤°à¤¡":7250,"à¤ªà¤°à¤®à¤§":7251,"à¤ıà¤¤à¤¨":7252,"à¤ĥ'":7253,"à¤ĩà¤Łà¤¨":7254,"Ġà¤ªà¤¦à¤®à¤¨à¤ľ":7255,"à¤Ľà¤¡":7256,"Ġà¥¤'":7257,"à¤ĵà¤³à¤ĸ":7258,"ĠSamsung":7259,"à¤īà¤ªà¤¨":7260,"ene":7261,"enn":7262,"ĠNagpur":7263,"ada":7264,"amily":7265,"Ġà¤ıà¤¸à¤¡":7266,"ĠBS":7267,"ĠRane":7268,"à¤ķà¤³à¤ļ":7269,"ĠLast":7270,"Ġpart":7271,"Ġà¤Ĩà¤¢à¤³à¤°":7272,"Ġà¤¸à¤¦à¤°à¤¹":7273,"Ġà¤ħà¤Łà¤³":7274,"Ġà¤įà¤®":7275,"ava":7276,"Ġà¥§à¥¯à¥ªà¥®":7277,"ĠReserved":7278,"Ġà¤ķà¤Łà¤ķà¤Ł":7279,"ĠAugust":7280,"ECIAL":7281,"\"\\":7282,"67":7283,"Co":7284,"Hz":7285,"Video":7286,"hl":7287,"iver":7288,"ras":7289,"ser":7290,"à¤¯à¤®à¤§":7291,"à¤¦à¤°à¤¤":7292,"à¤ľà¤°à¤²":7293,"Ġà¤¨à¤¤à¤®à¤¸":7294,"Ġà¤¬à¤Łà¤²":7295,"Ġà¤ķà¤°à¤µà¤¤":7296,"Ġà¤ļà¤²à¤¤":7297,"Ġà¤ĺà¤®":7298,"Ġà¤ıà¤²à¤¸":7299,"à¤Īà¤ķà¤¡":7300,"à¤Ĭà¤³à¤Ĺ":7301,"à¤«à¤£":7302,"à¥¦à¥¯":7303,"à¤¶à¤¨à¤¦":7304,"Ġà¤®à¤¨à¤¨":7305,"ĠSum":7306,"à¤īà¤¡à¤µ":7307,"à¤īà¤¨à¤®":7308,"ĠPay":7309,"ĠAk":7310,"à¤ķà¤Łà¤µ":7311,"adha":7312,"Ġsol":7313,"à¤Ĩà¤¯à¤¬":7314,"ĠRahul":7315,"Ġnow":7316,"à¤²à¤¦à¤¸":7317,"à¤ıà¤²à¤¸":7318,"à¤¹à¤¸à¤³":7319,"Ġdishes":7320,"à¤²à¤®à¤¡":7321,"ource":7322,"Ġà¤īà¤ľà¤³à¤£":7323,"iven":7324,"iesel":7325,"havan":7326,"Ġ1990":7327,"Ġà¥§à¥¯à¥®à¥¯":7328,"ddress":7329,"ĠPradesh":7330,"ĠChief":7331,"mplo":7332,"ĠLoksatta":7333,"urrent":7334,"Ġshould":7335,"Me":7336,"NE":7337,"National":7338,"SP":7339,"ause":7340,"sha":7341,"à¤¯à¤ľà¤°":7342,"à¤²à¤µà¤¡":7343,"à¤µà¤Ĺà¤¤":7344,"à¤£à¤ĸà¤¤":7345,"Ġà¤¸à¤¬à¤²":7346,"à¤Łà¤¸à¤ļ":7347,"à¤§à¤§à¤°":7348,"Ġà¤ľà¤ľ":7349,"Ġà¤ķà¤°à¤¶":7350,"Ġà¤Ĺà¤²à¤µ":7351,"Ġà¤²à¤ķà¤¡":7352,"Ġà¤ıà¤¡à¤µà¤°":7353,"Ġà¤«à¤¤à¤µ":7354,"à¤¢à¤ª":7355,"Ġà¤ªà¤°à¤¨":7356,"Ġà¤ħà¤¨à¤¨à¤¸":7357,"Ġ'</":7358,"Ġà¤ķà¤°à¤¤à¤ļ":7359,"Ġà¥¨à¥¨à¥¦":7360,"à¥ĭ.'":7361,"à¤Ĩà¤°à¤¨":7362,"à¤¶à¤¨à¤§":7363,"à¤¶à¤¨à¤Ĺà¤°":7364,"à¤ķà¤²à¤²":7365,"à¤¤à¤ķà¤¥":7366,"à¤¯à¤¨à¤¸":7367,"ĠMy":7368,"à¤µà¤¢à¤¯":7369,"Ġà¤Ĺà¤£à¤ªà¤¤à¤°":7370,"adav":7371,"à¤ķà¤ļà¤ķ":7372,"ĠLIC":7373,"read":7374,"Ġ101":7375,"ĠFrom":7376,"Ġà¤Ĳà¤ķà¤µà¤²":7377,"ĠWith":7378,"à¥Ģà¤ĥ-":7379,"oug":7380,"Ġà¤¬à¤ļà¤¤à¤Ĺà¤Ł":7381,"Ġstul":7382,"Ġ1998":7383,"Ġà¥§à¥¯à¥®à¥¬":7384,"ension":7385,"view":7386,"ĠIND":7387,"ĠJuly":7388,"Ġà¤¡à¤Ŀà¤¨à¤Ńà¤°":7389,"Ġyears":7390,"Covid":7391,"RO":7392,"Ram":7393,"Rohit":7394,"cast":7395,"ele":7396,"mg":7397,"mat":7398,"mAh":7399,"oan":7400,"tTop":7401,"à¤²à¤Łà¤²":7402,"à¤²à¤®à¤°":7403,"à¤ķà¤¨à¤Ĺà¤°":7404,"à¤£à¤ªà¤Ł":7405,"Ġà¤ķà¤Ń":7406,"à¤®à¤²à¤ķ":7407,"Ġà¤¸à¤µà¤¡":7408,"Ġà¤µà¤£à¤µà¤£":7409,"à¤Łà¤°à¤ķ":7410,"à¤§à¤µà¤¸":7411,"à¤§à¤°à¤¨":7412,"Ġà¤ľà¤¯à¤¤":7413,"à¤¬à¤ķà¤°":7414,"Ġà¤°à¤Ĺ":7415,"Ġà¤°à¤Ŀ":7416,"Ġà¤¬à¤Ŀ":7417,"à¤µà¤°à¤®":7418,"à¤ķà¤°à¤µà¤°":7419,"à¤¦à¤°à¤®à¤§":7420,"à¤ıà¤Ī":7421,"à¤ĥ\\":7422,"à¤Ĩà¤°à¤ķ":7423,"à¤Īà¤²à¤¨":7424,"à¤ĩà¤¨à¤¸":7425,"arat":7426,"inc":7427,"Ġà¤¬à¤°à¤¬":7428,"ĠMed":7429,"à¥®à¥§":7430,"Ġ3000":7431,"à¥ĭ,\"":7432,"Ġà¤¬à¤¸à¤Ĺ":7433,"Ġà¤ħà¤²à¤Ĺà¤¦":7434,"à¤Ĩà¤¯à¤®à¤§":7435,"Ġà¤¹à¤²à¤µà¤¤":7436,"à¤µà¤§à¤ªà¤£":7437,"ĠDes":7438,"raind":7439,"Ġà¥§à¥¨à¥¨":7440,"à¤Ĩà¤°à¤®à¤§":7441,"à¤Ĩà¤°à¤Ĩà¤°":7442,"Ġbet":7443,"Ġà¥¨à¥«à¥¦à¥¦":7444,"Ġà¤ľà¤¸à¤ľà¤¶":7445,"uman":7446,"à¤ıà¤¨à¤Ł":7447,"Ġhere":7448,"hane":7449,"abh":7450,"kari":7451,"à¤¯à¤Ĺà¤¡à¤ļ":7452,"ĠAghadi":7453,"Ġthese":7454,"ervice":7455,"PORT":7456,"Ġà¤ļà¤®à¤ķà¤²":7457,"ĠJioTV":7458,"Ġà¤Ĩà¤īà¤Łà¤ª":7459,"à¤ľà¤¯à¤¨à¤Ĺà¤°":7460,"ĠFebruary":7461,"nicin":7462,"raindic":7463,"65":7464,"Am":7465,"New":7466,"RA":7467,"Rahul":7468,"au":7469,"gram":7470,"word":7471,"à¤°à¤Ŀ":7472,"à¤¯à¤§à¤¨":7473,"à¤Ĥ\"":7474,"à¤µà¤ķà¤¡":7475,"à¤¹à¤µà¤¤":7476,"Ġà¤Ĩà¤¡à¤Ĺ":7477,"à¤¡à¤Ł":7478,"à¤Ńà¤¹":7479,"Ġà¤īà¤°à¤ķà¤²":7480,"Ġà¤ıà¤¡à¤®":7481,"Ġà¤Ŀà¤Łà¤²":7482,"Ġà¤®à¤¹à¤®":7483,"Ġà¤ĩà¤¡à¤²":7484,"à¤Ĺà¤²à¤ķ":7485,"à¤ıà¤®à¤§":7486,"à¤Łà¤¨à¤²":7487,"Ġà¤®à¤¨à¤µ":7488,"à¤µà¤¨à¤Ĺ":7489,"inch":7490,"à¤ŀà¤ķ":7491,"ony":7492,"Ġà¤ķà¤²à¤°à¤ļ":7493,"à¤ļà¤¨à¤®à¤§":7494,"ĠSam":7495,"à¥Ńà¥¯":7496,"Ġà¤Ķà¤ķ":7497,"ĠNCP":7498,"à¤ķà¤®à¤¹":7499,"Ġcall":7500,"ĠRail":7501,"ĠDepartment":7502,"à¤¸à¤®à¤§à¤²":7503,"Ġà¥§à¥§à¥¨":7504,"2017":7505,"irit":7506,"Ġà¥§à¥©à¥¯":7507,"Ġà¥§à¥©à¥Ń":7508,"Ġà¤ħà¤µà¤¸à¤°":7509,"ows":7510,"Ġà¤ıà¤²à¤ľ":7511,"umber":7512,"Ġiss":7513,"ĠReading":7514,"Ġret":7515,"Ġà¤ıà¤®à¤Ĩà¤¯à¤ıà¤®":7516,"Ġà¤ªà¤ļà¤¨à¤ķ":7517,"Goa":7518,"Ġà¤īà¤§à¤³à¤ªà¤Ł":7519,"oscope":7520,"300":7521,"ever":7522,"ection":7523,"ium":7524,"nà¤īà¤¤":7525,"Ä°":7526,"à¤¨à¤¸à¤ļ":7527,"à¤Ĥà¤ĥ":7528,"à¤ķà¤¤à¤ļ":7529,"à¤µà¤µà¤°":7530,"Ġà¤¹à¤²à¤¤":7531,"à¤§à¤ľà¤¨":7532,"Ġà¤¨à¤®à¤¨":7533,"Ġà¤¶à¤Łà¤°":7534,"Ġà¤ħà¤¸à¤Ń":7535,"Ġà¤ıà¤²à¤¨":7536,"à¤Īà¤¯":7537,"Ġà¤ĩà¤ª":7538,"à¤«à¤²à¤ķ":7539,"Ġà¤¸à¤®à¤°à¤¸":7540,"à¥¦à¥¨":7541,"Ġà¤īà¤ªà¤ªà¤¤":7542,"à¤ıà¤¬à¤²":7543,"Ġà¤Ĩà¤°à¤ľ":7544,"à¤Ĭà¤¨à¤¨":7545,"à¤µà¤³à¤ļ":7546,"Ġà¥©à¥¦à¥¦à¥¦":7547,"à¤²à¤¤à¤¤":7548,"Ġà¤ħà¤²à¤µ":7549,"ĠNar":7550,"icro":7551,"à¤¨à¤°à¤µà¤°":7552,"à¤Ĥ,\"":7553,"ĠBal":7554,"ĠRet":7555,"ray":7556,"reen":7557,"à¤³à¤µà¤²à¤ķà¤°":7558,"avi":7559,"Ġemail":7560,"ograp":7561,"Ġ1995":7562,"à¤Łà¤°à¤¸à¤°":7563,"ohol":7564,"ĠTHE":7565,"irthday":7566,"Delhi":7567,"FT":7568,"OG":7569,"UM":7570,"nà¤ħà¤®":7571,"of":7572,"pa":7573,"ton":7574,"want":7575,"à¤°à¤Ĭà¤°":7576,"à¤¯à¤ĺ":7577,"à¤ķà¤ªà¤°":7578,"à¤®à¤Ī":7579,"à¤®à¤¸à¤®":7580,"Ġà¤¸à¤¬à¤³":7581,"Ġà¤®à¤¢":7582,"à¥Ĥ\\":7583,"à¤Ĺà¤ªà¤°":7584,"à¤ľà¤¬à¤°":7585,"à¤³à¤«":7586,"Ġà¤ľà¤µà¤¸":7587,"Ġà¤¬à¤¡à¤µ":7588,"Ġà¤ļà¤ķà¤°":7589,"Ġà¤Ńà¤¡à¤Ĺ":7590,"à¤Īà¤¡à¤²":7591,"Ġà¤Łà¤µ":7592,"Ġà¤¸à¤®à¤¶":7593,"à¤¤à¤²à¤ĸ":7594,"à¤¦à¤°à¤ª":7595,"à¤·à¤£à¤ķà¤°":7596,"inter":7597,"à¤ľà¤¯à¤ª":7598,"Ġà¤°à¤¸à¤¦":7599,"Ġà¥§à¥¯à¥©à¥¦":7600,"Ġcorona":7601,"ingiz":7602,"Ġname":7603,"Ġ750":7604,"Ġinformation":7605,"unj":7606,"Ġwebsite":7607,"Ġà¤ĭà¤ļ":7608,"...!":7609,"ĠWHO":7610,"à¤ļà¤µà¤¡à¤ļ":7611,"à¤½à¤ª":7612,"Ġà¥§à¥¯à¥®à¥©":7613,"Ġ].":7614,"Ġà¥§à¥¯à¥¬à¥§":7615,"ustral":7616,"Ġ1980":7617,"Ġ1984":7618,"ĠTechn":7619,"ĠREPORT":7620,"stitute":7621,"ĠDeshmukh":7622,"%)":7623,"RI":7624,"cohol":7625,"ki":7626,"nà¤¤à¤¸":7627,"nà¤Ĩà¤®":7628,"tel":7629,"ues":7630,"ÃĹ":7631,"Ġà¦":7632,"à¤¨à¤¸à¤²":7633,"à¤µà¤·":7634,"à¤¸à¤ıà¤¨à¤¯":7635,"à¤®à¤°à¤¤":7636,"Ġà¤¸à¤ªà¤¤":7637,"Ġà¤¸à¤¬à¤ķ":7638,"à¤ªà¤¯à¤¤":7639,"Ġà¤ħà¤Ŀà¤°":7640,"Ġà¤µà¤²à¤¯":7641,"Ġà¤µà¤¨à¤°":7642,"à¤¡à¤Ń":7643,"à¤¶à¤Ĺ":7644,"Ġà¤¦à¤³":7645,"Ġà¤ļà¤ªà¤°":7646,"Ġà¤ļà¤ķà¤ļà¤ķ":7647,"Ġà¤īà¤Ł":7648,"à¤ĺà¤³à¤²":7649,"à¤ľà¤¨à¤ª":7650,"à¤ľà¤¨à¤Ĺ":7651,"Ġà¤Ĩà¤°à¤ıà¤¸à¤ıà¤¸":7652,"à¤Ĩà¤³":7653,"à¤Ĺà¤£à¤¦":7654,"à¤ķà¤²à¤ł":7655,"à¤®à¤¤à¤µ":7656,"Ġ\"\\":7657,"Ġà¤īà¤¦à¤¯à¤ª":7658,"ĠMund":7659,"à¥®à¥ª":7660,"Ġà¤¸à¤ķà¤³":7661,"Ġà¤Ĩà¤łà¤ļ":7662,"ĠAI":7663,"ĠAf":7664,"à¤Īà¤¨à¤µà¤°":7665,"Ġà¥Ńà¥«à¥¦":7666,"ĠCare":7667,"Ġà¤ıà¤¸à¤¸":7668,"à¤®à¤£à¤£":7669,"Ġsm":7670,"ĠBan":7671,"Ġà¤ħà¤Ĺà¤°à¤µ":7672,"Ġà¤®à¤ľà¤¦":7673,"rough":7674,"Ġà¥§à¥§à¥©":7675,"Ġà¥§à¥ªà¥¯":7676,"iron":7677,"ĠHot":7678,"osage":7679,"à¤²à¤ķà¤°à¤¨":7680,"Ġà¥¦à¥Ń":7681,"Ġà¤ķà¤£à¤ĸà¤°":7682,"ize":7683,"à¤Łà¤°à¤¸à¤¹":7684,"onsoon":7685,"Ġtwo":7686,"ĠSPECIAL":7687,"ought":7688,"NA":7689,"RE":7690,"bh":7691,"ding":7692,"mir":7693,"nD":7694,"uch":7695,"vid":7696,"Ã©":7697,"Ġ\\":7698,"à¥Ĳ":7699,"à¤¨à¤°à¤¸":7700,"à¤ķà¤§à¤°":7701,"à¤¹à¤°à¤¸":7702,"à¤£à¤¬à¤§":7703,"Ġà¤ħà¤¡à¤¤":7704,"à¤Ĺà¤¨à¤Ĺà¤°":7705,"à¤¡à¤ľ":7706,"à¤¡à¤°à¤¸à¤¨":7707,"à¤·à¤ķà¤°":7708,"à¤¥à¤¬":7709,"à¤µà¤°à¤ĸ":7710,"Ġà¤®à¤¹à¤²":7711,"Ġà¤ĩà¤Ŀà¤®":7712,"Ġà¤¡à¤¸":7713,"à¤ĥà¥¤":7714,"Ġà¤ķà¤®à¤¬":7715,"à¤¸à¤¹à¤¸":7716,"ĠMess":7717,".....":7718,"Ġà¤¬à¤¦à¤²à¤µ":7719,"Ġà¤µà¤¸à¤Īà¤ļ":7720,"ĠParty":7721,"ĠNet":7722,"Ġà¤Ĩà¤Ĺà¤Ĺ":7723,"Ġà¤ķà¤ªà¤ļ":7724,"adhav":7725,"Ġà¤Īà¤ļ":7726,"urb":7727,"Ġà¥§à¥¦à¥ª":7728,"à¤Ĩà¤°à¤Ĩà¤¯":7729,"Ġà¥§à¥®à¥¦à¥¦":7730,"à¤¸à¤Ĺà¤¢":7731,"Ġdes":7732,"aka":7733,"à¥Ģ?\\":7734,"other":7735,"Ġà¤¤à¤³à¤®à¤ľà¤²":7736,"ĠVi":7737,"Ġ140":7738,"Ġrel":7739,"ĠYoj":7740,"Ġà¤¢à¤ķà¤²à¤¤":7741,"ĠScheme":7742,"%,":7743,"Breaking":7744,"RS":7745,"eal":7746,"nà¤¸à¤®":7747,"Ġenter":7748,"à¤¯à¤ĳà¤ķ":7749,"à¤²à¤¬à¤¦":7750,"à¤¨à¤Łà¤ķ":7751,"à¤¨à¤²à¤¨":7752,"à¤¸à¤Łà¤²":7753,"Ġà¤Ĩà¤¡à¤®":7754,"Ġà¤¹à¤«":7755,"Ġà¤¹à¤µà¤¨":7756,"Ġà¤ľà¤²à¤°":7757,"Ġà¤īà¤ĸà¤¡":7758,"Ġà¤ĩà¤ħà¤°":7759,"Ġà¤¸à¤°à¤¡":7760,"Ġà¤µà¤°à¤ª":7761,"à¤Ĺà¤²à¤¬":7762,"à¤Ŀà¤°à¤¨":7763,"à¤Ĺà¤¤à¤¦":7764,"à¤Łà¤¨à¤ª":7765,"Ġà¤¸à¤¹à¤Ĩà¤¯":7766,"Ġà¤¸à¤°à¤ķà¤£":7767,"à¤¸à¤¨à¤ķà¤°":7768,"Ġà¤ĵà¤¸à¤µ":7769,"à¤ľà¤ªà¤¤à¤°":7770,"à¤¹à¤¨à¤¨":7771,"Ġtrans":7772,"Ġà¥¯à¥¯à¥¯":7773,"Ġà¥§à¥¦à¥¬":7774,"à¤ķà¤®à¤¤à¤ļ":7775,"ulkar":7776,"Ġà¥§à¥©à¥®":7777,"Ġà¤«à¤°à¤«":7778,"à¤ĳà¤Ł":7779,"Ġà¤įà¤²à¤°":7780,"Ġevery":7781,"ĠEng":7782,"Ġstr":7783,"Ġà¤¢à¤Ĺà¤«":7784,"Ġà¥§à¥¯à¥¬à¥¨":7785,"Ġthere":7786,"à¤ļà¤ªà¤¦à¤¸":7787,"Ġdetails":7788,"78":7789,"96":7790,"PG":7791,"nà¤§":7792,"photo":7793,"à¤°à¤°à¤ļà¤¨":7794,"à¤¨à¤Īà¤²":7795,"à¤¹à¤²à¤ļ":7796,"Ġà¤®à¤¡à¤³":7797,"Ġà¤®à¤¤à¤²à¤¬":7798,"à¤ľà¤Ĺà¤¤":7799,"à¤¡à¤¸à¤°":7800,"à¤¶à¤ªà¤¤":7801,"Ġà¤ľà¤ł":7802,"Ġà¤¶à¤¯à¤¨":7803,"Ġà¤¸à¤®à¤¦":7804,"Ġà¤īà¤ªà¤µà¤¨à¤¸":7805,"à¤¯à¤²à¤®à¤§":7806,"Ġà¤®à¤¨à¤°":7807,"arth":7808,"att":7809,"Ġà¤ħà¤®à¤°à¤¸":7810,"orr":7811,"à¤ķà¤£à¤ķà¤°":7812,"ĠCongress":7813,"Ġà¤Īà¤ıà¤®à¤Ĩà¤¯":7814,"Ġser":7815,"ĠRT":7816,"rah":7817,"Ġà¥§à¥«à¥©":7818,"ention":7819,"Ġà¥§à¥¨à¥§":7820,"à¤Ĩà¤°à¤ıà¤ļ":7821,"Ġà¤ħà¤¡à¤¸":7822,"à¤Łà¤¸à¤ħ":7823,"à¤£à¤µà¤ł":7824,"ĠViv":7825,"Ġà¤¡à¤¬à¤ķ":7826,"Ġstud":7827,"ugar":7828,"à¤½à¤¸":7829,"Ġà¥§à¥¯à¥®à¥ª":7830,"ector":7831,"ĠiOS":7832,"order":7833,"Instagram":7834,"Ġà¤ĸà¤£à¤ĸà¤£":7835,"')":7836,",\\":7837,"BT":7838,"actor":7839,"co":7840,"gy":7841,"Äģ":7842,"à¤¨à¤µà¤¸":7843,"à¤¹à¤ĸ":7844,"Ġà¤¸à¤¨à¤¸":7845,"Ġà¤¤à¤®à¤¨":7846,"Ġà¤¨à¤£":7847,"à¤¬à¤¨à¤ļ":7848,"Ġà¤ĺà¤°à¤ªà¤Ł":7849,"Ġà¤ıà¤ļà¤ª":7850,"Ġà¤Ŀà¤Łà¤£":7851,"à¤¿à¤Ĥà¤Ĥ":7852,"à¤¯à¤ķà¤¶":7853,"à¤Ĭà¤ľ":7854,"Ġà¤¡à¤Ĺà¤®":7855,"Ġà¤¸à¤®à¤ķà¤ķ":7856,"à¤Ĩà¤¬":7857,"à¤Łà¤²à¤¨":7858,"Ġà¤Ĩà¤®à¤°à¤£":7859,"Ġà¤®à¤¨à¤§à¤°à¤£":7860,"à¤¦à¤¨à¤¹":7861,"à¤¨à¤µà¤µ":7862,"ĠSUV":7863,"ora":7864,"icron":7865,"Ġà¤Ĩà¤¨à¤¨":7866,"ĠRate":7867,"ĠDev":7868,"requ":7869,"Ġother":7870,"Ġmust":7871,"à¤¸à¤Ĺà¤¡à¤ļ":7872,"ching":7873,"à¥¨à¥¦à¥¨à¥¨":7874,"ĠVR":7875,"igital":7876,"Ġà¥¦à¥®":7877,"ified":7878,"Ġ1993":7879,"iance":7880,"Ġà¤²à¤ªà¤µà¤¤":7881,"anka":7882,"hotos":7883,"https":7884,"à¤ķà¤ħà¤ªà¤ļ":7885,"honi":7886,"ĠAssembly":7887,"ycline":7888,"Ġleader":7889,"97":7890,"AD":7891,"EM":7892,"GS":7893,"be":7894,"mary":7895,"nà¤®à¤°":7896,"uz":7897,"Ġve":7898,"Ġà¤³":7899,"à¤¹à¤ķà¤¤":7900,"Ġà¤ķà¤Łà¤°":7901,"Ġà¤®à¤ĺ":7902,"Ġà¤¤à¤±":7903,"Ġà¤¤à¤¡à¤¸":7904,"à¤¦à¤¯à¤¸":7905,"à¤Łà¤®à¤ļ":7906,"Ġà¤¹à¤°à¤µà¤£":7907,"à¤¶à¤²à¤¤":7908,"à¤łà¤³":7909,"Ġà¤Ĺà¤°à¤µ":7910,"à¤µà¤°à¤¯":7911,"Ġà¤Ŀà¤£à¤ľ":7912,"Ġà¤¤à¤°à¤²":7913,"Ġà¤§à¤¨à¤ķ":7914,"à¤ıà¤ħà¤°":7915,"à¤¶à¤¨à¤ķà¤¡":7916,"Ġà¤¸à¤¹à¤ľà¤¸":7917,"à¤²à¤ķà¤¹":7918,"Ġà¤¥à¤µ":7919,"ann":7920,"Ġà¤¦à¤°à¤¹":7921,"Ġà¤®à¤°à¤Ĺà¤³":7922,"à¤ĵà¤¦":7923,"à¤īà¤ļà¤°":7924,"ĠPhone":7925,"Ġà¤Ĳà¤ļ":7926,"Ġà¤īà¤®à¤°à¤ĸ":7927,"Ġ450":7928,"Ġ);":7929,"Ġsal":7930,"à¤ķà¤³à¤¸":7931,"à¤ıà¤®à¤¡":7932,"Ġà¤ıà¤µà¤¢à¤¯":7933,"à¤¹à¤²à¤®à¤§":7934,"Ġmade":7935,"ayan":7936,"Ġà¤ªà¤¸à¤°à¤µà¤¤":7937,"à¤·à¤®à¤ªà¤£":7938,"ĠUP":7939,"ours":7940,"kart":7941,"à¤Ĥ?\"":7942,"Ġ1992":7943,"Ġà¥§à¥¯à¥¬à¥Ń":7944,"Ġà¥§à¥¯à¥ªà¥¨":7945,"Ġà¤Ńà¤Ĺà¤µà¤¨":7946,"ancycline":7947,"Ġà¤¸à¤Īà¤¦":7948,"oint":7949,"Health":7950,"Disclaimer":7951,"à¤Ĺà¤®à¤°à¤µà¤°":7952,"ustralia":7953,"Par":7954,"Sc":7955,"aught":7956,"ges":7957,"ield":7958,"nà¤ĸà¤°":7959,"son":7960,"Ġass":7961,"Ġ____":7962,"Ġï¿½ï¿½":7963,"à¤¯à¤¤à¤°":7964,"à¤²à¤Ī":7965,"à¤ķà¤Łà¤°":7966,"à¤ļà¤Ł":7967,"à¤ļà¤®à¤¨":7968,"à¤£à¤°à¤¤":7969,"à¤£à¤ķà¤Ł":7970,"Ġà¤ķà¤¨à¤ķ":7971,"à¤ªà¤¸à¤®à¤§":7972,"Ġà¤ħà¤¬à¤¦":7973,"Ġà¤µà¤Łà¤ª":7974,"à¤Łà¤ľà¤µà¤³":7975,"à¤³à¤Ĺà¤¡":7976,"Ġà¤¦à¤®à¤Ł":7977,"à¤·à¤Ĺ":7978,"à¤°à¤µà¤ªà¤¦":7979,"à¤¦à¤°à¤°":7980,"à¤µà¤³à¤Ł":7981,"à¤ĩà¤ķà¤ļ":7982,"Ġà¤ĵà¤ľà¤¸":7983,"à¤ĸà¤²à¤¦à¤°":7984,"ĠMC":7985,"Ġà¤Ĳà¤ķà¤µ":7986,"Ġà¤Ķà¤¸":7987,"ĠNE":7988,"andid":7989,"Ġsw":7990,"ĠBook":7991,"ĠRana":7992,"Ġbro":7993,"Ġà¥§à¥§à¥¯":7994,"Ġà¥§à¥§à¥Ń":7995,"cept":7996,"Ġrem":7997,"ugs":7998,"Ġà¥§à¥¯à¥®à¥®":7999,"hikriya":8000,"ancer":8001,"Ġplay":8002,"Ġà¤Ĩà¤īà¤Łà¤«":8003,"uthor":8004,"Ġabhikriya":8005,"à¤¸à¤įà¤ª":8006,"ĠAhmednagar":8007,"ĠMunde":8008,"Follow":8009,"Virus":8010,"hur":8011,"Ã¨":8012,"Ġ<":8013,"à¤¤à¤µà¤¨":8014,"à¤²à¤®à¤¨":8015,"à¤£à¤¥à¤³":8016,"à¤¦à¤¯à¤¦":8017,"à¤Łà¤¸à¤¨":8018,"à¤¡à¤ķà¤²":8019,"à¤§à¤Ł":8020,"Ġà¤¦à¤®à¤²":8021,"Ġà¤ľà¤¯à¤²à¤²":8022,"Ġà¤Ńà¤Ĺà¤¦":8023,"Ġà¤ĺà¤µà¤ĺ":8024,"Ġà¤ıà¤ķà¤¬":8025,"Ġà¤¸à¤°à¤«à¤°":8026,"Ġà¤¸à¤®à¤·":8027,"Ġà¤µà¤°à¤µà¤°à¤ļ":8028,"à¤µà¤¤à¤¨":8029,"à¤Ŀà¤®à¤ļ":8030,"à¤µà¤¡à¤°à¤ļ":8031,"à¤ĩà¤ķà¤¡":8032,"à¤ĩà¤¡à¤²":8033,"à¤ĩà¤¨à¤²":8034,"Ġà¤Ĩà¤¯à¤ıà¤¸à¤ª":8035,"int":8036,"à¤²à¤¨à¤Ĺà¤°":8037,"à¤¹à¤¨à¤ªà¤°":8038,"à¤ľà¤¯à¤°":8039,"à¥©à¥¦à¥¦":8040,"ĠSal":8041,"ĠMarch":8042,"Ġà¥§à¥§à¥¬":8043,"Ġà¥©à¥¦à¥¨":8044,"2012":8045,"Ġà¥§à¥¬à¥«":8046,"Ġ1800":8047,"anta":8048,"ĠInc":8049,"Ġgl":8050,"Ġ[â":8051,"Ġ602":8052,"havikas":8053,"mitt":8054,"nPosted":8055,"Ġà¤ĸà¤²à¤¬à¤¤":8056,"Ġà¤ĺà¤¨à¤«":8057,"Ġà¤§à¤µà¤¨à¤¨":8058,"à¤²à¤¢à¤ķà¤²":8059,"duct":8060,"ĠFilm":8061,"ĠYojana":8062,"AK":8063,"Amit":8064,"WS":8065,"nà¤ªà¤¹":8066,"po":8067,"yan":8068,"à¤ķà¤ªà¤Ł":8069,"Ġà¤ķà¤Ŀ":8070,"à¤®à¤²à¤²":8071,"Ġà¤¸à¤¶à¤°":8072,"Ġà¤®à¤°à¤ķ":8073,"à¥Ĥ',":8074,"Ġà¤¨à¤³à¤ľ":8075,"Ġà¤ıà¤²à¤°":8076,"à¥ĩà¤Ĥà¤ĥ":8077,"Ġà¤¤à¤°à¤¸":8078,"à¤ķà¤¡à¤¯":8079,"à¤µà¤£à¤ķ":8080,"à¤¦à¤°à¤¬":8081,"à¤·à¤£à¤ª":8082,"Ġà¤¤à¤¸à¤¤à¤¶":8083,"atha":8084,"Ġà¤ħà¤ªà¤Ĺ":8085,"Ġà¥©0":8086,"era":8087,"ĠSabha":8088,"à¤ļà¤²à¤°":8089,"à¤µà¤ļà¤°":8090,"à¤īà¤·":8091,"à¤īà¤Ŀà¤°":8092,"à¤µà¤ķà¤±":8093,"à¤³à¤µà¤Ł":8094,"Ġà¤ħà¤µà¤¹":8095,"hel":8096,"ures":8097,"Ġcol":8098,"à¤®à¤¦à¤¹à¤¨":8099,"Ġpat":8100,"ester":8101,"Ġà¤²à¤¢à¤µà¤¯":8102,"ulation":8103,"Ġà¥§à¥©à¥¨":8104,"otify":8105,"Ġà¥¨à¥ªà¥¦":8106,"Ġà¥¨à¥§à¥¦":8107,"ender":8108,"à¥Ģ\".":8109,"ĠSaamana":8110,"angu":8111,"à¤¨à¤Īà¤®à¤§":8112,"à¤ĩà¤«à¤¸":8113,"Ġask":8114,"Ġ1962":8115,"Ġshare":8116,"Ġà¤ļà¤£à¤ļà¤£":8117,"ĠCOVID":8118,"Ġchild":8119,"Ġà¤¬à¤²à¤ķà¤µà¤¡":8120,"Ġà¤łà¤£à¤łà¤£":8121,"Ġà¤ĺà¤µà¤ĺà¤µ":8122,"Central":8123,"ION":8124,"KR":8125,"mun":8126,"nG":8127,"nà¤ªà¤¤":8128,"nik":8129,"âĸ":8130,"à¤ķà¤®à¤²":8131,"à¤ļà¤®à¤¹":8132,"à¤®à¤°à¤ķ":8133,"Ġà¤Ĩà¤Łà¤²":8134,"à¤¦à¤®à¤¯":8135,"à¤Ĺà¤°à¤ķ":8136,"à¤Łà¤°à¤¤":8137,"à¤ľà¤²à¤µ":8138,"Ġà¤ľà¤²à¤®":8139,"à¤łà¤®à¤²":8140,"Ġà¤²à¤ĸà¤²":8141,"à¤°à¤ķà¤¸":8142,"à¤¤à¤°à¤§":8143,"à¤Īà¤ķà¤²":8144,"à¤ķà¤°à¤¦à¤¨":8145,"à¤Ĺà¤²à¤Ł":8146,"à¤Ŀà¤£":8147,"à¤¦à¤°à¤¹":8148,"à¤·à¤£à¤¤à¤ľ":8149,"à¤ıà¤²à¤¨":8150,"à¤ıà¤²à¤¬":8151,"à¤Ĩà¤·":8152,"à¤ĩà¤¸à¤ļ":8153,"Ġà¤īà¤¦à¤ķ":8154,"à¤¬à¤Īà¤¤à¤¹":8155,"inet":8156,"Ġà¤ħà¤®à¤ķ":8157,"Ġà¤µà¤¸à¤Īà¤¤":8158,"Ġtr":8159,"ĠPanchayat":8160,"ĠIE":8161,"Ġsl":8162,"à¤ĩà¤¨à¤µà¤°":8163,"raw":8164,"ump":8165,"ĠKolhapur":8166,"Ġà¤·à¤·":8167,"aga":8168,"ĠViral":8169,"à¤ıà¤ļà¤ĵ":8170,"avn":8171,"Ġà¤ıà¤ħà¤°à¤¬":8172,"Ġcomments":8173,"Ġà¤ļà¤®à¤ķà¤£":8174,"à¤¾...\\":8175,"Ġà¤ļà¤²à¤¨à¤µ":8176,"Anil":8177,"Ġà¤¨à¤¯à¤¨à¤°à¤®":8178,"ĠAccident":8179,"Ġrights":8180,"raindications":8181,"Ġà¤«à¤°à¤«à¤Łà¤¤":8182,"Chi":8183,"DC":8184,"ez":8185,"eep":8186,"ko":8187,"nJ":8188,"nà¤®à¤¨":8189,"pect":8190,"var":8191,"Ġri":8192,"à¤¯à¤°à¤®":8193,"à¤²à¤¨à¤ļ":8194,"à¤¿/":8195,"à¤¨à¤®à¤¨":8196,"à¤ªà¤ķà¤¡":8197,"à¤¡à¤µà¤³":8198,"à¤§à¤¬":8199,"Ġà¤¨à¤Ń":8200,"Ġà¤ķà¤°à¤ķ":8201,"à¤łà¤¦":8202,"à¤¥à¤Ĺà¤¤":8203,"Ġà¤ĸà¤µà¤¯":8204,"à¤°à¤£à¤Ĺ":8205,"à¤°à¤®à¤®à¤§":8206,"Ġà¤Ĩà¤¤à¤·à¤¬":8207,"Ġà¤Ĩà¤°à¤ıà¤¸":8208,"Ġà¤ªà¤¤à¤¨":8209,"à¤Ľà¤ª":8210,"Ġà¤Ľà¤ªà¤°":8211,"ĠMand":8212,"ĠMod":8213,"ĠMeet":8214,"à¥Ĥà¤Ĥ;":8215,"..!":8216,"à¤²à¤ļà¤°":8217,"Ġà¤®à¤¦à¤¤à¤¹":8218,"Ġ!!!":8219,"ĠPod":8220,"ĠNow":8221,"ĠNagar":8222,"Ġà¤Ĺà¤°à¤¬":8223,"ley":8224,"lean":8225,"Ġà¤īà¤²à¤Łà¤¤":8226,"Ġà¤Īà¤ķ":8227,"Ġà¤ĳà¤«à¤°à¤ļ":8228,"amm":8229,"ames":8230,"rag":8231,"Ġins":8232,"Ġinto":8233,"Ġinvest":8234,"à¤ıà¤®à¤¡à¤¬":8235,"illed":8236,"ross":8237,"Ġ1947":8238,"estival":8239,"Ġdef":8240,"ĠFund":8241,"à¤¡à¤®à¤§à¤²":8242,"à¥¨à¥¦à¥¨à¥¦":8243,"ĠWhat":8244,"ĠWomen":8245,"Ġ188":8246,"ĠMah":8247,"ĠVacc":8248,"Ġà¥¨à¥¨à¥«":8249,"Ġà¤įà¤ªà¤²":8250,"Ġvar":8251,"ĠYadav":8252,"Ġà¥§à¥¯à¥¬à¥«":8253,"Ġà¥§à¥¯à¥¬à¥¯":8254,"Ġà¤¹à¤¸à¤¤à¤®":8255,"ĠPatel":8256,"eek":8257,"Ġprot":8258,"rown":8259,"Ġhigh":8260,"blem":8261,"rakant":8262,"iety":8263,"nFirst":8264,"conom":8265,"ĠPodcast":8266,"Ag":8267,"Ak":8268,"Gold":8269,"SL":8270,"corona":8271,"nà¤ħà¤Ń":8272,"rist":8273,"à¤®à¤°à¤ļ":8274,"à¤®à¤Ńà¤ķ":8275,"à¥Ĥà¥Ĥ":8276,"à¤Ĺà¤ķà¤¡":8277,"Ġà¤¯à¤µà¤¤":8278,"à¤³à¤ķà¤¡":8279,"à¤¬à¤¬":8280,"Ġà¤ħà¤¸à¤¶":8281,"à¤ĸà¤ªà¤¦":8282,"Ġà¤ĺà¤¨à¤µà¤Ł":8283,"Ġà¤ĸà¤ªà¤²":8284,"Ġà¤ªà¤°à¤®à¤ª":8285,"Ġà¤Łà¤ķà¤²":8286,"à¤°à¤£à¤Ń":8287,"Ġà¤¤à¤°à¤¬":8288,"Ġà¤¤à¤°à¤¤à¤°":8289,"à¤ĺà¤°à¤ļ":8290,"Ġà¤īà¤ªà¤¨à¤¦":8291,"à¤ĩà¤¸à¤°":8292,"à¤²à¤ķà¤ªà¤¦":8293,"Ġà¤Ĩà¤¯à¤Ĩà¤°à¤¸":8294,"Ġà¤ħà¤ªà¤Ń":8295,"Ġà¤ªà¤¤à¤§":8296,"Ġà¤®à¤¤à¤¹":8297,"err":8298,"à¤ĵà¤ķà¤¡":8299,"ĠMore":8300,"à¤īà¤ªà¤°":8301,"Ġà¤µà¤¸à¤µ":8302,"Ġà¤Ĩà¤łà¤¶":8303,"à¤ļà¤°à¤®à¤§":8304,"isan":8305,"ands":8306,"add":8307,"olt":8308,"ĠDo":8309,"Ġinf":8310,"Ġ102":8311,"Ġ106":8312,"harma":8313,"Ġà¥§à¥®à¥«à¥Ń":8314,"Ġà¤¶à¤¹à¤°à¤ª":8315,"Ġlast":8316,"Ġà¥§à¥¬à¥¦à¥¦":8317,"ĠMax":8318,"Ġà¤īà¤²à¤Łà¤ªà¤ķ":8319,"orth":8320,"Ġgu":8321,"Ġapplic":8322,"udget":8323,"à¤¹à¤ļà¤µà¤²":8324,"Ġà¥§à¥¯à¥®à¥«":8325,"Ġà¥§à¥¯à¥Ńà¥©":8326,"acher":8327,"ING":8328,"Ġadd":8329,"ological":8330,"Ġà¤Ĩà¤īà¤Łà¤²":8331,"Ġà¤ķà¤¢à¤Īà¤¤":8332,"engal":8333,"à¤ıà¤¸à¤ıà¤¨à¤ıà¤²à¤ļ":8334,"ffects":8335,"Ġà¤ķà¤°à¤¸à¤µà¤²à¤¤":8336,"ĠPodcasts":8337,"Bl":8338,"MNS":8339,"Viral":8340,"ling":8341,"Â©":8342,"à¤ķà¤¬à¤§":8343,"à¤µà¤®à¤¤":8344,"Ġà¤ªà¤³à¤µà¤²":8345,"Ġà¤µà¤°à¤µ":8346,"à¤¡à¤µà¤¡":8347,"Ġà¤¬à¤¡à¤¨":8348,"Ġà¤²à¤³":8349,"Ġà¤ıà¤¤":8350,"à¤Īà¤ķà¤¨":8351,"à¤°à¤¤à¤Ń":8352,"Ġà¤§à¤¨à¤²":8353,"Ġà¤§à¤¨à¤µ":8354,"Ġà¤īà¤ªà¤Ł":8355,"à¤ħà¤®à¤ļ":8356,"à¤¯à¤¤à¤¤":8357,"Ġ---":8358,"à¤Ĩà¤Ĭ":8359,"Ġà¤Ĩà¤ľà¤ĺà¤¡":8360,"à¤¹à¤°à¤µà¤°":8361,"Ġà¤Ĩà¤®à¤²":8362,"à¤µà¤¨à¤ª":8363,"Ġà¤ªà¤¤à¤ª":8364,"Ġà¤ľà¤¨à¤Ĩ":8365,"ĠMPSC":8366,"ĠSchool":8367,"à¤īà¤Ń":8368,"à¤¸à¤®à¤¸à¤ļ":8369,"ĠPrime":8370,"à¤ķà¤£à¤µ":8371,"him":8372,"ĠTax":8373,"ĠGl":8374,"ĠGold":8375,"Ġà¥§à¥ªà¥«":8376,"à¤ıà¤«à¤®à¤§":8377,"à¤®à¤¶à¤¤":8378,"ĠSpotify":8379,"Ġko":8380,"à¤¾\".":8381,"Ġ270":8382,"Ġ1994":8383,"Ġ1997":8384,"à¤½à¤¨":8385,"à¤Ķà¤¦":8386,"Ġà¥§à¥¯à¥Ńà¥«":8387,"ĠAsh":8388,"Ġà¥§à¥¯à¥«à¥¬":8389,"ĠJioSa":8390,"rapati":8391,"ween":8392,"niversity":8393,"ĠGaana":8394,"Ġcountry":8395,"ĠJioSaavn":8396,"69":8397,"800":8398,"Acc":8399,"Ash":8400,"Last":8401,"LSS":8402,"Petrol":8403,"ces":8404,"ged":8405,"mr":8406,"nà¤¥":8407,"vt":8408,"à¤¯à¤¸à¤¤":8409,"à¤²à¤ľà¤µà¤³":8410,"à¤ķà¤Ĩà¤Ĭà¤Ł":8411,"à¤¹à¤¹":8412,"à¥ĭ),":8413,"Ġà¤ķà¤¦à¤°":8414,"à¤®à¤¸à¤®à¤°":8415,"Ġà¤¹à¤Łà¤²":8416,"Ġà¤¹à¤°à¤µà¤¤":8417,"à¤¶à¤µà¤¸":8418,"Ġà¤¬à¤²à¤¸":8419,"à¤ĸà¤°à¤£":8420,"Ġà¤ıà¤¨à¤ķ":8421,"à¤°à¤ķà¤ªà¤£":8422,"Ġà¤ĩà¤¨à¤µ":8423,"Ġà¤īà¤ªà¤¸à¤ļ":8424,"à¤µà¤¡à¤Ĺ":8425,"à¤ıà¤®à¤¨":8426,"Ġ220":8427,"Ġà¤Ĩà¤®à¤Ĺ":8428,"Ġà¤¥à¤ķà¤¤":8429,"Ġà¤Ĩà¤¯à¤µ":8430,"Ġà¤Ĩà¤¯à¤¶à¤°":8431,"à¤Ĺà¤³à¤¤":8432,"Ġà¤ĵà¤Ŀà¤°":8433,"à¤ħà¤°à¤¹":8434,"à¤ĵà¤¥":8435,"ĠSun":8436,"à¤īà¤®à¤°":8437,"Ġà¤µà¤¸à¤®à¤¤":8438,"à¤¬à¤²à¤®à¤§":8439,"ĠPad":8440,"ĠPDF":8441,"Ġà¤¸à¤®à¤ľà¤µ":8442,"ask":8443,"aster":8444,"à¤µà¤°à¤£à¤µ":8445,"Ġsome":8446,"urs":8447,"ury":8448,"Ġcal":8449,"ĠBut":8450,"ĠBenefits":8451,"ĠDhoni":8452,"ract":8453,"Ġà¥§à¥¨à¥©":8454,"à¥ĩ?'":8455,"Ġmay":8456,"2013":8457,"Ġ1200":8458,"ules":8459,"rial":8460,"ote":8461,"osition":8462,"Ġà¤¤à¤³à¤¹":8463,"Ġ112":8464,"ĠMahar":8465,"ĠReg":8466,"avy":8467,"hatrapati":8468,"oga":8469,"ineer":8470,"hish":8471,"Ġà¥§à¥¯à¥Ńà¥¯":8472,"ization":8473,"ĠTeam":8474,"Ġà¤Ŀà¤Ĺà¤¡à¤¤":8475,"Atom":8476,"ĠCSK":8477,"Supreme":8478,"impri":8479,"adhaar":8480,"Crime":8481,"LS":8482,"MLA":8483,"Nit":8484,"di":8485,"nà¤ķà¤¸":8486,"ways":8487,"à¤¤à¤§":8488,"à¤¯à¤Łà¤²":8489,"à¤¯à¤¬à¤°à¤ļ":8490,"à¤²à¤°à¤ª":8491,"à¤¿)":8492,"à¤ķà¤¨à¤ļ":8493,"à¤ļà¤Ĺà¤£":8494,"à¥ĭ\\":8495,"Ġà¤¸à¤ķà¤¤":8496,"Ġà¤®à¤³à¤£":8497,"Ġà¤µà¤°à¤ķà¤¡":8498,"à¤Łà¤Ńà¤Ł":8499,"à¤¡à¤ªà¤°":8500,"à¤¡à¤®à¤¨":8501,"Ġà¤¦à¤°à¤¸":8502,"Ġà¤¬à¤¦à¤ķ":8503,"Ġà¤ķà¤°à¤ķà¤°":8504,"à¤łà¤¨":8505,"Ġà¤ļà¤ķà¤µ":8506,"Ġà¤ıà¤¡à¤µ":8507,"à¤Īà¤Ńà¤ķ":8508,"à¥ī'":8509,"Ġà¤ĩà¤¹à¤²":8510,"Ġà¤§à¤¸à¤ķ":8511,"à¤Ŀà¤°à¤ļ":8512,"à¤ħà¤Ł":8513,"à¤ħà¤·":8514,"à¤ħà¤¥":8515,"à¤ıà¤Īà¤®à¤§":8516,"Ġà¤¨à¤µà¤¯":8517,"à¤Ĩà¤ľà¤ķ":8518,"à¤¶à¤¨à¤¤à¤°":8519,"Ġà¤ķà¤®à¤µà¤¤":8520,"à¤¯à¤²à¤°":8521,"à¤²à¤¤à¤ľ":8522,"orec":8523,"à¤²à¤Ĺà¤¡":8524,"ĠPh":8525,"ĠNaprodom":8526,"ĠIr":8527,"aman":8528,"uring":8529,"olapur":8530,"Ġà¤ħà¤¹à¤²":8531,"à¥Ģ)-":8532,"Ġà¤ħà¤¡à¤ĸ":8533,"Ġ105":8534,"à¤¨à¤¦à¤¯":8535,"ĠEl":8536,"Ġà¥§à¥®à¥«":8537,"Ġà¤ıà¤¨à¤Ĩà¤°à¤¸":8538,"akal":8539,"Ġlist":8540,"iab":8541,"ĠHospital":8542,"Ġà¥§à¥©à¥ª":8543,"ĠOF":8544,"hana":8545,"Ġà¤ķà¤¡à¤ķà¤ªà¤£":8546,"ĠSharad":8547,"Ġà¥§à¥¯à¥®à¥Ń":8548,"aily":8549,"ĠXenotril":8550,"Ġà¤«à¤¡à¤ķà¤µà¤²":8551,"ense":8552,"Ġà¥§à¥¯à¥«à¥¨":8553,"ICI":8554,"Ġreserved":8555,"ambhaj":8556,"ĠVivo":8557,"\"</":8558,"61":8559,"IG":8560,"Jay":8561,"OT":8562,"cent":8563,"char":8564,"nà¤Ŀ":8565,"nà¤ĩà¤¤à¤°":8566,"wik":8567,"à¤¿;":8568,"à¤µà¤ļà¤²":8569,"à¤¸à¤Łà¤¤":8570,"à¤®à¤¸à¤¤":8571,"Ġà¤®à¤²à¤¨":8572,"à¤§à¤¦":8573,"à¤¬à¤ĺ":8574,"Ġà¤¬à¤°à¤ļ":8575,"Ġà¤Ĺà¤Ŀ":8576,"à¤Ńà¤¯à¤ªà¤£":8577,"Ġà¤īà¤ķà¤¡":8578,"Ġà¤ĺà¤Łà¤£":8579,"à¤Īà¤ıà¤®":8580,"Ġà¤¸à¤®à¤¸à¤®":8581,"Ġà¤§à¤µà¤¨à¤ļ":8582,"à¤ħà¤°à¤ª":8583,"à¤¬à¤°à¤¶":8584,"à¤Ĺà¤°à¤²":8585,"Ġà¤¨à¤µà¤¶":8586,"Ġà¤¸à¤¹à¤¦":8587,"Ġà¤Ĩà¤¯à¤ľ":8588,"Ġà¤ĳà¤¨à¤°":8589,"à¤®à¤¤à¤¤":8590,"Ġà¤ĵà¤®à¤ķ":8591,"Ġà¤ĵà¤®à¤°":8592,"à¥Ĥà¤Ĥ,":8593,"ĠSanjay":8594,"itiz":8595,"ĠTw":8596,"ĠTata":8597,"ĠGlipi":8598,"à¤®à¤£à¤ª":8599,"Ġcap":8600,"ĠBab":8601,"à¤Łà¤®à¤§à¤²":8602,"Ġbel":8603,"Ġmeet":8604,"ĠmAh":8605,"Ġà¤ľà¤¯à¤ľà¤¯à¤ķ":8606,"chin":8607,"Ġà¥§à¥ªà¥§":8608,"uly":8609,"Ġà¥§à¥¬à¥¬":8610,"ĠWater":8611,"à¥Īà¤Ĥà¥¤":8612,"Ġgiven":8613,"à¤¯à¤Ĺà¤¡à¤®à¤§":8614,"Ġà¥§à¥¯à¥¬à¥®":8615,"Ġà¥§à¥¯à¥¬à¥¬":8616,"que":8617,"ĠInteraction":8618,"ICC":8619,"ĠAtorec":8620,"ĠImicrit":8621,"lipkart":8622,"Ġà¤īà¤ĸà¤¡à¤²":8623,"ĠHoroscope":8624,")(":8625,"))":8626,"Bollywood":8627,"For":8628,"Pakistan":8629,"jee":8630,"nà¤ĺà¤°":8631,"nà¤Ĩà¤®à¤ļ":8632,"Ġà¤±":8633,"à¤°à¤µà¤°à¤ļ":8634,"à¤µà¤Łà¤²":8635,"à¤¹à¤¨à¤²":8636,"Ġà¤Ĩà¤ľà¤¨":8637,"Ġà¤Ĩà¤ĩ":8638,"à¤ªà¤Łà¤ķ":8639,"à¤¦à¤§":8640,"à¤ľà¤ªà¤£":8641,"à¤¡à¤¸à¤®":8642,"à¤¡à¤¨à¤¨":8643,"à¤¬à¤ĸ":8644,"à¤¬à¤°à¤µ":8645,"à¤¥à¤¨à¤Ĺà¤°":8646,"à¤Ńà¤°à¤ª":8647,"Ġà¤«à¤¨":8648,"à¥Īà¤Ĥ,":8649,"à¤°à¤®à¤°à¤£":8650,"à¥Ģà¤Ĥ-":8651,"à¤ªà¤°à¤µà¤°":8652,"Ġà¤§à¤¨à¤¸":8653,"à¥¦à¥Ń":8654,"à¥¦à¥¬":8655,"à¤°à¤¸à¤°":8656,"à¤Ĺà¤²à¤Ĺ":8657,"à¤Ŀà¤«":8658,"à¤ħà¤«à¤Ĺ":8659,"à¤µà¤¡à¤ķà¤°":8660,"à¤Ĺà¤°à¤°":8661,"à¤¹à¤¤à¤µ":8662,"à¤Łà¤²à¤µ":8663,"à¤¹à¤°à¤¬":8664,"à¤°à¤¦à¤¸":8665,"à¤ľà¤ªà¤¥":8666,"ĠMH":8667,"à¤£à¤¯à¤¹":8668,"ĠSmart":8669,"à¤²à¤¬à¤¹":8670,"Ġtab":8671,"Ġà¤īà¤®à¤°à¤Ĺ":8672,"Ġà¥¬à¥«à¥¦":8673,"Ġà¥§à¥¯à¥§à¥Ń":8674,"ĠCris":8675,"Ġà¤Ńà¤°à¤Ĺà¤ļ":8676,"Ġ,\"":8677,"andh":8678,"à¤µà¤°à¤£à¤ªà¤¤":8679,"edkar":8680,"Ġsay":8681,"Ġà¤īà¤ĺà¤¡à¤ļ":8682,"à¤¨à¤Ĺà¤°à¤¸":8683,"Ġnext":8684,"ĠDA":8685,"à¤°à¤¯à¤·":8686,"Ġà¥§à¥¨à¥Ń":8687,"ett":8688,"à¤Īà¤ķà¤µ":8689,"Ġpower":8690,"Ġperson":8691,"Ġ1950":8692,"Ġdays":8693,"chun":8694,"uty":8695,"Ġà¥§à¥¬à¥ª":8696,"à¤Ĳà¤ķ":8697,"ags":8698,"ĠInf":8699,"à¥Ģ!\"":8700,"Ġà¤įà¤¡à¤®":8701,"iffer":8702,"Ġà¤¡à¤¬à¤ĺ":8703,"okia":8704,"Ġà¤Ĩà¤µà¤°à¤²":8705,"Ġstart":8706,"ĠYear":8707,"ultiv":8708,"Ġcons":8709,"ude":8710,"Ġà¤ıà¤®à¤Ĩà¤¯à¤Ł":8711,"Ġann":8712,"Ġà¤ħà¤¡à¤ķà¤µà¤£":8713,"undai":8714,"Ġà¤ĵà¤°à¤¡à¤£":8715,"Ġà¥§à¥¯à¥Ńà¥ª":8716,"Ġà¥§à¥¯à¥Ńà¥®":8717,"Ġexper":8718,"Ġà¤Ĺà¤µà¤¸à¤²":8719,"Ġuchun":8720,"Ġà¤¥à¤°à¤¥à¤°":8721,"ĠQuestions":8722,"ĠRedmi":8723,".(":8724,"64":8725,"73":8726,"kh":8727,"micron":8728,"nà¤ħà¤²":8729,"td":8730,"tr":8731,"uv":8732,"uild":8733,"Åŀ":8734,"Ø§":8735,"Ġà¤Ļ":8736,"à¤¯à¤¸à¤ļ":8737,"Ġà¤ķà¤µà¤³":8738,"Ġà¤¸à¤§à¤¨":8739,"à¤Łà¤§":8740,"à¤¡à¤¸à¤¨":8741,"à¤³à¤®à¤³":8742,"Ġà¤¬à¤ĸ":8743,"à¤¥à¤°à¤²":8744,"Ġà¤ļà¤Łà¤¯":8745,"Ġà¤īà¤ķà¤°":8746,"Ġà¤ıà¤¤à¤¦":8747,"Ġà¤ĸà¤¤à¤°à¤¨":8748,"Ġà¤ıà¤ķà¤²à¤µ":8749,"Ġà¤Ĩà¤²à¤®":8750,"Ġà¤Ĩà¤²à¤¬":8751,"à¤ªà¤°à¤³":8752,"Ġ'.":8753,"à¤µà¤²à¤ļ":8754,"à¤Ĺà¤²à¤®":8755,"à¤Ŀà¤Ĺ":8756,"à¤·à¤£à¤¶":8757,"à¤ıà¤ķà¤¡":8758,"à¤Ĺà¤°à¤®à¤§":8759,"à¥ĭ.)":8760,"Ġà¤¨à¤µà¤µà¤§":8761,"à¤Ĩà¤°à¤ľ":8762,"à¤µà¤³à¤ķà¤°":8763,"à¤ĩà¤Łà¤®à¤§":8764,"à¤ĩà¤¤à¤ªà¤¤":8765,"ining":8766,"à¤°à¤ľà¤ļ":8767,"Ġà¤ľà¤¨à¤µ":8768,"à¤®à¤ķà¤¹":8769,"ĠSha":8770,"à¤²à¤¬à¤²":8771,"à¤²à¤¬à¤¨":8772,"ĠNSE":8773,"hile":8774,"ĠIpratop":8775,"Ġà¤Ńà¤°à¤¡à¤²":8776,"ĠGirl":8777,"ĠDairo":8778,"Ġà¥§à¥«à¥«":8779,"à¤ıà¤®à¤¬":8780,"rov":8781,"Ġà¤µà¤¨à¤ĸ":8782,"Ġ1960":8783,"Ġmill":8784,"Ġà¥§à¥§à¥¦à¥¦":8785,"Ġà¤§à¤¨à¤¤":8786,"Ġà¤¶à¤°à¤¦à¤ļ":8787,"Ġloss":8788,"Ġà¥¨à¥«à¥¬":8789,"Ġà¤ıà¤²à¤Ł":8790,"itical":8791,"Ġgirl":8792,"ĠStud":8793,"oper":8794,"Ġà¤¸à¤£à¤¸à¤£":8795,"ape":8796,"ovsky":8797,"Ġ1991":8798,"ĠAlso":8799,"achin":8800,"Ġ1985":8801,"Ġ1989":8802,"Ġorg":8803,"ĠAttack":8804,"ðŁĳ":8805,"ĠChild":8806,"ĠBlisulide":8807,"ĠOfficer":8808,"ĠClasses":8809,"ĠMalik":8810,"eleb":8811,"inchwad":8812,"Bhar":8813,"gad":8814,"kra":8815,"ould":8816,"sah":8817,"the":8818,"à¤²à¤¤à¤ļ":8819,"à¤¨à¤ªà¤Ł":8820,"à¤µà¤Ńà¤°":8821,"à¤¸à¤µà¤²":8822,"à¤®à¤¬à¤°":8823,"Ġà¤Ĩà¤¥":8824,"Ġà¤Ĩà¤¡à¤¤":8825,"Ġà¤¸à¤¬à¤¨":8826,"à¤ªà¤²à¤¬":8827,"à¤¦à¤®à¤°":8828,"à¤ľà¤Ĺà¤£":8829,"à¤ľà¤¯à¤¦":8830,"à¤¡à¤°à¤µ":8831,"Ġà¤¹à¤²à¤£":8832,"Ġà¤¯à¤°":8833,"à¤¶à¤ķà¤¡":8834,"à¤³à¤µà¤¡":8835,"Ġà¤¦à¤®à¤¨":8836,"Ġà¤ľà¤¬à¤²à¤ª":8837,"Ġà¤°à¤Ł":8838,"Ġà¤ħà¤¸à¤ļ":8839,"Ġà¤ªà¤°à¤Ń":8840,"Ġà¤Łà¤®":8841,"à¤¯à¤ķà¤²à¤¸":8842,"à¤Ĭà¤¡à¤¸":8843,"à¤µà¤¸à¤ħà¤ĸ":8844,"Ġà¤¸à¤°à¤¶":8845,"Ġà¤§à¤ľ":8846,"à¤µà¤³à¤¸à¤°":8847,"Ġà¤¤à¤¸à¤¦":8848,"à¤¤à¤ķà¤µ":8849,"Ġà¤®à¤¤à¤ªà¤¤":8850,"ĠMus":8851,"Ġà¤īà¤ªà¤¸à¤®":8852,"Ġà¤īà¤®à¤Ĺà¤²":8853,"ĠTy":8854,"ĠCA":8855,"ĠCefurica":8856,"lex":8857,"Ġà¤Ĺà¤Łà¤ª":8858,"Ġshe":8859,"urg":8860,"Ġà¤¢à¤¸":8861,"Ġà¥§à¥«à¥Ń":8862,"Ġà¥§à¥«à¥¬":8863,"Ġpati":8864,"ĠEMI":8865,"à¤Łà¤®à¤®à¤§":8866,"Ġà¤«à¤³à¤Ŀ":8867,"Ġà¥§à¥©à¥©":8868,"pped":8869,"Ġgood":8870,"Ġà¤ľà¤²à¤ľ":8871,"Ġvirus":8872,"Ġà¤īà¤¸à¤³à¤¤":8873,"Ġà¤§à¤¡à¤§":8874,"india":8875,"ipedia":8876,"Ġà¤Ńà¤Łà¤ľ":8877,"à¤¤à¤¶à¤¤":8878,"à¤®à¤Ńà¤Ł":8879,"à¤²à¤ĺà¤°à¤®à¤§":8880,"Ġà¥§à¥¯à¥ªà¥«":8881,"Ġthrough":8882,"Ġthought":8883,"Ġcontent":8884,"à¤°à¤ĺà¤³à¤²":8885,"ĠOnline":8886,"Ġorgan":8887,"hule":8888,"ĠOffice":8889,"ĠIfen":8890,"ositive":8891,"à¤¨à¤īà¤ĺ":8892,"Ġà¤ħà¤¹à¤®à¤¦à¤¨à¤Ĺà¤°à¤ļ":8893,"Ġstullar":8894,"mittee":8895,"Bigg":8896,"EE":8897,"GO":8898,"Le":8899,"May":8900,"bit":8901,"band":8902,"met":8903,"ria":8904,"xy":8905,"Â»":8906,"Ġant":8907,"Ġvery":8908,"à¥Ĩ":8909,"à¤¯à¤ľà¤²":8910,"à¤²à¤¸à¤¨":8911,"à¤ļà¤ķà¤¤":8912,"Ġà¤ķà¤¸à¤°":8913,"à¥ģ)":8914,"Ġà¤¸à¤¡à¤²":8915,"Ġà¤¤à¤ĸ":8916,"Ġà¤ħà¤¢":8917,"Ġà¤µà¤Ŀ":8918,"à¤Łà¤®à¤°":8919,"à¤¡à¤Ńà¤°":8920,"Ġà¤¯à¤®à¤ķ":8921,"à¤§à¤¡à¤ķ":8922,"Ġà¤ľà¤¡à¤¤":8923,"Ġà¤°à¤¨à¤ļ":8924,"Ġà¤¶à¤°à¤®":8925,"Ġà¤ļà¤°à¤ĸ":8926,"à¤¢à¤¨":8927,"à¤«à¤®à¤§":8928,"à¤ªà¤°à¤ľ":8929,"à¤ıà¤ļà¤ª":8930,"à¤Łà¤²à¤°à¤ļ":8931,"à¤¸à¤¨à¤¤":8932,"Ġà¤ĵà¤¸à¤°":8933,"atn":8934,"Ġà¤ħà¤ªà¤¸":8935,"Ġà¥©à¥¨à¥¦":8936,"à¤¦à¤¤à¤ª":8937,"Ġà¤¬à¤°à¤¡":8938,"Ġà¤ľà¤°à¤¬":8939,"ĠMeb":8940,"Ġà¥«0":8941,"ĠSom":8942,"à¤Ĺà¤¦à¤°à¤®":8943,"ĠPer":8944,"à¤®à¤Ĺà¤¡":8945,"icles":8946,"Ġà¤¯à¤¶à¤°":8947,"à¤ıà¤¸à¤®à¤§":8948,"ĠChavan":8949,"oms":8950,"ured":8951,"à¤ľà¤µà¤³à¤ª":8952,"à¤ıà¤®à¤ľ":8953,"Ġà¤ħà¤¡à¤Ĺà¤³":8954,"reak":8955,"ĠEtoridas":8956,"chu":8957,"ume":8958,"ĠKur":8959,"à¥ĩ)</":8960,"à¤¾!'":8961,"Ġà¤·à¤Ł":8962,"Ġà¤¸à¤¹à¤ľà¤Ĺà¤¤":8963,"Ġà¤īà¤ļà¤²à¤¬":8964,"Ġ135":8965,"Ġ160":8966,"à¥ĩà¤ĥ-":8967,"star":8968,"ivity":8969,"ĠSawant":8970,"Ġà¤īà¤ªà¤¨à¤¯à¤¨":8971,"ipe":8972,"à¤°à¤ĺà¤³à¤¤":8973,"Mahavikas":8974,"ĠReservation":8975,"ATE":8976,"Ġà¤ıà¤®à¤ıà¤¸à¤ıà¤®à¤Ī":8977,"plain":8978,"ujarat":8979,"Ġmarket":8980,"Ġmaharashtra":8981,"iwali":8982,"omato":8983,"Ġbetween":8984,"!)":8985,"63":8986,"72":8987,"IF":8988,"ira":8989,"nà¤§à¤¨":8990,"nà¤Ĩà¤¹":8991,"rish":8992,"ÅŁ":8993,"à¤°à¤°à¤¸":8994,"à¤°à¤ªà¤¨":8995,"à¤¨à¤®à¤ļ":8996,"à¤¨à¤¨à¤ļ":8997,"à¤ķà¤¤à¤°":8998,"à¤ļà¤ķà¤³":8999,"à¤¸à¤ı":9000,"à¤®à¤¶à¤ķ":9001,"à¤ªà¤³à¤ķà¤°":9002,"Ġà¤¤à¤ªà¤¨":9003,"Ġà¤ħà¤¢à¤³":9004,"Ġà¤µà¤¢":9005,"Ġà¤µà¤¹à¤¨":9006,"à¤Łà¤Ń":9007,"à¤Łà¤µà¤°à¤ļ":9008,"à¤§à¤¨à¤ļ":9009,"à¤¶à¤¸à¤¹":9010,"Ġà¤¦à¤°à¤¦":9011,"Ġà¤¶à¤Łà¤²":9012,"à¤¥à¤Ł":9013,"à¤Ńà¤µà¤¶":9014,"Ġà¤īà¤Īà¤ķ":9015,"Ġà¤ĸà¤µà¤³à¤²":9016,"à¤°à¤¤à¤¹":9017,"Ġà¤ªà¤°à¤§à¤°":9018,"à¤ĺà¤³à¤£":9019,"à¤µà¤¸à¤Ī":9020,"Ġà¤§à¤¨à¤¦":9021,"à¥¦à¥®":9022,"à¤Łà¤¨à¤¸":9023,"à¤¸à¤²à¤°":9024,"Ġà¤¸à¤¹à¤ķà¤²":9025,"à¤Łà¤ķà¤³à¤¤":9026,"à¤¯à¤²à¤¨":9027,"à¤®à¤¤à¤¹":9028,"à¤¬à¤Īà¤ª":9029,"à¤ŀà¤µà¤²":9030,"Ġà¥«à¥«à¥¦":9031,"ĠSimvax":9032,"à¤°à¤¹à¤®":9033,"à¤§à¤µà¤µ":9034,"ened":9035,"Ġà¤īà¤®à¤Łà¤£":9036,"ĠNIA":9037,"Ġà¤ħà¤µà¤¤à¤°à¤£":9038,"Ġà¥§à¥¯à¥¨à¥Ń":9039,"ĠCr":9040,"ĠChe":9041,"oman":9042,"Ġà¤ıà¤¸à¤ıà¤Ł":9043,"Ġsec":9044,"Ġsocial":9045,"ĠBi":9046,"à¥Ģ):":9047,"Ġne":9048,"Ġà¤ıà¤µà¤¢à¤ļ":9049,"Ġwell":9050,"Ġwrit":9051,"Ġà¥¨à¥¦à¥¨à¥«":9052,"ĠElectric":9053,"à¤ľà¤®à¤ľ":9054,"Ġdist":9055,"Ġà¤Ńà¤°à¤¤à¤¨":9056,"ĠFl":9057,"Ġà¥§à¥ªà¥¨":9058,"Ġà¤«à¤³à¤ª":9059,"ird":9060,"iri":9061,"ĠHar":9062,"ott":9063,"osh":9064,"à¤ıà¤«à¤¨":9065,"ĠOpp":9066,"à¤ħà¤ªà¤ĺ":9067,"Ġà¤¬à¤¦à¤®":9068,"abinet":9069,"ima":9070,"stand":9071,"Ġà¥©à¥¬à¥¦":9072,"Ġupd":9073,"Ġà¥§à¥¯à¥ªà¥¯":9074,"Ġà¤ıà¤¨à¤Ĩà¤¯à¤ıà¤ļ":9075,"Ġdeath":9076,"Ġimp":9077,"ÃŃà¤¥à¤ķ":9078,"ĠSeries":9079,"unjab":9080,"71":9081,"Ab":9082,"Ass":9083,"DP":9084,"Get":9085,"IB":9086,"MA":9087,"RBI":9088,"Sp":9089,"Tra":9090,"UP":9091,"Wh":9092,"che":9093,"jar":9094,"rant":9095,"shi":9096,"à§":9097,"à¤®à¤¦à¤¨":9098,"Ġà¤¸à¤µà¤¤":9099,"Ġà¤ªà¤¥à¤¨":9100,"Ġà¤®à¤Ĺà¤¦":9101,"à¤ªà¤Łà¤°":9102,"à¤ªà¤¸à¤²":9103,"à¤¦à¤µà¤ļ":9104,"à¤Ĺà¤«":9105,"à¤Ĺà¤°à¤µ":9106,"à¤ľà¤®à¤¨":9107,"à¤¡à¤°à¤ª":9108,"Ġà¤¨à¤³à¤ª":9109,"Ġà¤ľà¤³à¤£":9110,"Ġà¤¬à¤ĸà¤°":9111,"Ġà¤²à¤Ī":9112,"Ġà¤ĺà¤¨à¤®":9113,"Ġà¤ıà¤¯":9114,"Ġà¤ĸà¤³à¤Ĺ":9115,"Ġà¤ĩà¤ķà¤¡à¤ļ":9116,"à¤°à¤®à¤¤":9117,"Ġà¤¸à¤°à¤ªà¤Łà¤£":9118,"à¤°à¤µà¤Ł":9119,"Ġà¤§à¤Ĺà¤§":9120,"à¥¦à¥ª":9121,"Ġà¤īà¤ªà¤¸à¤²":9122,"Ġà¤īà¤ªà¤ľà¤¤":9123,"à¤¸à¤°à¤³":9124,"à¤Ŀà¤¬":9125,"à¤·à¤£à¤Ń":9126,"à¤ıà¤®à¤ķ":9127,"à¤¹à¤¤à¤Ĺ":9128,"à¤²à¤¯à¤ļ":9129,"à¤®à¤¨à¤¨":9130,"à¤°à¤ªà¤Łà¤¹":9131,"à¤īà¤ªà¤µ":9132,"Ġtest":9133,"à¤¦à¤µà¤¹":9134,"à¤¶à¤²à¤µà¤°":9135,"ĠNov":9136,"icket":9137,"à¤²à¤µà¤ķà¤°à¤ļ":9138,"ĠAddress":9139,"Ġà¥§à¥¯à¥§à¥¯":9140,"Ġà¥§à¥¯à¥¨à¥§":9141,"ĠCNG":9142,"ĠGaut":9143,"omi":9144,"ĠBa":9145,"à¤ķà¤³à¤¦":9146,"ĠLtd":9147,"Ġà¤ªà¤Łà¤µà¤£":9148,"ida":9149,"Ġmah":9150,"hta":9151,"Ġà¥§à¥ªà¥Ń":9152,"Ġà¤ĭà¤¦":9153,"Ġà¤ħà¤¬à¤ķ":9154,"à¤³à¤µà¤£à¤ķà¤°":9155,"Ġà¤ĸà¤¡à¤ĸà¤¡":9156,"Ġà¤ħà¤«à¤°":9157,"Ġhow":9158,"ĠUniversity":9159,"oci":9160,"Ġà¤¨à¤Ĭà¤µ":9161,"Ġ175":9162,"ĠStat":9163,"udi":9164,"Ġdoes":9165,"Ġà¤ıà¤ķà¤µà¤ļà¤¨":9166,"Ġà¤¨à¤ľà¤°à¤ķ":9167,"ĠÂ°":9168,"Ġhel":9169,"aze":9170,"à¤¨à¤Łà¤ªà¤°":9171,"irector":9172,"Ġarrested":9173,"Ġherbs":9174,"ĠBharti":9175,"ĠAcnicin":9176,"surance":9177,"ography":9178,"92":9179,":\\":9180,":</":9181,"Aurangabad":9182,"SBI":9183,"aur":9184,"jan":9185,"khar":9186,"news":9187,"oe":9188,"ttar":9189,"à¤¨à¤¹à¤°":9190,"à¤ļà¤ķà¤²":9191,"à¤®à¤¦à¤¤":9192,"à¤¦à¤°à¤ķ":9193,"Ġà¤µà¤¡à¤²":9194,"à¤¡à¤¡":9195,"Ġà¤¨à¤¸à¤°":9196,"Ġà¤¦à¤¡à¤µ":9197,"Ġà¤¬à¤«à¤°":9198,"à¤Ńà¤¶":9199,"à¤Ńà¤°à¤ķà¤°":9200,"à¤¤à¤°à¤ªà¤£":9201,"à¤°à¤¤à¤µà¤°":9202,"à¤¯à¤ķà¤²à¤¨":9203,"Ġà¤¡à¤Ĺ":9204,"Ġà¤§à¤µà¤²":9205,"à¥¦à¥©":9206,"à¤Ĺà¤°à¤ĸ":9207,"à¤Łà¤¨à¤ªà¤Ł":9208,"Ġà¤¥à¤¡à¤Ĺ":9209,"à¤Łà¤ķà¤Ł":9210,"Ġà¤ĸà¤°à¤¬":9211,"à¤ªà¤¤à¤Ĺ":9212,"à¤°à¤ĸà¤¨":9213,"Ġà¤¹à¤ľà¤°à¤¤":9214,"à¤ĸà¤²à¤ª":9215,"à¤Ľà¤²":9216,"Ġà¤ħà¤®à¤¦":9217,"Ġ2030":9218,"Ġà¤Ĩà¤¦à¤³":9219,"à¤ľà¤¯à¤µà¤°":9220,"à¥¯à¥¦à¥¦":9221,"ĠMurder":9222,"ĠSn":9223,"..\"":9224,"ality":9225,"à¤īà¤¨à¤®à¤§":9226,"à¤²à¤Ĺà¤Ł":9227,"Ġà¤¸à¤¦à¤Ĺ":9228,"ĠNCB":9229,"à¤¾?,":9230,"ĠIRC":9231,"à¤¤à¤¹à¤¸":9232,"ĠCent":9233,"ĠCricket":9234,"Ġcare":9235,"ĠDevendra":9236,"raud":9237,"reet":9238,"Ġbest":9239,"Ġ190":9240,"ĠED":9241,"Ġdistrict":9242,"Ġà¤¶à¤¹à¤°à¤ļ":9243,"Ġà¤ķà¤³à¤µà¤³":9244,"à¤¯à¤£à¤¨":9245,"à¥¨à¥¦à¥§à¥ª":9246,"à¥Ĥ.\"":9247,"Ġ114":9248,"Ġ256":9249,"Ġform":9250,"Ġhome":9251,"Ġà¤ľà¤²à¤ªà¤°":9252,"Ġà¤ľà¤²à¤¸à¤®":9253,"Ġà¤ľà¤²à¤®à¤¯":9254,"à¥ĩà¤ĥ\\":9255,"iled":9256,"Ġeven":9257,"Ġà¤§à¤¡à¤ķà¤£":9258,"Ġà¥§à¥¯à¥Ńà¥Ń":9259,"Ġà¥§à¥¯à¥ªà¥¦":9260,"Ġà¤«à¤¡à¤ķà¤µ":9261,"portant":9262,"à¥ĩà¤¼.":9263,"Ġhist":9264,"Ġà¤¤à¤¡à¤«à¤¡":9265,"DFC":9266,"ĠISIS":9267,"à¤²à¤ĺà¤°à¤ļ":9268,"ijay":9269,"::::::::":9270,"ĠICICI":9271,"Ġà¤ĩà¤¨à¤ķà¤®":9272,"ĠSummary":9273,"ĠEngineer":9274,"ĠIRCTC":9275,",(":9276,"74":9277,"83":9278,"85":9279,"Bal":9280,"CD":9281,"Kolhapur":9282,"No":9283,"NMK":9284,"Pr":9285,"Th":9286,"by":9287,"nà¤ħà¤ķ":9288,"sw":9289,"ued":9290,"uff":9291,"ware":9292,"à¥ķ":9293,"à¤¾à¥ĳ":9294,"à¤²à¤¸à¤®":9295,"à¤Ĥ',":9296,"Ġà¤ĨÃŃà¤¥à¤ķ":9297,"Ġà¤¸à¤¢à¤³":9298,"Ġà¤ªà¤¡à¤ķ":9299,"à¥Ĥ...":9300,"Ġà¤¹à¤°à¤ķ":9301,"Ġà¤¹à¤Ńà¤ª":9302,"à¤µà¤°à¤¬":9303,"à¤°à¤¤à¤®à¤§":9304,"à¥Ī-":9305,"à¥¦à¥§":9306,"Ġà¤ħà¤¨à¤ķ":9307,"à¤µà¤²à¤£":9308,"à¤¸à¤°à¤µà¤°":9309,"à¤Ŀà¤¸":9310,"à¤ľà¤¨à¤¸à¤®":9311,"à¤Ĭà¤¨à¤¸":9312,"à¤¹à¤°à¤¡":9313,"à¤ĩà¤®à¤²":9314,"à¤ķà¤²à¤¸":9315,"Ġà¤¥à¤°à¤ķ":9316,"à¤®à¤¨à¤²":9317,"Ġà¤ĸà¤°à¤¡":9318,"à¤µà¤¨à¤¯":9319,"ino":9320,"Ġà¤ªà¤¹à¤²":9321,"Ġà¤ľà¤¨à¤¶à¤ķ":9322,"Ġà¤Ľà¤¦":9323,"à¤¾à¤ģ,":9324,"à¤ľà¤¯à¤¶":9325,"à¤¡à¤ķà¤¨":9326,"Ġà¥ªà¥¦à¥¦à¥¦":9327,"ald":9328,"Ġà¤¸à¤ķà¤Ł":9329,"Ġty":9330,"Ġà¤¬à¤¸à¤«":9331,"iter":9332,"à¤Ńà¤µà¤¹":9333,"Ġà¤¯à¤¶à¤ļ":9334,"ĠTO":9335,"ĠTal":9336,"ads":9337,"edding":9338,"à¤®à¤²à¤·":9339,"Ġnumber":9340,"Ġ6000":9341,"Ġà¤¢à¤³":9342,"Ġwin":9343,"Ġwould":9344,"round":9345,"Ġà¤Ĭà¤¹":9346,"Ġà¤ķà¤¡à¤¬":9347,"à¤¹à¤¸à¤µà¤¡":9348,"Ġdue":9349,"nder":9350,"Ġ124":9351,"Ġà¥§à¥Ńà¥¬":9352,"ague":9353,"ĠWar":9354,"à¤ıà¤«à¤ª":9355,"à¤ĳà¤ª":9356,"Ġà¥¨à¥¨à¥¨":9357,"Ġgreat":9358,"ociety":9359,"Ġà¤įà¤¥à¤²":9360,"Ġviral":9361,"Ġà¥©à¥¬à¥«":9362,"Ġà¤ħà¤¹à¤®à¤¦à¤¨à¤Ĺà¤°à¤®à¤§":9363,"Ġ354":9364,"ashmir":9365,"achchan":9366,"Ġ1987":9367,"Ġ1988":9368,"ĠLife":9369,"Ġà¥§à¥¯à¥©à¥«":9370,"hui":9371,"Ġhim":9372,"Share":9373,"Ġà¤Ŀà¤Ĺà¤®à¤Ĺ":9374,"âĢ²":9375,"ombay":9376,"ĠBoard":9377,"ĠRailway":9378,"anguage":9379,"ĠCrisis":9380,"\")":9381,"FC":9382,"Sun":9383,"Up":9384,"Whats":9385,"bank":9386,"jun":9387,"off":9388,"à¤µà¤¬à¤¹":9389,"à¤ļà¤¤à¤®":9390,"à¤¸à¤°à¤µ":9391,"à¤Ĺà¤°à¤¤":9392,"Ġà¤¯à¤®à¤¦":9393,"Ġà¤¨à¤ª":9394,"à¤³à¤µà¤°":9395,"Ġà¤¦à¤¦":9396,"Ġà¤°à¤Ĺà¤¡":9397,"Ġà¤°à¤Īà¤¸":9398,"Ġà¤¬à¤Ľà¤¡":9399,"Ġà¤īà¤¸à¤ķ":9400,"Ġà¤īà¤¥à¤ª":9401,"Ġà¤ıà¤®à¤ķ":9402,"Ġà¤ıà¤ķà¤µà¤Ł":9403,"à¤Īà¤ıà¤«à¤Ł":9404,"à¤®à¤§à¤°":9405,"à¤¯à¤ķà¤µà¤¡":9406,"à¤ĺà¤³à¤¤":9407,"Ġà¤¡à¤³à¤®à¤³":9408,"Ġà¤¸à¤®à¤°à¤¸à¤¤":9409,"à¤¼à¤¾,":9410,"à¤¸à¤°à¤¡":9411,"à¤Ĺà¤²à¤®à¤¯":9412,"à¤Ŀà¤°à¤®à¤§":9413,"Ġà¤¨à¤µà¤ĺà¤°":9414,"à¤Ĩà¤Ń":9415,"à¤Ĩà¤¦à¤°":9416,"à¤Ĩà¤ī":9417,"à¤¬à¤¤à¤ľ":9418,"à¤ĩà¤®à¤°":9419,"à¤Łà¤ķà¤³":9420,"à¤µà¤¨à¤°":9421,"Ġà¤ĵà¤¸à¤°à¤¤":9422,"à¤Ľà¤Ł":9423,"à¤ķà¤¸à¤®":9424,"ĠSan":9425,"ĠSule":9426,"Ġà¤ħà¤ľà¤¹à¤°":9427,"ĠPakistan":9428,"à¤¤à¤¨à¤¦":9429,"ĠAbout":9430,"ĠCoronavirus":9431,"ĠGST":9432,"Ġsign":9433,"urity":9434,"olk":9435,"Ġcat":9436,"ĠBar":9437,"Ġà¤¨à¤¸à¤¬":9438,"Ġà¤ħà¤Łà¤ķà¤³":9439,"Ġà¤ıà¤®à¤ıà¤®":9440,"Ġint":9441,"ental":9442,"Ġà¥§à¥¨à¥¯":9443,"à¤°à¤µà¤łà¤¯":9444,"Ġ103":9445,"Ġbook":9446,"Ġà¤Ĭà¤¬":9447,"Ġdr":9448,"Ġdel":9449,"Ġlakh":9450,"Ġà¥§à¥¬à¥©":9451,"Ġà¥§à¥Ńà¥ª":9452,"à¥¨à¥¦à¥§à¥®":9453,"osis":9454,"Ġà¤¤à¤³à¤®":9455,"ĠWeb":9456,"Ġà¤ķà¤ªà¤¡à¤¯":9457,"Ġà¤ªà¤³à¤¶":9458,"Ġà¥¨à¥©à¥¦":9459,"Ġ170":9460,"Ġà¤¸à¤¹à¤¨à¤¶à¤ķ":9461,"Ġanal":9462,"Ġà¤Ŀà¤Łà¤ķà¤¨":9463,"asthan":9464,"Ġà¤ħà¤¡à¤ķà¤µà¤²":9465,"ians":9466,"à¥ĩ...\\":9467,"Ġà¤ªà¤¥à¤¦à¤°":9468,"CoronaVirus":9469,"Ġà¤¤à¤Łà¤°à¤ķ":9470,"Ġà¤ļà¤Łà¤Ī":9471,"minist":9472,"à¤Ĭà¤ľà¤°à¤®à¤§":9473,"Ġà¤ıà¤®à¤ıà¤ıà¤ļ":9474,"Ġà¤Ńà¤°à¤ķà¤Łà¤²":9475,"62":9476,"AB":9477,"Cl":9478,"Ed":9479,"MR":9480,"Nar":9481,"News":9482,"Or":9483,"One":9484,"UL":9485,"What":9486,"bl":9487,"ca":9488,"for":9489,"hin":9490,"iya":9491,"pons":9492,"yo":9493,"à®":9494,"à¤¾à¥Ģ":9495,"à¤ķà¤¦à¤µ":9496,"à¤ļà¤¯à¤¨":9497,"à¤¹à¤°à¤ķ":9498,"à¤®à¤¸à¤ļ":9499,"Ġà¤ªà¤²à¤ķ":9500,"à¤¦à¤¶à¤¨":9501,"à¤ľà¤¯à¤²":9502,"à¤¡à¤Īà¤¤":9503,"à¤·à¤°à¤®":9504,"à¤łà¤µà¤°":9505,"Ġà¤ļà¤¢à¤µà¤£":9506,"à¤Īà¤ıà¤¸":9507,"à¤¹à¤£à¤¨":9508,"à¤¹à¤£à¤¶":9509,"à¤ĺà¤µà¤¨":9510,"à¤µà¤¸à¤ļ":9511,"Ġà¤¡à¤¯":9512,"à¤Ŀà¤®à¤§":9513,"à¤ħà¤ªà¤ķ":9514,"à¤·à¤£à¤ªà¤¦":9515,"à¤ıà¤ķà¤¤":9516,"à¤Ĺà¤°à¤ľ":9517,"Ġà¤¸à¤¹à¤ľà¤°":9518,"à¤¯à¤²à¤®":9519,"à¤®à¤¨à¤ª":9520,"à¤ªà¤¤à¤ļ":9521,"à¤ŀà¤ª":9522,"à¤²à¤¨à¤¸":9523,"à¤¡à¤£à¤Ĺà¤¡":9524,"ĠMB":9525,"ĠMang":9526,"ĠSMS":9527,"ores":9528,"itra":9529,"ishi":9530,"ĠCovid":9531,"Ġà¤ĳà¤«à¤¸":9532,"Ġcha":9533,"ĠBill":9534,"Ġnt":9535,"Ġà¤Ĩà¤Īà¤ª":9536,"Ġà¥§à¥«à¥§":9537,"à¤Ĭà¤¸à¤µà¤°":9538,"Ġ104":9539,"à¤¹à¤²à¤ª":9540,"ides":9541,"Ġmet":9542,"à¤¹à¤³à¤¦":9543,"Ġà¤«à¤²à¤ľ":9544,"à¤¦à¤¯à¤¸à¤®":9545,"Ġà¥§à¥ªà¥¦à¥¦":9546,"Ġà¥§à¥¬à¥¨":9547,"irish":9548,"à¤¤à¤°à¤£à¤²":9549,"Ġà¥§à¥©à¥§":9550,"Ġà¥§à¥©à¥¬":9551,"ĠKad":9552,"ĠWarn":9553,"à¤®à¤®à¤§à¤²":9554,"ikar":9555,"Ġà¤¨à¤Ĭà¤ļ":9556,"Ġà¥¨à¥Ńà¥¦":9557,"iff":9558,"Ġà¤Ĺà¤ľà¤¬à¤ľ":9559,"Ġà¤ıà¤«à¤ıà¤¸à¤Ĩà¤¯":9560,"ending":9561,"istry":9562,"Ġà¤Ĺà¤²à¤¥":9563,"ugg":9564,"ianhui":9565,"Ġà¥§à¥¯à¥Ńà¥¬":9566,"Ġthen":9567,"Ġà¤Ĩà¤µà¤³à¤£":9568,"Ġà¤°à¤¥à¤¯":9569,"ATION":9570,"Ġà¤µà¤°à¤¦à¤¹à¤¸":9571,"ĠPresident":9572,"Ġà¤®à¤²à¤®à¤ªà¤Ł":9573,"ridge":9574,"parin":9575,"Ġmonth":9576,"ML":9577,"Nand":9578,"World":9579,"ba":9580,"gar":9581,"mm":9582,"nà¤Ķà¤°":9583,"pol":9584,"viron":9585,"zo":9586,"Ġkar":9587,"à¤°à¤Łà¤¯":9588,"à¥ĩà¥ĩ.":9589,"à¤¤à¤®à¤ļ":9590,"à¤²à¤¹à¤°":9591,"à¤¨à¤ĺ":9592,"à¤¹à¤¸à¤°":9593,"Ġà¤Ĩà¤µà¤¤":9594,"Ġà¤¸à¤ľà¤¨":9595,"Ġà¤ªà¤ľ":9596,"Ġà¤®à¤¢à¤µ":9597,"à¤ªà¤³à¤µ":9598,"Ġà¤ħà¤°à¤®":9599,"à¤¡à¤ľà¤µà¤³":9600,"Ġà¤ľà¤®à¤¨":9601,"Ġà¤¬Âºà¤¯":9602,"à¤ĸà¤µà¤¸":9603,"Ġà¤Ńà¤°à¤µà¤¤":9604,"à¤°à¤ķà¤µà¤°":9605,"à¤¤à¤°à¤¶":9606,"à¤ķà¤°à¤¹":9607,"Ġà¤ĩà¤¹":9608,"à¤ĺà¤²à¤ķ":9609,"à¤«à¤°à¤ļ":9610,"à¤«à¤°à¤ª":9611,"à¤Ĺà¤²à¤µà¤°":9612,"à¤¯à¤®à¤¸à¤¨":9613,"à¤ħà¤°à¤®":9614,"à¤Ĩà¤Īà¤ļ":9615,"à¤Łà¤°à¤¶":9616,"Ġà¤¥à¤¬":9617,"à¤¸à¤¤à¤¤":9618,"anp":9619,"ĠMovie":9620,"enama":9621,"ĠNokia":9622,"ĠAv":9623,"ĠTar":9624,"ĠCBI":9625,"Ġà¤Īà¤¡à¤¨":9626,"Ġà¤ıà¤¸à¤ıà¤¸à¤¸":9627,"à¤Ĩà¤¯à¤Ĩà¤¯":9628,"à¤ķà¤®à¤¤à¤²":9629,"à¤Łà¤£à¤®":9630,"ĠBand":9631,"ĠBhat":9632,"ĠBirthday":9633,"ĠBengal":9634,"Ġfarming":9635,"Ġnic":9636,"Ġ999":9637,"Ġdem":9638,"akar":9639,"ĠFinal":9640,"ĠFestival":9641,"ula":9642,"Ġà¥§à¥Ńà¥«à¥Ń":9643,"ĠKul":9644,"ried":9645,"à¥¨à¥¦à¥§à¥«":9646,"ĠWI":9647,"aim":9648,"ĠOS":9649,"ĠOTT":9650,"Ġà¤ħà¤«à¤ľà¤²":9651,"itics":9652,"ĠVer":9653,"ĠInstitute":9654,"Ġgen":9655,"Ġvi":9656,"stru":9657,"inder":9658,"illage":9659,"Ġjust":9660,"Ġà¤¶à¤ªà¤¥à¤ªà¤¤":9661,"Ġà¥§à¥¯à¥®à¥§":9662,"Ġà¤Ńà¤Łà¤ķà¤£":9663,"karni":9664,"nà¤¶à¤¹à¤°":9665,"Ġ360":9666,"à¤Ĺà¤łà¤¨":9667,"Ġà¥§à¥¯à¥«à¥ª":9668,"Ġà¥§à¥¯à¥©à¥ª":9669,"ĠDeath":9670,"Ġpres":9671,"Government":9672,"ĠIndians":9673,"ĠAccount":9674,"Ġà¤ĸà¤¦à¤ĸà¤¦":9675,"à¤ıà¤®à¤ıà¤²à¤ı":9676,"Ġà¤Ĺà¤¡à¤Ĺà¤¡à¤²":9677,"Ġannoun":9678,"';":9679,"93":9680,"IST":9681,"RD":9682,"Sat":9683,"West":9684,"cil":9685,"âĹı":9686,"Ġet":9687,"à¤¤à¤¬à¤°":9688,"à¤¤à¤Ĺà¤£":9689,"à¤¤à¤Ńà¤°":9690,"à¤¯à¤°à¤ķ":9691,"à¤¯à¤°à¤µ":9692,"à¤¯à¤§à¤°":9693,"à¤²à¤Łà¤£":9694,"à¤¿à¤¼":9695,"à¤ķà¤ľà¤¨":9696,"à¤µà¤«à¤²à¤ķ":9697,"à¤¹à¤³à¤£":9698,"à¤®à¤¯à¤¤":9699,"à¤®à¤ķà¤²":9700,"à¤ªà¤¸à¤¹":9701,"à¤ªà¤²à¤¨":9702,"à¥Ĥ.\\":9703,"à¤Ĺà¤®à¤ª":9704,"Ġà¤µà¤ļ":9705,"Ġà¤µà¤°à¤ķà¤°à¤£":9706,"à¤ľà¤µà¤¸":9707,"à¤ľà¤±":9708,"à¤¡à¤ªà¤²":9709,"Ġà¤¦à¤ĸ":9710,"Ġà¤ķà¤°à¤ªà¤²":9711,"Ġà¤Ĺà¤£à¤¤":9712,"à¤Ńà¤µà¤°":9713,"Ġà¤ļà¤¹à¤°":9714,"Ġà¤ĺà¤°à¤¦":9715,"à¤°à¤ķà¤±":9716,"Ġà¤ĸà¤¸":9717,"à¤Īà¤Łà¤²":9718,"Ġà¤Łà¤£à¤ķ":9719,"à¤°à¤£à¤ķ":9720,"Ġà¤µà¤°à¤ĸ":9721,"à¤¼à¥ĭ":9722,"Ġà¤īà¤ªà¤°à¤£":9723,"à¤¸à¤°à¤¬":9724,"à¤Ŀà¤¡à¤¤":9725,"à¤¬à¤°à¤¦à¤°à¤®":9726,"à¤Ĩà¤°à¤µ":9727,"à¤ªà¤¨à¤²":9728,"à¤¹à¤¤à¤ļ":9729,"Ġ:)":9730,"Ġ:)\\":9731,"à¤ĩà¤®à¤ļ":9732,"ataka":9733,"à¤²à¤¨à¤¹":9734,"à¤¯à¤¦à¤ķ":9735,"Ġà¤ľà¤¨à¤§à¤¨":9736,"Ġà¤ķà¤²à¤¬":9737,"à¤¹à¤¨à¤°":9738,"à¤µà¤¯à¤µ":9739,"à¥®à¥¦à¥¦":9740,"ĠSw":9741,"ĠSav":9742,"à¤īà¤ªà¤ļ":9743,"Ġà¤ľà¤®à¤µà¤£":9744,"Ġtur":9745,"ĠPS":9746,"itor":9747,"itation":9748,"icenama":9749,"ĠAward":9750,"à¤¨à¤ķà¤¥":9751,"ised":9752,"à¤ĺà¤Łà¤¨à¤®":9753,"adan":9754,"à¤ķà¤®à¤ªà¤£":9755,"ĠBSE":9756,"ional":9757,"Ġfamily":9758,"ĠDz":9759,"ĠDam":9760,"à¤¡à¤°à¤Ĺ":9761,"ently":9762,"Ġprice":9763,"Ġow":9764,"iles":9765,"ĠEffects":9766,"Ġmed":9767,"Ġmake":9768,"Ġà¤ľà¤¯à¤µà¤°":9769,"Ġà¥§à¥ªà¥©":9770,"aine":9771,"ĠJadhav":9772,"Ġ2500":9773,"ĠVid":9774,"Ġà¤°à¤®à¤®":9775,"oda":9776,"à¤Ĺà¤ľà¤³":9777,"Ġattack":9778,"Ġreal":9779,"Ġcomple":9780,"à¤¤à¤¶à¤¬":9781,"Ġà¥§à¥¯à¥ªà¥¬":9782,"Ġijar":9783,"Ġhealth":9784,"Ġà¤ħà¤¸à¤¹à¤®à¤¤":9785,"ĠCommittee":9786,"Ġà¤¬à¤Łà¤£à¤µà¤°":9787,"isease":9788,"ĠResearch":9789,"ĠDevelopment":9790,"Shinde":9791,"Team":9792,"Ġwhen":9793,"PFO":9794,"Ġà¤¥à¤°à¤¥à¤°à¤¤":9795,"Ġberries":9796,"ĠMessages":9797,"poons":9798,"ðŁĳī":9799,"Bh":9800,"BMC":9801,"Ne":9802,"OL":9803,"OLED":9804,"Qu":9805,"Tok":9806,"UN":9807,"over":9808,"rand":9809,"rut":9810,"á¹":9811,"Ġel":9812,"Ł¶":9813,"à¤¯à¤¶à¤µ":9814,"à¤²à¤ķà¤°à¤£":9815,"à¤¨à¤°à¤ª":9816,"à¤¨à¤ľà¤¨à¤ķ":9817,"à¤ķà¤¬à¤¸":9818,"à¤µà¤Ĺà¤°":9819,"à¤¸à¤ł":9820,"à¤¸à¤µà¤¤":9821,"Ġà¤ªà¤³à¤µà¤£":9822,"Ġà¤¹à¤°à¤¨":9823,"Ġà¤ľà¤¹à¤°":9824,"Ġà¤¬à¤Ĺà¤³":9825,"Ġà¤¬à¤²à¤¦":9826,"Ġà¤¶à¤°à¤ľ":9827,"Ġà¤Ĺà¤³à¤ļ":9828,"Ġà¤²à¤Ĺà¤¦":9829,"Ġà¤²à¤ļà¤ķ":9830,"à¤ĸà¤°à¤¨":9831,"Ġà¤Ĩà¤£à¤µ":9832,"à¤Ńà¤ľà¤¨":9833,"Ġà¤ıà¤¯à¤°":9834,"à¥ī,":9835,"à¤Ĭà¤Łà¤°":9836,"Ġ()":9837,"Ġà¤§à¤£":9838,"à¤Ŀà¤ª":9839,"à¤Ĺà¤°à¤¨":9840,"Ġà¤¨à¤µà¤ļ":9841,"Ġà¤ķà¤®à¤µà¤£":9842,"à¤¬à¤Īà¤¤à¤ļ":9843,"anya":9844,"à¤¦à¤¨à¤µ":9845,"ĠSE":9846,"ĠSide":9847,"ening":9848,"à¤ªà¤¦à¤µ":9849,"à¤Łà¤ļà¤ķ":9850,"Ġà¤Ĳà¤ªà¤¤":9851,"à¤Ĺà¤µà¤Ł":9852,"à¤Ĺà¤¡à¤®à¤§":9853,"à¤Ĺà¤¡à¤¬à¤¡":9854,"Ġà¤Ĺà¤°à¤ľà¤µ":9855,"Ġà¤ĩà¤¤à¤ķà¤ļ":9856,"à¤ıà¤¸à¤Īà¤ļ":9857,"Ġà¥§à¥¯à¥¨":9858,"Ġà¥§à¥¯à¥§à¥®":9859,"Ġà¥§à¥¯à¥¨à¥«":9860,"Ġà¥®à¥«à¥¦":9861,"Ġà¤¸à¤²à¤Ĺà¤°":9862,"à¤µà¤Łà¤µ":9863,"Ġà¤ıà¤¸à¤Ĩà¤¯à¤ª":9864,"Ġsee":9865,"Ġchar":9866,"ĠRAM":9867,"Ġfollow":9868,"Ġà¤¸à¤¨à¤¸à¤¨":9869,"à¤¡à¤°à¤°":9870,"ĠLim":9871,"à¤Ĩà¤°à¤Ŀ":9872,"rem":9873,"ĠHist":9874,"oshi":9875,"Ġ115":9876,"ĠVs":9877,"Ġgrow":9878,"Ġà¤«à¤¸à¤µà¤¤":9879,"Ġà¤ļà¤¹à¤²à¤¨":9880,"nà¤¸à¤°à¤ķ":9881,"ems":9882,"emic":9883,"oud":9884,"Ġà¤ļà¤°à¤£à¤¸":9885,"Ġhapp":9886,"à¤Ĺà¤łà¤¬":9887,"Ġà¥§à¥¯à¥«à¥Ń":9888,"Ġlearn":9889,"à¦¾":9890,"Ġà¤ľà¤¯à¤¦à¤¤":9891,"dea":9892,"à¤ĳà¤«à¤®à¤§":9893,"Google":9894,"ĠImages":9895,"Ahmednagar":9896,"ĠSpeciality":9897,"ĠAirtel":9898,"rakash":9899,"à¤²à¤ĸà¤¨à¤Ĭ":9900,"ĠAND":9901,"Ġà¤¢à¤®à¤¢":9902,"Ġolish":9903,"ĠMaharaj":9904,"xygen":9905,"vironment":9906,"-'":9907,"118":9908,"Con":9909,"Min":9910,"Su":9911,"Sw":9912,"pm":9913,"yat":9914,"à¤¤à¤ĸà¤¡":9915,"à¤¯à¤ªà¤¤":9916,"à¤²à¤°à¤¸":9917,"à¤²à¤ªà¤¦":9918,"à¤¨à¤³":9919,"à¤µà¤ªà¤£":9920,"à¤¸à¤¸à¤®":9921,"Ġà¤¸à¤°à¤£":9922,"à¤Ĺà¤µà¤³à¤£":9923,"à¤ľà¤ľà¤µà¤³":9924,"Ġà¤¹à¤²à¤²":9925,"Ġà¤¹à¤Łà¤£":9926,"Ġà¤¨à¤µà¤¤":9927,"à¤¶à¤°à¤ļ":9928,"à¤¶à¤ªà¤£":9929,"à¤³à¤¸à¤µ":9930,"à¤·à¤¯à¤®":9931,"Ġà¤ľà¤¸à¤µ":9932,"à¤¬à¤ķà¤¡":9933,"Ġà¤Ĺà¤Ĺ":9934,"Ġà¤²à¤µà¤²":9935,"à¤¥à¤ķà¤°":9936,"Ġà¤ĺà¤Łà¤µ":9937,"Ġà¤Ŀà¤¡":9938,"à¤ĺà¤¸":9939,"à¤ĺà¤¹":9940,"à¤ĺà¤¡à¤µ":9941,"Ġà¤¸à¤°à¤µ":9942,"Ġà¤ħà¤¨à¤µ":9943,"à¤µà¤¤à¤¤":9944,"à¤¯à¤®à¤¶":9945,"à¤¦à¤°à¤ľ":9946,"à¤¶à¤¨à¤µ":9947,"Ġà¤ĵà¤ıà¤¸":9948,"Ġà¤ĵà¤°à¤¬":9949,"inf":9950,"à¤°à¤ľà¤µ":9951,"à¤¤à¤®à¤¯":9952,"Ġà¥¨à¥¦à¥©à¥¦":9953,"Ġà¤ħà¤®à¤²à¤¬à¤ľ":9954,"à¤·à¤¯à¤¹":9955,"ĠSSC":9956,"orre":9957,"à¤µà¤ķà¤ª":9958,"ĠPri":9959,"ĠAmit":9960,"Ġà¤ħà¤µà¤Ĺ":9961,"Ġà¥¬à¥¦à¥¦à¥¦":9962,"à¤·à¤¦à¤ļ":9963,"ĠChat":9964,"à¤ľà¤²à¤¸":9965,"andi":9966,"amin":9967,"Ġsystem":9968,"urt":9969,"Ġcity":9970,"ĠBCCI":9971,"ĠRoy":9972,"Ġfeel":9973,"Ġfriend":9974,"Ġneed":9975,"à¤¡à¤°à¤°à¤¨":9976,"Ġà¥§à¥«à¥¨":9977,"Ġ7000":9978,"Ġinv":9979,"à¤ıà¤®à¤ĵ":9980,"Ġword":9981,"Ġ109":9982,"Ġopen":9983,"idd":9984,"ilk":9985,"Ġonline":9986,"Ġmen":9987,"Ġaction":9988,"Ġdid":9989,"Ġà¤ķà¤³à¤®":9990,"Ġà¤ķà¤³à¤µà¤¤":9991,"ĠHer":9992,"à¥¨à¥¦à¥§à¥¬":9993,"ĠJay":9994,"à¤ıà¤«à¤Ĩà¤¯":9995,"ĠOBC":9996,"obal":9997,"ĠVas":9998,"ĠGod":9999,"rica":10000,"Ġà¥¨à¥®à¥®":10001,"à¤Ĩà¤ľà¤¹":10002,"ogi":10003,"istant":10004,"à¤°à¤ĺà¤³":10005,"uki":10006,"ected":10007,"Ġà¤®à¤ķà¤°à¤¸":10008,"oung":10009,"Ġexpress":10010,"ibility":10011,"Ġà¤ªà¤¬à¤ľ":10012,"Ġà¥§à¥¯à¥¦à¥¬":10013,"huj":10014,"Ġà¤¬à¤°à¤¸à¤£":10015,"Ġà¤ķà¤¢à¤Ī":10016,"ĠDrugs":10017,"hagat":10018,"ĠRoad":10019,"ĠAmbedkar":10020,"Ġà¤Ŀà¤£à¤Ŀà¤£":10021,"Ġijaraga":10022,"700":10023,"CH":10024,"Election":10025,"FS":10026,"Jalgaon":10027,"Mah":10028,"Nà¤¯":10029,"OM":10030,"OW":10031,"Shah":10032,"ees":10033,"fore":10034,"hing":10035,"nà¤ıà¤ĸ":10036,"work":10037,"Ġent":10038,"Ġend":10039,"à¤¨à¤¨à¤²":10040,"à¤¨à¤¦à¤°à¤®":10041,"à¤ķà¤¸à¤ļ":10042,"à¤¸à¤µà¤£":10043,"à¤¹à¤¬à¤¦":10044,"à¥ĭ/":10045,"à¤®à¤®à¤¤":10046,"Ġà¤Ĩà¤ĩà¤ķ":10047,"Ġà¤¸à¤Ĺà¤°":10048,"Ġà¤¸à¤¡à¤ª":10049,"Ġà¤ªà¤ĸ":10050,"Ġà¤ªà¤ļà¤µà¤£":10051,"à¤¦à¤¨à¤ļ":10052,"à¤Ĺà¤§à¤°":10053,"à¤·à¤¯à¤²":10054,"Ġà¤°à¤¨à¤°":10055,"Ġà¤¬à¤®":10056,"Ġà¤¬à¤°à¤£":10057,"Ġà¤²à¤µà¤£":10058,"à¤ĸà¤°à¤²":10059,"Ġà¤ļà¤¬":10060,"Ġà¤īà¤µ":10061,"Ġà¤īà¤²à¤µ":10062,"Ġà¤ıà¤ļà¤¸":10063,"Ġà¤ķà¤°à¤£à¤¨":10064,"Ġà¤«à¤¡à¤«":10065,"Ġà¤Łà¤ļà¤¸":10066,"Ġà¤Łà¤µà¤Łà¤µ":10067,"Ġà¤¤à¤°à¤«":10068,"Ġà¤ĩà¤Ŀ":10069,"à¤ĺà¤¡à¤µà¤£":10070,"à¤Ĭà¤¹":10071,"Ġà¤¸à¤°à¤³à¤¸":10072,"Ġà¤¸à¤°à¤µà¤£à¤ķà¤°":10073,"à¤¹à¤°à¤«":10074,"à¤ĩà¤¡à¤°":10075,"à¥ĭà¤Ĥ;":10076,"ark":10077,"à¤·à¤ķà¤¹":10078,"à¤¤à¤®à¤ª":10079,"à¤ļà¤¨à¤¸":10080,"à¤°à¤¨à¤ª":10081,"ĠMG":10082,"ĠMS":10083,"ĠMer":10084,"à¥Ńà¥¦à¥¦":10085,"Ġà¥ªà¥¨à¥¦":10086,"à¤īà¤¬":10087,"ĠPack":10088,"ĠPhoto":10089,"ĠPower":10090,"ĠNDA":10091,"à¤Īà¤¨à¤¨":10092,"à¤ļà¤°à¤µà¤°":10093,"ĠThere":10094,"Ġà¥§à¥¯à¥¨à¥¨":10095,"Ġà¥§à¥¯à¥¨à¥©":10096,"Ġà¤Ĩà¤Ĺà¤ª":10097,"lek":10098,"ament":10099,"à¤µà¤ªà¤°à¤µ":10100,"Ġ2025":10101,"à¥Ģ)\\":10102,"Ġfree":10103,"ĠDistrict":10104,"Ġà¥§à¥«à¥ª":10105,"Ġà¥§à¥«à¥®":10106,"à¤ķà¤³à¤¶":10107,"ential":10108,"Ġopp":10109,"ilit":10110,"ilip":10111,"Ġmat":10112,"à¤ıà¤²à¤ĵ":10113,"Ġav":10114,"akes":10115,"Ġlaw":10116,"ĠFire":10117,"Ġà¥§à¥¬à¥®":10118,"irm":10119,"Ġà¥«à¥¦à¥¬":10120,"Ġ117":10121,"ĠVik":10122,"ĠVirus":10123,"ĠInvest":10124,"ĠUR":10125,"ĠUl":10126,"Ġà¤°à¤£à¤¶":10127,"Ġà¤īà¤¸à¤³à¤£":10128,"Ġev":10129,"à¤³à¤¸à¤ķà¤°":10130,"à¤ľà¤®à¤§à¤²":10131,"emple":10132,"aja":10133,"awab":10134,"à¥ĭ'.":10135,"agement":10136,"Ġà¥§à¥¯à¥¬à¥©":10137,"nPrevious":10138,"ohn":10139,"Ġà¥§à¥¯à¥«à¥¯":10140,"Ġà¤¨à¤²à¤µà¤¡":10141,"Ġà¥§à¥¯à¥©à¥¬":10142,"China":10143,"Ġindia":10144,"Ġ1961":10145,"lespoons":10146,"andeep":10147,"Ġà¤®à¤ĸà¤®à¤²":10148,"ĠODI":10149,"wikipedia":10150,"Ġtablespoons":10151,"600":10152,"87":10153,"Be":10154,"HT":10155,"MT":10156,"Rak":10157,"Sal":10158,"TH":10159,"come":10160,"das":10161,"ier":10162,"marathi":10163,"nE":10164,"nà¤ı":10165,"nà¤ľà¤Ĺ":10166,"uction":10167,"van":10168,"Â®":10169,"Ġà¥Ģ":10170,"Ġ000":10171,"à¤¾à¥į":10172,"à¤°à¤¡à¤¤":10173,"à¥Ģà¥ĩ":10174,"à¤¤à¤®à¤¨":10175,"à¤¤à¤¸à¤¹":10176,"à¤¤à¤«à¤°":10177,"à¤¯à¤ľà¤¤":10178,"à¤²à¤·":10179,"à¤²à¤ħà¤ª":10180,"à¤£à¤®à¤¹":10181,"Ġà¤Ĩà¤¸à¤µ":10182,"Ġà¤ªà¤ŀ":10183,"Ġà¤ªà¤¡à¤µ":10184,"Ġà¤®à¤³à¤²":10185,"à¤ªà¤ªà¤£":10186,"à¤ªà¤®à¤¤":10187,"à¤Ĺà¤¸à¤®":10188,"à¤Łà¤¤à¤°":10189,"à¤ľà¤°à¤ļà¤¨":10190,"à¤¡à¤¬à¤°":10191,"Ġà¤¨à¤®à¤µ":10192,"Ġà¤¦à¤®à¤¯":10193,"à¤¬à¤¯":10194,"à¤¬à¤¨à¤µ":10195,"à¤Ńà¤ľ":10196,"à¤Ńà¤Ĺà¤¤":10197,"Ġà¤īà¤¹":10198,"à¤°à¤ķà¤°à¤ļ":10199,"Ġà¤«à¤°à¤¸":10200,"à¥ĩ,</":10201,"à¤¹à¤£à¤µà¤£":10202,"Ġà¤ĩà¤¤à¤®":10203,"à¤°à¤ļà¤ķ":10204,"à¤ıà¤Łà¤°à¤ļ":10205,"à¤Ĩà¤µà¤¶":10206,"à¤ªà¤¨à¤Ĺà¤°":10207,"à¤Łà¤°à¤¨à¤²":10208,"à¤Īà¤²à¤¸":10209,"à¤ķà¤²à¤°":10210,"à¤ķà¤²à¤¹":10211,"à¤®à¤¤à¤ļ":10212,"ones":10213,"Ġà¤ķà¤²à¤Ĺ":10214,"ĠSk":10215,"ĠService":10216,"ori":10217,"ĠPe":10218,"ichar":10219,"ĠAz":10220,"ĠAfter":10221,"Ġ550":10222,"Ġ420":10223,"Ġà¥§à¥¯à¥¨à¥¬":10224,"ĠCons":10225,"lector":10226,"à¤µà¤Łà¤³":10227,"Ġsiz":10228,"à¤ķà¤®à¤³":10229,"ĠBang":10230,"ĠRancycline":10231,"Ġà¤Ĩà¤Īà¤µà¤°":10232,"Ġway":10233,"à¤Ĭà¤¸à¤«":10234,"Ġpawar":10235,"Ġbrow":10236,"Ġà¤¹à¤¤à¤¬à¤²à¤¤":10237,"Ġà¥§à¥®à¥¨":10238,"à¤²à¤®à¤§à¤²":10239,"Ġà¥§à¥ªà¥®":10240,"iaomi":10241,"pping":10242,"Ġà¤¤à¤³à¤µà¤¡":10243,"ĠWork":10244,"à¤ĳà¤¡":10245,"ĠReach":10246,"ocation":10247,"à¤°à¤«à¤Łà¤²":10248,"ability":10249,"Ġà¤ļà¤¢à¤µà¤¤":10250,"index":10251,"Ġà¤īà¤Ĺà¤®à¤¸":10252,"ĠâĹı":10253,"eputy":10254,"Ġbefore":10255,"ffair":10256,"quir":10257,"board":10258,"Ġthings":10259,".'\\":10260,"ĠPatole":10261,"Ġà¤ıà¤ħà¤°à¤ķ":10262,"Ġexp":10263,"Ġlevel":10264,"Ġà¥§à¥¯à¥©à¥¯":10265,"Ġà¥§à¥¯à¥¦à¥«":10266,"Ġà¤ıà¤®à¤ıà¤¸à¤Ĩà¤°à¤¡":10267,"ologies":10268,"ĠElections":10269,"spector":10270,"Ġdisc":10271,"ĠLeague":10272,"ennai":10273,"ezid":10274,"Ġaddress":10275,"iabet":10276,"Jayant":10277,").\\":10278,"BCCI":10279,"Car":10280,"Do":10281,"GF":10282,"Ganesh":10283,"Mad":10284,"Murder":10285,"RF":10286,"RP":10287,"Sub":10288,"Sang":10289,"Sachin":10290,"ler":10291,"nà¤ł":10292,"nà¤ĺ":10293,"nà¤¬à¤°":10294,"nà¤Ĩà¤¯":10295,"nà¤īà¤¦":10296,"rd":10297,"yas":10298,"à¥ĩà¤¿":10299,"à¤¯à¤£à¤¸":10300,"à¤²à¤µà¤¸":10301,"à¤²à¤¡à¤ļ":10302,"à¤ļà¤°à¤¨":10303,"à¤ļà¤ªà¤Ł":10304,"à¤®à¤¯à¤ķ":10305,"Ġà¤¯à¤ļ":10306,"Ġà¤¨à¤®à¤¤":10307,"à¤¶à¤«":10308,"à¤·à¤¯à¤¤":10309,"Ġà¤ľà¤¡à¤µ":10310,"à¤¬à¤Ń":10311,"à¤¬à¤ļà¤¤":10312,"à¤¬à¤ĺà¤¤":10313,"Ġà¤Ĺà¤®à¤ķ":10314,"à¤µà¤°à¤µà¤°":10315,"à¤Ńà¤Ī":10316,"Ġà¤ļà¤ķà¤¤":10317,"Ġà¤īà¤ĸà¤³":10318,"à¥Ģ.,":10319,"Ġà¤ıà¤ķà¤Łà¤¯":10320,"à¤Īà¤¸à¤ª":10321,"Ġà¤«à¤ľà¤²":10322,"Ġà¤«à¤¡à¤¶":10323,"à¤°à¤¤à¤ªà¤£":10324,"à¤¹à¤£à¤µà¤¤":10325,"Ġà¤¸à¤®à¤°à¤ľ":10326,"à¤ªà¤°à¤ª":10327,"Ġà¤§à¤°à¤ª":10328,"à¤µà¤²à¤ķ":10329,"à¤°à¤¸à¤°à¤ķ":10330,"à¤Ĺà¤²à¤¸":10331,"à¤Ŀà¤¨à¤²":10332,"à¤¯à¤®à¤ª":10333,"Ġà¤¥à¤¡":10334,"Ġà¤Ĩà¤¯à¤ĵà¤ıà¤¸":10335,"Ġà¤Ĩà¤¯à¤Ĩà¤°à¤¬":10336,"à¤¬à¤Īà¤µ":10337,"arb":10338,"à¤ŀà¤¯":10339,"à¤ľà¤ªà¤¸à¤¹":10340,"à¤Ľà¤°":10341,"Ġà¤ħà¤®à¤°à¤ķ":10342,"à¤·à¤¯à¤¸":10343,"ĠSL":10344,"ĠSm":10345,"ĠSkin":10346,"Ġà¤¸à¤ķà¤ª":10347,"orks":10348,"Ġts":10349,"ĠPo":10350,"itt":10351,"Ġà¤ħà¤²à¤®":10352,"Ġà¤Ķà¤ľ":10353,"asing":10354,"ĠCan":10355,"ĠGu":10356,"Ġfay":10357,"Ġà¤Ĩà¤Īà¤¶":10358,"Ġpo":10359,"ider":10360,"rots":10361,"Ġà¤Ĭà¤¤à¤ķ":10362,"à¤ıà¤²à¤Ł":10363,"Ġdush":10364,"Ġdosage":10365,"2014":10366,"Ġà¥§à¥Ńà¥¦à¥¦":10367,"ĠKer":10368,"rike":10369,"à¥ĩ)\\":10370,"à¥¨à¥¦à¥§à¥Ń":10371,"agh":10372,"agger":10373,"ĠWTC":10374,"ĠWishes":10375,"Ġà¥§à¥¦à¥¦à¥¦à¥¦":10376,"Ġà¥¨à¥®à¥¦":10377,"Ġà¥©à¥«à¥ª":10378,"Ġà¤ıà¤«à¤Ł":10379,"Ġà¤¦à¤¶à¤ķà¤Ńà¤°":10380,"Ġkilled":10381,"ovo":10382,"iving":10383,"Ġrun":10384,"angana":10385,"ultib":10386,"Ġcome":10387,"Ġà¤ħà¤ªà¤¹à¤°à¤£à¤ķà¤°":10388,"à¤°à¤ĺà¤³à¤£":10389,"à¥Ģ...\\":10390,"à¤Ĥ!\"":10391,"à¤Īà¤«à¤¸":10392,"ĠProte":10393,"Ġà¥§à¥¯à¥©à¥Ń":10394,"inese":10395,"ĠTech":10396,"ĠTeacher":10397,"ribe":10398,"à¤įà¤ķ":10399,"ences":10400,"à¤¬à¤°à¤®à¤¤":10401,"Stock":10402,"à¤ķà¤ħà¤¦":10403,"Ġà¤¤à¤¡à¤«à¤¦":10404,"ĠBharat":10405,"ussia":10406,"ĠCommissioner":10407,"Ġsuchna":10408,"mploy":10409,"ĠAfrica":10410,"Ġasked":10411,"ambhaji":10412,"parinam":10413,"Ġfayde":10414,"Ġdushparinam":10415,"82":10416,"DS":10417,"Monsoon":10418,"Rain":10419,"Sar":10420,"VA":10421,"cp":10422,"eh":10423,"eak":10424,"mumbai":10425,"nà¤®à¤§":10426,"Ġold":10427,"à¤¾à¤¿":10428,"à¤¤à¤³à¤²":10429,"à¤²à¤°à¤ķ":10430,"à¤Ĥ\\":10431,"à¤®à¤¡à¤²":10432,"Ġà¤Ĩà¤¸à¤²":10433,"Ġà¤¸à¤£à¤¸":10434,"Ġà¤ªà¤ļà¤£":10435,"à¤ľà¤¯à¤®":10436,"à¤¡à¤Ŀ":10437,"à¤¡à¤Ĺà¤°":10438,"à¤¡à¤¨à¤°":10439,"Ġà¤¹à¤°à¤¸":10440,"Ġà¤ľà¤ĸ":10441,"Ġà¤ľà¤«à¤°":10442,"Ġà¤ľà¤²à¤ļà¤°":10443,"Ġà¤°à¤£à¤¸":10444,"Ġà¤¶à¤¯":10445,"à¤¥à¤ľ":10446,"à¤µà¤°à¤«":10447,"Ġà¤īà¤¨à¤ķ":10448,"Ġà¤ĺà¤Ī":10449,"à¤°à¤¤à¤³":10450,"à¤ķà¤°à¤¬":10451,"Ġà¤®à¤¹à¤¨":10452,"à¤°à¤£à¤°":10453,"à¤°à¤£à¤¸":10454,"Ġà¤ĩà¤¤à¤µ":10455,"à¤ªà¤°à¤°":10456,"Ġà¤§à¤Ĺ":10457,"à¤Ĺà¤²à¤µ":10458,"à¤Ŀà¤µà¤°":10459,"à¤Ĺà¤¤à¤¯":10460,"à¤¬à¤°à¤Ĺ":10461,"à¤Ĩà¤¢":10462,"à¤Ĩà¤«":10463,"à¤Ĩà¤łà¤µà¤£":10464,"Ġà¤Ĩà¤®à¤°":10465,"Ġà¤ħà¤°à¤¬à¤¸":10466,"à¤Łà¤ķà¤±":10467,"Ġ\"(":10468,"Ġà¤īà¤¦à¤¯à¤¸":10469,"Ġà¤ĵà¤¤à¤ª":10470,"inance":10471,"à¤ŀà¤¸":10472,"à¤°à¤ľà¤ķ":10473,"à¤°à¤ľà¤ķà¤°":10474,"à¤°à¤¨à¤¨":10475,"à¤µà¤¯à¤¸":10476,"ĠMI":10477,"ĠSocial":10478,"ĠSIP":10479,"à¤īà¤ªà¤¯":10480,"enior":10481,"Ġà¤¬à¤¹à¤²":10482,"à¤²à¤Ĺà¤ĩà¤¨":10483,"icial":10484,"ĠIAS":10485,"Ġà¥§à¥¯à¥§":10486,"Ġà¥§à¥¯à¥§à¥¨":10487,"ĠCC":10488,"à¤§à¤°à¤°":10489,"à¤µà¤°à¤£à¤®":10490,"eds":10491,"Ġà¤ıà¤¸à¤ıà¤®":10492,"Ġset":10493,"Ġschool":10494,"Ġà¤ĩà¤¨à¤¡":10495,"Ġcent":10496,"Ġcre":10497,"ĠBel":10498,"à¤¨à¤Ĺà¤°à¤µ":10499,"à¤ĩà¤¨à¤®":10500,"ĠDist":10501,"uses":10502,"Ġpay":10503,"Ġà¤¹à¤°à¤ıà¤ķ":10504,"Ġback":10505,"à¤ľà¤¸à¤ªà¤£":10506,"Ġà¤ıà¤¨à¤ıà¤ļ":10507,"Ġà¤ıà¤¨à¤Īà¤ıà¤«à¤Ł":10508,"Ġdev":10509,"Ġlook":10510,"ĠFree":10511,"ĠFlipkart":10512,"chen":10513,"tery":10514,"Ġà¤¹à¤³à¤¹":10515,"Ġà¥§à¥Ńà¥¨":10516,"ĠKisan":10517,"Ġ113":10518,"à¤ıà¤«à¤¡":10519,"ĠMac":10520,"ĠGovt":10521,"ĠRep":10522,"Ġà¥¨à¥¨à¥ª":10523,"Ġà¥¨à¥¨à¥Ń":10524,"Ġgroup":10525,"ĠUPSC":10526,"ĠUPI":10527,"à¤°à¤«à¤²":10528,"Ġà¤®à¤¦à¤°à¤¸":10529,"à¤¯à¤Łà¤¨à¤®":10530,"Ġà¤ķà¤¬à¤ľ":10531,"opra":10532,"alls":10533,"ills":10534,"Ġà¥©à¥¨à¥©":10535,"lymp":10536,"Ġà¤ļà¤®à¤ļà¤®":10537,"aste":10538,"Ġà¥§à¥¯à¥®à¥¨":10539,"à¤¤à¤Ńà¤Ł":10540,"Ġà¥§à¥¯à¥ªà¥ª":10541,"vernor":10542,"uka":10543,"ansion":10544,"Ġà¤§à¤¡à¤ªà¤¡à¤£":10545,"nà¤ħà¤ľ":10546,"adeep":10547,"ĠExp":10548,"Ġà¤ļà¤ªà¤ĸà¤²":10549,"Ġ1968":10550,"arnataka":10551,"ĠImage":10552,"Ġà¤¤à¤¡à¤«à¤¡à¤¤":10553,"Ġminister":10554,"ENT":10555,"ĠPandya":10556,"Ġincre":10557,"aunch":10558,"ĠHyundai":10559,"Ġà¤§à¤¨à¤ķà¤µà¤¡":10560,"andidates":10561,"Ġ[âĨĴ":10562,"rishna":10563,"Ġà¤§à¤Ĺà¤§à¤Ĺà¤¤":10564,"Ġbrowser":10565,":-":10566,"And":10567,"Fi":10568,"OU":10569,"Previous":10570,"Sam":10571,"Thane":10572,"back":10573,"cy":10574,"fi":10575,"gov":10576,"hys":10577,"ja":10578,"kan":10579,"kad":10580,"nà¤¬à¤¹":10581,"oid":10582,"sy":10583,"ten":10584,"tion":10585,"ved":10586,"ze":10587,"Ùħ":10588,"ĺħ":10589,"Ġà¤½":10590,"à¤¤à¤ķà¤°à¤£":10591,"à¤¯à¤ľà¤®":10592,"à¤¨à¤¥":10593,"à¤¸à¤ªà¤¦":10594,"à¤£à¤®à¤¤à¤µ":10595,"Ġà¤ķà¤ľ":10596,"Ġà¤ķà¤Łà¤²":10597,"Ġà¤Ĩà¤Ĺà¤²":10598,"Ġà¤Ĩà¤³à¤µ":10599,"Ġà¤¤à¤¨à¤µ":10600,"à¤¦à¤³à¤µ":10601,"Ġà¤µà¤ļà¤ª":10602,"à¤ľà¤ªà¤°":10603,"à¤§à¤ķà¤°":10604,"Ġà¤¦à¤Ł":10605,"à¥ĩ..\\":10606,"Ġà¤ľà¤¸à¤²":10607,"Ġà¤°à¤ĸà¤®":10608,"à¤łà¤ķà¤°":10609,"à¤ĸà¤¶":10610,"Ġà¤ļà¤°à¤¸":10611,"Ġà¤Ńà¤Łà¤ķà¤°":10612,"Ġà¤Ŀà¤¹":10613,"à¤°à¤ķà¤ª":10614,"à¤¤à¤°à¤¬":10615,"Ġà¤«à¤¸à¤¤":10616,"Ġà¤ĩà¤¨à¤¹":10617,"à¤ĺà¤¶":10618,"Ġ(?)":10619,"à¤¼,":10620,"à¤Ĺà¤²à¤ĸ":10621,"à¤Ĺà¤²à¤®à¤§":10622,"à¤Ŀà¤ķ":10623,"à¤ıà¤ķà¤µ":10624,"Ġà¥¨00":10625,"à¤¶à¤¨à¤ªà¤°":10626,"à¤Łà¤¨à¤°à¤¶":10627,"à¤ĩà¤²à¤¨":10628,"à¤Ĥ.'":10629,"Ġà¤®à¤¨à¤ľ":10630,"aram":10631,"Ġà¥¨à¥¦à¥©":10632,"Ġ208":10633,"ĠMat":10634,"ĠMor":10635,"Ġà¤°à¤¸à¤Ĺ":10636,"ĠSC":10637,"ĠSession":10638,"à¤§à¤µà¤ľ":10639,"alt":10640,"Ġà¤ħà¤ľà¤¯à¤ļ":10641,"à¤Ĺà¤¦à¤Ĺ":10642,"ĠPass":10643,"Ġà¤ľà¤Ĺà¤Ńà¤°à¤ļ":10644,"à¤¯à¤°à¤µà¤°":10645,"ĠCN":10646,"lear":10647,"aditya":10648,"Ġà¤Īà¤¤à¤°":10649,"ĠGang":10650,"amil":10651,"oles":10652,"à¤Ĩà¤¯à¤ıà¤²":10653,"Ġcrime":10654,"à¤®à¤¦à¤ļ":10655,"Ġfound":10656,"Ġnashik":10657,"à¤Ĺà¤¸à¤°à¤ķà¤°":10658,"Ġà¥§à¥«à¥¯":10659,"ĠLink":10660,"ĠLoss":10661,"Ġà¤ĩà¤¥à¤ª":10662,"à¤Ĩà¤°à¤ıà¤²":10663,"usp":10664,"used":10665,"Ġpan":10666,"Ġbul":10667,"Ġà¥§à¥®à¥©":10668,"Ġà¤ľà¤¯à¤Ĺà¤¡":10669,"Ġdate":10670,"ĠForm":10671,"Ġ153":10672,"ĠHous":10673,"à¤Ĳà¤¤":10674,"ĠWh":10675,"à¤ıà¤«à¤ıà¤¸":10676,"Ġhand":10677,"Ġval":10678,"Ġvari":10679,"à¤ªà¤³à¤¨":10680,"Ġà¥¨à¥Ńà¥«":10681,"Ġà¤¦à¤¬à¤ķ":10682,"aps":10683,"ended":10684,"Ġà¤ĵà¤¢à¤¯":10685,"Ġà¥¨à¥¯à¥¦":10686,"Ġà¥§à¥¯à¥¬à¥ª":10687,"Ġà¤ĵà¤ªà¤¨à¤®à¤§":10688,"à¥Ģ.\"\\":10689,"Ġà¥§à¥¯à¥«à¥®":10690,"Ġuse":10691,"PMC":10692,"Ġshow":10693,"bsp":10694,"ĠAMOLED":10695,"Ġhouse":10696,"Tek":10697,"ference":10698,"Ġmany":10699,"duction":10700,"Ġqil":10701,"Ġà¤ĸà¤Łà¤ķà¤¤":10702,"Ġpassword":10703,"ĠSangli":10704,"php":10705,"Ġissue":10706,"Ã¨à¤¯":10707,"\";":10708,"'d":10709,"AE":10710,"Hard":10711,"Met":10712,"Son":10713,"Save":10714,"Twitter":10715,"UB":10716,"Ur":10717,"YC":10718,"dhan":10719,"ivers":10720,"jay":10721,"ls":10722,"nà¤Ĩà¤§":10723,"nbsp":10724,"rin":10725,"title":10726,"zuki":10727,"ÄŁ":10728,"Ġver":10729,"Ġya":10730,"à¤¤à¤³à¤£":10731,"à¤¤à¤¥à¤°":10732,"à¤ļà¤ķà¤¡":10733,"Ġà¤ķà¤¥à¤ķ":10734,"à¤®à¤²à¤¨":10735,"à¤ªà¤¸à¤¨":10736,"à¤Ĺà¤¬à¤¹":10737,"à¤ľà¤°à¤¸":10738,"Ġà¤¯à¤µà¤¨":10739,"Ġà¤²à¤ľà¤ªà¤¤à¤°":10740,"Ġà¤Ńà¤µà¤°":10741,"Ġà¤ĺà¤£à¤¸":10742,"à¤°à¤ķà¤¹":10743,"à¤Īà¤®à¤ª":10744,"à¤°à¤¤à¤ķ":10745,"à¤ķà¤°à¤¶à¤¹":10746,"à¤¯à¤ķà¤²à¤²":10747,"à¥ħà¥ħ":10748,"Ġà¤īà¤ªà¤¸à¤°":10749,"à¤Ŀà¤ªà¤¦à¤ķ":10750,"à¤ıà¤®à¤²":10751,"à¤¡à¤²à¤°":10752,"à¤¶à¤¨à¤¬":10753,"à¤µà¤³à¤ª":10754,"à¤ķà¤²à¤ª":10755,"Ġà¤¸à¤°à¤ķà¤°":10756,"Ġà¤¥à¤¤":10757,"Ġà¤Ĩà¤µà¤Ł":10758,"Ġà¤ĺà¤°à¤ĸà¤°":10759,"Ġà¤ªà¤¦à¤ļ":10760,"arashtra":10761,"atra":10762,"ators":10763,"à¤·à¤ķà¤ļ":10764,"Ġà¤ħà¤®à¤ľà¤¦":10765,"Ġà¤¶à¤¹à¤°à¤Ńà¤°":10766,"à¤¹à¤¨à¤ª":10767,"à¤®à¤ķà¤¦":10768,"à¤§à¤¨à¤¹":10769,"ĠME":10770,"ĠMoney":10771,"ĠSon":10772,"ĠSup":10773,"ĠShet":10774,"à¤°à¤¹à¤ľ":10775,"à¤¡à¤ķà¤ªà¤®à¤§":10776,"à¤īà¤ªà¤®":10777,"à¤¸à¤®à¤Ł":10778,"Ġthi":10779,"Ġtax":10780,"ĠPur":10781,"ĠPhotos":10782,"Ġà¤Ĳà¤µà¤¢":10783,"ĠAUS":10784,"ĠAustralia":10785,"ĠAuthor":10786,"à¤¨à¤ķà¤ļ":10787,"Ġà¥Ńà¥¨à¥¦":10788,"ĠTik":10789,"ĠIP":10790,"Ġà¥§à¥¯à¥¦à¥¦":10791,"Ġà¥§à¥¯à¥¨à¥®":10792,"Ġà¥§à¥¯à¥¨à¥¯":10793,"ĠGe":10794,"ĠGad":10795,"ĠGanesh":10796,"à¤¨à¤Ĺà¤°à¤²":10797,"Ġsa":10798,"Ġsim":10799,"ols":10800,"Ġcases":10801,"ĠBachchan":10802,"ĠRa":10803,"à¤ĩà¤¨à¤¨":10804,"Ġfund":10805,"Ġà¤ħà¤Łà¤ķà¤¹":10806,"ĠLoan":10807,"ilver":10808,"Ġà¤ıà¤ªà¤µà¤°":10809,"Ġmod":10810,"Ġmind":10811,"Ġà¤¤à¤¬à¤ķà¤¡":10812,"Ġlo":10813,"à¤¸à¤¬à¤§":10814,"Ġà¥§à¥ªà¥¬":10815,"Ġ127":10816,"Ġà¤«à¤³à¤Ń":10817,"ĠHDFC":10818,"ĠKh":10819,"ript":10820,"à¤ıà¤¨à¤ıà¤ķ":10821,"ainst":10822,"osed":10823,"agi":10824,"agiri":10825,"ĠWest":10826,"ĠWill":10827,"à¤ıà¤«à¤ı":10828,"ĠOut":10829,"ĠOther":10830,"Ġà¥¨à¥§à¥¬":10831,"vere":10832,"api":10833,"Ġà¤ıà¤«à¤ıà¤¸":10834,"ĠAlert":10835,"Ġ1986":10836,"Ġà¥§à¥¯à¥«à¥«":10837,"acebook":10838,"oldid":10839,"Ġà¥§à¥¯à¥©à¥®":10840,"ĠExpress":10841,"Ġ1966":10842,"Ġresult":10843,"Ġrain":10844,"lectron":10845,"ĠAdv":10846,"lick":10847,"Ġà¤ļà¤Łà¤Īà¤ķ":10848,"ĠMediaTek":10849,"Ġinterest":10850,"Ġfilters":10851,"Ġà¤ıà¤¨à¤ıà¤¸à¤¯":10852,"nNext":10853,"ĠNote":10854,"Supriya":10855,"Engl":10856,"Ġà¤¬à¤Łà¤²à¤°à¤¨":10857,"ĠTechnology":10858,"munity":10859,"à¤Īà¤ķà¤¨à¤µà¤°":10860,"orrect":10861,"Ġà¤§à¤°à¤ªà¤ķà¤¡":10862,")'":10863,"89":10864,"AY":10865,"High":10866,"OD":10867,"South":10868,"TP":10869,"Tw":10870,"Uttar":10871,"ghan":10872,"nà¤Ľ":10873,"test":10874,"Ã¡":10875,"Ã§":10876,"à³":10877,"à¤²à¤°à¤¤":10878,"à¤µà¤¯à¤ļ":10879,"à¤ļà¤¸à¤¹":10880,"à¤¸à¤ľà¤µà¤³":10881,"à¤£à¤Ńà¤ķ":10882,"à¥ģ\"":10883,"Ġà¤¸à¤³à¤¸":10884,"Ġà¤®à¤¸à¤²":10885,"à¤ªà¤µà¤¨":10886,"à¤ªà¤¥à¤ķ":10887,"à¤¦à¤¯à¤ķ":10888,"à¤¦à¤®à¤ļ":10889,"Ġà¤ħà¤ĸà¤°":10890,"à¤Ĺà¤ªà¤Ł":10891,"à¤Łà¤Ŀ":10892,"à¤Łà¤¸à¤®":10893,"à¤Łà¤®à¤¸":10894,"à¤ľà¤°à¤ª":10895,"à¤ľà¤¬à¤¦":10896,"à¤ľà¤§à¤°":10897,"à¤·à¤²à¤Ĺ":10898,"Ġà¤¬à¤Ĺà¤¦":10899,"Ġà¤ķà¤°à¤ļ":10900,"à¤ĸà¤¨à¤ļ":10901,"à¤µà¤°à¤³":10902,"Ġà¤īà¤Ŀà¤¬":10903,"à¥ĩà¤Ĥà¤ĥ-":10904,"Ġà¤ıà¤ķà¤Łà¤ķ":10905,"à¤¢à¤¸":10906,"à¤¢à¤°à¤ķ":10907,"Ġà¤ªà¤°à¤®à¤µ":10908,"Ġà¤ĩà¤Ń":10909,"Ġà¤īà¤ªà¤Ĩà¤¯":10910,"à¤°à¤¸à¤²":10911,"à¤¸à¤°à¤¹":10912,"à¤ħà¤¸à¤ļ":10913,"à¤ıà¤ķà¤®":10914,"à¤Ĺà¤°à¤¬":10915,"Ġ-\"":10916,"à¤Ĩà¤Ĺà¤°":10917,"à¤Ĺà¤£à¤¸":10918,"Ġà¤ĺà¤°à¤ĺà¤°":10919,"à¤°à¤ĸà¤¡":10920,"Ġà¥¨à¥¦à¥«":10921,"Ġà¤ľà¤¨à¤ķà¤²":10922,"ergy":10923,"ĠMo":10924,"ĠMad":10925,"ĠMag":10926,"ĠSouth":10927,"ĠSugar":10928,"alkar":10929,"alks":10930,"à¤īà¤ªà¤ķ":10931,"à¤īà¤ľà¤µ":10932,"Ġà¤īà¤ªà¤¸à¤£":10933,"Ġà¤Ĩà¤łà¤¹":10934,"Ġà¤Ķà¤²":10935,"à¤ķà¤£à¤ķà¤µà¤²":10936,"à¤Ĺà¤¡à¤¯":10937,"à¤¯à¤°à¤«":10938,"Ġà¥Ńà¥©à¥Ń":10939,"ĠTake":10940,"ĠICC":10941,"ĠCoun":10942,"ĠCabinet":10943,"lege":10944,"anda":10945,"Ġà¤Īà¤ľ":10946,"Ġà¤ħà¤¦à¤ĸà¤²à¤ª":10947,"Ġsuccess":10948,"uru":10949,"Ġcourt":10950,"ĠBA":10951,"ĠBro":10952,"Ġà¤¨à¤Ĺà¤°à¤²":10953,"Ġnear":10954,"à¤¡à¤°à¤Ł":10955,"Ġà¤®à¤ľà¤µà¤°":10956,"ĠLockdown":10957,"hab":10958,"à¤Ĩà¤°à¤ıà¤®":10959,"Ġpune":10960,"hari":10961,"Ġbusiness":10962,"Ġà¥§à¥®à¥ª":10963,"Ġà¥§à¥®à¥¬":10964,"Ġmicro":10965,"Ġdon":10966,"Ġduring":10967,"à¤¾)\\":10968,"Ġà¥§à¥¬à¥Ń":10969,"ument":10970,"à¤Ĳà¤¸":10971,"Ġà¥§à¥©à¥¦à¥¦":10972,"ĠKi":10973,"ĠKon":10974,"ĠKhad":10975,"ĠKKR":10976,"Ġà¤¬à¤²à¤µà¤¤":10977,"rip":10978,"ager":10979,"ĠJalgaon":10980,"ailed":10981,"Ġà¤Ĺà¤³à¤¯":10982,"Ġà¥¨à¥§à¥®":10983,"avindra":10984,"stant":10985,"indows":10986,"Ġà¤¬à¤¡à¤¬":10987,"Ġà¤µà¤°à¤ļà¤·":10988,"Ġstand":10989,"illa":10990,"ĠYezid":10991,"à¤ķà¤ķà¤¥":10992,"ankaja":10993,"Ġwithout":10994,"Ġ375":10995,"exual":10996,"Ġprof":10997,"Ġprov":10998,"Ġused":10999,"Ġà¥®à¥®à¥Ń":11000,"Ġ1972":11001,"ĠGeneral":11002,"Ġà¤¨à¤ķà¤³à¤¤à¤ªà¤£":11003,"Ġà¤ļà¤Łà¤ķà¤¦":11004,"Ġ95118":11005,"ĠWhatsapp":11006,"Ġà¤Ķà¤·à¤§à¤¨":11007,"Ġfilm":11008,"à¤¸à¤įà¤ªà¤µà¤°":11009,"yees":11010,"Ġà¤īà¤¸à¤¨à¤µ":11011,"ĠNavarashtra":11012,"à¤Łà¤ħà¤ªà¤ļ":11013,"Chandrakant":11014,"Ġà¤Ĩà¤°à¤ıà¤¸à¤ıà¤¸à¤ļ":11015,"Ġ27050":11016,"itizens":11017,"Ġà¤¤à¤³à¤®à¤³à¤¤":11018,"ĠHistory":11019,"ultibagger":11020,"412":11021,"Air":11022,"Col":11023,"Dhan":11024,"FI":11025,"LR":11026,"Med":11027,"Rec":11028,"WHO":11029,"eev":11030,"gmail":11031,"ii":11032,"nà¤®à¤Ĺ":11033,"xx":11034,"ļł":11035,"à¤¤à¤Ŀ":11036,"à¤²à¤¦à¤°":11037,"à¤²à¤¶à¤¨":11038,"à¤²à¤µà¤¯":11039,"à¤ķà¤¸à¤²":11040,"à¤ķà¤¥à¤¨":11041,"à¤¹à¤¸à¤ļ":11042,"à¤®à¤¯à¤ļ":11043,"à¤®à¤¡à¤Ĺ":11044,"à¤¦à¤°à¤ķà¤°":11045,"à¤Łà¤µà¤¤":11046,"à¤ľà¤®à¤µ":11047,"à¤¡à¤°à¤¶":11048,"Ġà¤¨à¤°à¤ĸ":11049,"Ġà¤¨à¤°à¤Ńà¤ķ":11050,"Ġà¤°à¤ĸà¤µ":11051,"Ġà¤¬à¤°à¤µ":11052,"Ġà¤¬à¤¦à¤°":11053,"Ġà¤Ĺà¤ľà¤²":11054,"Ġà¤²à¤ĸà¤®":11055,"à¤ĸà¤ľ":11056,"à¤ĸà¤¡à¤ķ":11057,"Ġà¤īà¤¬à¤°":11058,"Ġà¥ł":11059,"à¤Īà¤¸à¤¹":11060,"à¤Īà¤¨à¤²":11061,"Ġà¤«à¤¹":11062,"Ġà¤«à¤¡à¤¤":11063,"Ġà¤Łà¤³à¤¤":11064,"à¤°à¤£à¤¦":11065,"Ġà¤¸à¤°à¤«":11066,"Ġà¤¡à¤«":11067,"à¤°à¤¸à¤ķà¤°":11068,"à¤¸à¤°à¤¦":11069,"à¤Ĺà¤²à¤¤":11070,"à¤ıà¤²à¤²":11071,"Ġà¤¨à¤µà¤Ĺ":11072,"à¤Ĩà¤°à¤²":11073,"à¤ªà¤¨à¤¶":11074,"à¤¸à¤²à¤ķà¤°":11075,"à¤ĩà¤ķà¤²":11076,"Ġà¤Ĩà¤®à¤¸à¤Ń":11077,"à¤¸à¤¨à¤®":11078,"Ġà¤ĳà¤¨à¤¸":11079,"à¤¸à¤¹à¤µà¤°":11080,"Ġà¤®à¤¤à¤µ":11081,"à¤ħà¤°à¤¡":11082,"à¤ľà¤¯à¤µ":11083,"Ġà¥¤\"":11084,"à¤¨à¤µà¤Ĺ":11085,"ĠMuk":11086,"Ġà¤ķà¤¸à¤®":11087,"ĠSakal":11088,"..'":11089,"Ġà¤ħà¤ľà¤¸":11090,"orat":11091,"Ġà¤ľà¤®à¤¦":11092,"ĠPa":11093,"ĠPant":11094,"ites":11095,"Ġà¤ľà¤Ĺà¤¨à¤®":11096,"ĠNa":11097,"ĠNaik":11098,"icy":11099,"hid":11100,"ises":11101,"à¤ıà¤¸à¤ĵ":11102,"à¤ıà¤¸à¤ıà¤«":11103,"ĠTianhui":11104,"Ġà¥§à¥¯à¥§à¥ª":11105,"Ġà¤Ĩà¤Ĺà¤®":11106,"ĠChar":11107,"à¤ľà¤²à¤¦":11108,"à¤¶à¤¯à¤ªà¤£":11109,"à¤łà¤ķà¤¹":11110,"à¤Ĥ,'":11111,"à¤®à¤£à¤¶":11112,"Ġfr":11113,"Ġfin":11114,"ĠDC":11115,"Ġà¤¨à¤°à¤¬à¤³":11116,"Ġà¤®à¤ľà¤ķà¤¡":11117,"à¤ıà¤®à¤µà¤°":11118,"eta":11119,"Ġà¥¥'":11120,"Ġà¤ħà¤¡à¤µà¤¤":11121,"ĠMaruti":11122,"Ġà¤¹à¤¸à¤µà¤£":11123,"Ġwant":11124,"Ġwomen":11125,"Ġ107":11126,"roc":11127,"à¤¤à¤¦à¤¯":11128,"ĠEconom":11129,"Ġmumbai":11130,"Ġmost":11131,"Ġmovie":11132,"estion":11133,"Ġdri":11134,"à¤Łà¤®à¤µà¤°":11135,"akt":11136,"Ġlove":11137,"Ġ122":11138,"Ġà¥§à¥Ńà¥Ń":11139,"ĠHTT":11140,"à¤Ĳà¤¶":11141,"à¤°à¤®à¤£à¤Ń":11142,"à¥Ģ?'":11143,"à¤ıà¤¨à¤Ĩà¤°à¤ıà¤ļ":11144,"Ġà¤¤à¤³à¤ª":11145,"Ġ111":11146,"aiya":11147,"Ġ134":11148,"Ġgive":11149,"Ġà¤įà¤¶":11150,"Ġequ":11151,"ateg":11152,"thers":11153,"Ġkhan":11154,"à¤¯à¤Ńà¤Ł":11155,"à¤«à¤²à¤Łà¤£":11156,"Ġbeing":11157,"Ġà¤Ńà¤µà¤¨à¤®à¤§":11158,"Ġà¤°à¤ĸà¤°à¤ĸ":11159,"nà¤ľà¤³à¤Ĺ":11160,"Ġà¤ĵà¤ªà¤¨à¤ļ":11161,"lix":11162,"Ġà¤¢à¤µà¤³à¤¤":11163,"ĠÂ·":11164,"Ġheart":11165,"à¤¾.\"\\":11166,"à¤ĭà¤£":11167,"Ġsuicide":11168,"!!!":11169,"irect":11170,"Chhatrapati":11171,"Ġ1975":11172,"Ġ1978":11173,"ĠQR":11174,"Ġà¤ķà¤¡à¤µà¤Ł":11175,"appy":11176,"Ġcrore":11177,"nSub":11178,"Ġteam":11179,"ĠUnl":11180,"urrency":11181,"COVID":11182,"ĠSuzuki":11183,"ĠSatara":11184,"ĠUses":11185,"Ġvaccine":11186,"ĠCompany":11187,"Ġeducation":11188,"CoV":11189,"mployees":11190,"âĸº":11191,"ragon":11192,"Accident":11193,"ĠKulkarni":11194,"à¤¢à¤°à¤ķà¤µà¤¡":11195,"ļłï¸ı":11196,")#":11197,"91":11198,"Bi":11199,"CA":11200,"CL":11201,"EST":11202,"Farmer":11203,"Gl":11204,"KL":11205,"Lok":11206,"Lockdown":11207,"NT":11208,"Re":11209,"She":11210,"ched":11211,"flix":11212,"mal":11213,"nà¤°à¤µ":11214,"nà¤¸à¤¹":11215,"pass":11216,"uit":11217,"wan":11218,"wadi":11219,"Ã¢":11220,"à¤°à¤¡à¤£":11221,"à¤¯à¤¶à¤ķ":11222,"à¤¯à¤°à¤®à¤¨":11223,"à¤¿à¥Ĵ":11224,"à¤¨à¤Ńà¤°":11225,"à¤ļà¤°à¤¸":11226,"à¤¸à¤¦à¤¤":11227,"à¤¸à¤µà¤°à¤ļ":11228,"à¥ĭ\",":11229,"à¤®à¤²à¤ļ":11230,"Ġà¤¤à¤³à¤µà¤²à¤ķà¤°":11231,"à¤Ĺà¤¨à¤¨":11232,"à¤Łà¤ĺà¤°":11233,"Ġà¤¹à¤¨à¤¨":11234,"à¤§à¤µà¤²":11235,"Ġà¤¨à¤®à¤ķ":11236,"à¤¶à¤²à¤¨":11237,"à¤¶à¤ªà¤ļ":11238,"Ġà¤¦à¤¸à¤±":11239,"Ġà¤¦à¤ļà¤ķà¤²":11240,"Ġà¤¶à¤¦":11241,"Ġà¤Ĺà¤¹à¤²":11242,"à¤ĸà¤¬":11243,"Ġà¤Ńà¤°à¤ļ":11244,"Ġà¤®à¤¹à¤®à¤¦":11245,"Ġà¤¤à¤°à¤¹":11246,"à¤«à¤°à¤ĸ":11247,"Ġà¤¸à¤®à¤Ī":11248,"Ġà¤īà¤ªà¤µà¤¨":11249,"à¤¯à¤®à¤®":11250,"à¤ħà¤ľà¤¯":11251,"à¤ľà¤¨à¤°à¤²":11252,"à¤¯à¤¤à¤®à¤§":11253,"à¤Ĺà¤°à¤¹":11254,"à¤°à¤ªà¤³à¤²":11255,"à¤¸à¤¨à¤µ":11256,"à¤µà¤¨à¤ªà¤¦":11257,"Ġà¤ĵà¤¦":11258,"à¤¬à¤Īà¤¬":11259,"Ġà¥¨à¥¦à¥¯":11260,"Ġà¤ħà¤®à¤°à¤¤":11261,"Ġà¤Ĩà¤¦à¤³à¤¤":11262,"ĠMT":11263,"ĠMi":11264,"à¤¡à¤ķà¤ªà¤ļ":11265,"Ġà¤¬à¤¹à¤°à¤¤":11266,"à¤ªà¤ķà¤¨":11267,"ĠAut":11268,"ashan":11269,"ĠTop":11270,"ĠCET":11271,"ĠGram":11272,"à¤®à¤£à¤µ":11273,"Ġson":11274,"Ġcard":11275,"ĠLand":11276,"à¥Ģà¤Ĥ.'":11277,"hagan":11278,"Ġpour":11279,"Ġob":11280,"vey":11281,"à¤¹à¤³à¤¯":11282,"Ġà¤ıà¤¨à¤¬":11283,"à¤ıà¤²à¤ª":11284,"Ġà¤īà¤¤à¤°à¤µà¤¤":11285,"Ġlanguage":11286,"Ġà¤Ńà¤°à¤¤à¤ĸ":11287,"ĠFrequ":11288,"elled":11289,"Ġ121":11290,"Ġà¥§à¥Ńà¥§":11291,"oshy":11292,"Ġà¤«à¤°à¤«à¤Ł":11293,"Ġà¥¨à¥ªà¥«":11294,"Ġà¤Ĩà¤¸à¤ĸ":11295,"ĠVis":11296,"ĠInsurance":11297,"ĠUN":11298,"aved":11299,"ĠStore":11300,"ĠIndust":11301,"Ġâļłï¸ı":11302,"Ġreport":11303,"ishad":11304,"ĠYour":11305,"ultural":11306,"Ġjan":11307,"à¥¯à¥¯à¥¦":11308,"à¤¾...\"":11309,"erman":11310,"Ġà¥ªà¥¬à¥ªà¥ª":11311,"berries":11312,"ells":11313,"Ġà¤¦à¤¡à¤ªà¤²":11314,"Ġext":11315,"Ġà¤ªà¤ªà¤Īà¤ļ":11316,"auty":11317,"Ġà¤ĸà¤Łà¤ķà¤²":11318,"Ġà¥§à¥¯à¥¦à¥¨":11319,"Ġà¤īà¤®à¤Łà¤µà¤£":11320,"à¤Ĩà¤łà¤µà¤¡":11321,"Ġà¥§à¥®à¥¯à¥Ń":11322,"Ġimportant":11323,"Ġà¤Ŀà¤Łà¤ķà¤²":11324,"ertific":11325,"Ġà¤²à¤ĸà¤¨à¤Ĭà¤®à¤§":11326,"hird":11327,"ĠLokmat":11328,"atural":11329,"****":11330,"ĠSupp":11331,"ympt":11332,"ĠPremi":11333,"ĠATM":11334,"à¤°à¤Ĺà¤³à¤²":11335,"ĠBSNL":11336,"ĠUPD":11337,"aughter":11338,"ifferent":11339,"Ġpatients":11340,"atnagiri":11341,"ĠKurulkar":11342,"ĠStatus":11343,"Ġhistory":11344,"Balasaheb":11345,"Ġown":11346,"oshyari":11347,"%),":11348,"86":11349,"AV":11350,"FIR":11351,"LIC":11352,"Nav":11353,"NUM":11354,"Omicron":11355,"Women":11356,"dev":11357,"ej":11358,"eer":11359,"iers":11360,"nà¤Ĺà¤°":11361,"nail":11362,"Ġ}":11363,"Ġur":11364,"à¥į)":11365,"à¤¯à¤ªà¤°à¤²":11366,"à¤¯à¤ĺà¤¡":11367,"à¤¿à¥Ģ":11368,"à¤¨à¤¦à¤°":11369,"à¤ļà¤¤à¤°":11370,"à¤ļà¤®à¤¤":11371,"à¤¸à¤ķà¤²":11372,"à¤¸à¤ıà¤ķ":11373,"à¤¹à¤µà¤²":11374,"Ġà¤®à¤Ŀ":11375,"Ġà¤®à¤ĸà¤°":11376,"à¤ªà¤¸à¤®":11377,"Ġà¤¤à¤²à¤®":11378,"à¤¦à¤Ĺà¤²":11379,"à¤¦à¤ľà¤¨à¤ķ":11380,"à¤Ĺà¤Ńà¤°":11381,"Ġà¤µà¤ª":11382,"Ġà¤µà¤¡à¤ķ":11383,"Ġà¤µà¤¨à¤¹":11384,"à¤ľà¤Ł":11385,"Ġà¤¨à¤°à¤¨":11386,"à¤¶à¤¤à¤µ":11387,"à¥ĩ.....":11388,"à¤¬à¤°à¤¸":11389,"Ġà¤°à¤£à¤ķ":11390,"Ġà¤¶à¤¤à¤ª":11391,"Ġà¤¶à¤®à¤µ":11392,"Ġà¤ħà¤¸à¤¨":11393,"à¤łà¤¹":11394,"à¤łà¤Ĺ":11395,"à¤łà¤ªà¤°":11396,"Ġà¤Ĺà¤²à¤¬à¤²":11397,"à¤µà¤°à¤Ńà¤ķ":11398,"à¤Ńà¤µà¤¸":11399,"à¤Ńà¤µà¤ļ":11400,"Ġà¤ļà¤ªà¤Ł":11401,"Ġà¤Ńà¤Łà¤¨":11402,"Ġà¤īà¤Łà¤£":11403,"Ġà¤ĺà¤¸à¤ĺ":11404,"Ġà¤Ŀà¤°à¤®":11405,"à¥ĩà¤Ĥà¥¤":11406,"à¤°à¤ķà¤µ":11407,"Ġà¤ĸà¤°à¤®à¤°":11408,"à¤Īà¤¸à¤ļ":11409,"Ġà¤«à¤³à¤µ":11410,"à¤¢à¤®":11411,"à¤ķà¤°à¤ĸ":11412,"à¤°à¤£à¤¨":11413,"Ġà¤łà¤¶":11414,"à¤ħà¤¨à¤¨":11415,"Ġà¤Ĩà¤¤à¤¤":11416,"à¤ľà¤¨à¤®":11417,"à¤ľà¤¨à¤Ĺà¤°":11418,"Ġà¤¨à¤µà¤Ń":11419,"Ġà¤Ĩà¤ľà¤ħà¤ĸ":11420,"à¤°à¤ªà¤³à¤¤":11421,"à¤Łà¤¨à¤°à¤ļ":11422,"Ġà¤¤à¤¸à¤¬":11423,"à¤ĩà¤¸à¤®à¤§":11424,"à¤ĩà¤ļà¤²à¤ķà¤°":11425,"Ġà¤Ĩà¤¯à¤ıà¤¨à¤ıà¤¸":11426,"Ġà¤ªà¤¦à¤¨":11427,"arg":11428,"ined":11429,"ince":11430,"anath":11431,"atic":11432,"à¤³à¤¤à¤ļ":11433,"à¤¦à¤¨à¤¸":11434,"Ġà¤®à¤²à¤µ":11435,"Ġà¥©à¥©à¥¦":11436,"à¤·à¤¯à¤µ":11437,"ĠSch":11438,"ĠSem":11439,"à¥¬à¥¦à¥¦":11440,"à¤īà¤°à¤£":11441,"à¤īà¤¸à¤®à¤§":11442,"à¤¬à¤²à¤¸":11443,"Ġà¤¬à¤¹à¤®à¤¨":11444,"ĠPan":11445,"ĠPart":11446,"ĠPrab":11447,"iting":11448,"Ġà¤Ķà¤°à¤ļ":11449,"à¤ªà¤ķà¤ªà¤£":11450,"à¤ķà¤£à¤¸":11451,"ĠAurangabad":11452,"asan":11453,"ĠTomato":11454,"Ġà¥§à¥¯à¥§à¥§":11455,"à¤¯à¤ªà¤§":11456,"ĠCode":11457,"à¤ķà¤Łà¤¦":11458,"Ġà¤Ńà¤°à¤°à¤¸":11459,"Ġà¤ħà¤¦à¤®":11460,"olar":11461,"Ġchat":11462,"ĠBhuj":11463,"ĠROG":11464,"ĠDaily":11465,"rain":11466,"à¥Ģà¤Ĥ.\"":11467,"unny":11468,"hai":11469,"à¤Īà¤Łà¤¸":11470,"Ġwife":11471,"à¤ĩà¤Łà¤¸":11472,"Ġà¥§à¥®à¥§":11473,"Ġà¤¦à¤²à¤ĺà¤®":11474,"elin":11475,"Ġ155":11476,"Ġà¥§à¥Ńà¥©":11477,"à¤ĸà¤¨à¤¶":11478,"ĠKashmir":11479,"pper":11480,"à¤ıà¤¨à¤Ĩà¤¯à¤ı":11481,"aib":11482,"à¤£à¤ķà¤¥":11483,"ĠOlymp":11484,"Ġà¥¨à¥§à¥¨":11485,"Ġ145":11486,"Ġ132":11487,"à¥§à¥¯à¥ªà¥Ń":11488,"à¤ıà¤ļà¤ĵà¤ļ":11489,"igan":11490,"Ġ164":11491,"hang":11492,"à¤Ĭà¤²à¤ĸ":11493,"Ġà¤Ńà¤¯à¤ªà¤Ł":11494,"Ġ225":11495,"Ġà¥©à¥«à¥¦à¥¦":11496,"Ġà¤¬à¤¡à¤¯":11497,"Ġ210":11498,"Ġ216":11499,"ogen":11500,"Ġà¥¨à¥¯à¥«":11501,"ĠâĨĴ":11502,"Ġà¤ªà¤łà¤¡":11503,"Ġ260":11504,"ctions":11505,"Ġà¤ıà¤ħà¤°à¤«":11506,"Ġà¤¹à¤Łà¤ķà¤²":11507,"à¤¦à¤¹à¤¶à¤¤à¤µ":11508,"Ġà¤īà¤ķà¤³à¤µ":11509,"à¥ĩ...'":11510,"Ġà¤¨à¤³à¤¯":11511,"ĠAli":11512,"Ġ...\\":11513,"Ġ365":11514,"hede":11515,"Ġ1982":11516,"Ġ1983":11517,"ameer":11518,"comm":11519,"Ġ333":11520,"Ġà¤ªà¤ļà¤¨à¤¸":11521,"Ġplan":11522,"ervices":11523,"Ġlet":11524,"Ġà¥§à¥¯à¥©à¥§":11525,"clus":11526,"à¤³à¤ķà¤¤à¤ķà¤°":11527,"Ġ1970":11528,"Ġà¤«à¤¡à¤ķà¤¤":11529,"Ġà¤ĺà¤¸à¤°à¤Ĺ":11530,"Ġ1956":11531,"wada":11532,"ashion":11533,"ĠArticle":11534,"Ġbecome":11535,"Ġbecause":11536,"ĠAmbani":11537,"ĠHello":11538,"ĠHindu":11539,"Online":11540,"urbar":11541,"Ġà¤²à¤ĸà¤²à¤ĸ":11542,"ministration":11543,"iabetes":11544,"ertificate":11545,"('":11546,"DT":11547,"Don":11548,"MD":11549,"My":11550,"Pimpri":11551,"Rel":11552,"Ser":11553,"Sush":11554,"Search":11555,"Times":11556,"chem":11557,"dan":11558,"gress":11559,"ients":11560,"nà¤ķà¤²":11561,"nà¤²à¤ķ":11562,"ranti":11563,"side":11564,"à¥Ħ":11565,"à¤¾]":11566,"à¤¤à¤¦à¤°":11567,"à¤¤à¤ľà¤¨":11568,"à¤¯à¤²à¤ķ":11569,"à¤¨à¤ľà¤°":11570,"à¤¨à¤Ľà¤¤":11571,"à¤ķà¤¬à¤¦":11572,"à¤®à¤Łà¤²":11573,"Ġà¤Ĩà¤Łà¤¤":11574,"Ġà¤ªà¤µà¤³":11575,"à¤¦à¤Ī":11576,"à¤¦à¤¸à¤°":11577,"à¤Ĺà¤¡à¤¤":11578,"à¤Ĺà¤Ľà¤Ł":11579,"Ġà¤µà¤łà¤£":11580,"à¤Łà¤¦à¤°à¤®":11581,"à¤ľà¤²à¤ķ":11582,"à¤ľà¤¸à¤ļ":11583,"à¤ľà¤¤à¤ļ":11584,"Ġà¤¹à¤¯à¤Ĺ":11585,"Ġà¤¦à¤¨":11586,"Ġà¤¦à¤ļà¤ķ":11587,"Ġà¤°à¤¯":11588,"Ġà¤ħà¤¸à¤®à¤¤":11589,"Ġà¤Ĺà¤¤à¤ķ":11590,"Ġà¤ĺà¤°à¤µ":11591,"à¤¾..\\":11592,"à¤°à¤ķà¤¶à¤ķ":11593,"à¤Īà¤ķà¤¸":11594,"à¤Īà¤Łà¤®à¤§":11595,"Ġà¤«à¤°à¤¦":11596,"à¤°à¤¤à¤¨":11597,"à¥ĩ,\\":11598,"à¤°à¤£à¤ľ":11599,"à¤°à¤®à¤Ĺà¤¡":11600,"Ġ(-":11601,"à¤µà¤¤à¤ªà¤£":11602,"à¤ħà¤µà¤¤":11603,"à¤ĥ</":11604,"à¤°à¤²à¤²":11605,"Ġà¤Ĩà¤ľà¤Ĺ":11606,"à¤Łà¤°à¤°":11607,"à¤Łà¤°à¤¡":11608,"à¤Łà¤¨à¤°à¤²":11609,"à¤ĩà¤Ĺ":11610,"à¤ĩà¤²à¤²":11611,"Ġà¤Ĩà¤¯à¤ıà¤¸à¤Ĩà¤¯":11612,"Ġà¤Ĩà¤¯à¤Ĩà¤°à¤ıà¤¸":11613,"à¤¸à¤¤à¤ļ":11614,"à¥¨à¥«à¥¦":11615,"Ġà¤ħà¤Ńà¤¦":11616,"Ġà¤ªà¤¦à¤°à¤ļ":11617,"à¤¦à¤¨à¤¨à¤Ĺà¤°":11618,"à¤ľà¤°à¤®à¤§":11619,"Ġ..\"":11620,"ĠShi":11621,"ĠSystem":11622,"à¤°à¤¹à¤¦":11623,"à¤§à¤µà¤ļ":11624,"à¤¡à¤ķà¤·":11625,"Ġà¥ªà¥¯à¥¯":11626,"alc":11627,"ĠPublic":11628,"ĠPharma":11629,"Ġà¤Ĳà¤Ł":11630,"Ġà¤¶à¤°à¤¯":11631,"ĠAw":11632,"ĠAadhaar":11633,"Ġ??":11634,"à¤¯à¤°à¤¬":11635,"à¤ļà¤°à¤°":11636,"Ġ)\\":11637,"ĠIPS":11638,"Ġà¤īà¤²à¤¥à¤µ":11639,"à¤ķà¤Łà¤Ĺ":11640,"à¤µà¤ľà¤µà¤³":11641,"Ġà¤ĩà¤¨à¤«":11642,"ĠLad":11643,"Ġwhile":11644,"ila":11645,"Ġbr":11646,"Ġbank":11647,"à¤ķà¤®à¤¤à¤¶":11648,"Ġmum":11649,"Ġà¤Ĭà¤ł":11650,"Ġà¤§à¤¨à¤ª":11651,"Ġaway":11652,"à¤·à¤®à¤¯":11653,"uts":11654,"ĠKal":11655,"ĠKrus":11656,"otes":11657,"à¤ıà¤¨à¤ıà¤ļ":11658,"ĠWi":11659,"ĠWatch":11660,"aif":11661,"Ġà¥¨à¥§à¥©":11662,"Ġà¥¨à¥§à¥Ń":11663,"Ġhuman":11664,"Ġ506":11665,"ĠUr":11666,"Ġà¤ľà¤²à¤§":11667,"à¥ĩ!'":11668,"imate":11669,"str":11670,"Ġà¤°à¤£à¤°":11671,"Ġà¤ıà¤«à¤¬":11672,"Ġstory":11673,"Ġ280":11674,"Ġ288":11675,"Ġà¤Ĩà¤ĸà¤¡à¤¤":11676,"Ġjud":11677,"aca":11678,"Ġà¥ªà¥®à¥¦":11679,"earing":11680,"Ġcontraindications":11681,"ĠXI":11682,"Ġ376":11683,"ocking":11684,"ĠÂ«":11685,"ancial":11686,"Ġà¥§à¥¯à¥©à¥¨":11687,"Ġà¤§à¤µà¤¨à¤²":11688,"à¤īà¤ªà¤ķà¤°":11689,"ĠPlan":11690,"Ġ1971":11691,"ĠPradeep":11692,"outube":11693,"merica":11694,"hakti":11695,"Ġà¤ħà¤Ŀà¤°à¤¬":11696,"à¤µà¤Ĺà¤£à¤ļ":11697,"stitut":11698,"Ġà¤Ĩà¤Ĭà¤Łà¤«":11699,"Ġà¤Ĩà¤¯à¤ıà¤®à¤¡":11700,"ĠÃĹ":11701,"Union":11702,"ĠBhos":11703,"ishabh":11704,"fficial":11705,"ĠCapital":11706,"Chief":11707,"Ġupdate":11708,"Ġhelp":11709,"Narayan":11710,"adanvis":11711,"ĠLimited":11712,"ĠURL":11713,"nSubmitted":11714,".-":11715,"EF":11716,"Ker":11717,"Nana":11718,"OP":11719,"UR":11720,"Water":11721,"gg":11722,"nm":11723,"nLast":11724,"phone":11725,"ux":11726,"yber":11727,"zz":11728,"Ã¶":11729,"Ġà¥ĩ":11730,"Ġorder":11731,"à¤°à¤¯à¤¨":11732,"à¤¤à¤³à¤¤":11733,"à¤¤à¤¸à¤®":11734,"à¤¯à¤µà¤³à¤£":11735,"à¤²à¤¶à¤¹":11736,"à¤¨à¤®à¤°":11737,"à¤µà¤±":11738,"à¤¸à¤°à¤¸à¤¹":11739,"à¤¹à¤ķà¤¡":11740,"à¤¹à¤®à¤¨":11741,"à¤¹à¤ļà¤°":11742,"à¤£à¤ªà¤°":11743,"à¤£à¤®à¤¯":11744,"à¥ĭ(":11745,"Ġà¤ķà¤µà¤°":11746,"à¤®à¤Ĺà¤°":11747,"à¤ªà¤Łà¤¨":11748,"à¤¾à¤Ĥ-":11749,"Ġà¤ħà¤¦à¤°":11750,"à¤Ĺà¤ķà¤£":11751,"à¤Ĺà¤Ńà¤²":11752,"Ġà¤µà¤¦à¤¨":11753,"Ġà¤µà¤Łà¤¹":11754,"à¤¡à¤¸à¤¤":11755,"à¤¡à¤µà¤°à¤ļ":11756,"Ġà¤¨à¤³à¤ķ":11757,"à¤·à¤¨à¤Ĺà¤°":11758,"Ġà¤ķà¤°à¤µà¤¸":11759,"Ġà¤ħà¤¸à¤°":11760,"à¤¥à¤ļà¤ķ":11761,"Ġà¤ļà¤ļ":11762,"Ġà¤ļà¤µà¤°":11763,"à¥ĩà¤Ĥ)":11764,"Ġà¤ĸà¤ªà¤¤":11765,"à¤Īà¤¦à¤°à¤®":11766,"Ġà¤¤à¤°à¤²à¤¤":11767,"Ġà¤ĩà¤µà¤²":11768,"à¤ĺà¤«":11769,"à¥Ģà¤Ĥà¤Ĥ":11770,"Ġà¤¸à¤°à¤µà¤¦":11771,"Ġà¤§à¤°à¤®à¤ª":11772,"à¤µà¤²à¤¸":11773,"à¤¯à¤®à¤Ń":11774,"à¤¦à¤°à¤Ĺà¤¡":11775,"à¤ħà¤°à¤¶":11776,"à¤ħà¤µà¤ĺ":11777,"à¤ıà¤ķà¤ļ":11778,"à¤Ĺà¤°à¤¶":11779,"Ġ-'":11780,"à¤°à¤¶à¤°":11781,"à¤ķà¤²à¤µà¤°":11782,"à¤²à¤ķà¤µ":11783,"Ġà¤Ĩà¤¯à¤Ĩà¤¯":11784,"Ġà¤ĳà¤Īà¤²à¤ļ":11785,"Ġà¤®à¤¨à¤¦":11786,"à¤°à¤¦à¤¯à¤µ":11787,"arr":11788,"anies":11789,"oned":11790,"à¤¯à¤¨à¤¯":11791,"Ġà¤ħà¤®à¤°à¤§":11792,"à¤¹à¤¨à¤µ":11793,"à¥ªà¥¯à¥¯":11794,"ĠMatch":11795,"ĠSony":11796,"à¤µà¤ļà¤ľà¤£":11797,"à¤µà¤ķà¤ļ":11798,"à¤ªà¤¦à¤¹":11799,"Ġà¤īà¤®à¤ľ":11800,"Ġà¤īà¤®à¤²à¤¤":11801,"ĠAP":11802,"asy":11803,"à¤ıà¤¸à¤ľ":11804,"ĠIss":11805,"ĠCH":11806,"ĠCentral":11807,"Ġà¤ıà¤¸à¤Ĩà¤°à¤ª":11808,"Ġà¤ıà¤¸à¤ıà¤®à¤ı":11809,"Ġsam":11810,"Ġsamb":11811,"à¥ĩà¤Ĥ.\\":11812,"ura":11813,"à¤Ĩà¤¯à¤ľ":11814,"Ġfight":11815,"ĠDate":11816,"ĠDiesel":11817,"Ġà¤¢à¤³à¤²":11818,"Ġà¤µà¤¡à¤¸":11819,"ĠLanka":11820,"etter":11821,"usband":11822,"Ġbas":11823,"room":11824,"rovers":11825,"Ġà¤µà¤¨à¤ľà¤®":11826,"ĠELSS":11827,"ĠEchin":11828,"Ġactor":11829,"à¥Ĥ,'":11830,"Ġdest":11831,"Ġà¤¶à¤¹à¤ľ":11832,"hti":11833,"Ġà¥©à¥¦à¥©":11834,"Ġli":11835,"Ġà¥¨à¥«à¥«":11836,"2023":11837,"Ġà¥§à¥¬à¥¯":11838,"Ġà¥§à¥Ńà¥®":11839,"ĠKa":11840,"otal":11841,"à¤¨à¤¶à¤°":11842,"à¤¬à¤¡à¤¯":11843,"Ġà¤¸à¤ľà¤Ĺà¤¤":11844,"ĠVal":11845,"Ġ149":11846,"ortun":11847,"à¤ķà¤®à¤§à¤²":11848,"Ġà¤®à¤¦à¤¤à¤ļ":11849,"aba":11850,"abrao":11851,"rome":11852,"imal":11853,"---":11854,"Ġà¤ķà¤ļÂºà¤¯":11855,"Ġkm":11856,"Ġkeep":11857,"ovsk":11858,"ema":11859,"istic":11860,"ivil":11861,"à¤®à¤³à¤ªà¤£":11862,"Ġà¤Ĺà¤²à¤¬à¤¤":11863,"ityanath":11864,"Ġà¤µà¤ļà¤¨à¤¨":11865,"à¤µà¤¹à¤¨à¤®":11866,"Ġconf":11867,"ĠTVS":11868,"acy":11869,"eshwar":11870,"Ġà¥©à¥®à¥¦":11871,"ankhede":11872,"Ġthree":11873,"ahchu":11874,"Ġproblem":11875,"Ġheld":11876,"heri":11877,"kshay":11878,"Ġspecial":11879,"Ġà¥§à¥¯à¥¦à¥Ń":11880,"Ġalcohol":11881,"Ġà¤«à¤¡à¤¤à¤°":11882,"Ġà¥¨0à¥§à¥ª":11883,"Tech":11884,"Ġcritic":11885,"Ġoffice":11886,"ĠHighway":11887,"Ġà¤ıà¤ıà¤¨à¤Ĩà¤¯":11888,"niversary":11889,"ĠRelated":11890,"Ġà¤Ĺà¤«à¤²à¤¤":11891,"Policenama":11892,"error":11893,"Ġcalled":11894,"kraine":11895,"ĠCentre":11896,"WhatsApp":11897,"ĠUltra":11898,"Ġà¤ĺà¤¸à¤ĺà¤¶":11899,"ĠBhujbal":11900,"ĠEchinops":11901,"'(":11902,"-\\":11903,"250":11904,"94":11905,">.":11906,"Form":11907,"Gram":11908,"HD":11909,"Hy":11910,"NB":11911,"Russia":11912,"SR":11913,"Trans":11914,"friend":11915,"nO":11916,"nà¤ħà¤¹à¤®à¤¦à¤¨à¤Ĺà¤°":11917,"pande":11918,"vind":11919,"ĠÐ":11920,"à¥°":11921,"à¥Ģ]":11922,"à¤¤à¤¨à¤²":11923,"à¤¨à¤°à¤ĸ":11924,"à¤ķà¤ļà¤°":11925,"à¤ļà¤°à¤®":11926,"à¤ļà¤ħà¤ĸ":11927,"à¤¸à¤Ī":11928,"à¤£à¤¨à¤Ĺà¤°":11929,"à¤®à¤²à¤¬":11930,"à¤®à¤®à¤¯":11931,"Ġà¤¤à¤ļ":11932,"à¤¦à¤¬à¤°":11933,"à¤¦à¤¯à¤¤":11934,"à¤Ĺà¤¤à¤²":11935,"à¤Ĺà¤®à¤ļ":11936,"à¤Ĺà¤Łà¤¨":11937,"à¤Ĺà¤°à¤ļà¤¨":11938,"à¤Łà¤µà¤ķ":11939,"à¤¡à¤¸à¤ļ":11940,"Ġà¤¹à¤°à¤¹":11941,"Ġà¤¹à¤¡à¤ķ":11942,"à¤§à¤ĸ":11943,"à¤¶à¤£":11944,"à¤¶à¤°à¤®":11945,"à¤³à¤¢":11946,"à¤·à¤·":11947,"Ġà¤ľà¤³à¤²":11948,"Ġà¤ľà¤³à¤ķ":11949,"Ġà¤Ĺà¤Ī":11950,"à¤ĸà¤Ĺ":11951,"à¤Ńà¤¹à¤¸":11952,"Ġà¤ļà¤µà¤³":11953,"Ġà¤Ńà¤°à¤ľ":11954,"Ġà¤Ŀà¤®":11955,"à¤Īà¤ªà¤Ł":11956,"Ġà¤Ĩà¤²à¤Ł":11957,"Ġà¤ªà¤°à¤®à¤¹":11958,"à¥Īà¥Ī":11959,"Ġà¤łà¤Ĺ":11960,"Ġà¤¸à¤®à¤ª":11961,"Ġà¤īà¤ªà¤¤":11962,"Ġà¤īà¤ªà¤²":11963,"à¤ħà¤²à¤®":11964,"à¤ľà¤¨à¤¸à¤¹":11965,"à¤ıà¤¸à¤²":11966,"à¤ıà¤®à¤µ":11967,"à¤®à¤ļà¤ķ":11968,"à¤¯à¤¤à¤®":11969,"à¤Ĩà¤ľà¤ª":11970,"à¤ĩà¤Ŀà¤®":11971,"à¤ķà¤²à¤Ĺ":11972,"à¥§à¥¨à¥¦":11973,"à¥§à¥«à¥¦":11974,"à¤®à¤¨à¤Ĺ":11975,"Ġà¤ĵà¤°à¤ĸà¤¡":11976,"anl":11977,"à¤¦à¤¨à¤¬":11978,"Ġ.\"":11979,"ĠSy":11980,"ĠSho":11981,"à¤ļà¤²à¤ļ":11982,"ĠPort":11983,"à¤Łà¤ļà¤°":11984,"ĠAffair":11985,"heat":11986,"à¤®à¤¸à¤¡à¤ķ":11987,"à¤ªà¤Łà¤ª":11988,"ĠID":11989,"ĠCurrent":11990,"Ġà¤Ĺà¤£à¤ª":11991,"ander":11992,"Ġà¤Īà¤¦à¤Ĺ":11993,"omy":11994,"Ġsy":11995,"Ġcut":11996,"Ġceleb":11997,"ĠBombay":11998,"Ġfind":11999,"Ġni":12000,"ĠDef":12001,"rack":12002,"à¤ĺà¤°à¤Ĺ":12003,"Ġà¤ıà¤®à¤Ĩà¤°":12004,"ĠLaw":12005,"ĠLook":12006,"Ġà¤ªà¤Łà¤µà¤²":12007,"à¤°à¤¥à¤®à¤ª":12008,"reed":12009,"Ġpri":12010,"Ġpoint":12011,"Ġà¤ĺà¤¡à¤¯":12012,"Ġobs":12013,"à¤ıà¤²à¤Ĩà¤°":12014,"Ġage":12015,"Ġdied":12016,"Ġà¥©à¥¦à¥Ń":12017,"Ġlong":12018,"Ġà¤īà¤ĺà¤¡à¤¯":12019,"Ġà¤īà¤ĺà¤¡à¤Ŀ":12020,"Ġà¥§à¥¬à¥§":12021,"riy":12022,"ĠJa":12023,"à¤¸à¤³à¤¯":12024,"Ġà¤Ĺà¤¡à¤¬":12025,"antha":12026,"Ġà¤ıà¤²à¤ıà¤²à¤¬":12027,"ĠGood":12028,"ĠInj":12029,"Ġà¤Ĩà¤łà¤µà¤£à¤¹":12030,"Ġà¤įà¤²":12031,"Ġà¥¨à¥©à¥ª":12032,"imbal":12033,"Ġ240":12034,"Ġà¥¨à¥®à¥Ń":12035,"Ġà¥¨à¥¬à¥¦":12036,"Ġà¤īà¤ľà¤³à¤²":12037,"Ġà¥¨à¥Ńà¥¨":12038,"yaz":12039,"endulkar":12040,"Ġred":12041,"Ġcond":12042,"Ġà¥©à¥Ńà¥¯":12043,"uga":12044,"ithic":12045,"Ġà¥©à¥©à¥¨":12046,"à¥ĭ?\\":12047,"nect":12048,"ĠAlcohol":12049,"ĠChina":12050,"Ġà¤ªà¤¥à¤ķà¤°":12051,"ryan":12052,"Maha":12053,"Ġà¤¦à¤£à¤ķà¤Ł":12054,"nà¤ħà¤¤":12055,"Ġà¤ħà¤Łà¤²à¤ľ":12056,"à¤įà¤²":12057,"Ġà¤¬à¤°à¤¸à¤¤":12058,"Ġà¤ıà¤«à¤Ĩà¤¯à¤Ĩà¤°à¤®à¤§":12059,"Ġcould":12060,"Ġà¥§à¥®à¥®à¥«":12061,"State":12062,"à¤¸à¤Ĺà¤³à¤¤":12063,"Ġà¤īà¤Ńà¤¯à¤ªà¤ķ":12064,"âĢĻ":12065,"Ġstatement":12066,"iction":12067,"Ġà¤ħà¤µà¤¨à¤¤":12068,"ĠUSB":12069,"ĠUVLED":12070,"hawan":12071,"Ġà¤µà¤°à¤£à¤Ĺ":12072,"ĠOrgan":12073,"ĠITR":12074,"ĠIrina":12075,"riage":12076,"ĠSnap":12077,"olkata":12078,"Ġà¤ıà¤®à¤ıà¤ıà¤ļà¤ļ":12079,"Tokyo":12080,"ĠProtection":12081,"NUMX":12082,"Ġà¤¹à¤¯à¤Ĺà¤¯":12083,"ĠIssue":12084,",.":12085,"380":12086,"900":12087,"<<":12088,"Bank":12089,"GI":12090,"Pad":12091,"Punjab":12092,"SG":12093,"Sec":12094,"Solapur":12095,"Thackeray":12096,"Tata":12097,"aar":12098,"col":12099,"coin":12100,"hra":12101,"king":12102,"land":12103,"mot":12104,"nà¤¸à¤¨":12105,"nà¤ħà¤§":12106,"tm":12107,"ually":12108,"à¨":12109,"âĨ":12110,"Ġ~":12111,"Ġide":12112,"à¥ĩ</":12113,"à¤²à¤®à¤ļ":12114,"à¤²à¤ªà¤ķ":12115,"à¤²à¤¡à¤¬":12116,"à¤¨à¤µà¤°à¤ļ":12117,"à¤¨à¤ľà¤£":12118,"à¤µà¤¤à¤²":12119,"à¤µà¤®à¤¨":12120,"à¤µà¤Ĺà¤¨":12121,"à¤µà¤¦à¤ļ":12122,"à¤ļà¤°à¤¤":12123,"à¤¸à¤ĳà¤°":12124,"à¤¹à¤«":12125,"à¤¹à¤²à¤ķ":12126,"à¤¹à¤²à¤¤":12127,"à¤£à¤ķà¤¡":12128,"à¥ĭà¥¤":12129,"à¤®à¤®à¤°à¤£":12130,"Ġà¤ªà¤¥à¤¸":12131,"à¥Ĥ..":12132,"Ġà¤ħà¤¬à¤°":12133,"Ġà¤ħà¤¯à¤¨":12134,"à¤Ĺà¤¬à¤²":12135,"à¤Łà¤¤à¤®":12136,"à¤ľà¤ĸà¤®":12137,"Ġà¤¹à¤¡":12138,"Ġà¤¹à¤°à¤ĸ":12139,"Ġà¤¹à¤Ĺà¤µà¤£":12140,"Ġà¤¨à¤Ī":12141,"Ġà¤¨à¤²à¤Ĺ":12142,"Ġà¤¦à¤Ĺà¤¦à¤Ĺ":12143,"Ġà¤°à¤®à¤¨":12144,"à¤łà¤³à¤ķ":12145,"Ġà¤²à¤µà¤Ł":12146,"Ġà¤ĸà¤¯":12147,"Ġà¤«à¤²à¤¨":12148,"Ġà¤«à¤Łà¤«":12149,"à¤ķà¤°à¤¦à¤°":12150,"à¤ķà¤°à¤¬à¤°":12151,"Ġà¤ªà¤°à¤ļ":12152,"à¤¤à¤²à¤µ":12153,"Ġà¤§à¤¡à¤Ĺ":12154,"Ġà¤µà¤°à¤²":12155,"à¤ħà¤¥à¤µ":12156,"à¤°à¤²à¤ļ":12157,"Ġà¤¨à¤µà¤¬":12158,"à¤Łà¤²à¤¸":12159,"à¤ķà¤²à¤¶":12160,"à¤¸à¤¨à¤Ĺà¤°à¤ļ":12161,"à¤¤à¤ķà¤¨":12162,"Ġà¤ĳà¤²à¤°":12163,"Ġà¤īà¤¦à¤¯à¤¨":12164,"à¤µà¤¨à¤ªà¤Ł":12165,"Ġà¤ªà¤¦à¤®":12166,"aning":12167,"à¤·à¤ķà¤µà¤°":12168,"Ġ.....":12169,"à¤ļà¤¨à¤µ":12170,"à¤£à¤¯à¤¸":12171,"ĠSource":12172,"Ġà¥ª0":12173,"Ġà¥ªà¥©à¥¦":12174,"à¤²à¤¬à¤¸":12175,"Ġà¤ħà¤ľà¤¯à¤¨":12176,"Ġtar":12177,"Ġtal":12178,"Ġtak":12179,"à¤¤à¤¨à¤¹":12180,"à¤§à¤ķà¤¹":12181,"ĠNand":12182,"à¤ķà¤£à¤Ńà¤°":12183,"ĠAL":12184,"Ġà¤Ĺà¤°à¤Ĺà¤°":12185,"à¤¨à¤°à¤¬":12186,"Ġà¤Ĩà¤¨à¤¦":12187,"ĠThak":12188,"Ġà¥§à¥¯à¥§à¥¦":12189,"Ġà¥§à¥¯à¥¨à¥ª":12190,"Ġà¤Ĩà¤Ĺà¤¸":12191,"ĠCenter":12192,"Ġ,'":12193,"adigan":12194,"omes":12195,"à¥ĩà¤Ĥ.\"":12196,"Ġcer":12197,"Ġcook":12198,"ĠBor":12199,"ĠRohit":12200,"ĠRiver":12201,"à¤ĩà¤¨à¤¸à¤¹":12202,"Ġnec":12203,"ĠDh":12204,"ĠDNA":12205,"Ġà¤¨à¤°à¤¡":12206,"rapur":12207,"Ġà¤ªà¤¡à¤ĺ":12208,"à¤®à¤¹à¤¸":12209,"ĠLog":12210,"ĠLeg":12211,"ĠLPG":12212,"una":12213,"unt":12214,"Ġwr":12215,"Ġwar":12216,"Ġwhy":12217,"Ġpast":12218,"Ġpositive":12219,"Ġop":12220,"Ġopt":12221,"idney":12222,"Ġbody":12223,"à¤ķà¤ªà¤¡":12224,"Ġ1949":12225,"Ġà¥§à¥®à¥ªà¥®":12226,"Ġmoney":12227,"à¤³à¤ķà¤¨à¤Ĺà¤°":12228,"Ġà¤¦à¤²à¤ĺà¤«":12229,"Ġlies":12230,"Ġà¤ĺà¤Łà¤ķà¤ªà¤ķ":12231,"irt":12232,"iran":12233,"ĠKoshyari":12234,"ĠJag":12235,"Ġ184":12236,"odia":12237,"Ġà¥¨à¥¨à¥®":12238,"Ġ162":12239,"Ġ1600":12240,"ourse":12241,"Ġà¥¨à¥©à¥¨":12242,"Ġà¥¨à¥©à¥«":12243,"Ġ176":12244,"Ġà¥©à¥«à¥©":12245,"à¤¤à¤ķà¤±à¤¯":12246,"Ġà¤¥à¤ķà¤µà¤²":12247,"à¤Ĺà¤®à¤§à¤²":12248,"Ġka":12249,"alleng":12250,"Ġà¤¸à¤°à¤³à¤¸à¤°à¤³":12251,"anga":12252,"à¤¸à¤«à¤°à¤ļ":12253,"hous":12254,"à¤¾...'":12255,"à¤ķà¤ħà¤ªà¤®à¤§":12256,"ailable":12257,"à¥Ģ...\"":12258,"eech":12259,"Ġà¥§à¥¯à¥«à¥§":12260,"ĠProf":12261,"à¥ĩ.'\\":12262,"Ġ1977":12263,"à¤¸à¤¨à¤Ĺà¤°à¤®à¤§":12264,"Ġà¤Ĩà¤īà¤Łà¤¸":12265,"Ġrespons":12266,"Ġà¥§à¥®à¥¯à¥©":12267,"derabad":12268,"Ġà¤ķà¤¡à¤µà¤Łà¤ªà¤£":12269,"acter":12270,"Ġà¤Ŀà¤Ĺà¤¡à¤£":12271,"lication":12272,"Ġà¥§à¥Ńà¥«à¥¬":12273,"HOT":12274,"Ġà¤īà¤°à¤ķà¤£":12275,"Heavy":12276,"nBl":12277,"Ġchief":12278,"Ġcarrots":12279,"Ġà¤Ĩà¤¯à¤ıà¤¸à¤ĵ":12280,"ĠASHA":12281,"ĠFeatur":12282,"ĠMetro":12283,"ĠSecret":12284,"Ġchange":12285,"ĠDesai":12286,"Ġreturn":12287,"ĠHotstar":12288,"Ġ________":12289,"Ġchildren":12290,"ĠType":12291,"Ġthoughts":12292,"ĠOppo":12293,"ghanistan":12294,"ĠKhadse":12295,"ymptoms":12296,"Ġà¤µà¤¨à¤¹à¤ķ":12297,"-!":12298,"76":12299,"All":12300,"BBC":12301,"Electric":12302,"Group":12303,"HL":12304,"Modi":12305,"Posted":12306,"Rad":12307,"dy":12308,"ji":12309,"life":12310,"no":12311,"nà¤¸à¤ķ":12312,"nà¤Ĩà¤ľà¤ļ":12313,"police":12314,"yot":12315,"Ġeng":12316,"à¤¿\"":12317,"à¤ķà¤µà¤¡":12318,"Ġà¤ķà¤±":12319,"à¤®à¤µà¤¤":12320,"à¥ģà¤ģ":12321,"Ġà¤¸à¤¡à¤£":12322,"Ġà¤¤à¤ķà¤²":12323,"Ġà¤¤à¤³à¤ľ":12324,"à¤¦à¤¬à¤¦":12325,"à¤Ĺà¤¬à¤¦":12326,"Ġà¤µà¤³à¤µà¤¤":12327,"à¤ľà¤®à¤¤":12328,"à¤ľà¤ķà¤°à¤£":12329,"à¤ľà¤²à¤ļ":12330,"Ġà¤¯à¤¡":12331,"à¤§à¤Łà¤ªà¤£":12332,"Ġà¤¨à¤¡à¤²":12333,"Ġà¤¦à¤Łà¤ķ":12334,"Ġà¤°à¤ĸà¤¡":12335,"Ġà¤¶à¤®à¤²":12336,"Ġà¤Ĺà¤µà¤°":12337,"Ġà¤Ĺà¤®à¤¨":12338,"Ġà¤Ĺà¤Ĺà¤¨à¤ļ":12339,"Ġà¤²à¤ªà¤¤":12340,"à¤µà¤°à¤°":12341,"Ġà¤ĺà¤¨à¤¸":12342,"Ġà¤Ŀà¤¡à¤²":12343,"à¥ĩà¤Ĥ\"":12344,"à¥ĩà¤Ĥ?":12345,"à¤Īà¤Ĺà¤¡à¤¬à¤¡":12346,"Ġà¤ķà¤°à¤£à¤ļ":12347,"à¤°à¤¤à¤ª":12348,"à¤ķà¤°à¤ªà¤£":12349,"Ġà¤Łà¤¬":12350,"à¤°à¤£à¤¬":12351,"Ġà¤ĩà¤¤à¤¨":12352,"à¥Ģà¤Ĥà¥¤":12353,"à¤Ĭà¤¥à¤ļ":12354,"Ġ(=":12355,"à¤µà¤²à¤®à¤§":12356,"Ġà¤īà¤ªà¤Ĺà¤£":12357,"à¤°à¤¸à¤µ":12358,"à¤ħà¤°à¤ķ":12359,"à¤Ĺà¤¤à¤¹":12360,"à¤ıà¤ķà¤²":12361,"à¤¬à¤°à¤ħà¤ĸ":12362,"à¤ĥ)\\":12363,"à¥ĭ....":12364,"à¤Ĩà¤Ŀ":12365,"à¤Ĩà¤łà¤µà¤²":12366,"à¤Ĩà¤łà¤ļ":12367,"à¤¶à¤¨à¤ªà¤¤":12368,"à¤¶à¤¨à¤ľà¤µà¤³":12369,"à¤¹à¤¤à¤ªà¤£":12370,"à¤²à¤¯à¤¨":12371,"à¤²à¤¯à¤¹":12372,"à¤ĩà¤®à¤¸":12373,"à¤¸à¤¨à¤ķ":12374,"Ġà¤īà¤¦à¤¬à¤¤":12375,"Ġà¤ĵà¤¤à¤¤":12376,"à¤°à¤ľà¤²":12377,"à¤ľà¤ªà¤¦":12378,"Ġà¥¨à¥¦à¥ª":12379,"Ġà¥¨à¥¦à¥Ń":12380,"Ġà¤Ľà¤³à¤¤":12381,"à¤§à¤¨à¤®":12382,"à¤ļà¤¨à¤ª":12383,"ĠMon":12384,"à¤ķà¤°à¤£à¤µ":12385,"Ġà¥«à¥§à¥¨":12386,"à¤µà¤ļà¤£":12387,"à¤īà¤Ĺ":12388,"orb":12389,"Ġ320":12390,"à¤µà¤ķà¤¹":12391,"Ġtiv":12392,"à¤Łà¤¤à¤¯":12393,"ĠNail":12394,"ĠNFT":12395,"ĠAB":12396,"Ġà¤¯à¤¶à¤¹":12397,"Ġà¤®à¤Ĺà¤§":12398,"à¤¶à¤ķà¤ªà¤£":12399,"ĠCAA":12400,"lev":12401,"à¤µà¤°à¤£à¤¹":12402,"ĠGmail":12403,"ĠGames":12404,"Ġsn":12405,"olution":12406,"Ġcitizens":12407,"inger":12408,"Ġfield":12409,"Ġna":12410,"Ġà¤¸à¤¨à¤¦à¤¶":12411,"à¤ľà¤µà¤³à¤ľà¤µà¤³":12412,"ĠList":12413,"ĠLead":12414,"etition":12415,"Ġà¤¹à¤¸à¤µà¤¤":12416,"Ġwent":12417,"Ġwhere":12418,"Ġpur":12419,"Ġband":12420,"ĠEPFO":12421,"Ġmu":12422,"à¤Łà¤µà¤°à¤¹":12423,"Ġdown":12424,"Ġà¤ķà¤¦à¤®à¤µ":12425,"Ġla":12426,"ĠFirst":12427,"ĠFIR":12428,"chini":12429,"uls":12430,"ulations":12431,"ĠKol":12432,"ĠKay":12433,"rif":12434,"rim":12435,"à¥ĩ);":12436,"Ġà¤·à¤£":12437,"à¥¨à¥¦à¥§à¥¨":12438,"oster":12439,"Ġà¤µà¤ľà¤¨à¤¹":12440,"Ġà¤ħà¤µà¤ĺà¤¡à¤²":12441,"Ġà¥¨à¥ªà¥¯":12442,"Ġ185":12443,"Ġ307":12444,"ĠOpen":12445,"Ġà¥¨à¥§à¥¯":12446,"à¤ĳà¤«à¤ļ":12447,"Ġà¤«à¤¸à¤Ĺà¤¤":12448,"Ġà¤įà¤Ł":12449,"Ġà¤įà¤«":12450,"Ġà¥¨à¥©à¥§":12451,"Ġ174":12452,"apar":12453,"Ġà¤ķà¤¡à¤ķà¤¨":12454,"Ġà¤Ĺà¤µà¤Ĺà¤µ":12455,"Ġatt":12456,"ecut":12457,"Ġrece":12458,"epak":12459,"Ġstation":12460,"Ġà¤¹à¤Łà¤µà¤¤":12461,"ucchini":12462,"à¤¬à¤¦à¤²à¤¤":12463,"Ġà¥©à¥ªà¥§":12464,"neet":12465,"izes":12466,"Ġà¤ļà¤°à¤£à¤ľ":12467,"ĠAgainst":12468,"ashes":12469,"à¥ĩ...\"":12470,"Ġà¥§à¥¯à¥ªà¥§":12471,"Ġà¥§à¥¯à¥ªà¥©":12472,"ĠChrist":12473,"ĠChinchwad":12474,"elling":12475,"ancy":12476,"Ġplace":12477,"Ġà¤®à¤¦à¤¨à¤®":12478,"ĠQual":12479,"hahal":12480,"à¤°à¤ĺà¤°à¤®à¤§":12481,"à¤²à¤¸à¤°à¤ªà¤£":12482,"Ġà¤Ĩà¤Ĭà¤Łà¤²":12483,"Art":12484,"PCR":12485,"ĠControl":12486,"ĠContraindications":12487,"Ġaccount":12488,"Ġacid":12489,"ĠEVM":12490,"Ġà¤ħà¤µà¤ļà¤Ł":12491,"ĠCollege":12492,"Ġà¤Ńà¤°à¤ķà¤Łà¤¤":12493,"nIf":12494,"ĠNetflix":12495,"Ġà¤¡à¤Ĺà¤®à¤Ĺà¤¤":12496,"ĠVaccination":12497,"Ġprotected":12498,"uilding":12499,"operative":12500,"ĠSomaiya":12501,"Ġà¤¥à¤¬à¤ķà¤²":12502,"ĠExpansion":12503,"ĠHouse":12504,"Ġmumkin":12505,"150":12506,"81":12507,">[":12508,"?,":12509,"Az":12510,"Act":12511,"Add":12512,"CR":12513,"EA":12514,"EP":12515,"Har":12516,"Hind":12517,"Jal":12518,"Jio":12519,"Muk":12520,"Moh":12521,"MPSC":12522,"Permalink":12523,"San":12524,"Sha":12525,"Tr":12526,"cont":12527,"dragon":12528,"lam":12529,"mas":12530,"ns":12531,"poll":12532,"uation":12533,"Ð¾":12534,"ÙĦ":12535,"ÙĪ":12536,"âĶ":12537,"Ġarm":12538,"à¤¾à¤¾à¤Ĥ":12539,"à¤°à¤¡à¤ķà¤°":12540,"à¥ĩà¥ĳ":12541,"à¤¤à¤®à¤¤":12542,"à¤¤à¤³à¤µ":12543,"à¤²à¤Ĺà¤²":12544,"à¤Ĥ\",":12545,"à¤ķà¤¨à¤°":12546,"à¤ļà¤²à¤¤":12547,"à¤£à¤¯à¤ķ":12548,"Ġà¤ķà¤ªà¤¨":12549,"Ġà¤ķà¤µà¤¨":12550,"Ġà¤¤à¤¹à¤¨":12551,"à¤Łà¤ķà¤²":12552,"à¤Łà¤°à¤¸à¤¨":12553,"à¤ľà¤¶à¤¹":12554,"Ġà¤¯à¤¯":12555,"Ġà¤¨à¤ĸà¤°":12556,"à¤¶à¤°à¤£":12557,"à¤¶à¤²à¤ļ":12558,"à¤·à¤®à¤¸":12559,"Ġà¤¬à¤ª":12560,"Ġà¤ķà¤°à¤µà¤²":12561,"Ġà¤¶à¤°à¤¸":12562,"à¤łà¤®à¤§":12563,"Ġà¤²à¤¡à¤ķ":12564,"à¤¥à¤°à¤¨":12565,"Ġà¤ļà¤¶":12566,"Ġà¤ļà¤²à¤¬":12567,"Ġà¤īà¤¸à¤Ĺ":12568,"à¥Ģ..\\":12569,"à¥Ģ.....":12570,"à¥ĩà¤Ĥ!":12571,"à¤°à¤ķà¤°à¤µ":12572,"Ġà¤ĸà¤µà¤£":12573,"à¤Īà¤¨à¤¸":12574,"à¤°à¤¤à¤¸":12575,"à¤¢à¤Ī":12576,"Ġà¤Łà¤³à¤£":12577,"à¤Ĭà¤¸à¤¨":12578,"à¤Ĺà¤²à¤²":12579,"à¤Ŀà¤°à¤²":12580,"à¤ħà¤Łà¤²":12581,"à¤·à¤£à¤Ńà¤°à¤¹":12582,"à¤ıà¤ıà¤²":12583,"à¤¯à¤¤à¤¸":12584,"à¤Ĩà¤ķà¤¡":12585,"Ġ118":12586,"Ġ:--":12587,"à¤¸à¤¨à¤ª":12588,"à¤¤à¤ķà¤¹":12589,"Ġà¤¥à¤²":12590,"Ġà¤ħà¤Ńà¤¯à¤¸":12591,"Ġà¤ĺà¤°à¤¹":12592,"à¤µà¤¨à¤¹":12593,"anes":12594,"ankar":12595,"atal":12596,"atta":12597,"Ġà¤ľà¤¨à¤Ĩà¤¶":12598,"Ġà¤ħà¤®à¤°à¤ľ":12599,"Ġà¤Ľà¤³à¤£":12600,"à¤§à¤¨à¤µ":12601,"à¤¦à¤¤à¤ĸ":12602,"ĠMain":12603,"à¤¤à¤µà¤¹":12604,"ĠSAR":12605,"alis":12606,"à¤īà¤ľà¤°":12607,"Ġà¤ħà¤ľà¤®à¤²":12608,"à¤µà¤ķà¤ªà¤¦":12609,"à¤¹à¤®à¤¦":12610,"à¤¬à¤²à¤²":12611,"à¤¤à¤¨à¤®":12612,"itis":12613,"Ġà¤ľà¤Ĺà¤µà¤£":12614,"ichi":12615,"icha":12616,"Ġà¤Ĺà¤°à¤ľà¤¹":12617,"asi":12618,"asw":12619,"askar":12620,"isc":12621,"ĠCertificate":12622,"ĠChahal":12623,"lets":12624,"à¤ķà¤Łà¤ªà¤£":12625,"Ġà¤Īà¤¨":12626,"Ġà¤īà¤ļà¤ķ":12627,"ĠGujarat":12628,"Ġcurrent":12629,"Ġcandidates":12630,"à¤ķà¤¦à¤®":12631,"ĠBus":12632,"ĠBigg":12633,"Ġfew":12634,"Ġfood":12635,"Ġnon":12636,"ĠDem":12637,"ĠDosage":12638,"Ġ650":12639,"ĠLab":12640,"rec":12641,"Ġpath":12642,"hare":12643,"harpur":12644,"ili":12645,"Ġà¤µà¤¨à¤ķà¤°":12646,"Ġ1940":12647,"Ġ1948":12648,"à¤¡à¤ķà¤°à¤µ":12649,"Ġmain":12650,"Ġahe":12651,"Ġair":12652,"à¤Łà¤®à¤¯":12653,"Ġà¤ªà¤¥à¤ķà¤¹":12654,"Ġà¤Ńà¤°à¤¤à¤ķ":12655,"Ġà¥¨à¥«à¥Ń":12656,"ĠFactor":12657,"Ġà¤Ĳà¤ķà¤µà¤¤":12658,"eli":12659,"Ġ152":12660,"Ġ123":12661,"Ġà¥«à¥¦à¥ª":12662,"umer":12663,"umrah":12664,"à¤¾à¤ĥ\\":12665,"ĠHair":12666,"ĠKart":12667,"à¤°à¤®à¤£à¤®":12668,"oting":12669,"ppers":12670,"à¤ıà¤¨à¤Ĩà¤¯":12671,"oses":12672,"à¤¸à¤µà¤°à¤¹":12673,"Ġà¥¨à¥ªà¥¨":12674,"ĠOP":12675,"ĠVikas":12676,"Ġ146":12677,"Ġ1400":12678,"Ġ1300":12679,"Ġà¥¨à¥¨à¥§":12680,"Ġà¥¨à¥¨à¥¯":12681,"ĠUG":12682,"rices":12683,"Ġà¥¨à¥®à¥©":12684,"Ġà¥¨à¥¬à¥¯":12685,"Ġ177":12686,"Ġà¤§à¤¡à¤ķà¤¤":12687,"à¤ļà¤µà¤¡à¤ķà¤°":12688,"Ġà¤¦à¤ĸà¤²à¤ª":12689,"Ġà¥©à¥§à¥«":12690,"Ġeffect":12691,"à¤Īà¤¡à¤Ł":12692,"Ġà¤ıà¤ļà¤ıà¤®à¤Ł":12693,"à¤®à¤°à¤£à¤ªà¤¤":12694,"email":12695,"ember":12696,"ived":12697,"à¤ħà¤®à¤³à¤¨":12698,"Ġà¤¹à¤²à¤ķà¤Ł":12699,"Ġà¤¸à¤¬à¤§":12700,"Ġà¤°à¤ĸà¤¡à¤£":12701,"eva":12702,"izer":12703,"Ġà¤ĵà¤ªà¤¨à¤°":12704,"ĠThey":12705,"ahu":12706,"Ġà¤²à¤ĸà¤¨à¤Ĭà¤ļ":12707,"ĠChopra":12708,"ĠXiaomi":12709,"ĠAsus":12710,"Ġà¤«à¤¡à¤ķà¤µà¤£":12711,"ensity":12712,"Ġà¤Ĺà¤Ĺà¤¨à¤¬":12713,"ĠComments":12714,"ĠAnil":12715,"Ġà¤Ńà¤¡à¤ķà¤µà¤£":12716,"à¦¿":12717,"ologist":12718,"Ġ1973":12719,"Ġà¤²à¤Łà¤ķà¤µ":12720,"Ġà¥§à¥®à¥¯à¥«":12721,"Ġpresident":12722,"Ġseason":12723,"Ġà¤®à¤¦à¤°à¤¬":12724,"Ġà¥§à¥®à¥Ńà¥¬":12725,"ooth":12726,"à¤Ńà¤Ĺà¤µà¤¦":12727,"Ġpercent":12728,"Ġdecor":12729,"ĠWeight":12730,"Ġà¤µà¤¤à¤¨à¤¦":12731,"ĠResults":12732,"aikwad":12733,"Ġà¤¦à¤«à¤¨à¤Ń":12734,"ĠIMD":12735,"ĠINDIA":12736,"ealand":12737,"Ġà¤¡à¤Ĺà¤®à¤Ĺà¤²":12738,"Ġriver":12739,"ĠMahindra":12740,"ĠVaccine":12741,"Ġapplication":12742,"ĠInteractions":12743,"ĠGautami":12744,"Ġntaw":12745,"ĠWarnings":12746,"ĠBhatt":12747,"Ġbulbs":12748,"ĠTikhon":12749,"Ġà¤¸à¤³à¤¸à¤³à¤¤":12750,"ĠFrequently":12751,"ĠAffairs":12752,"*)":12753,"120":12754,"MW":12755,"NP":12756,"Nawab":12757,"OO":12758,"Pay":12759,"Res":12760,"TB":12761,"TS":12762,"ban":12763,"cm":12764,"cs":12765,"df":12766,"des":12767,"dated":12768,"iod":12769,"men":12770,"mob":12771,"nà¤²à¤Ĺ":12772,"nad":12773,"nà¤²à¤¹":12774,"nà¤ĩà¤¥":12775,"och":12776,"pan":12777,"pute":12778,"ÙĨ":12779,"Ġest":12780,"à¥Ĭ":12781,"à¤¤à¤±":12782,"à¤¤à¤Ĺà¤¡":12783,"à¤¤à¤®à¤§à¤²":12784,"à¤¤à¤Ĩà¤²":12785,"à¤¯à¤Ŀà¤¨":12786,"à¤²à¤ł":12787,"à¤²à¤Łà¤¤":12788,"à¤²à¤Ĩà¤°":12789,"à¤¨à¤®à¤¯":12790,"à¤ķà¤ªà¤ļ":12791,"à¤µà¤¯à¤¨":12792,"à¤µà¤ķà¤¤":12793,"à¤ļà¤³":12794,"à¤¸à¤°à¤®":12795,"à¤¸à¤ľà¤¨":12796,"à¤¹à¤°à¤ķà¤¤":12797,"à¤£à¤¬à¤¦":12798,"Ġà¤ķà¤¡à¤²":12799,"à¤®à¤¬à¤¹":12800,"à¤®à¤«à¤²":12801,"Ġà¤¸à¤¬à¤°":12802,"à¤¦à¤¸à¤¹":12803,"à¤¦à¤¯à¤¨":12804,"à¤¦à¤¸à¤®":12805,"à¤¦à¤°à¤ļà¤¨":12806,"à¥Ĥà¥į":12807,"Ġà¤ħà¤¬à¤²":12808,"à¤Ĺà¤ľà¤¨à¤ķ":12809,"à¤ľà¤Ĺà¤¦":12810,"à¤ľà¤¸à¤®":12811,"à¤¡à¤¤à¤°":12812,"à¤¡à¤¨à¤¹":12813,"Ġà¤¹à¤®à¤¸":12814,"Ġà¤¯à¤®à¤¨":12815,"Ġà¤¯à¤µà¤Ĺ":12816,"à¤§à¤®à¤§":12817,"Ġà¤¨à¤Ŀ":12818,"Ġà¤¨à¤°à¤µà¤¡":12819,"Ġà¤¦à¤®à¤£":12820,"Ġà¤ľà¤¥":12821,"Ġà¤°à¤¸à¤¨":12822,"Ġà¤°à¤¡à¤ķ":12823,"Ġà¤¶à¤ļ":12824,"à¤łà¤µà¤¡à¤Ĺ":12825,"Ġà¤Ĺà¤°à¤Ń":12826,"Ġà¤Ĺà¤¡à¤ª":12827,"à¤¥à¤µà¤¡":12828,"à¤ĸà¤¡à¤¸":12829,"Ġà¤ļà¤Łà¤ªà¤Ł":12830,"Ġà¤ıà¤ªà¤ļ":12831,"Ġà¤Ŀà¤¬":12832,"Ġà¤ĸà¤£à¤£":12833,"à¤¤à¤°à¤ĸ":12834,"à¤¤à¤°à¤§à¤°":12835,"à¤Īà¤®à¤²":12836,"à¤¢à¤¹":12837,"Ġà¤Łà¤¯":12838,"Ġà¤Łà¤°à¤«à¤²":12839,"à¥Ī!":12840,"à¥Ī',":12841,"à¤°à¤®à¤®":12842,"à¤°à¤®à¤Ī":12843,"à¤Ĭà¤¤à¤ļ":12844,"à¤Ĭà¤²à¤®à¤§":12845,"à¤«à¤Łà¤ķ":12846,"Ġà¤¡à¤µà¤°":12847,"Ġà¤¡à¤Ĺà¤²":12848,"à¤°à¤µà¤ļ":12849,"à¤°à¤µà¤ª":12850,"Ġà¤§à¤ª":12851,"Ġà¤§à¤°à¤®":12852,"à¤Ŀà¤¤":12853,"à¤ħà¤¨à¤²":12854,"à¤¡à¤²à¤®à¤§":12855,"Ġà¤¨à¤µà¤ķà¤²":12856,"à¤Ĩà¤µà¤°":12857,"à¤Ĩà¤µà¤¡":12858,"à¤Łà¤¨à¤¹":12859,"à¤Īà¤²à¤¹":12860,"à¤ĩà¤¯":12861,"à¤ĩà¤®à¤ª":12862,"Ġà¤¸à¤°à¤ķà¤µ":12863,"à¤¯à¤ļà¤¯":12864,"Ġà¤Ĩà¤¯à¤Ŀ":12865,"Ġà¤ĳà¤¯à¤¸":12866,"Ġà¤ĳà¤°à¤Ĺ":12867,"à¤Ĥ....":12868,"à¤µà¤¨à¤¨":12869,"à¤µà¤¨à¤ķà¤°":12870,"Ġà¤ĵà¤Łà¤ļ":12871,"Ġà¤ĵà¤ıà¤¨à¤ľ":12872,"inagar":12873,"à¤¯à¤¦à¤¤":12874,"à¤¯à¤¦à¤¯":12875,"Ġà¥¨à¥¦à¥®":12876,"ero":12877,"à¤ľà¤ķà¤ª":12878,"Ġà¥¤\\":12879,"à¤ĵà¤«":12880,"à¤ĵà¤ªà¤¨":12881,"ĠSank":12882,"ĠSign":12883,"orry":12884,"ĠPed":12885,"ĠPPF":12886,"à¤µà¤¶à¤¤":12887,"itions":12888,"itcoin":12889,"Ġà¤ľà¤Ĺà¤ļ":12890,"ĠNester":12891,"à¤ªà¤ķà¤ļ":12892,"Ġà¤ħà¤µà¤®à¤²":12893,"à¤¨à¤ķà¤³à¤¤":12894,"ison":12895,"Ġà¥§à¥¯à¥§à¥©":12896,"à¤ķà¤Łà¤µà¤²":12897,"Ġà¤ĩà¤¤à¤ªà¤¤":12898,"ĠGav":12899,"ĠGDP":12900,"omin":12901,"à¤®à¤£à¤ķà¤°":12902,"à¥ĩà¤Ĥ.'":12903,"à¤µà¤ľà¤µ":12904,"ĠBAN":12905,"ĠBudget":12906,"à¤ľà¤¤à¤Ĺ":12907,"ĠRSS":12908,"à¤ĩà¤¨à¤¦":12909,"ĠDin":12910,"ĠDhawan":12911,"Ġà¤¸à¤¨à¤Ī":12912,"Ġà¤¢à¤¬":12913,"Ġà¤µà¤¡à¤¨":12914,"ĠLiter":12915,"Ġ850":12916,"Ġoper":12917,"iler":12918,"rog":12919,"à¤ĸà¤®à¤¯":12920,"Ġà¥§à¥®à¥§à¥®":12921,"à¤°à¤®à¤§à¤°":12922,"Ġdeb":12923,"Ġdepartment":12924,"à¤¾):":12925,"Ġlog":12926,"ĠFound":12927,"Ġ151":12928,"utual":12929,"ĠHis":12930,"ĠHand":12931,"ĠKn":12932,"ĠKings":12933,"Ġà¤µà¤ľà¤¨à¤ķ":12934,"ĠWal":12935,"ĠWhen":12936,"ĠWeek":12937,"ĠWindows":12938,"ĠWankhede":12939,"Ġ116":12940,"ĠOil":12941,"Ġà¤ıà¤²à¤«":12942,"Ġà¥¨à¥§à¥§":12943,"verse":12944,"à¤ıà¤ļà¤¸":12945,"uption":12946,"ĠUnder":12947,"hankar":12948,"abai":12949,"Ġvichar":12950,"à¤¯à¤°à¤¸à¤µà¤°":12951,"Ġ245":12952,"umbers":12953,"Ġ1700":12954,"ĠStar":12955,"à¥Ģà¤ĥ\\":12956,"Ġep":12957,"apt":12958,"à¤ħà¤Ńà¤¯":12959,"Ġ10000":12960,"Ġà¤¸à¤¹à¤¸à¤°à¤ķ":12961,"Ġà¤ıà¤«à¤Ĩà¤¯":12962,"Ġkn":12963,"Ġker":12964,"Ġkase":12965,"emy":12966,"Ġrequ":12967,"awa":12968,"ĠYoga":12969,"anger":12970,"Ġà¥©à¥Ńà¥«":12971,"à¤¨à¤Īà¤ķà¤¡":12972,"Ġà¤Ńà¤Łà¤ķà¤²":12973,"Ġà¤°à¤ĸà¤¡à¤¤":12974,"ressure":12975,"inking":12976,"Ġà¥ªà¥ªà¥¦":12977,"Ġà¥ªà¥¬à¥¦":12978,"Ġthose":12979,"à¤¯à¤¨à¤²à¤ļ":12980,"ĠXL":12981,"rypt":12982,"ountain":12983,"Ġà¤ĵà¤Ŀà¤°à¤¤":12984,"Ġprocess":12985,"à¤«à¤°à¤¨à¤Ĺà¤°":12986,"Ġà¥§à¥¯à¥¦à¥§":12987,"ledge":12988,"aterial":12989,"Ġ1957":12990,"Ġà¤¨à¤¯à¤¨à¤¤":12991,"itional":12992,"hayi":12993,"IMD":12994,"ĠParishad":12995,"ĠSevere":12996,"reatment":12997,"à¥¯à¥¬à¥«à¥Ń":12998,"Ġcompany":12999,"ĠAssoci":13000,"chnology":13001,"Ġofficer":13002,"Ġà¤ĸà¤µà¤ĸà¤µà¤£":13003,"Ġdecision":13004,"Ġaccident":13005,"ĠMoto":13006,"ĠMotors":13007,"ĠHelio":13008,"ĠDisney":13009,"à¤¨à¤īà¤ĺà¤¡à¤£":13010,"International":13011,"Ġseries":13012,"ammad":13013,"Ġinvestment":13014,"Ġvaran":13015,"Agriculture":13016,"Ġà¤ħà¤¡à¤ĸà¤³à¤¤":13017,"Ġmeeting":13018,"Ġexperience":13019,"Bharat":13020,"ĠKadam":13021,"á¹£":13022,"urthi":13023,"Ġwords":13024,"Hardik":13025,"Ġthiab":13026,"ĠGadkari":13027,"Ġà¥®à¥®à¥Ńà¥¯à¥¬à¥«à¥Ń":13028,"ĠHTTPS":13029,"Ġà¤ıà¤¸à¤ıà¤®à¤ıà¤¸à¤¦":13030,"Ġsambandh":13031,"Ġà¤Ńà¤°à¤ľà¤°":13032,"ĠSnapdragon":13033,"'-":13034,"'?":13035,"2000":13036,"499":13037,"79":13038,"AW":13039,"Amb":13040,"Business":13041,"Chan":13042,"CBI":13043,"Cancer":13044,"EG":13045,"Fl":13046,"Farmers":13047,"KS":13048,"OBC":13049,"Rishabh":13050,"Super":13051,"Samsung":13052,"TG":13053,"To":13054,"Watch":13055,"XX":13056,"_'":13057,"aish":13058,"nà¤ĳà¤Ĺà¤¸":13059,"nUp":13060,"pat":13061,"rt":13062,"rated":13063,"uf":13064,"val":13065,"yer":13066,"à±":13067,"ĠÕ":13068,"ĠØ":13069,
[...]
