{"<s>":0,"<pad>":1,"</s>":2,"<unk>":3,"<mask>":4,"### सूचना:":5,"### उत्तर:":6,"### इनपुट:":7,"!":8,"\"":9,"#":10,"$":11,"%":12,"&":13,"'":14,"(":15,")":16,"*":17,"+":18,",":19,"-":20,".":21,"/":22,"0":23,"1":24,"2":25,"3":26,"4":27,"5":28,"6":29,"7":30,"8":31,"9":32,":":33,";":34,"<":35,"=":36,">":37,"?":38,"@":39,"A":40,"B":41,"C":42,"D":43,"E":44,"F":45,"G":46,"H":47,"I":48,"J":49,"K":50,"L":51,"M":52,"N":53,"O":54,"P":55,"Q":56,"R":57,"S":58,"T":59,"U":60,"V":61,"W":62,"X":63,"Y":64,"Z":65,"[":66,"\\":67,"]":68,"^":69,"_":70,"`":71,"a":72,"b":73,"c":74,"d":75,"e":76,"f":77,"g":78,"h":79,"i":80,"j":81,"k":82,"l":83,"m":84,"n":85,"o":86,"p":87,"q":88,"r":89,"s":90,"t":91,"u":92,"v":93,"w":94,"x":95,"y":96,"z":97,"{":98,"|":99,"}":100,"~":101,"¡":102,"¢":103,"£":104,"¤":105,"¥":106,"¦":107,"§":108,"¨":109,"©":110,"ª":111,"«":112,"¬":113,"®":114,"¯":115,"°":116,"±":117,"²":118,"³":119,"´":120,"µ":121,"¶":122,"·":123,"¸":124,"¹":125,"º":126,"»":127,"¼":128,"½":129,"¾":130,"¿":131,"À":132,"Á":133,"Â":134,"Ã":135,"Ä":136,"Å":137,"Æ":138,"Ç":139,"È":140,"É":141,"Ê":142,"Ë":143,"Ì":144,"Í":145,"Î":146,"Ï":147,"Ð":148,"Ñ":149,"Ò":150,"Ó":151,"Ô":152,"Õ":153,"Ö":154,"×":155,"Ø":156,"Ù":157,"Ú":158,"Û":159,"Ü":160,"Ý":161,"Þ":162,"ß":163,"à":164,"á":165,"â":166,"ã":167,"ä":168,"å":169,"æ":170,"ç":171,"è":172,"é":173,"ê":174,"ë":175,"ì":176,"í":177,"î":178,"ï":179,"ð":180,"ñ":181,"ò":182,"ó":183,"ô":184,"õ":185,"ö":186,"÷":187,"ø":188,"ù":189,"ú":190,"û":191,"ü":192,"ý":193,"þ":194,"ÿ":195,"Ā":196,"ā":197,"Ă":198,"ă":199,"Ą":200,"ą":201,"Ć":202,"ć":203,"Ĉ":204,"ĉ":205,"Ċ":206,"ċ":207,"Č":208,"č":209,"Ď":210,"ď":211,"Đ":212,"đ":213,"Ē":214,"ē":215,"Ĕ":216,"ĕ":217,"Ė":218,"ė":219,"Ę":220,"ę":221,"Ě":222,"ě":223,"Ĝ":224,"ĝ":225,"Ğ":226,"ğ":227,"Ġ":228,"ġ":229,"Ģ":230,"ģ":231,"Ĥ":232,"ĥ":233,"Ħ":234,"ħ":235,"Ĩ":236,"ĩ":237,"Ī":238,"ī":239,"Ĭ":240,"ĭ":241,"Į":242,"į":243,"İ":244,"ı":245,"Ĳ":246,"ĳ":247,"Ĵ":248,"ĵ":249,"Ķ":250,"ķ":251,"ĸ":252,"Ĺ":253,"ĺ":254,"Ļ":255,"ļ":256,"Ľ":257,"ľ":258,"Ŀ":259,"ŀ":260,"Ł":261,"ł":262,"Ń":263,"à¤":264,"à¥":265,"Ġà¤":266,"à¤¾":267,"à¥į":268,"à¤°":269,"à¥ĩ":270,"à¤¯":271,"à¤¿":272,"à¥Ģ":273,"à¤¤":274,"à¤²":275,"à¤¨":276,"à¤ķ":277,"à¤Ĥ":278,"à¤¸":279,"à¤µ":280,"à¤ļ":281,"à¤£":282,"à¤®":283,"à¥ĭ":284,"Ġà¤ķ":285,"à¤¹":286,"Ġà¤¸":287,"Ġà¤Ĩ":288,"Ġà¤ª":289,"à¤Ł":290,"à¥ģ":291,"à¤ª":292,"Ġà¤®":293,"à¤¾à¤Ĥ":294,"à¤¦":295,"à¤§":296,"à¥Ĥ":297,"à¤Ĺ":298,"Ġà¤¤":299,"Ġà¤µ":300,"à¤¡":301,"Ġà¤¹":302,"Ġà¤ħ":303,"Ġà¤ľ":304,"à¤¶":305,"à¤ľ":306,"Ġà¤Ĩà¤£":307,"Ġà¤¨":308,"à¤·":309,"à¤¬":310,"Ġà¤ı":311,"à¤³":312,"Ġà¤¦":313,"Ġà¤¯":314,"à¥ĩ.":315,"Ġà¤¬":316,"Ġà¤°":317,"à¤¥":318,"à¥Ģ.":319,"à¥ī":320,"à¤ł":321,"à¤°à¤£":322,"Ġà¤²":323,"Ġà¤Ĺ":324,"Ġà¤¶":325,"Ġà¤Ĩà¤¹":326,"à¥ħ":327,"Ġ1":328,"à¤ĸ":329,"Ġà¤ļ":330,"à¤®à¤§":331,"à¤µà¤°":332,"à¤¤à¤°":333,"Ġà¤ıà¤ķ":334,"à¥ĩ,":335,"Ġà¤ħà¤¸":336,"Ġà¤ī":337,"à¤«":338,"Ġà¤®à¤§":339,"à¤Ń":340,"Ġ2":341,"à¤°à¤¤":342,"Ġà¤¡":343,"à¤¿à¤Ĥ":344,"à¤¾.":345,"Ġà¤ķà¤°à¤£":346,"Ġ(":347,"Ġà¤«":348,"Ġà¤Ł":349,"Ġ19":350,"Ġà¤ªà¤°":351,"Ġà¤Ń":352,"Ġà¤Ŀ":353,"à¤°à¤ķ":354,"Ġà¤ĸ":355,"à¥Ī":356,"Ġ'":357,"à¤°à¤®":358,"à¥ĥ":359,"à¤¹à¤£":360,"à¥Ģ,":361,"Ġà¤ĩ":362,"Ġà¤Ĩà¤²":363,"Ġ20":364,"à¤ªà¤°":365,"Ġà¤ĺ":366,"à¥ĩà¤Ĥ":367,"à¤¯à¤ķ":368,"Ġà¤¸à¤®":369,"à¤ı":370,"à¤¾,":371,"à¤¬à¤°":372,"Ġà¤µà¤°":373,"à¤ĺ":374,"à¤±":375,"à¤Ŀ":376,"à¤¢":377,"à¤µà¤²":378,"Ġà¤¸à¤°":379,"à¤Ī":380,"à¤ĩ":381,"Ġà¤ĳ":382,"à¤¯à¤¨":383,"à¤ģ":384,"Ġ\"":385,"<<":386,"Ġà¤ķà¤°":387,"à¤ĥ":388,"Ġà¤ħà¤¨":389,"à¤Łà¤°":390,"à¤®à¤¨":391,"à¤ªà¤¨":392,"à¤°à¤¸":393,"à¤ķà¤¡":394,"Ġà¤ķà¤°à¤¤":395,"à¤Łà¤¨":396,"00":397,"Ġà¤ħà¤¸à¤²":398,"Ġà¤ħà¤§":399,"à¤¦à¤°":400,"à¤ħ":401,"à¤Ĭ":402,"Ġà¤®à¤¹":403,"à¤ķà¤²":404,"à¤µà¤¤":405,"Ġ201":406,"à¤·à¤£":407,"à¥Į":408,"à¤¹à¤°":409,"à¤ķà¤°":410,"Ġà¤ĵ":411,"à¤µà¤£":412,"à¤¶à¤¨":413,"à¤ī":414,"à¤°à¤ļ":415,"à¤¸à¤¹":416,"à¤ķà¤¤":417,"Ġà¤īà¤¤":418,"à¤¯à¤¤":419,"à¤¸à¤°":420,"à¤°à¤µ":421,"19":422,"Ġà¤ł":423,"Ġà¤§":424,"Ġà¤ıà¤¸":425,"à¤ľà¤¨":426,"à¤µà¤¸":427,"à¤ĵ":428,"à¤¸à¤¨":429,"Ġà¤ªà¤¹":430,"à¤ªà¤£":431,"à¤ķà¤¨":432,"à¥ĭ.":433,"à¤°à¤²":434,"à¤¯à¤®":435,"Ġà¤Ĩà¤¯":436,"Ġà¤¸à¤¹":437,"à¤Łà¤²":438,"Ġà¤Ĩà¤°":439,"à¤¦à¤²":440,"à¤µà¤¡":441,"Ġà¤ħà¤¸à¤¤":442,"à¤Ĩ":443,"à¤°à¤ª":444,"</":445,"à¤¤à¤²":446,"à¤µà¤³":447,"><":448,"à¥ģà¤Ĥ":449,"Ġà¤īà¤ª":450,"à¤¨à¤²":451,"Ġà¤ħà¤²":452,"Ġà¤¨à¤µ":453,"Ġ200":454,"à¥Ģà¤Ĥ":455,"Ġà¤¤à¤°":456,"à¤¹à¤¤":457,"à¤¡à¤²":458,"Ġà¤¶à¤ķà¤¤":459,"à¤¸à¤ļ":460,"Ġà¤ħà¤®":461,"à¥Ĥ.":462,"Ġ3":463,"20":464,"Ġà¤ªà¤¦":465,"<<<<":466,"à¤¨à¤°":467,"Ġà¤ıà¤²":468,"Ġà¤ıà¤®":469,"Ġ18":470,"à¤²à¤¯":471,"à¤¨à¤ļ":472,"Ġà¤Ĩà¤µ":473,"à¤¤à¤ķ":474,"à¤ķà¤°à¤£":475,"à¤Ĺà¤¤":476,"à¤Ĺà¤²":477,"à¤ķà¤¸":478,"à¤ŀ":479,"Ġà¤ķà¤®":480,"à¤°à¤ľ":481,"Ġà¤¤à¤¯":482,"Ġà¤ıà¤¨":483,"Ġà¤īà¤¦":484,"à¤µà¤¨":485,"à¤°à¤¶":486,"Ġà¤¥":487,"à¤²à¤ķ":488,"Ġà¤¶à¤¹à¤°":489,"à¤Ĺà¤°":490,"à¥ĭà¤Ĥ":491,"Ġà¤ľà¤°":492,"à¤°à¤ªà¤Ł":493,"à¤²à¤¨":494,"à¤°à¤¦":495,"Ġà¤ĩà¤¤à¤°":496,"Ġ5":497,"à¤®à¤¤":498,"à¤Łà¤ļ":499,"à¤¬à¤¦":500,"à¤·à¤ķ":501,"à¤ªà¤¤":502,"à¤¸à¤²":503,"à¤¯à¤°":504,"Ġ4":505,"à¤°à¤ĸ":506,"à¤¦à¤¸":507,"Ġà¤ħà¤Ń":508,"à¤¶à¤ķ":509,"à¤®à¤ķ":510,"à¤Łà¤ķ":511,"Ġ199":512,"à¤²à¤ļ":513,"Ġà¤ķà¤²":514,"Ġà¤¸à¤¦à¤¸":515,"à¤ªà¤²":516,"à¤²à¤¬":517,"à¤ļà¤¨":518,"Ġà¤Ĩà¤§":519,"Ġà¤¦à¤°":520,"à¤³à¤²":521,"Ġà¤ħà¤°":522,"à¤®à¤ļ":523,"à¤¯à¤¦":524,"Ġà¤ľà¤¨":525,"Ġ6":526,"à¤ªà¤¦":527,"Ġà¤ıà¤«":528,"à¥ĭ,":529,"à¤¹à¤¨":530,"à¤¸à¤±":531,"Ġà¤ĳà¤«":532,"à¤§à¤¨":533,"Ġà¤Ī":534,"à¤ªà¤ķ":535,"à¤ıà¤¸":536,"Ġà¤¬à¤¹":537,"),":538,"à¤°à¤¦à¤°":539,"Ġà¤ĵà¤³":540,"à¤¨à¤¸":541,"Ġ198":542,"Ġà¤Ľ":543,"à¤¯à¤µà¤¸":544,"Ġà¤¬à¤¦à¤²":545,"à¤Ĺà¤£":546,"à¤ľà¤ķ":547,"à¤¡à¤¨":548,"à¤¡à¤ļ":549,"à¤²à¤°":550,"Ġà¤ĵà¤³à¤ĸ":551,"Ġ194":552,"à¤¯à¤²":553,"à¤¬à¤¤":554,"à¥Ģ-":555,"à¤¡à¤°":556,"Ġ7":557,"à¤£à¤¤":558,"<<<<<<<<":559,"à¤³à¤¤":560,"Ġà¤¡à¤¬":561,"Ġà¤ħà¤¶":562,"à¤¦à¤¨":563,"Ġà¤ħà¤Ĺ":564,"Ġà¤¬à¤°":565,"Ġà¤Ĺà¤Ł":566,"à¤¯à¤µ":567,"Ġ197":568,"à¤ħà¤°":569,"Ġà¤Ĩà¤¤":570,"Ġ196":571,"Ġà¤¦à¤ķ":572,"..":573,"à¤¨à¤ķ":574,"à¤¯à¤Ł":575,"Ġà¤ªà¤¤":576,"à¤°à¤¹":577,"Ġà¤®à¤¤":578,"à¤¸à¤¤":579,"à¤²à¤Ĺ":580,"000":581,"Ġà¤ªà¤°à¤¤":582,"à¥Ģ'":583,"Ġà¤µà¤¸":584,"Ġà¤¹à¤µ":585,"Ġà¤ħà¤ª":586,"ĠĊ":587,"à¤¯à¤¸":588,"à¤¡à¤£":589,"à¤¸à¤®à¤§":590,"à¤®à¤Ĺ":591,"Ġà¤°à¤¸":592,"Ġà¤¦à¤¶à¤ķ":593,"Ġ8":594,"201":595,"à¤ļà¤°":596,"à¤¾'":597,"Ġà¤¸à¤°à¤ķ":598,"à¤¤à¤µ":599,"à¤¥à¤®":600,"Ġ9":601,"à¤¨à¤¨":602,"à¤°à¤Ń":603,"Ġà¤ħà¤¤":604,"à¤®à¤°":605,"à¤Ĺà¤¸":606,"Ġà¤²à¤ķ":607,"à¤³à¤£":608,"Ġà¤ªà¤ķ":609,"à¤¨à¤¹":610,"Ġà¤ĸà¤°":611,"Ġà¤ħà¤ľ":612,"Ġà¤ĺà¤°":613,"Ġà¤¬à¤¨à¤²":614,"à¤µà¤¡à¤£":615,"à¤¸à¤ķ":616,"à¤¨à¤µ":617,"Ġà¤Ĩà¤ķ":618,"Ġ15":619,"Ġà¤°à¤ļà¤¨":620,"Ġ195":621,"Ġà¤ĩà¤®":622,"Ġà¤ĵà¤³à¤ĸà¤²":623,"Ġà¤²à¤¢":624,"à¤§à¤¤":625,"Ġà¤Ĩà¤ł":626,"à¤Īà¤²":627,"Ġ17":628,"Ġà¤ľà¤®":629,"200":630,"Ġà¤Łà¤ķ":631,").":632,"à¤°à¤¯à¤¤":633,"à¤¤à¤¨":634,"Ġà¤¸à¤ķ":635,"à¥Ĥà¤Ĥ":636,"à¤¥à¤²":637,"Ġà¤ªà¤¦à¤µ":638,"à¤¨à¤¤":639,"à¤¶à¤¸":640,"à¤¨à¤®à¤§":641,"à¤¦à¤°à¤®":642,"à¤ªà¤Ł":643,"Ġà¤¤à¤¸":644,"Ġà¤ľà¤µà¤³":645,"à¤ľà¤°":646,"à¤Ĭà¤¨":647,"Ġà¤ļà¤°":648,"à¤ªà¤°à¤²":649,"à¥ĩà¤ĥ":650,"à¤¹à¤£à¤ľ":651,"Ġ10":652,"à¤°à¤¨":653,"à¤Łà¤¬":654,"Ġà¤ĳà¤ķ":655,"à¤£à¤¨":656,"à¤·à¤¦":657,"18":658,"à¤Ľ":659,"Ġà¤ªà¤¶":660,"à¤ķà¤ļ":661,"Ġà¤¤à¤¥":662,"Ġà¤Ĩà¤µà¤¶":663,"Ġà¤¶à¤ķ":664,"Ġ193":665,"à¤ıà¤ķ":666,"Ġà¤¸à¤ª":667,"à¤Ĺà¤³":668,"Ġà¤¹à¤²":669,"à¤µà¤ľ":670,"à¤¦à¤ķ":671,"Ġà¤ıà¤ª":672,"Ġà¤ıà¤ļ":673,"à¤Ĺà¤ļ":674,"Ġà¤®à¤¦":675,"à¤ĩà¤¨":676,"à¤§à¤²":677,"à¤Ĺà¤¨":678,"à¤¿,":679,"Ġ202":680,"Ġà¤ĳà¤¸":681,"à¤§à¤ķ":682,"Ġà¤¦à¤²":683,"à¤¡à¤³":684,"Ġà¤¦à¤°à¤®":685,"à¤ľà¤µà¤³":686,"à¤¯à¤ª":687,"à¤§à¤£":688,"à¤¡à¤ķ":689,"à¤¶à¤®à¤¨":690,"Ġà¤ķà¤¥":691,"Ġ_":692,"à¤µà¤ľà¤¨":693,"à¤°à¤ļà¤¨":694,"Ġà¤¸à¤®à¤°":695,"à¤¡à¤®à¤§":696,"Ġà¤ħà¤ķ":697,"Ġà¤īà¤ļ":698,"à¤ıà¤²":699,"Ġà¤ĳà¤Ĺà¤¸":700,"à¤¯à¤ªà¤¦":701,"à¤µà¤Ł":702,"à¤¤à¤°à¤°":703,"Ġà¤īà¤²":704,"à¤®à¤¸":705,"Ġà¤¨à¤¦":706,"à¤ķà¤£":707,"à¤ķà¤¦":708,"à¤³à¤µà¤²":709,"Ġà¤ıà¤¡":710,"à¤²à¤¤":711,"à¥ĩ)":712,"à¤¤à¤®":713,"à¥ĩ;":714,"Ġà¤²à¤¹":715,"à¤ĳ":716,"à¤®à¤²":717,"Ġà¤®à¤¦à¤¤":718,"à¤µà¤¯":719,"à¤ıà¤¨":720,"Ġà¤®à¤¹à¤¤":721,"Ġ16":722,"Ġ12":723,"à¤ķà¤Ł":724,"à¤Ńà¤µ":725,"Ġà¤Ĩà¤ªà¤²":726,"à¤·à¤¤":727,"à¤ķà¤¶":728,"Ġà¤Ĩà¤¶":729,"Ġà¤µà¤¯":730,"Ġà¤Ĩà¤£à¤ĸ":731,"à¥Ģ)":732,"à¤¾-":733,"Ġà¤®à¤°":734,"à¤µà¤¶":735,"199":736,"à¤¤à¤¤":737,"à¤ªà¤ļ":738,"à¤ļà¤²":739,"Ġà¤ĩà¤¤":740,"à¤Ĺà¤¦":741,"Ġà¤ªà¤°à¤µ":742,"à¤¹à¤Łà¤²":743,"à¤¸à¤µ":744,"Ġà¤Ķ":745,"à¤¾\"":746,"à¤ĺà¤Łà¤¨":747,"à¤¹à¤°à¤£":748,"à¥Ģ\"":749,"à¤¬à¤²":750,"à¤¨à¤¡":751,"à¤¡à¤¤":752,"à¤°à¤ķà¤²":753,"Ġà¤¸à¤®à¤¸":754,"Ġà¤¤à¤ª":755,".)":756,"Ġà¤ıà¤ķà¤¤":757,"à¤¸à¤®":758,"à¥ĩ'":759,"Ġà¤ľà¤¹":760,"Ġà¤¶à¤¤à¤ķ":761,"à¤¹à¤£à¤¤":762,"Ġ14":763,"Ġà¤Ĩà¤¢":764,"à¥ĩ\"":765,"à¤¾)":766,"à¤ķà¤®à¤§":767,"à¤µà¤Łà¤ļ":768,"à¤£à¤¯":769,"<<<<<<<<<<<<<<<<":770,"à¤ªà¤·":771,"à¤¢à¤²":772,"à¤ļà¤£":773,"à¤¥à¤³":774,"Ġà¤¶à¤°":775,"à¤¤à¤°à¤ļ":776,"à¤²à¤®à¤§":777,"à¥ĩ.\"":778,"Ġà¤īà¤ĺ":779,"Ġà¤Ĺà¤£":780,"Ġà¤²à¤·":781,"Ġà¤¸à¤§":782,"Ġà¤ıà¤°":783,"Ġà¤ħà¤ĸ":784,"à¤Ĳ":785,"à¤ĩà¤Ł":786,"à¤¸à¤ª":787,"Ġà¤ķà¤§":788,"à¤ĸà¤°":789,"à¤īà¤¨":790,"Ġà¤²à¤Ĺ":791,"à¤¥à¤¨":792,"Ġ13":793,"Ġà¤Ĳ":794,"à¤¾à¤ģ":795,"à¤ľà¤µ":796,"Ġ2013":797,"à¤ļà¤ļ":798,"à¤µà¤ļ":799,"Ġà¤ĺà¤Łà¤ķ":800,"à¥Ģ.)":801,"à¤¸à¤¦":802,"Ġà¤¨à¤ķ":803,"à¤Ĳà¤µà¤ľ":804,"à¤¨à¤Ĺ":805,"à¤Łà¤µà¤°":806,"à¤²à¤µ":807,"à¤ıà¤®":808,"à¤ĩà¤¡":809,"Ġà¤īà¤ªà¤¸":810,"Ġà¤®à¤¨":811,"à¤ľà¤²":812,"à¤¤à¤³":813,"à¤°à¤¥à¤®":814,"à¤ĩà¤¤":815,"à¤¶à¤µ":816,"Ġà¤¸à¤¹à¤Ń":817,"Ġà¤ħà¤µ":818,"à¤ĩà¤²":819,"à¤Īà¤Ł":820,"à¤Ĩà¤¯":821,"Ġà¤ľà¤Ĺ":822,"à¥ĩ-":823,"Ġ2014":824,"12":825,"à¤¯à¤ļ":826,"à¤¡à¤¬":827,"à¤ĸà¤¨":828,"198":829,"à¤¸à¤¸":830,"Ġà¤ĩà¤¨":831,"à¤Ĩà¤°":832,"à¤Ĺà¤®à¤§":833,"17":834,"à¤¹à¤®":835,"à¤Łà¤®à¤§":836,"à¤ħà¤²":837,"Ġà¤ķà¤¨":838,"Ġà¤ıà¤ķà¤®":839,"Ġà¤¬à¤¨":840,"Ġà¤¸à¤¨":841,"à¤Łà¤¸":842,"à¤¬à¤®":843,"à¤¤à¤ļ":844,"Ġà¤®à¤²":845,"à¤Ĺà¤µ":846,"à¤ĺà¤°":847,"à¤¤à¤ªà¤£":848,"Ġà¤¨à¤®":849,"à¤µà¤ķ":850,"à¤Ĺà¤¡":851,"Ġ30":852,"à¤ľà¤¯":853,"à¤·à¤¯":854,"Ġà¤¸à¤¹à¤ķ":855,"à¤ĸà¤ķ":856,"Ġ2020":857,"Ġ192":858,"10":859,"à¤¦à¤µ":860,"à¤¸à¤¬":861,"Ġ$":862,"Ġà¤¶à¤¸":863,"',":864,"Ġà¤Ĩà¤®":865,"à¤·à¤®à¤¤":866,"Ġ2016":867,"Ġà¤Ĩà¤¦":868,"50":869,"à¤ķà¤ª":870,"Ġà¤¨à¤¸à¤²":871,"Ġà¤®à¤¤à¤¦":872,"Ġà¤Łà¤ª":873,".\"":874,"Ġà¤Ĩà¤ľ":875,"Ġà¤Ĩà¤«":876,"Ġ2010":877,"30":878,"Ġà¤¯à¤¶à¤¸":879,"Ġà¤¶à¤¬":880,"Ġ2019":881,"à¤¹à¤ķ":882,"à¤ĩà¤®":883,"XX":884,"à¤¡à¤¸":885,"Ġ11":886,"Ġà¤§à¤°":887,"Ġà¤¸à¤Ń":888,"Ġ2015":889,"Ġà¤°à¤¶":890,"à¤Łà¤®":891,"Ġà¤¸à¤¤":892,"Ġà¤ªà¤Ł":893,"à¤Łà¤¤":894,"Ġà¤ķà¤ª":895,"à¤³à¤µ":896,"Ġà¤ĳà¤²":897,"197":898,"à¤¶à¤¯":899,"à¤²à¤¸":900,"Ġà¤¹à¤¸":901,"Ġà¤¸à¤²":902,"Ġ2011":903,"Ġà¤¨à¤Ĺ":904,"Ġà¤īà¤¡":905,"Ġà¤ĩà¤¸":906,"Ġà¤Ĩà¤Ĺ":907,"à¤°à¤®à¤£":908,"Ġà¤ľà¤ª":909,"Ġà¤ĩà¤²":910,"à¤°à¤¯":911,"à¤·à¤°":912,"Ġ2009":913,"Ġà¤īà¤Ń":914,"à¤Ŀà¤°":915,"Ġà¤ĺà¤Łà¤¨":916,"Ġ2012":917,"Ġ2017":918,"à¤¹à¤µ":919,"Ġà¤ĳà¤ªà¤°":920,"Ġà¤łà¤°à¤²":921,"à¤µà¤°à¤£":922,"à¤¢à¤¤":923,"Ġà¤¤à¤¤":924,"à¤ħà¤®":925,"à¤¡à¤µ":926,"Ġà¤ªà¤°à¤¤à¤²":927,"à¤²à¤µà¤²":928,"à¤¶à¤²":929,"14":930,"Ġà¤¬à¤¸":931,"à¤ĸà¤²":932,"à¤²à¤£":933,"Ġ2008":934,"à¤¦à¤®":935,"à¤Łà¤°à¤ļ":936,"Ġà¤Ĩà¤łà¤µà¤¡":937,"à¤¨à¤¶":938,"à¤ıà¤°":939,"Ġ2018":940,"à¤ķà¤®":941,"à¥ĭ-":942,"16":943,"à¤ľà¤Ĺ":944,"à¤£à¤ªà¤£":945,"Ġà¤°à¤¹":946,"Ġ25":947,"Ġà¤¦à¤¹":948,"Ġ2007":949,"Ġ190":950,"à¤¤à¤ª":951,"Ġà¤ĩà¤ļ":952,"Ġà¤Ĳà¤¤":953,"Ġà¤Ĺà¤°":954,"Ġà¤īà¤°":955,"à¤ĩà¤¸":956,"Ġà¤ĳà¤°":957,"Ġà¤łà¤°":958,"....":959,"à¤Ńà¤°":960,"à¥Īà¤Ĥ":961,"à¤Ĭà¤¸":962,"à¤¨à¤¬":963,"à¤µà¤§":964,"à¤¯à¤¬":965,"à¤¦à¤µà¤²":966,"à¤·à¤®":967,"Ġà¤īà¤¨":968,"Ġà¤µà¤°à¤ļ":969,"Ġ2021":970,"à¤°à¤§":971,"Ġ24":972,"Ġà¤īà¤ªà¤²à¤¬":973,"Ġà¤«à¤ķ":974,"à¤µà¤¡à¤²":975,"à¤¨à¤¬à¤°":976,"à¤¤à¤°à¤£":977,"à¤¨à¤®":978,"à¤ľà¤ļ":979,"15":980,"Ġ23":981,"Ġà¤¹à¤°":982,"Ġà¤ħà¤¬":983,"Ġà¤ĩà¤Ł":984,"Ġà¤¤à¤³":985,"Ġ100":986,"à¤ıà¤ļ":987,"Ġà¤¬à¤ļ":988,"à¤®à¤¶":989,"à¤ªà¤¸":990,"à¤«à¤°":991,"Ġ22":992,"Ġà¤īà¤ªà¤ķ":993,"à¤²à¤®à¤¤":994,"Ġà¤µà¤¡":995,"Ġà¤īà¤®":996,"Ġ2006":997,"Ġ50":998,"à¤°à¤¥":999,"à¤Łà¤µ":1000,"à¤¡à¤®":1001,"à¤¨à¤¤à¤³":1002,"Ġà¤ªà¤¡à¤²":1003,"Ġà¤ķà¤ł":1004,"196":1005,"à¥Ģà¤ĥ":1006,"à¤Łà¤¨à¤ļ":1007,"Ġà¤ĵà¤²":1008,"Ġà¤ħà¤Ĺà¤¦":1009,"Ġà¤°à¤ķ":1010,"à¤¥à¤ķ":1011,"13":1012,"II":1013,"Ġ0":1014,"à¤¤à¤¸":1015,"Ġà¤ķà¤µ":1016,"Ġà¤ħà¤¹à¤µ":1017,"à¤³à¤µà¤£":1018,"à¤¹à¤²":1019,"à¤°à¤ķà¤°à¤£":1020,"à¤¸à¤¬à¤°":1021,"Ġà¤ħà¤¦":1022,"Ġà¤¶à¤ķà¤²":1023,"Ġ21":1024,"Ġà¤īà¤ªà¤ķà¤°à¤£":1025,"à¤²à¤²":1026,"à¤µà¤Ń":1027,"à¤¶à¤¨à¤²":1028,"à¤¬à¤¨":1029,"Ġà¤ıà¤ķà¤²":1030,"à¥ħà¤Ĥ":1031,"à¤¾à¤ĥ":1032,"Ġà¤ħà¤¯":1033,"Ġ27":1034,"Ġ188":1035,"Ġà¤ľà¤µà¤³à¤ľà¤µà¤³":1036,"Ġà¤Ķà¤·":1037,"11":1038,"à¤¾;":1039,"Ġ28":1040,"Ġà¤¨à¤Ĺà¤°à¤ª":1041,"à¤¸à¤£":1042,"Ġà¤Ĩà¤ĺ":1043,"à¤ħà¤¨":1044,"Ġà¤²à¤ĺ":1045,"Ġ186":1046,"à¤«à¤¨":1047,"Ġ2004":1048,"à¤¯à¤¶":1049,"Ġà¤ľà¤¬":1050,"22":1051,"à¥Ģ;":1052,"Ġà¤ľà¤¸":1053,"Ġ\"\"":1054,"Ġà¤ľà¤µà¤³à¤ļ":1055,"à¤®à¤®à¤§":1056,"Ġà¤ķà¤¸":1057,"Ġà¤®à¤ľ":1058,"Ġà¤µà¤Ĺ":1059,"à¤²à¤ª":1060,"Ġà¤ĩà¤°":1061,"à¤ıà¤«":1062,"à¤¶à¤¨à¤ļ":1063,"ĭà¤¤":1064,"à¤µà¤ª":1065,"Ġà¤¤à¤²":1066,"Ġà¤īà¤ĺà¤¡":1067,"Ġà¤µà¤ķ":1068,"Ġà¤µà¤¨à¤¸":1069,"à¤ľà¤®":1070,"Ġà¤²à¤µ":1071,"à¤īà¤¤":1072,"Ġ187":1073,"Ġà¤ħà¤¡":1074,"Ġà¤ıà¤ĸ":1075,"Ġà¤Ńà¤µ":1076,"à¤ıà¤¤":1077,"à¤Ĩà¤£":1078,"Ġà¤°à¤¦":1079,"21":1080,"Ġà¤Ĩà¤Ī":1081,"Ġ2000":1082,"Ġ40":1083,"Ġ189":1084,"Ġà¤Ķà¤·à¤§":1085,"Ġà¤¢":1086,"Ġ26":1087,"Ġà¤«à¤°":1088,"à¤Łà¤«":1089,"Ġà¤¹à¤¤":1090,"Ġ()":1091,"à¤ķà¤°à¤ļ":1092,"à¤ĵà¤¨":1093,"à¤Ĺà¤£à¤¨":1094,"à¤²à¤®":1095,"à¤¥à¤°":1096,"à¤°à¤¬":1097,"à¤¯à¤µà¤¹":1098,"à¤¨à¤¦":1099,".-":1100,"à¤¡à¤ª":1101,"Ġ2003":1102,"Ġ2005":1103,"Ġà¤ľà¤¨à¤Ĺà¤£à¤¨":1104,"<<<<<<<<<<<<<<<<<<<<<<<<<<<<<<<<":1105,"Ġà¤Ĩà¤£à¤²":1106,"à¤Īà¤¸":1107,"Ġ2022":1108,"Ġà¤Ĺà¤µ":1109,"Ġ2001":1110,"à¤°à¤«":1111,"à¤ľà¤¸":1112,"à¤³à¤µà¤³":1113,"Ġà¤¯à¤¶":1114,"à¤ķà¤§":1115,"Ġ29":1116,"Ġà¤Łà¤°":1117,"à¤°à¤Ĺ":1118,"à¥ĭ'":1119,"à¤¦à¤£":1120,"à¥Ĥ-":1121,"à¤Ĺà¤Ł":1122,"à¤¡à¤°à¤²":1123,"à¤ĸà¤®":1124,"Ġà¤ļà¤³à¤µà¤³":1125,"à¤¢à¤µà¤£":1126,"à¤ĩà¤ķ":1127,"à¤ķà¤µ":1128,"Ġà¤¸à¤ļ":1129,"à¤Ĺà¤«":1130,"Ġà¤ħà¤ļ":1131,"à¤ĸà¤¤":1132,"Ġà¤ªà¤°à¤¸":1133,"à¤ħà¤ª":1134,"à¤Ĺà¤£à¤ķ":1135,"à¤ªà¤ķà¤²":1136,"194":1137,"\",":1138,"Ġ=":1139,"à¤¨à¤«":1140,"à¤¡à¤Ĺ":1141,"25":1142,"à¤ªà¤¡à¤²":1143,"Ġà¤®à¤¸":1144,"Ġà¤Ĺà¤¤":1145,"à¤¬à¤°à¤ļ":1146,"Ġà¤Ĩà¤¯à¤°":1147,"Ġà¤¤à¤ªà¤¶":1148,"Ġà¤ĸà¤Łà¤²":1149,"Ġà¤ĩà¤Łà¤²":1150,"à¤ħà¤¸":1151,"Ġà¤ħà¤¯à¤¶à¤¸":1152,"Ġà¤ķà¤£":1153,"à¤§à¤°":1154,"à¤łà¤µà¤£":1155,"à¤Ŀà¤¨":1156,"Ġ31":1157,"à¤ĸà¤£":1158,"à¤Īà¤ªà¤°":1159,"Ġ1980":1160,"Ġà¤Ĭ":1161,"à¤²à¤Ń":1162,"Ġà¤Ĩà¤ķà¤°":1163,"à¤¡à¤¦":1164,"à¤łà¤µà¤²":1165,"à¤¯à¤ķà¤¤":1166,"à¤īà¤¦":1167,"Ġà¤ľà¤¨à¤°à¤²":1168,"%)":1169,"Ġ(\"":1170,"à¤Łà¤°à¤¨":1171,"à¤Ĩà¤§":1172,"à¤ªà¤®à¤§":1173,"Ġà¤ľà¤ĸà¤®":1174,"à¤Łà¤ª":1175,"Ġà¤ĩà¤¤à¤ķ":1176,"à¤¢à¤£":1177,"Ġà¤īà¤ªà¤ļ":1178,"Ġ185":1179,"Ġ[":1180,"à¤¤à¤ªà¤¤":1181,"à¤®à¤¹":1182,"à¤ªà¤°à¤£":1183,"Ġà¤ªà¤°à¤¦":1184,"Ġ2002":1185,"Ġ1990":1186,"Ġà¤¬à¤¦à¤²à¤²":1187,"Ġà¤Ĺà¤®":1188,"à¥Ĥ,":1189,"Ġà¤¦à¤Ĺà¤¡":1190,"à¤¯à¤µà¤°":1191,"à¤ļà¤®à¤§":1192,"Ġà¤¨à¤¸à¤¤":1193,"Ġà¤¸à¤¹à¤¸":1194,"Ġ1999":1195,"\".":1196,"28":1197,"40":1198,"à¤¯à¤°à¤¤":1199,"à¤¯à¤Ń":1200,"à¤ķà¤ªà¤£":1201,"23":1202,"à¤¯à¤¨à¤ļ":1203,"à¤®à¤²à¤¬":1204,"Ġà¤Ĩà¤¨":1205,"Ġà¤ªà¤Łà¤ķ":1206,"à¤Ĺà¤®":1207,"Ġà¤ļà¤ķ":1208,"à¤Īà¤¨":1209,"XXXX":1210,"à¤¯à¤¯":1211,"Ġà¤ªà¤²":1212,"à¥ģ.":1213,"Ġà¤¨à¤·":1214,"à¤°à¤ªà¤¤":1215,"60":1216,"à¤ªà¤°à¤®":1217,"Ġà¤ħà¤µà¤²":1218,"95":1219,"à¤¯à¤¡":1220,"à¤ļà¤²à¤¨":1221,"à¤ªà¤®":1222,"Ġà¤µà¤¨":1223,"à¤Łà¤¨à¤®à¤§":1224,"Ġ1970":1225,"ĠII":1226,"à¤²à¤µà¤¤":1227,"Ġà¤¨à¤Ĭ":1228,"à¤¬à¤¸":1229,"à¤łà¤ķ":1230,"Ġà¤ħà¤¸à¤£":1231,"Ġà¤Ĩà¤¢à¤³à¤¤":1232,"Ġà¤®à¤ľà¤¬":1233,"à¤Łà¤£":1234,"à¤¡à¤µà¤°":1235,"195":1236,"Ġ1960":1237,"à¤®à¤²à¤¬à¤ľ":1238,"24":1239,"à¤°à¤µà¤°":1240,"Ġà¤ĵà¤°":1241,"à¤ļà¤µ":1242,"Ġ('":1243,"à¤¡à¤°à¤®":1244,"à¤¸à¤°à¤²":1245,"Ġà¤Ķà¤ªà¤ļ":1246,"Ġà¤¦à¤¶":1247,"à¤¥à¤µ":1248,"à¥Ģ.-":1249,"Ġà¤ĳà¤¨":1250,"Ġ65":1251,"Ġà¤Īà¤¶":1252,"à¤¨à¤¸à¤Ń":1253,"Ġà¤Ĭà¤°":1254,"Ġà¤ıà¤ķà¤¦":1255,"à¤Ĩà¤¨":1256,"Ġà¤ķà¤¡":1257,"Ġà¤ªà¤³":1258,"Ġà¤Ĩà¤£à¤£":1259,"Ġà¤Ĺà¤°à¤ľ":1260,"à¤¢à¤ļ":1261,"à¤ļà¤¯":1262,"à¤¸à¤¨à¤¨":1263,"Ġà¤¦à¤¶à¤²à¤ķ":1264,"à¤°à¤°":1265,"à¤¶à¤µà¤¤":1266,"à¤¯à¤¤à¤ķ":1267,"Ġà¤µà¤Ĺà¤³à¤¤":1268,"à¤°à¤ªà¤£":1269,"à¤¸à¤µà¤°":1270,"Ġ1945":1271,"27":1272,"à¤¶à¤ª":1273,"à¤łà¤Ń":1274,"à¤ĵà¤²":1275,"Ġà¤īà¤ĺà¤¡à¤²":1276,"à¤°à¤®à¤§":1277,"Ġà¤ķà¤¦":1278,"à¤ªà¤°à¤¤":1279,"à¤Ĺà¤¦à¤°":1280,"Ġà¤Ńà¤°":1281,"Ġà¤ĵà¤¹":1282,"Ġà¤¥à¤°":1283,"Ġ1992":1284,"26":1285,"à¤¤à¤¹":1286,"à¤ķà¤ķ":1287,"Ġà¤¶à¤¤":1288,"à¤ļà¤¤":1289,"Ġà¤ªà¤ķà¤¡":1290,"à¤°à¤µà¤ł":1291,"Ġ1993":1292,"........":1293,"Ġà¤µà¤ľà¤¨":1294,"à¥ī.":1295,"Ġà¤«à¤°à¤ķ":1296,"Ġ1998":1297,"37":1298,"à¤²à¤µà¤£":1299,"à¥Ĥ'":1300,"à¤¸à¤¨à¤ļ":1301,"Ġ1996":1302,"à¤ĳà¤«":1303,"à¤°à¤®à¤µ":1304,"Ġà¤¸à¤®à¤ľ":1305,"à¤¢à¤±":1306,"à¤¯à¤¨à¤¶":1307,"Ġà¤ıà¤¡à¤®":1308,"Ġà¤¬à¤¨à¤µà¤²":1309,"80":1310,"Ġà¤ķà¤¬":1311,"Ġà¤¹à¤ķ":1312,"à¤¢à¤°":1313,"à¤ļà¤ķ":1314,"à¤ªà¤¹":1315,"à¤ªà¤¶":1316,"Ġà¤®à¤°à¤£":1317,"Ġà¤®à¤ľà¤²":1318,"à¤¦à¤³":1319,"à¤¯à¤®à¤¸":1320,"Ġ1944":1321,"Ġ2023":1322,"à¤¯à¤Ŀ":1323,"à¤¤à¤Ĳà¤µà¤ľ":1324,"Ġà¤¹à¤²à¤ķ":1325,"à¤ľà¤®à¤§":1326,"à¤¯à¤ķà¤°":1327,"Ġ60":1328,"70":1329,"à¤§à¤ļ":1330,"Ġà¤ıà¤ķà¤¤à¤°":1331,"à¤īà¤¥":1332,"Ġà¤īà¤²à¤Ł":1333,"Ġà¤ĭà¤¤":1334,"à¤ķà¤¬":1335,"à¤£à¤®à¤¤":1336,"Ġà¤¹à¤®":1337,"Ġà¤¦à¤¸":1338,"Ġà¤īà¤ªà¤¨":1339,"à¤īà¤²":1340,"Ġ1995":1341,"Ġ1950":1342,"à¤£à¤®à¤¤à¤µ":1343,"35":1344,"à¤ļà¤¸":1345,"Ġà¤Ĩà¤µà¤¡":1346,"à¤Ĺà¤¶":1347,"à¤ĺà¤ķ":1348,"à¤¿.":1349,"à¤²à¤µà¤°":1350,"à¤¹à¤³":1351,"à¤ľà¤ª":1352,"à¤µà¤°à¤ļ":1353,"Ġà¤Ĩà¤¯à¤¡":1354,"Ġà¤²à¤µà¤ķà¤°à¤ļ":1355,"2000":1356,"Ġà¤¸à¤²à¤Ĺ":1357,"à¤ĩà¤µ":1358,"à¤Łà¤°à¤®à¤§":1359,"à¥Įà¤Ĥ":1360,"Ġ1987":1361,"Ġà¤¬à¤¦à¤²à¤£":1362,"38":1363,"Ġ<":1364,"à¥ĩ),":1365,"à¤¤à¤µà¤£":1366,"à¤ľà¤¦":1367,"Ġ184":1368,"Ġ1994":1369,"à¤²à¤¬à¤ļ":1370,"Ġ1988":1371,"à¥ĩ\".":1372,"Ġà¤ħà¤¡à¤¥à¤³":1373,"à¤®à¤¦":1374,"Ġà¤Ĩà¤ªà¤¤":1375,"à¤ªà¤¬":1376,"Ġà¤ľà¤²":1377,"à¤ĸà¤²à¤¨":1378,"Ġà¤īà¤ľà¤µ":1379,"Ġà¤ĩà¤ľ":1380,"190":1381,"31":1382,"à¤°à¤Ĺà¤¤":1383,"à¤¯à¤°à¤ļ":1384,"Ġà¤ķà¤Ł":1385,"Ġà¤¬à¤³":1386,"à¤ķà¤²à¤¨":1387,"à¤ĵà¤¸":1388,"Ġ1997":1389,"Ġà¤Ĩà¤¢à¤³à¤²":1390,"Ġà¤®à¤¶":1391,"à¥Ģ.\"":1392,"à¤¾.\"":1393,"à¤¦à¤²à¤ļ":1394,"Ġà¤ªà¤¦à¤ķ":1395,".,":1396,"Ġà¤¨à¤°":1397,"Ġ1991":1398,"Ġ70":1399,"à¤²à¤¬à¤°":1400,"à¤¸à¤ľ":1401,"à¤£à¤µ":1402,"Ġà¤Ĩà¤¦à¤°":1403,"Ġà¤¤à¤ķ":1404,"à¤ªà¤°à¤¸":1405,"Ġà¤¹à¤²à¤µà¤£":1406,"à¤¯à¤¥":1407,"à¤¨à¤µà¤°":1408,"à¤Ĺà¤¹":1409,"Ġà¤¤à¤ľ":1410,"à¤Īà¤ļ":1411,"à¤¡à¤¨à¤®à¤§":1412,"49":1413,"Ġ+":1414,"à¤¨à¤¯":1415,"à¤ķà¤¥":1416,"à¤®à¤¯":1417,"à¥ĭà¤ĥ":1418,"Ġà¤ĩà¤µ":1419,"Ġà¤¦à¤°à¤µà¤°":1420,"Ġ1946":1421,"29":1422,"Ġà¤¬à¤ľ":1423,"Ġà¤ĸà¤¡à¤ķ":1424,"Ġà¤ĵà¤ªà¤¨":1425,"Ġà¤īà¤ªà¤µ":1426,"Ġ1940":1427,"Ġ1941":1428,"Ġ1972":1429,"\")":1430,"Ġà¤Ĩà¤ķà¤¡":1431,"à¤ĺà¤¨":1432,"à¤ĵà¤ļ":1433,"à¤ªà¤£à¤¨":1434,"à¥ĩ).":1435,"Ġà¤ķà¤ļà¤°":1436,"Ġà¤¸à¤¶à¤¸":1437,"Ġà¤ªà¤¡à¤£":1438,"Ġà¤ħà¤Łà¤ķ":1439,"à¤·à¤ªà¤¦":1440,"Ġà¤ıà¤ľ":1441,"à¤³à¤µà¤¤":1442,"à¤ıà¤¶à¤¨":1443,"2010":1444,"à¤«à¤ļ":1445,"à¤ıà¤¤à¤¨":1446,"Ġ1984":1447,"Ġ1989":1448,"2001":1449,"Ġà¤Ĩà¤¢à¤³":1450,"39":1451,"à¤¤à¤¦":1452,"à¤¤à¤ķà¤°":1453,"Ġà¤Ĩà¤¸à¤ª":1454,"à¤¶à¤¤à¤µ":1455,"à¤³à¤ľ":1456,"Ġà¤Ńà¤°à¤¤":1457,"Ġà¤¸à¤®à¤ķ":1458,"Ġà¤ĵà¤ķ":1459,"Ġ51":1460,"Ġ1943":1461,"Ġà¤ıà¤¡à¤µà¤°":1462,"Ġà¤ªà¤¡à¤¤":1463,"à¤Ĺà¤ķ":1464,"à¤¬à¤ļ":1465,"Ġà¤ıà¤Ł":1466,"Ġà¤ĵà¤¬":1467,"Ġ1968":1468,"à¤°à¤µà¤£":1469,"à¤¸à¤«":1470,"Ġà¤¬à¤²":1471,"à¤ĸà¤µà¤²":1472,"Ġà¤īà¤¤à¤°":1473,"Ġà¤Ńà¤°à¤²":1474,"à¤Īà¤Ŀ":1475,"à¤Ĩà¤¤":1476,"2014":1477,"Ġà¤Ķà¤¦":1478,"Ġà¤ĸà¤¡":1479,"Ġà¤ĳà¤¨à¤²":1480,"Ġà¤ĵà¤Ł":1481,"Ġà¤¸à¤¹à¤ľ":1482,"Ġà¤īà¤ªà¤¯":1483,"Ġ1967":1484,"Ġà¤¦à¤¹à¤¶à¤¤à¤µ":1485,"36":1486,"à¤¯à¤ľ":1487,"à¤¨à¤ª":1488,"à¤¸à¤Ł":1489,"à¤£à¤ķ":1490,"à¤«à¤²":1491,"Ġà¤ĺà¤¨à¤¤":1492,"Ġ32":1493,"à¤¯à¤Łà¤¨":1494,"à¤¡à¤¨à¤ļ":1495,"à¥Ģ.,":1496,"à¤ľà¤¨à¤¨":1497,"Ġà¤¸à¤¹à¤®à¤¤":1498,"Ġ48":1499,"Ġ1966":1500,"2016":1501,"Ġ1939":1502,"à¤¡à¤°à¤®à¤¨":1503,"34":1504,"à¤¸à¤¶":1505,"à¤£à¤µà¤¤":1506,"Ġà¤ªà¤¸à¤°à¤²":1507,"à¤ľà¤§":1508,"Ġà¤¬à¤Ł":1509,"Ġà¤ļà¤¤":1510,"Ġ45":1511,"Ġ1986":1512,"Ġà¤ķà¤µà¤ļ":1513,"Ġà¤ªà¤£":1514,"à¤¡à¤°à¤¸":1515,"Ġà¤ħà¤¡à¤ļ":1516,"à¤¶à¤¹à¤°":1517,"à¥īà¤Ĥ":1518,"à¤ĩà¤¤à¤°":1519,"à¤ħà¤°à¤ļ":1520,"Ġ1947":1521,"Ġ1973":1522,"...":1523,"Ġà¤ħà¤¡à¤ļà¤£":1524,"Ġ#":1525,"à¤¸à¤°à¤£":1526,"Ġà¤¹à¤¨":1527,"Ġà¤ļà¤·à¤ķ":1528,"Ġà¤ĺà¤°à¤ļ":1529,"à¤¯à¤ķà¤²":1530,"à¤¬à¤°à¤®à¤§":1531,"à¤Īà¤¤":1532,"à¤Łà¤°à¤²":1533,"Ġà¤ĵà¤µ":1534,"2011":1535,"57":1536,"à¤¤à¤Ĺà¤¤":1537,"à¤ķà¤µà¤°":1538,"Ġà¤Ĩà¤®à¤ļ":1539,"à¤ªà¤°à¤ķ":1540,"Ġà¤ħà¤µà¤¶":1541,"à¤¶à¤°":1542,"à¤¬à¤ķ":1543,"Ġà¤Łà¤ļ":1544,"Ġ1985":1545,"Ġ1969":1546,"à¤°à¤¥à¤®à¤ļ":1547,"à¤®à¤°à¤£":1548,"Ġà¤ªà¤¥à¤ķ":1549,"à¤¶à¤¤":1550,"Ġ1920":1551,"à¤ĩà¤ķà¤°":1552,"à¤ħà¤§":1553,"à¤īà¤Ł":1554,"Ġ36":1555,"Ġà¤¬à¤¦à¤²à¤¤":1556,"Ġ1964":1557,"Ġà¤ľà¤Ĺà¤Ńà¤°":1558,"à¤¨à¤Ń":1559,"Ġà¤Ĩà¤Ń":1560,"Ġà¤¹à¤ľ":1561,"Ġà¤ħà¤Ł":1562,"Ġà¤ľà¤£":1563,"à¤¶à¤¦":1564,"à¤¬à¤¹":1565,"Ġà¤¸à¤¹à¤¯":1566,"Ġ1983":1567,"2013":1568,"33":1569,"Ġ-":1570,"Ġà¤¹à¤³":1571,"à¤ľà¤µà¤²":1572,"à¤ĸà¤Ń":1573,"à¤Īà¤ķ":1574,"2007":1575,"à¤¾),":1576,"à¤¯à¤®à¤¨":1577,"à¤¹à¤ļ":1578,"Ġà¤ıà¤ķà¤Ł":1579,"2020":1580,"à¤²à¤¬à¤®à¤§":1581,"Ġ80":1582,"2015":1583,"Ġà¤Ĩà¤łà¤µà¤£":1584,"à¤ĭà¤¤":1585,"à¤¸à¤¡":1586,"à¤¦à¤¤":1587,"à¤ľà¤£":1588,"à¤·à¤¸":1589,"à¤¬à¤®à¤ļ":1590,"Ġà¤ıà¤¥à¤²":1591,"à¤³à¤ļ":1592,"Ġà¤¡à¤ļ":1593,"à¤ĺà¤Ł":1594,"à¤Łà¤¨à¤¨":1595,"Ġà¤Ĩà¤¯à¤²":1596,"Ġ35":1597,"Ġà¤ķà¤²à¤®":1598,"Ġ1982":1599,"Ġ1975":1600,"à¤¯à¤ªà¤¦à¤ķ":1601,"85":1602,"à¤ķà¤¹":1603,"Ġà¤ħà¤£":1604,"Ġà¤ħà¤Łà¤²":1605,"à¤¶à¤µà¤²":1606,"Ġà¤ıà¤µ":1607,"Ġà¤¬à¤ķ":1608,"Ġà¤īà¤·":1609,"à¥ĥà¤Ĥ":1610,"Ġ57":1611,"Ġ1978":1612,"2017":1613,"')":1614,"à¤°à¤ľà¤¨à¤¨":1615,"à¤¸à¤³à¤²":1616,"à¤ªà¤¯":1617,"Ġà¤łà¤°à¤µà¤²":1618,"Ġà¤īà¤ªà¤¨à¤Ĺà¤°":1619,"75":1620,"89":1621,"à¤£à¤¸":1622,"Ġà¤ªà¤µ":1623,"à¤ľà¤¤":1624,"Ġà¤Ĺà¤µà¤¤":1625,"Ġà¤¶à¤¹":1626,"Ġà¤¡à¤°":1627,"Ġà¤Ńà¤°à¤£":1628,"Ġà¤ĩà¤ķ":1629,"à¤ıà¤Ł":1630,"Ġà¤ĳà¤¡":1631,"Ġà¤®à¤¹à¤¸":1632,"Ġà¤ħà¤ªà¤ĺ":1633,"Ġ1956":1634,"Ġà¤īà¤ĺà¤¡à¤£":1635,"Ġà¤¬à¤¨à¤µà¤£":1636,"Ġà¤ķà¤ªà¤¡":1637,"à¤²à¤¶":1638,"à¤²à¤ªà¤£":1639,"à¤¹à¤¸":1640,"à¤¶à¤ļ":1641,"à¤Īà¤¡":1642,"Ġ1974":1643,"Ġà¤²à¤¢à¤¤":1644,"66":1645,"à¤ļà¤ª":1646,"Ġà¤µà¤ļà¤¨":1647,"à¤¬à¤¡":1648,"Ġà¤¡à¤ķ":1649,"à¤Ŀà¤ļ":1650,"à¤¢à¤µà¤²":1651,"à¥ĭ.\"":1652,"2009":1653,"Ġ1930":1654,"à¤Ĺà¤¦à¤ªà¤¤":1655,"à¤²à¤¹":1656,"à¤ķà¤ħà¤ª":1657,"à¤¸à¤¸à¤¹":1658,"à¥ĭ\"":1659,"à¤¡à¤µà¤²":1660,"Ġà¤¨à¤¸":1661,"Ġà¤ħà¤ªà¤µ":1662,"Ġ1936":1663,"1990":1664,"XXXXXXXX":1665,"Ġà¤Łà¤ļà¤¡":1666,"Ġà¤Ĩà¤¸à¤¨":1667,"à¤Łà¤¦":1668,"à¤¥à¤ļ":1669,"à¤ĸà¤°à¤ļ":1670,"Ġà¤ªà¤°à¤°":1671,"Ġà¤ĩà¤¬":1672,"à¤ĵà¤®à¤§":1673,"à¤¯à¤°à¤¨":1674,"Ġ1942":1675,"Ġ1977":1676,"2012":1677,"Ġ90":1678,"Ġ1938":1679,"Ġà¤ªà¤Łà¤ķà¤¥":1680,"76":1681,"à¤¯à¤Ĺ":1682,"à¤µà¤¦":1683,"à¤ļà¤µà¤²":1684,"Ġà¤ªà¤¸":1685,"à¤§à¤µ":1686,"à¤¶à¤Ń":1687,"à¤ľà¤µà¤¤":1688,"à¤³à¤¸":1689,"à¥ĩ...":1690,"Ġà¤°à¤µ":1691,"Ġà¤Ĺà¤¡à¤¦":1692,"Ġà¤īà¤Ł":1693,"Ġ1919":1694,"à¤Ŀà¤®":1695,"Ġ1948":1696,"Ġ1971":1697,"Ġ1979":1698,"à¤ĳà¤ķ":1699,"à¤²à¤ªà¤Ł":1700,"Ġà¤¸à¤¤à¤¤":1701,"Ġà¤ªà¤¨":1702,"Ġà¤ħà¤«":1703,"Ġà¤Łà¤¨":1704,"à¤ħà¤Ń":1705,"à¤¯à¤®à¤ļ":1706,"à¤¹à¤¤à¤µ":1707,"Ġ44":1708,"à¤ªà¤°à¤ķà¤°":1709,".>":1710,"32":1711,"67":1712,"à¤¾).":1713,"à¤¯à¤ªà¤£":1714,"à¤¿-":1715,"à¤²à¤«":1716,"Ġà¤ķà¤¬à¤°":1717,"à¥ģ-":1718,"Ġà¤µà¤³à¤£":1719,"Ġà¤ĺà¤Ł":1720,"Ġà¤ĺà¤¡":1721,"Ġà¤¸à¤®à¤¤":1722,"Ġ500":1723,"Ġ1965":1724,"à¤¤à¤µà¤µ":1725,"Ġà¤Ĩà¤łà¤µ":1726,"Ġ1935":1727,"à¤°à¤¡":1728,"à¤°à¤³":1729,"à¤¸à¤§":1730,"à¤£à¤ĺ":1731,"à¥ĭ)":1732,"Ġà¤ıà¤ħà¤°":1733,"Ġà¤Ĺà¤£à¤¨":1734,"Ġà¤ĩà¤¶":1735,"Ġà¤§à¤°à¤£":1736,"Ġà¤īà¤¦à¤¯":1737,"Ġ75":1738,"Ġà¤łà¤°à¤µà¤£":1739,"Ġà¤Ĩà¤µà¤¡à¤¤":1740,"nk":1741,"unk":1742,"à¤®à¤µ":1743,"à¤®à¤ª":1744,"à¤¬à¤Ł":1745,"à¤ĸà¤ª":1746,"à¤ıà¤¡":1747,"à¤Łà¤¨à¤²":1748,"à¤¯à¤¦à¤³":1749,"Ġà¤Īà¤¸":1750,"à¤¬à¤¤à¤ļ":1751,"Ġ1976":1752,"Ġ1951":1753,"2005":1754,"2008":1755,"1999":1756,"'.":1757,"45":1758,"à¤Łà¤¶":1759,"Ġà¤®à¤ľà¤ķ":1760,"Ġà¤«à¤¸":1761,"Ġ1981":1762,"Ġ157":1763,"1980":1764,"88":1765,"90":1766,"96":1767,"à¤ļà¤µà¤£":1768,"à¤£à¤Ĺ":1769,"à¤Łà¤ªà¤£":1770,"à¤Ĺà¤¨à¤ļ":1771,"à¤¡à¤¶":1772,"Ġà¤¬à¤¸à¤²":1773,"à¤¤à¤°à¤¤":1774,"Ġà¤ıà¤ķà¤ķ":1775,"Ġ(-":1776,"à¤°à¤®à¤¤à¤µ":1777,"Ġà¤¸à¤®à¤¨":1778,"à¤°à¤µà¤¯":1779,"Ġ180":1780,"à¤ľà¤µà¤³à¤ļ":1781,"à¤¡à¤°à¤¸à¤¨":1782,"46":1783,"à¥Ģ/":1784,"à¤ķà¤Ĺ":1785,"à¤£à¤¬":1786,"Ġà¤ħà¤ªà¤°":1787,"Ġà¤ħà¤ķà¤°":1788,"Ġà¤¬à¤¨à¤¤":1789,"Ġà¤ĺà¤¡à¤²":1790,"Ġà¤ĳà¤ª":1791,"à¤ĥ,":1792,"à¤Łà¤°à¤«":1793,"Ġ38":1794,"2019":1795,"Ġ1963":1796,"à¤¤à¤¥":1797,"à¤ķà¤µà¤²":1798,"à¤µà¤µ":1799,"Ġà¤Ĩà¤ªà¤£":1800,"à¤ªà¤µà¤²":1801,"à¤¦à¤Ĺ":1802,"Ġà¤¦à¤«à¤¨":1803,"à¤°à¤®à¤ķ":1804,"à¤ıà¤ª":1805,"à¤°à¤ªà¤Łà¤Ĺ":1806,"Ġ64":1807,"Ġà¤ħà¤ªà¤¯à¤¶":1808,"à¤Ĩà¤¯à¤¡":1809,"Ġà¤Ĩà¤Ĺà¤®à¤¨":1810,"................":1811,"à¥Ģ).":1812,"à¤¤à¤£":1813,"à¤¸à¤«à¤°":1814,"Ġà¤¯à¤ľà¤®":1815,"Ġà¤ĵà¤¸":1816,"Ġ33":1817,"Ġ37":1818,"2021":1819,"Ġ1961":1820,"Ġ1953":1821,"Ġ1955":1822,"2004":1823,"<<<<<<<<<<<<<<<<<<<<<<<<<<<<<<<<<<<<<<<<<<<<<<<<<<<<<<<<<<<<<<<<":1824,"à¤°à¤«à¤³":1825,"100":1826,"41":1827,"55":1828,"97":1829,"à¥Ģ),":1830,"à¤µà¤¹à¤¨":1831,"à¤ªà¤¥":1832,"à¤Ĺà¤®à¤¨":1833,"Ġà¤¤à¤ªà¤ķ":1834,"à¤¡à¤ĸ":1835,"Ġà¤¦à¤¬":1836,"à¤«à¤°à¤¨":1837,"Ġà¤ªà¤°à¤Ĺà¤£":1838,"Ġà¤ĳà¤¬":1839,"à¤ķà¤°à¤¬":1840,"à¤¯à¤®à¤¯":1841,"à¤²à¤¬à¤¨":1842,"Ġ1949":1843,"Ġà¤¹à¤²à¤µà¤²":1844,"Ġà¤¨à¤Ĺà¤°à¤¸":1845,"Ġà¤¢à¤ķà¤²":1846,"ĠIII":1847,"Ġà¤ªà¤ķà¤¡à¤²":1848,"99":1849,"à¤£à¤§":1850,"à¤®à¤ľ":1851,"Ġà¤¸à¤ľ":1852,"à¤¡à¤¹":1853,"Ġà¤ıà¤Ĺ":1854,"Ġà¤Ĺà¤°à¤®":1855,"Ġà¤ıà¤ķà¤ļ":1856,"à¤īà¤¸":1857,"à¤ĵà¤µ":1858,"à¤Ĩà¤ľ":1859,"à¤¯à¤°à¤®à¤§":1860,"Ġ1952":1861,"Ġ1954":1862,"Ġà¤¶à¤ķà¤£":1863,"à¤ĳà¤Ĺà¤¸":1864,"à¤µà¤ļà¤·à¤ķ":1865,"Ġà¤«à¤¸à¤µà¤£":1866,"%,":1867,"56":1868,"Ġà¤į":1869,"à¤¯à¤Łà¤ķ":1870,"à¤ķà¤³":1871,"à¤®à¤°à¤ļ":1872,"Ġà¤Ĩà¤ļ":1873,"à¤Łà¤¸à¤¹":1874,"à¤·à¤µà¤²":1875,"à¤¬à¤²à¤°":1876,"à¤¥à¤¶":1877,"à¤łà¤²":1878,"à¤°à¤£à¤ªà¤£":1879,"Ġà¤ıà¤ķà¤°":1880,"à¤ıà¤¶à¤¨à¤ļ":1881,"à¤īà¤ª":1882,"à¤ĵà¤®":1883,"à¤Ĩà¤®":1884,"Ġ34":1885,"Ġà¤ķà¤®à¤¤à¤°à¤¤":1886,"Ġ1962":1887,"Ġ150":1888,"47":1889,"500":1890,"62":1891,"63":1892,"68":1893,"98":1894,"Ġx":1895,"à¤ķà¤µà¤£":1896,"à¤µà¤¹":1897,"Ġà¤¨à¤¯":1898,"Ġà¤Ĺà¤¨":1899,"Ġà¤ĳà¤Ł":1900,"à¤¯à¤¨à¤®à¤§":1901,"Ġà¤Ĩà¤¯à¤µ":1902,"Ġ47":1903,"Ġà¤ľà¤¨à¤¤":1904,"à¤ªà¤¦à¤ķ":1905,"2018":1906,"Ġ1957":1907,"Ġ1958":1908,"2003":1909,"Ġ1937":1910,"à¤µà¤ªà¤Ł":1911,"à¤£à¤ªà¤¦à¤ķ":1912,"à¤®à¤ķà¤°à¤£":1913,"Ġà¤ķà¤ļ":1914,"Ġà¤ķà¤¶":1915,"à¤§à¤³":1916,"à¤¬à¤µà¤²":1917,"à¤µà¤°à¤¹":1918,"à¤Ńà¤µà¤¤":1919,"Ġ1917":1920,"Ġà¤¸à¤®à¤²":1921,"à¤ĩà¤°":1922,"à¤ĩà¤Łà¤ļ":1923,"à¤®à¤ķà¤¦":1924,"Ġà¤ĵà¤³à¤ĸà¤¤":1925,"Ġ1959":1926,"Ġà¤²à¤¢à¤£":1927,"1996":1928,"à¤¾\".":1929,"Ġà¤¬à¤¸à¤µà¤£":1930,"42":1931,"91":1932,"ĠÎ":1933,"à¤¯à¤°à¤ļà¤¨":1934,"à¤¤à¤¶":1935,"à¤¸à¤ķà¤¡":1936,"Ġà¤Ĩà¤¸":1937,"à¤Łà¤®à¤¨":1938,"Ġà¤¤à¤°à¤¤":1939,"à¤¡à¤«":1940,"Ġ1918":1941,"Ġ1912":1942,"à¤Īà¤ª":1943,"à¤Ĩà¤ķ":1944,"Ġà¤Ľà¤¤":1945,"Ġà¤²à¤¢à¤²":1946,"1970":1947,"Ġà¤¸à¤¹à¤ľà¤ªà¤£":1948,"Ġ*":1949,"à¤°à¤¹à¤£":1950,"à¤°à¤µà¤²":1951,"à¤ļà¤µà¤¤":1952,"à¤ªà¤¡":1953,"à¤ªà¤±":1954,"Ġà¤¤à¤¬":1955,"Ġà¤ľà¤¤à¤¨":1956,"à¤¶à¤¬":1957,"à¤łà¤ª":1958,"à¤ıà¤Łà¤°":1959,"à¤Ŀà¤µ":1960,"à¤¦à¤¨à¤¶":1961,"à¥Ģ',":1962,"2006":1963,"Ġà¤¸à¤¸":1964,"à¤ªà¤Ĺ":1965,"à¤ªà¤µà¤£":1966,"Ġà¤ľà¤¡":1967,"à¤¶à¤®":1968,"Ġà¤°à¤Ĺ":1969,"à¤ĸà¤³":1970,"Ġà¤Ńà¤Ĺ":1971,"Ġà¤¸à¤°à¤³":1972,"à¤ĩà¤«":1973,"à¤ħà¤¤":1974,"à¤µà¤¸à¤¨":1975,"à¤µà¤¡à¤ķ":1976,"Ġ39":1977,"Ġà¤ĺà¤°à¤Ĺ":1978,"à¤ĳà¤¸":1979,"à¤īà¤¨à¤Ł":1980,"Ġà¤²à¤µà¤ķà¤°":1981,"48":1982,"78":1983,"à¤¯à¤«":1984,"à¤£à¤ķà¤Ł":1985,"à¤Ĺà¤ľ":1986,"à¤ľà¤µà¤Ł":1987,"Ġà¤Ĩà¤£à¤¤":1988,"à¤¥à¤¸":1989,"à¤ĸà¤µ":1990,"Ġà¤§à¤ķ":1991,"Ġà¤ħà¤°à¤¬":1992,"Ġ1929":1993,"Ġà¤¹à¤°à¤µà¤²":1994,"à¤²à¤¦":1995,"Ġà¤ªà¤Łà¤²":1996,"à¤Ĺà¤Ŀ":1997,"Ġà¤µà¤³à¤²":1998,"à¤ľà¤µà¤£":1999,"Ġà¤¨à¤³":2000,"Ġ(;":2001,"à¤°à¤ķà¤¡":2002,"à¤°à¤¸à¤¹":2003,"à¤¶à¤¨à¤¨":2004,"à¤ľà¤¨à¤ķ":2005,"à¤ľà¤¨à¤°à¤²":2006,"à¤¨à¤°à¤¨":2007,"Ġ67":2008,"Ġ69":2009,"Ġà¤ªà¤°à¤¤à¤£":2010,"2002":2011,"61":2012,"ĠI":2013,"à¤¯à¤±":2014,"à¤¯à¤²à¤¨":2015,"à¤®à¤µà¤°":2016,"à¤®à¤¹à¤¤":2017,"à¤ªà¤¸à¤¨":2018,"Ġà¤°à¤«":2019,"à¤¬à¤°à¤²":2020,"à¤¯à¤¨à¤°":2021,"à¤¦à¤°à¤²":2022,"Ġà¤§à¤®à¤ķ":2023,"à¤¯à¤®à¤®à¤§":2024,"à¤Ĩà¤µ":2025,"Ġà¤¦à¤°à¤¬":2026,"Ġà¤Ľà¤³":2027,"58":2028,"64":2029,"Ġâ":2030,"à¤¤à¤µà¤²":2031,"à¤²à¤°à¤®":2032,"à¤¨à¤Ł":2033,"Ġà¤¸à¤ĸ":2034,"Ġà¤Ĩà¤ī":2035,"Ġà¤®à¤ķ":2036,"à¤Ĺà¤µà¤²":2037,"Ġà¤¤à¤£":2038,"Ġà¤µà¤³à¤¤":2039,"à¤¡à¤°à¤ļ":2040,"à¤¶à¤Ńà¤°":2041,"à¤ľà¤¶":2042,"à¤³à¤¶":2043,"à¤«à¤Ł":2044,"à¤¯à¤¨à¤¨":2045,"à¤Łà¤°à¤ª":2046,"à¤ħà¤Ĺ":2047,"à¤īà¤¡":2048,"à¤ľà¤¨à¤¶":2049,"à¤ĵà¤°":2050,"Ġà¤īà¤ªà¤ª":2051,"Ġà¤īà¤ªà¤Ĺ":2052,"Ġ42":2053,"à¤²à¤¬à¤¸":2054,"Ġà¤ĵà¤³à¤ĸà¤£":2055,"à¤ĳà¤°":2056,"1998":2057,"à¥Ģ\".":2058,"Ġ1923":2059,"Ġà¤¬à¤¸à¤µà¤²":2060,"65":2061,"Â°":2062,"à¤¨à¤¸à¤¹":2063,"à¤ķà¤«":2064,"à¤¸à¤®à¤¸":2065,"à¤®à¤£":2066,"Ġà¤Ĩà¤ĸ":2067,"à¤¦à¤¯":2068,"Ġà¤¹à¤°à¤²":2069,"à¤¶à¤®à¤§":2070,"à¤·à¤±":2071,"à¤³à¤Ĺ":2072,"Ġà¤¬à¤¢à¤¤":2073,"à¤łà¤µ":2074,"Ġà¤«à¤³":2075,"Ġ1914":2076,"Ġ1916":2077,"Ġ1913":2078,"à¤Ŀà¤²":2079,"à¤Łà¤°à¤¸":2080,"à¤ĵà¤ª":2081,"Ġ300":2082,"2022":2083,"Ġ1931":2084,"1994":2085,"à¥ĩ\",":2086,"Ġà¤Ĳà¤ķà¤²":2087,"Ġà¤¬à¤¨à¤£":2088,"à¤¬à¤®à¤®à¤§":2089,".'":2090,"92":2091,"94":2092,"à¤¾/":2093,"à¤°à¤·":2094,"à¤¨à¤Ĺà¤°":2095,"à¤µà¤®à¤§":2096,"Ġà¤¸à¤¬":2097,"à¥ģà¤ĥ":2098,"à¤¦à¤ª":2099,"à¤¡à¤¸à¤¹":2100,"Ġà¤Ńà¤¯":2101,"Ġà¤ĸà¤ľ":2102,"à¤ĩà¤¨à¤ļ":2103,"à¤ĵà¤ķ":2104,"Ġà¤¦à¤²à¤¦à¤²":2105,"à¤ıà¤¨à¤ı":2106,"1997":2107,"Ġà¤Ĩà¤¢à¤³à¤£":2108,"1989":2109,"Ġà¤ªà¤Łà¤µ":2110,"Ġà¤µà¤Ĺà¤³à¤£":2111,"à¤£à¤§à¤°":2112,"à¤®à¤ķà¤¤":2113,"Ġà¤Ĩà¤ĸà¤²":2114,"à¤¬à¤®à¤§":2115,"Ġà¤¶à¤°à¤¦":2116,"à¤ĸà¤¨à¤¨":2117,"Ġà¤ĺà¤Łà¤¸":2118,"à¤Łà¤°à¤µà¤°":2119,"à¤ħà¤ķ":2120,"Ġà¤ĵà¤¡":2121,"à¤¶à¤¨à¤°":2122,"Ġ76":2123,"Ġà¤®à¤¤à¤Ń":2124,"à¤¾',":2125,"1995":2126,"ÃĤ":2127,"à¤¿\"":2128,"Ġà¤ķà¤ķ":2129,"Ġà¤¸à¤¦":2130,"Ġà¤¸à¤¤à¤°":2131,"Ġà¤ªà¤¡à¤¦":2132,"à¤ªà¤µ":2133,"Ġà¤¦à¤°à¤µ":2134,"Ġà¤¬à¤¨à¤µ":2135,"à¤ĸà¤µà¤£":2136,"à¤¤à¤°à¤¬":2137,"Ġà¤ıà¤ķà¤®à¤¤":2138,"Ġà¤īà¤¶":2139,"à¤ĩà¤ľ":2140,"Ġ\",":2141,"à¤¶à¤¨à¤®à¤§":2142,"à¤īà¤¨à¤²":2143,"Ġà¤§à¤°à¤²":2144,"à¤¸à¤¨à¤²":2145,"Ġ41":2146,"à¤¨à¤¸à¤¶":2147,"à¤¦à¤¨à¤¬":2148,"à¤ĩà¤®à¤®à¤¨":2149,"Ġà¤ªà¤ķà¤¡à¤£":2150,"!\"":2151,".),":2152,"71":2153,"à¤¯à¤°à¤²":2154,"à¤¨à¤Ŀ":2155,"à¤ķà¤·":2156,"à¤µà¤µà¤°":2157,"à¤µà¤¤à¤°":2158,"à¤ļà¤®":2159,"à¤£à¤²":2160,"Ġà¤ªà¤¦à¤°":2161,"Ġà¤¹à¤¦":2162,"à¤¶à¤ľ":2163,"à¤¬à¤³":2164,"Ġà¤¬à¤ĸ":2165,"Ġà¤¶à¤¨":2166,"à¤¤à¤°à¤¹":2167,"à¤Ńà¤µà¤²":2168,"Ġà¤«à¤Łà¤ķ":2169,"à¤ıà¤µ":2170,"à¤®à¤¨à¤ļ":2171,"à¤Ĭà¤²":2172,"Ġà¤¦à¤°à¤°":2173,"à¤°à¤Ńà¤°":2174,"Ġ1922":2175,"Ġà¤µà¤ļà¤¨à¤¬à¤¦":2176,"//":2177,"87":2178,"à¤¨à¤ªà¤¦":2179,"à¤¸à¤°à¤ķ":2180,"Ġà¤ıà¤ľà¤¨":2181,"à¥ĩ.)":2182,"Ġ1911":2183,"Ġà¤ĺà¤¨":2184,"Ġà¤¸à¤®à¤Ń":2185,"Ġ\".":2186,"à¤Łà¤°à¤¬":2187,"à¤ħà¤°à¤²":2188,"à¤Ĭà¤ļ":2189,"à¤Łà¤²à¤°":2190,"à¤¯à¤²à¤Ł":2191,"à¤ħà¤°à¤¨":2192,"Ġà¤ħà¤ªà¤¹à¤°à¤£":2193,"Ġ1932":2194,"Ġ1921":2195,"1974":2196,"Ġ1870":2197,"Ġà¤¢à¤Ĺ":2198,"44":2199,"52":2200,"54":2201,"73":2202,"74":2203,"82":2204,"à¤¯à¤²à¤ļ":2205,"à¤¸à¤¦à¤¸":2206,"à¤ļà¤°à¤²":2207,"à¤®à¤Ł":2208,"à¤®à¤¸à¤¨":2209,"Ġà¤¸à¤«":2210,"à¤¦à¤¦":2211,"à¥Ĥ\"":2212,"Ġà¤ħà¤µà¤°":2213,"Ġà¤ħà¤Ŀ":2214,"à¤¬à¤µà¤£":2215,"à¤³à¤ĸ":2216,"Ġà¤¬à¤±":2217,"Ġà¤¶à¤ªà¤¥":2218,"Ġ(<":2219,"Ġà¤Ńà¤°à¤ª":2220,"Ġà¤¸à¤®à¤ľà¤²":2221,"à¤Īà¤ķà¤°":2222,"à¤ĩà¤ª":2223,"à¤ĩà¤¡à¤°":2224,"à¤ħà¤µ":2225,"à¤°à¤ļà¤²":2226,"Ġà¤§à¤¡":2227,"Ġà¤§à¤¡à¤ķ":2228,"à¤¸à¤¨à¤¶":2229,"à¤µà¤¡à¤¤":2230,"Ġà¤ķà¤®à¤ķ":2231,"Ġ52":2232,"Ġ56":2233,"Ġ400":2234,"Ġà¤¡à¤¬à¤²":2235,"à¤īà¤¨à¤¶":2236,"1988":2237,"1973":2238,"Ġà¤°à¤¹à¤¸":2239,"Ġ1908":2240,"Ġà¤ľà¤²à¤¦":2241,"400":2242,"à¤Ķ":2243,"à¤°à¤Ĺà¤£":2244,"à¤²à¤ĸ":2245,"à¤¨à¤ľ":2246,"à¤¨à¤°à¤ļ":2247,"à¤®à¤®":2248,"à¤®à¤¬":2249,"Ġà¤ķà¤³à¤¤":2250,"à¤§à¤Ń":2251,"à¤Ĺà¤ª":2252,"à¤¡à¤®à¤¸":2253,"Ġà¤ľà¤²à¤¤":2254,"à¤ľà¤¬":2255,"à¤ľà¤ªà¤¤":2256,"à¤¬à¤²à¤ļ":2257,"à¤³à¤ķ":2258,"Ġà¤¬à¤¦":2259,"à¤łà¤°":2260,"Ġ1900":2261,"à¤ħà¤¶":2262,"à¤Ĭà¤¨à¤¨":2263,"Ġà¤īà¤¤à¤°à¤£":2264,"Ġ49":2265,"Ġà¤Ľà¤ª":2266,"1992":2267,"à¤¾\",":2268,"à¥ĩ',":2269,"Ġà¤ħà¤µà¤¯à¤µ":2270,"1984":2271,"à¤Ĺà¤¡à¤®à¤®à¤§":2272,"Ġ1902":2273,"XXXXXXXXXXXXXXXX":2274,"Ġà¤ľà¤²à¤¤à¤°à¤£":2275,"!'":2276,"06":2277,"43":2278,"83":2279,"84":2280,"à¤¯à¤°à¤¸":2281,"à¤¿à¤ĥ":2282,"à¤²à¤¸à¤¨":2283,"à¤¨à¤µà¤¤":2284,"à¥ĭ;":2285,"Ġà¤ªà¤¸à¤°":2286,"à¤Łà¤¡":2287,"à¥Ĥ)":2288,"à¤Ĺà¤µà¤¡":2289,"à¤¡à¤ľ":2290,"à¤ľà¤ķà¤¤":2291,"à¤·à¤¯à¤ķ":2292,"à¤¬à¤«":2293,"Ġà¤ļà¤®":2294,"à¤«à¤ĸ":2295,"Ġ1915":2296,"Ġà¤ĸà¤±":2297,"à¤°à¤®à¤¨":2298,"à¤Ĭà¤¨à¤ļ":2299,"à¤ĵà¤¡":2300,"Ġ55":2301,"Ġ46":2302,"Ġ62":2303,"Ġ1933":2304,"à¤ĳà¤¨":2305,"Ġà¤łà¤°à¤µà¤¤":2306,"Ġà¤ķà¤ļà¤±":2307,");":2308,"05":2309,"86":2310,"à¤¯à¤¸à¤¨":2311,"à¤¯à¤¸à¤ļ":2312,"à¤²à¤°à¤ļ":2313,"à¤¸à¤ªà¤°":2314,"à¤¸à¤Łà¤¨":2315,"à¤£à¤µà¤°":2316,"Ġà¤ªà¤Ĺ":2317,"à¤Łà¤Ł":2318,"à¤¡à¤¬à¤°":2319,"Ġà¤°à¤ļà¤²":2320,"à¥Ģ.'":2321,"Ġà¤²à¤¹à¤°":2322,"Ġà¤ļà¤¢":2323,"à¤«à¤¸":2324,"Ġà¤«à¤²":2325,"Ġ'(":2326,"à¤°à¤®à¤°":2327,"à¤®à¤¨à¤¨":2328,"à¤ķà¤¡à¤ļ":2329,"à¤¦à¤°à¤µ":2330,"à¤ħà¤¬":2331,"à¤¹à¤°à¤²":2332,"à¤īà¤ļ":2333,"1950":2334,"à¤µà¤¸à¤®":2335,"à¤ĵà¤Ł":2336,"à¤¯à¤®à¤µà¤°":2337,"Ġà¤Ĩà¤¯à¤¸":2338,"Ġà¤¸à¤¹à¤²":2339,"Ġà¤¸à¤¹à¤¨":2340,"Ġà¤¨à¤µà¤µ":2341,"Ġ85":2342,"1993":2343,"Ġ1924":2344,"Ġà¤Ĩà¤ľà¤¹":2345,"1967":2346,"1968":2347,"Ġà¤ħà¤¡à¤ķà¤²":2348,"51":2349,"93":2350,"à¤°à¤µà¤¤":2351,"à¤ķà¤±":2352,"Ġà¤ķà¤°à¤®à¤£":2353,"Ġà¤ªà¤¡":2354,"Ġà¤ªà¤¬":2355,"à¤Łà¤Ĺ":2356,"à¤ªà¤Łà¤¨":2357,"Ġà¤¹à¤Ł":2358,"Ġà¤ħà¤¶à¤ķ":2359,"à¤·à¤ª":2360,"à¤¬à¤±":2361,"à¤¬à¤¦à¤²":2362,"Ġà¤ıà¤ªà¤²":2363,"Ġà¤Ĺà¤²":2364,"Ġà¤īà¤Ĺ":2365,"Ġ(,":2366,"Ġà¤ĩà¤Ĺ":2367,"à¤ıà¤ı":2368,"Ġà¤łà¤°à¤¤":2369,"à¤°à¤ªà¤¦":2370,"à¤Ĺà¤¤à¤¤":2371,"Ġ72":2372,"à¤ħà¤°à¤«":2373,"Ġà¤¸à¤°à¤ķà¤¤":2374,"à¤ıà¤²à¤¸":2375,"Ġà¤Ĳà¤ķ":2376,"1987":2377,"Ġà¤¬à¤¨à¤µà¤¤":2378,"Ġ1904":2379,"1945":2380,"Ġà¤ħà¤«à¤Ĺ":2381,"./":2382,"72":2383,"à¤°à¤¨à¤ļ":2384,"à¤¯à¤«à¤²":2385,"à¤²à¤¡":2386,"à¤²à¤®à¤¨":2387,"à¤¸à¤Ĺ":2388,"à¤Łà¤µà¤¸":2389,"à¥ģ,":2390,"Ġà¤®à¤ł":2391,"à¤Ĺà¤µà¤°":2392,"Ġà¤µà¤¤":2393,"à¤·à¤Ńà¤°":2394,"à¤¬à¤£":2395,"Ġà¤ıà¤¬":2396,"à¤łà¤µà¤¤":2397,"Ġà¤ļà¤®à¤ķà¤¦":2398,"Ġà¤īà¤Ĺà¤®":2399,"à¤«à¤®à¤§":2400,"Ġà¤ĸà¤¨":2401,"Ġà¤¸à¤°à¤¦":2402,"à¤ĩà¤¤à¤ķ":2403,"Ġà¤ĵà¤®":2404,"à¤ĵà¤µà¤°":2405,"à¥Ĥ.)":2406,"Ġà¤ªà¤¦à¤ļ":2407,"Ġà¤Ĩà¤µà¤°à¤£":2408,"à¤Ľà¤¤":2409,"Ġ1927":2410,"1960":2411,"à¤¶à¤Ńà¤ķ":2412,"ĠÎ±":2413,"01":2414,"53":2415,"77":2416,"81":2417,"<>":2418,"Ð¾":2419,"Ġp":2420,"Ġ<<<<<<<<<<<<<<<<<<<<<<<<<<<<<<<<<<<<<<<<<<<<<<<<<<<<<<<<<<<<<<<<":2421,"à¤¨à¤ªà¤°":2422,"à¤Ĥ-":2423,"à¤¸à¤ĸ":2424,"à¤¸à¤®à¤°":2425,"à¤£à¤ļ":2426,"à¤¹à¤±":2427,"à¤¦à¤¶":2428,"à¤Ĺà¤¬":2429,"Ġà¤µà¤¸à¤²":2430,"à¤¡à¤µà¤£":2431,"Ġà¤ľà¤¤":2432,"Ġà¤¨à¤ľ":2433,"à¤·à¤°à¤¤":2434,"à¤¥à¤ª":2435,"Ġà¤Ĺà¤¯":2436,"Ġà¤Ĺà¤¸":2437,"Ġ1000":2438,"à¤¤à¤°à¤ķ":2439,"Ġà¤ħà¤¸à¤®à¤°":2440,"Ġà¤ĩà¤¥":2441,"à¤¬à¤°à¤¦à¤¸":2442,"à¤ĩà¤Ŀ":2443,"à¤ĩà¤¡à¤ķ":2444,"à¤¯à¤¨à¤²":2445,"<<//":2446,"à¤¶à¤¨à¤¸":2447,"à¤¶à¤¨à¤µà¤°":2448,"Ġà¤§à¤¨":2449,"à¤¡à¤²à¤°":2450,"<<<<<>":2451,"à¤Ĺà¤°à¤«":2452,"Ġ54":2453,"Ġ58":2454,"<<<<<<<<<<<<<>":2455,"Ġ89":2456,"Ġ1934":2457,"<<<<<<<<<<<<<<<<<<<<<<<<<<<<<>":2458,"1981":2459,"1982":2460,"Ġà¤ķà¤ªà¤®à¤§":2461,"Ġ1909":2462,"Ġà¤Ĩà¤Īà¤ļ":2463,"Ġ1890":2464,"<<<<<<<<<<<<<<<<<<<<<<<<<<<<<<<<<<<<<<<<<<<<<<<<<<<<<<<<<<<<<>":2465,"Ġ<<<<<<<<<<<<<<<<<<<<<<<<<<<<<<<<<<<<<<<<<<<<<<<<<<<<<<<<<<<<<<<<<<<<<<<<<<<<<<<<<<<<<<<<<<<<<<<<<<<<<<<<<<<<<<<<<<<<<<<<<<<<<>":2466,"300":2467,"59":2468,"800":2469,"Ģ²":2470,"à¤°à¤ªà¤°":2471,"à¤¨à¤ªà¤£":2472,"à¤£à¤ªà¤¤":2473,"à¤¹à¤¶":2474,"Ġà¤¸à¤µ":2475,"Ġà¤ªà¤ł":2476,"à¤Łà¤ªà¤Ł":2477,"à¤ªà¤³":2478,"à¤ªà¤¡à¤¤":2479,"Ġà¤®à¤Ĺ":2480,"à¤¶à¤¶":2481,"à¤¬à¤µà¤°":2482,"à¤ĸà¤¡":2483,"Ġà¤īà¤¡à¤£":2484,"Ġà¤¡à¤Ŀà¤¨":2485,"Ġ1910":2486,"Ġà¤ĩà¤¡":2487,"Ġà¤¸à¤®à¤µà¤°":2488,"à¤¯à¤¨à¤µ":2489,"Ġ\"(":2490,"à¤°à¤¸à¤ļ":2491,"à¤Ĭà¤¥":2492,"Ġà¤ĵà¤ķà¤²":2493,"à¤ķà¤¨à¤ļ":2494,"à¤µà¤³à¤£":2495,"Ġà¤īà¤ªà¤¹":2496,"Ġ43":2497,"Ġ63":2498,"Ġ71":2499,"Ġ74":2500,"Ġ81":2501,"à¤ĳà¤²":2502,"Ġ1926":2503,"1977":2504,"Ġ1905":2505,"Ġà¤¤à¤³à¤ĺà¤°":2506,"Ġ1889":2507,"à¤īà¤²à¤Ł":2508,"................................":2509,"Ġà¤¨à¤ľà¤°à¤ķ":2510,"07":2511,"09":2512,"130":2513,"à¤¯à¤¡à¤°":2514,"à¤¨à¤®à¤¨":2515,"Ġà¤ķà¤³à¤²":2516,"Ġà¤¸à¤¦à¤¨":2517,"à¤Ĺà¤Ń":2518,"à¤Ĺà¤°à¤®":2519,"Ġà¤¤à¤¸à¤¤":2520,"à¤¡à¤¸à¤¨":2521,"à¤¡à¤¨à¤²":2522,"Ġà¤ľà¤Ł":2523,"Ġà¤¨à¤Ĺà¤°":2524,"à¥Ģ./":2525,"Ġ120":2526,"Ġà¤ļà¤²":2527,"Ġà¤ļà¤²à¤¨":2528,"Ġà¤¡à¤Ĺ":2529,"Ġà¤Ŀà¤ª":2530,"Ġà¤ĸà¤²à¤¨":2531,"à¤¬à¤°à¤ªà¤°":2532,"à¤ĩà¤¨à¤°":2533,"à¤ķà¤°à¤²":2534,"à¤Ĩà¤¯à¤°":2535,"Ġ1800":2536,"Ġ53":2537,"Ġà¤¦à¤°à¤¡":2538,"Ġ68":2539,"à¤ªà¤ķà¤ªà¤£":2540,"à¤²à¤°à¤¨":2541,"Ġ82":2542,"Ġ800":2543,"Ġ99":2544,"Ġà¤ĺà¤°à¤Ł":2545,"Ġà¤Ĩà¤łà¤µà¤¤":2546,"à¥Ģ\",":2547,"1986":2548,"à¤Ĺà¤¡à¤®":2549,"1971":2550,"1975":2551,"Ġ1907":2552,"Ġ1860":2553,"Ġ1898":2554,"à¤ĳà¤«à¤®à¤§":2555,"Ġà¤¬à¤³à¤ķà¤Ł":2556,"Ġà¤īà¤¤à¤°à¤µà¤²":2557,"69":2558,"à¤¾?":2559,"à¤°à¤¯à¤¸":2560,"à¤µà¤®à¤¤":2561,"à¤ļà¤Ń":2562,"Ġà¤ķà¤¡à¤ķ":2563,"à¤¹à¤®à¤§":2564,"Ġà¤¸à¤µà¤²":2565,"à¤Łà¤Ŀ":2566,"à¤ªà¤µà¤¯":2567,"à¤¦à¤¹":2568,"à¤¡à¤ĺ":2569,"à¤¡à¤¨à¤°":2570,"Ġà¤¬à¤¸à¤¤":2571,"Ġà¤°à¤¹à¤®":2572,"à¥Ģ...":2573,"à¥ī'":2574,"Ġà¤Ĺà¤¨à¤¶":2575,"à¤µà¤°à¤®":2576,"Ġà¤ıà¤ķà¤¸":2577,"Ġà¤īà¤¡à¤¤":2578,"à¤Ńà¤ķ":2579,"Ġà¤¡à¤²":2580,"Ġ(),":2581,"Ġà¤ĺà¤¡à¤¤":2582,"à¤Ŀà¤®à¤ļ":2583,"à¤¢à¤¦":2584,"à¤Ĭà¤¸à¤ļ":2585,"à¤ķà¤°à¤¨":2586,"à¤Ĩà¤¶":2587,"Ġ1850":2588,"Ġà¤ıà¤¨à¤ľ":2589,"à¤ıà¤¸à¤ª":2590,"Ġà¤Ĺà¤£à¤µ":2591,"à¤¡à¤¬à¤¡":2592,"Ġ1906":2593,"à¤¡à¤®à¤¸à¤¨":2594,"Ġ1862":2595,"Ġ1863":2596,"Ġ1865":2597,"Ġà¤ļà¤ķà¤®à¤ķ":2598,"Ġà¤īà¤¤à¤°à¤²":2599,"Ġà¤¸à¤µà¤²à¤¤":2600,"\"|":2601,"03":2602,"230":2603,">)":2604,"à¥ĩ!":2605,"à¤¯à¤°à¤®":2606,"à¤¤à¤ľ":2607,"à¤²à¤¸à¤¹":2608,"à¤¨à¤ªà¤¤":2609,"à¤ķà¤¬à¤°":2610,"Ġà¤ķà¤³":2611,"à¤ªà¤µà¤°":2612,"à¤¦à¤ļ":2613,"à¤§à¤¬":2614,"à¤Ĺà¤°à¤ļ":2615,"Ġà¤¤à¤¹":2616,"Ġà¤¤à¤¡à¤ľ":2617,"Ġà¤ħà¤µà¤¤":2618,"Ġà¤ľà¤¬à¤°à¤¦à¤¸":2619,"à¤ľà¤µà¤°":2620,"Ġà¤ıà¤Ŀ":2621,"Ġà¤²à¤²":2622,"Ġà¤Ĺà¤¹":2623,"Ġà¤īà¤°à¤²":2624,"Ġà¤īà¤¬à¤¦":2625,"Ġ(+":2626,"Ġà¤Ńà¤ķ":2627,"Ġà¤ĸà¤Ĺ":2628,"Ġà¤ĺà¤¸à¤°à¤²":2629,"à¤ıà¤¶":2630,"à¤ĩà¤Łà¤¨":2631,"à¤°à¤¸à¤°à¤£":2632,"à¤ħà¤¦":2633,"à¤īà¤°":2634,"1930":2635,"à¤°à¤ªà¤ķ":2636,"Ġà¤ªà¤¦à¤Ń":2637,"Ġ61":2638,"Ġà¤ªà¤°à¤¤à¤¤":2639,"à¤³à¤£à¤µà¤³à¤£":2640,"à¤§à¤¤à¤¶":2641,"Ġà¤ľà¤µà¤³à¤ª":2642,"1985":2643,"Ġ1928":2644,"Ġà¤ªà¤Łà¤ķà¤¨":2645,"à¤Ŀà¤°à¤¬":2646,"1966":2647,"1946":2648,"Ġ1856":2649,"Ġà¤¢à¤ķà¤²à¤£":2650,"Ġ</":2651,"à¤¼":2652,"à¤¯à¤¹":2653,"à¤¯à¤®à¤§":2654,"à¤¿/":2655,"à¤¤à¤ļà¤°":2656,"à¤¸à¤³":2657,"à¤¸à¤³à¤£":2658,"Ġà¤ķà¤¤":2659,"Ġà¤Ĩà¤ĩà¤¸":2660,"à¤Łà¤¹":2661,"Ġà¤®à¤ļ":2662,"à¤§à¤°à¤£":2663,"Ġà¤¤à¤²à¤µ":2664,"à¤¡à¤Ł":2665,"à¤¡à¤¸à¤°":2666,"Ġà¤¨à¤Ł":2667,"à¤·à¤°à¤¶":2668,"Ġà¤ıà¤¨à¤°":2669,"Ġà¤°à¤¬":2670,"à¤łà¤¤":2671,"Ġà¤¶à¤°à¤£":2672,"à¤µà¤°à¤¨":2673,"Ġà¤īà¤ł":2674,"Ġà¤«à¤²à¤ķ":2675,"Ġà¤Ńà¤°à¤Ńà¤°":2676,"Ġà¤ĩà¤¯à¤°":2677,"à¤ªà¤°à¤ļ":2678,"Ġà¤¸à¤®à¤®":2679,"Ġà¤¸à¤®à¤ķà¤ķ":2680,"à¤ĩà¤Ĺ":2681,"à¤°à¤¸à¤¨":2682,"Ġà¤łà¤³à¤ķ":2683,"à¤¤à¤ķà¤¥":2684,"Ġ66":2685,"Ġ78":2686,"à¤°à¤¹à¤®":2687,"Ġà¤²à¤¢à¤µà¤¯":2688,"Ġà¤ıà¤ļà¤Ł":2689,"à¤ĳà¤ªà¤°":2690,"à¤¾\")":2691,"Ġà¤ĩà¤¨à¤ª":2692,"Ġ1925":2693,"Ġ1903":2694,"1969":2695,"Ġ1888":2696,"Ġ1872":2697,"Ġ1893":2698,"1955":2699,"Ġà¤įà¤ªà¤²":2700,"600":2701,"79":2702,"à¤¿'":2703,"à¤¤à¤ķà¤²":2704,"à¤²à¤·":2705,"à¤ķà¤ķà¤²":2706,"à¤®à¤³":2707,"à¤®à¤°à¤¸":2708,"Ġà¤Ĩà¤ª":2709,"à¤Łà¤°à¤ķ":2710,"Ġà¤µà¤³":2711,"Ġà¤ħà¤Ŀà¤°à¤¬":2712,"Ġà¤ľà¤Ĺà¤£":2713,"à¤¬à¤§à¤¬":2714,"à¤³à¤ªà¤Ł":2715,"Ġà¤¦à¤³à¤£à¤µà¤³à¤£":2716,"Ġà¤°à¤¡":2717,"Ġà¤°à¤ķà¤®":2718,"Ġ250":2719,"à¤Ŀà¤¸":2720,"Ġà¤¸à¤°à¤ļ":2721,"à¤ĩà¤¨à¤¸":2722,"Ġà¤ķà¤°à¤¦":2723,"Ġà¤ħà¤¨à¤ª":2724,"à¤Łà¤°à¤¶":2725,"à¤°à¤¸à¤ª":2726,"à¤Łà¤¨à¤¸":2727,"à¤Ĭà¤°":2728,"à¤¹à¤°à¤ª":2729,"Ġà¤ĵà¤Ŀ":2730,"Ġà¤§à¤¬à¤§à¤¬":2731,"à¤ĵà¤«":2732,"à¤¯à¤®à¤°":2733,"à¤Ĩà¤®à¤ļ":2734,"à¤®à¤ļà¤°":2735,"à¤ıà¤¸à¤ıà¤¸":2736,"Ġ94":2737,"1991":2738,"à¤¬à¤²à¤µà¤°":2739,"à¤Ĳà¤¤":2740,"1976":2741,"Ġà¤īà¤¡à¤µà¤²":2742,"Ġà¤µà¤Ĺà¤³à¤²":2743,"Ġà¤ĵà¤ªà¤¨à¤®à¤§":2744,"Ġ486":2745,"%),":2746,"722":2747,"ÃĹ":2748,"à¥ĩ/":2749,"à¤¯à¤ĺà¤Łà¤¨":2750,"à¤¨à¤¯à¤¨":2751,"à¤ķà¤¸à¤¹":2752,"à¤µà¤Ĺ":2753,"à¤®à¤«":2754,"à¤®à¤ªà¤£":2755,"à¤®à¤¸à¤²":2756,"Ġà¤Ĩà¤°à¤ķ":2757,"à¤Łà¤¡à¤¬":2758,"Ġà¤ħà¤¦à¤²":2759,"Ġà¤ħà¤łà¤°":2760,"à¤¬à¤Ī":2761,"Ġà¤ıà¤¥":2762,"Ġà¤¬à¤¡":2763,"à¤¥à¤¬à¤°":2764,"Ġà¤²à¤¸":2765,"Ġà¤ļà¤µ":2766,"à¤«à¤¤":2767,"à¤«à¤ķ":2768,"à¤°à¤ķà¤¤":2769,"à¤°à¤ķà¤Ł":2770,"Ġ',":2771,"Ġà¤ĺà¤¡à¤µ":2772,"à¤ıà¤ħà¤°":2773,"à¤ıà¤¡à¤µà¤°":2774,"à¤ĺà¤Łà¤ķ":2775,"à¤Īà¤®":2776,"Ġà¤ĵà¤ª":2777,"à¤īà¤¨à¤ļ":2778,"à¤Ĩà¤²":2779,"à¤Ĩà¤¸":2780,"à¤Ĩà¤ª":2781,"2023":2782,"à¤Ĺà¤²à¤Ĺ":2783,"Ġà¤ħà¤Ńà¤¯":2784,"Ġà¤ľà¤¨à¤®à¤¤":2785,"Ġ600":2786,"Ġ96":2787,"Ġà¤²à¤¢à¤µà¤²":2788,"Ġà¤¹à¤²à¤µ":2789,"Ġà¤ıà¤¡à¤µ":2790,"à¥ĩ\".\"":2791,"1978":2792,"Ġ1884":2793,"à¤ıà¤«à¤¸":2794,"Ġ1879":2795,"Ġà¤¢à¤ķà¤²à¤²":2796,"ĠIV":2797,"Ġà¤¡à¤Ŀà¤¨à¤Ńà¤°":2798,"04":2799,"1000":2800,"250":2801,"Î¿":2802,"Ð°":2803,"Ñģ":2804,"Ġ000":2805,"ĨĴ":2806,"à¤¯à¤¬à¤²":2807,"à¤¤à¤¯":2808,"à¤²à¤ªà¤¤":2809,"à¤¨à¤ķà¤¡":2810,"à¤¨à¤ķà¤°":2811,"à¤¨à¤°à¤²":2812,"à¤ķà¤µà¤¤":2813,"à¤ķà¤ľà¤£":2814,"à¤µà¤®":2815,"à¤ļà¤¬":2816,"à¤ļà¤°à¤ļ":2817,"à¤®à¤¬à¤°":2818,"Ġà¤Ĩà¤¯à¤¨":2819,"à¤ªà¤®à¤¨":2820,"Ġà¤®à¤£":2821,"à¤¦à¤¯à¤µ":2822,"Ġà¤ħà¤¹":2823,"Ġà¤ħà¤µà¤¸":2824,"Ġà¤ħà¤ªà¤ķ":2825,"Ġà¤ľà¤³":2826,"à¤¶à¤¤à¤ķ":2827,"à¤¬à¤µ":2828,"Ġà¤ıà¤¶":2829,"Ġà¤¦à¤¯":2830,"à¤¥à¤¹":2831,"Ġà¤²à¤ªà¤²":2832,"à¤µà¤°à¤ª":2833,"Ġà¤ıà¤ķà¤¹":2834,"Ġà¤ħà¤¸à¤®":2835,"à¤«à¤µ":2836,"Ġà¤Ŀà¤±":2837,"à¤¹à¤£à¤£":2838,"Ġà¤ĩà¤«":2839,"à¤ıà¤ľ":2840,"à¤ıà¤Łà¤°à¤®à¤§":2841,"à¤¢à¤µ":2842,"à¤¢à¤µà¤¤":2843,"à¤Łà¤°à¤Ł":2844,"à¤ħà¤°à¤µ":2845,"à¤ĵà¤¬":2846,"à¤ĵà¤Ŀ":2847,"à¤Ĩà¤ļ":2848,"à¤Ĩà¤¬":2849,"à¤Ĩà¤Ń":2850,"à¤¡à¤²à¤ļ":2851,"à¤Ĺà¤²à¤¸":2852,"à¤Ĺà¤°à¤¨":2853,"Ġà¤ıà¤«à¤¸":2854,"Ġà¤®à¤¤à¤ªà¤¤":2855,"Ġà¤ħà¤ªà¤®":2856,"Ġ84":2857,"Ġ88":2858,"Ġ95":2859,"à¤®à¤°à¤µà¤°":2860,"à¤®à¤¸à¤®à¤°":2861,"Ġ130":2862,"1983":2863,"Ġà¤¸à¤¨à¤¦":2864,"Ġà¤Ĩà¤¦à¤°à¤£":2865,"1972":2866,"1979":2867,"Ġà¤īà¤¡à¤µà¤£":2868,"1963":2869,"à¤¹à¤²à¤ªà¤®":2870,"Ġ1883":2871,"Ġà¤ľà¤¸à¤ľà¤¸":2872,"Ġà¤īà¤ĺà¤¡à¤ªà¤£":2873,"à¤Ĩà¤£à¤ĸ":2874,"Ġà¤Ĩà¤Īà¤µà¤¡":2875,"Ġ1897":2876,"Ġ1899":2877,"à¤ħà¤¸à¤Ĺ":2878,"1956":2879,"Ġ653":2880,"Ġà¤ħà¤«à¤µ":2881,"ĠâĨĴ":2882,"Ġà¤Ńà¤¯à¤ªà¤Ł":2883,"à¤®à¤¸à¤²à¤¤":2884,"Ã¼":2885,"Ðµ":2886,"Ð¸":2887,"Ð½":2888,"Ġ.":2889,"Ġq":2890,"à¤¾!":2891,"à¤¾]":2892,"à¤°à¤¨à¤¨":2893,"à¤¯à¤£":2894,"à¤¯à¤Ńà¤°":2895,"à¤¤à¤¡":2896,"à¤¤à¤®à¤§":2897,"à¤ķà¤ĺà¤°":2898,"à¤¸à¤²à¤¨":2899,"à¤µà¤¯à¤¸":2900,"à¤®à¤ľà¤²":2901,"Ġà¤ķà¤¯":2902,"Ġà¤®à¤Ĭ":2903,"à¤Ĺà¤¸à¤¹":2904,"à¤Ĺà¤¨à¤¨":2905,"Ġà¤ħà¤µà¤ľ":2906,"Ġà¤ħà¤¡à¤ķ":2907,"Ġà¤ħà¤¹à¤®":2908,"Ġà¤ľà¤¨à¤°":2909,"à¤ľà¤ĺà¤°":2910,"Ġà¤¨à¤¶":2911,"Ġà¤¨à¤«":2912,"Ġà¤¨à¤°à¤¸":2913,"à¤¬à¤¡à¤¤":2914,"Ġà¤ıà¤ħà¤°à¤²":2915,"Ġà¤¦à¤¤":2916,"à¤¥à¤¤":2917,"Ġà¤¶à¤Łà¤²":2918,"à¤ĸà¤¦":2919,"à¤ĸà¤ªà¤£":2920,"Ġà¤īà¤¸":2921,"à¤Ńà¤µà¤ľà¤¨":2922,"Ġà¤ªà¤°à¤ľ":2923,"à¤°à¤ķà¤ļ":2924,"Ġà¤µà¤°à¤µà¤°":2925,"à¤ĺà¤µ":2926,"à¤Ŀà¤°à¤¸":2927,"à¤Īà¤Łà¤ļ":2928,"à¤ĩà¤ļ":2929,"à¤ĩà¤¥":2930,"à¤ĩà¤Łà¤²":2931,"à¤ĩà¤ķà¤°à¤ļ":2932,"Ġà¤ĵà¤¨":2933,"à¤ĵà¤Ĺ":2934,"Ġà¤ħà¤®à¤²":2935,"Ġ1830":2936,"Ġ59":2937,"Ġà¤ĳà¤«à¤°":2938,"à¤¡à¤¨à¤¨":2939,"Ġ73":2940,"Ġ86":2941,"à¤¨à¤µà¤µ":2942,"Ġ123":2943,"à¥Ģ\")":2944,"à¤¨à¤Ĺà¤°à¤ª":2945,"Ġà¤¸à¤¨à¤¶":2946,".\",":2947,"à¤°à¤®à¤£à¤§":2948,"Ġ1880":2949,"Ġ1881":2950,"Ġ1885":2951,"Ġ1886":2952,"Ġ1874":2953,"1948":2954,"Ġ1857":2955,"à¤ķà¤ķà¤¥":2956,"Ġà¤īà¤ªà¤¨à¤¦":2957,"Ġ1846":2958,"Ġà¤¸à¤«à¤°à¤ļ":2959,"à¤Ķà¤ªà¤ļ":2960,"08":2961,"âĢ²":2962,"à¤¤à¤ľà¤®":2963,"à¤²à¤°à¤²":2964,"à¤¨à¤£":2965,"à¤¨à¤¬à¤¦":2966,"à¤Ĥ.":2967,"à¤¸à¤°à¤ļ":2968,"à¤ļà¤µà¤°":2969,"à¤£à¤¦":2970,"à¥ĭ',":2971,"à¤¹à¤°à¤®":2972,"Ġà¤¸à¤µà¤¯":2973,"Ġà¤Ĩà¤¯à¤¤":2974,"Ġà¤Ĩà¤īà¤Ł":2975,"à¤Łà¤¯":2976,"à¤Łà¤°à¤®":2977,"Ġà¤®à¤£à¤ķ":2978,"à¤Ĺà¤®à¤°à¤µà¤°":2979,"Ġà¤¤à¤Łà¤¬":2980,"Ġà¤µà¤§":2981,"Ġà¤¹à¤Ĺ":2982,"Ġà¤ľà¤¯":2983,"Ġà¤ľà¤Ĺà¤¤":2984,"à¤ľà¤¹":2985,"Ġà¤¦à¤¡":2986,"à¥ĩ.,":2987,"Ġà¤¬à¤Łà¤²à¤°":2988,"à¤¥à¤Ĺ":2989,"à¥Ģ.),":2990,"Ġà¤ļà¤®à¤ķ":2991,"Ġà¤ıà¤ķà¤¸à¤®":2992,"à¤Ńà¤³":2993,"à¤Ńà¤°à¤£":2994,"à¤ªà¤°à¤¨":2995,"à¤ªà¤°à¤¬":2996,"Ġà¤ĺà¤¸à¤°à¤£":2997,"Ġà¤¸à¤®à¤µà¤¯à¤¸":2998,"à¤Ŀà¤Ĺ":2999,"à¤ĩà¤¬":3000,"à¤Ĭà¤¸à¤®à¤§":3001,"à¤ķà¤²à¤®":3002,"à¤¶à¤¨à¤¦":3003,"à¤īà¤Ŀ":3004,"à¤īà¤Ŀà¤°":3005,"1931":3006,"1939":3007,"Ġà¤łà¤°à¤£":3008,"à¤ĵà¤¹":3009,"à¤¸à¤¨à¤¸":3010,"à¤¸à¤¨à¤µ":3011,"à¤°à¤²à¤ļ":3012,"Ġ360":3013,"à¤¤à¤ķà¤±":3014,"à¤µà¤¨à¤¶":3015,"Ġ77":3016,"à¤°à¤¹à¤µ":3017,"Ġ97":3018,"Ġ173":3019,"à¤ıà¤¨à¤ıà¤ļ":3020,"Ġà¤ħà¤µà¤ķ":3021,"128":3022,"Ġà¤¬à¤¸à¤£":3023,"Ġ501":3024,"1964":3025,"Ġ1861":3026,"Ġ1866":3027,"Ġ1873":3028,"Ġ1892":3029,"1944":3030,"Ġ1851":3031,"Ġ1858":3032,"1957":3033,"Ġ1848":3034,"1905":3035,"Ġà¤ıà¤ħà¤°à¤«":3036,"Ġà¤¹à¤Łà¤µà¤£":3037,"02":3038,"Ġi":3039,"ĠÂ":3040,"à¥ĩ]":3041,"à¤¯à¤Łà¤°":3042,"à¤¯à¤²à¤°":3043,"à¤¯à¤ªà¤Ł":3044,"à¤²à¤°à¤ķ":3045,"à¤¨à¤Ī":3046,"à¤ķà¤®à¤¨":3047,"à¤£à¤¶":3048,"à¥ĭ\".":3049,"Ġà¤ķà¤Ŀ":3050,"à¤¹à¤¨à¤ļ":3051,"Ġà¤Ĩà¤¯à¤ķà¤°":3052,"à¤Łà¤ªà¤°":3053,"à¤ªà¤¸à¤¹":3054,"à¤Ĺà¤ł":3055,"à¤Ĺà¤ľà¤¨à¤ķ":3056,"Ġà¤¤à¤³à¤²":3057,"Ġà¤¤à¤Łà¤¸":3058,"à¤¡à¤ķà¤¡":3059,"Ġà¤¹à¤¬":3060,"Ġà¤¹à¤ľà¤°":3061,"Ġà¤ľà¤²à¤®":3062,"à¤¶à¤ªà¤¨":3063,"à¤¬à¤µà¤¤":3064,"Ġà¤¦à¤¡à¤ª":3065,"Ġà¤¯à¤ķ":3066,"Ġà¤¬à¤°à¤ĸ":3067,"Ġà¤¬à¤Łà¤£":3068,"à¤łà¤ļ":3069,"à¤łà¤£":3070,"Ġà¤²à¤¯":3071,"Ġà¤²à¤Ł":3072,"Ġà¤²à¤µà¤ļ":3073,"Ġà¤Ĺà¤³":3074,"à¤ĸà¤µà¤¤":3075,"à¤ĸà¤°à¤ª":3076,"Ġà¤ļà¤®à¤¤":3077,"à¥ĩ,\"":3078,"Ġà¤īà¤ªà¤°":3079,"à¤Ńà¤¶":3080,"à¤Ńà¤µà¤£":3081,"Ġà¤ªà¤°à¤Ĺ":3082,"Ġà¤Ńà¤Łà¤ķ":3083,"à¤ªà¤°à¤µ":3084,"à¤ıà¤Łà¤²":3085,"à¤ıà¤¡à¤®":3086,"à¤ĩà¤¸à¤ļ":3087,"à¤ĩà¤¡à¤ļ":3088,"à¤Łà¤°à¤¹":3089,"à¤Łà¤°à¤¦":3090,"à¤Łà¤°à¤¸à¤¹":3091,"à¤Ĭà¤Ł":3092,"à¤Ĭà¤¨à¤¹":3093,"à¤¹à¤°à¤ļ":3094,"1920":3095,"1910":3096,"1926":3097,"1929":3098,"Ġà¤§à¤°à¤¤":3099,"à¤ĵà¤µà¤¨":3100,"Ġà¤Ĩà¤¯à¤¸à¤²":3101,"à¤Łà¤²à¤°à¤¨":3102,"à¤¨à¤²à¤ļ":3103,"à¤¡à¤²à¤¨":3104,"Ġ1821":3105,"à¤¸à¤²à¤ļ":3106,"à¤¯à¤²à¤®à¤§":3107,"Ġ79":3108,"Ġ700":3109,"à¤®à¤°à¤¨":3110,"Ġà¤²à¤¢à¤µà¤£":3111,"Ġ104":3112,"Ġà¤īà¤¡à¤µà¤¤":3113,"à¤¯à¤¬à¤³":3114,"Ġ1882":3115,"Ġ1864":3116,"1947":3117,"Ġà¤Ĭà¤¤":3118,"1953":3119,"1904":3120,"à¤ıà¤¶à¤¨à¤¨":3121,"Ġà¤¸à¤¤à¤¤à¤ļ":3122,"Ġà¤įà¤ª":3123,"XXXXXXXXXXXXXXXXXXXXXXXXXXXXXXXX":3124,"Ġà¤ħà¤¹à¤®à¤¦":3125,"'-":3126,"):":3127,"395":3128,"ch":3129,"ii":3130,"ÑĢ":3131,"Ġg":3132,"Ġ{":3133,"à¤°à¤¬à¤°":3134,"à¤¯à¤ªà¤°":3135,"à¤¯à¤¥à¤²":3136,"à¤¤à¤Ĺ":3137,"à¤¤à¤¬à¤¦":3138,"à¤¨à¤¦à¤°":3139,"à¤ķà¤ķà¤¡":3140,"à¤ķà¤¸à¤¨à¤¶":3141,"à¤£à¤ķà¤°":3142,"à¤£à¤¬à¤¦":3143,"à¤®à¤¡":3144,"à¤¹à¤¯":3145,"à¤¹à¤Ł":3146,"Ġà¤Ĩà¤µà¤¡à¤²":3147,"à¤Łà¤ķà¤¡":3148,"à¤ªà¤¸à¤¨à¤¨":3149,"à¤¦à¤µà¤¤":3150,"à¥Ĥ',":3151,"à¤Ĺà¤µà¤¤":3152,"à¤Ĺà¤ľà¤¨":3153,"Ġà¤¤à¤Łà¤°à¤ķ":3154,"Ġà¤¹à¤ª":3155,"Ġà¤¹à¤¸à¤²":3156,"Ġà¤¨à¤ľà¤°":3157,"Ġà¤¨à¤¸à¤£":3158,"Ġà¤¬à¤µ":3159,"Ġà¤¬à¤ķà¤²":3160,"Ġà¤°à¤£à¤¶":3161,"Ġà¤²à¤°":3162,"Ġà¤²à¤ªà¤µà¤£":3163,"Ġà¤ļà¤¹":3164,"Ġà¤Ŀà¤Łà¤ķ":3165,"Ġà¤ĸà¤¡à¤¬à¤¡":3166,"à¤ªà¤°à¤Ĺà¤°":3167,"à¤¯à¤ķà¤²à¤ļ":3168,"à¤¬à¤°à¤¨":3169,"à¤ĺà¤®":3170,"Ġà¤ĳà¤ķà¤²":3171,"Ġà¤ħà¤¨à¤§":3172,"à¤Łà¤°à¤¬à¤°":3173,"à¤ħà¤ĸ":3174,"à¤¹à¤°à¤®à¤§":3175,"Ġà¤ĵà¤¯":3176,"Ġà¤ĵà¤Ĺ":3177,"à¤īà¤¬":3178,"à¤°à¤µà¤ķ":3179,"1919":3180,"1914":3181,"à¤ľà¤¨à¤ļ":3182,"à¤Ĩà¤«":3183,"à¤Ĩà¤ĵ":3184,"à¤Ĩà¤īà¤Ł":3185,"Ġà¤ıà¤²à¤¨":3186,"à¤Łà¤ķà¤ķ":3187,"Ġ670":3188,"Ġà¤ıà¤«à¤ıà¤®":3189,"Ġà¤Ľà¤¦":3190,"à¤¡à¤°à¤¨":3191,"Ġà¤ªà¤¤à¤¨":3192,"à¤¯à¤¸à¤Ń":3193,"Ġ83":3194,"Ġ93":3195,"Ġ158":3196,"Ġà¤¹à¤²à¤µà¤¤":3197,"à¤¯à¤ªà¤¶":3198,"à¤¤à¤®à¤¯":3199,"Ġ128":3200,"à¤ķà¤Łà¤¤":3201,"Ġ132":3202,"à¤¯à¤ļà¤ķ":3203,"à¤µà¤°à¤£à¤ªà¤¤":3204,"Ġà¤¤à¤³à¤®à¤ľà¤²":3205,"1962":3206,"1965":3207,"Ġ1887":3208,"Ġ1871":3209,"Ġ1876":3210,"1940":3211,"Ġà¤īà¤¤à¤°à¤¤":3212,"Ġà¤Ĩà¤īà¤Łà¤ª":3213,"\"-":3214,"?\"":3215,"ar":3216,"ĠX":3217,"à¤¾!\"":3218,"à¤°à¤¬à¤¦":3219,"à¤¤à¤³à¤²":3220,"à¤²à¤ªà¤°":3221,"à¤²à¤ĺ":3222,"à¤¨à¤Ĭ":3223,"à¤ķà¤«à¤°":3224,"à¤¸à¤ĺ":3225,"à¤¸à¤®à¤¤":3226,"à¤¸à¤®à¤ķ":3227,"à¤ļà¤¦":3228,"à¤®à¤¸à¤ļ":3229,"Ġà¤¸à¤¨à¤¡":3230,"Ġà¤Ĩà¤¡à¤µ":3231,"Ġà¤Ĩà¤ĸà¤¤":3232,"à¤Łà¤¸à¤®":3233,"à¤Łà¤ħà¤ª":3234,"à¥ģ'":3235,"à¤ªà¤ª":3236,"à¤¦à¤Ń":3237,"à¤§à¤®":3238,"à¥Ĥ/":3239,"à¤Ĺà¤§":3240,"Ġà¤¤à¤°à¤ļ":3241,"Ġà¤¹à¤°à¤£":3242,"Ġà¤ľà¤ķ":3243,"à¤ľà¤Ł":3244,"à¤ľà¤¸à¤¹":3245,"à¤·à¤§":3246,"à¤¬à¤®à¤¸":3247,"Ġà¤ıà¤¶à¤²":3248,"à¤³à¤®à¤§":3249,"à¤łà¤¡":3250,"Ġà¤²à¤ª":3251,"Ġà¤Ĺà¤¨à¤¬":3252,"à¤µà¤°à¤²":3253,"à¤¤à¤°à¤ĸ":3254,"Ġà¤īà¤ľ":3255,"à¤«à¤¸à¤«":3256,"à¤Ńà¤²":3257,"Ġà¤¡à¤¨à¤¬":3258,"à¤¾...":3259,"Ġà¤«à¤µ":3260,"Ġà¤«à¤Ł":3261,"à¤°à¤®à¤ļ":3262,"à¥ĥ.":3263,"à¤ıà¤ĸ":3264,"à¤ıà¤Ŀ":3265,"Ġà¤¸à¤°à¤ªà¤Ł":3266,"à¤Īà¤µ":3267,"à¤Īà¤ªà¤ļ":3268,"à¤ĩà¤²à¤ļ":3269,"à¤ĩà¤®à¤°":3270,"Ġ\"...":3271,"à¤Łà¤°à¤µ":3272,"à¤ħà¤ľ":3273,"à¤ħà¤Łà¤²":3274,"à¤Ĭà¤¨à¤¸":3275,"Ġà¤ĵà¤ıà¤¸":3276,"à¤īà¤®":3277,"à¤īà¤¨à¤¸":3278,"192":3279,"1922":3280,"1924":3281,"Ġà¤łà¤¸":3282,"à¤Łà¤²à¤¨":3283,"à¤Łà¤²à¤¸":3284,"à¤¡à¤²à¤¸":3285,"à¤ķà¤¸à¤ķ":3286,"à¤²à¤¨à¤ķà¤°":3287,"à¤°à¤¦à¤ķ":3288,"à¤®à¤ķà¤ªà¤£":3289,"à¤²à¤°à¤®à¤§":3290,"à¥Ģ')":3291,"Ġ91":3292,"Ġ1500":3293,"à¥ĩà¤ĥ\"":3294,"Ġ101":3295,"Ġà¤īà¤ļà¤²à¤²":3296,"à¥ĩ'.":3297,"Ġà¤Ĺà¤£à¤²":3298,"à¤Īà¤Łà¤µ":3299,"Ġà¤Ĩà¤ľà¤ļ":3300,"Ġà¤¬à¤ļà¤¤":3301,"Ġ1867":3302,"Ġ1877":3303,"Ġà¤Ĩà¤Īà¤¨":3304,"Ġ1895":3305,"à¤°à¤«à¤²":3306,"Ġà¤ľà¤¨à¤°à¤²à¤ļ":3307,"Ġ1854":3308,"Ġ1855":3309,"1958":3310,"386":3311,"Ġ1845":3312,"1908":3313,"Ġ\",\"":3314,"Ġà¤¸à¤¹à¤¨à¤¶à¤ķ":3315,"Ġà¤¤à¤¸à¤¤à¤¸":3316,"Ġà¤¨à¤Ĺà¤°à¤ªà¤°":3317,"Ġà¤¸à¤°à¤ªà¤Łà¤£":3318,"\"),":3319,".).":3320,"828":3321,"Îµ":3322,"Ñĩ":3323,"ĠV":3324,"ĠÃĹ":3325,"à¤°à¤°à¤ķ":3326,"à¤°à¤Ŀ":3327,"à¤°à¤¯à¤¦":3328,"à¤¯à¤¦à¤²":3329,"à¤¯à¤Ĺà¤°":3330,"à¥Ģ!":3331,"à¤²à¤¬à¤¦":3332,"à¤¨à¤¸à¤ļ":3333,"à¤¸à¤Ń":3334,"à¤¸à¤ķà¤°":3335,"à¤®à¤ľà¤ķ":3336,"à¤¹à¤µà¤°":3337,"Ġà¤¸à¤ľà¤µà¤²":3338,"Ġà¤Ĩà¤¡à¤¨":3339,"à¤Łà¤ľ":3340,"à¤Łà¤¸à¤¨":3341,"à¤ªà¤²à¤ļ":3342,"à¤§à¤³à¤²":3343,"Ġà¤¤à¤®":3344,"Ġà¤ħà¤·":3345,"Ġà¤ħà¤ªà¤²":3346,"à¤¶à¤µà¤£":3347,"Ġà¤¨à¤°à¤µ":3348,"à¤·à¤¹":3349,"Ġà¤ıà¤¶à¤°":3350,"Ġà¤ıà¤ıà¤ı":3351,"à¥ĩ.'":3352,"Ġà¤¬à¤¦à¤ķ":3353,"Ġà¤Ĺà¤ļ":3354,"Ġà¤Ĺà¤¤à¤µ":3355,"Ġà¤ļà¤¢à¤¤":3356,"à¤µà¤°à¤µ":3357,"à¤¤à¤°à¤¸":3358,"à¤«à¤°à¤ļ":3359,"à¤«à¤°à¤²":3360,"Ġà¤®à¤§à¤²":3361,"Ġà¤¡à¤¨":3362,"Ġà¤¡à¤Ĺà¤²à¤¸":3363,"à¤¾.)":3364,"à¤¾.<":3365,"Ġà¤ªà¤°à¤«":3366,"Ġà¤ĸà¤¤":3367,"Ġà¤ĩà¤ª":3368,"à¤ªà¤°à¤°":3369,"à¤ªà¤°à¤¦":3370,"à¤¯à¤ķà¤µ":3371,"à¤¯à¤ķà¤²à¤¸":3372,"à¤ıà¤ķà¤¤":3373,"à¤ĺà¤¡à¤²":3374,"à¤Ŀà¤¬":3375,"à¤Īà¤Łà¤ķ":3376,"à¤ĩà¤¨à¤®à¤§":3377,"Ġ\")":3378,"à¤Łà¤°à¤¡":3379,"à¤Łà¤°à¤ªà¤°":3380,"à¤Łà¤°à¤¸à¤¨":3381,"à¤Łà¤¨à¤®":3382,"à¤Łà¤¨à¤¬à¤°":3383,"Ġà¤ĵà¤¢à¤²":3384,"1915":3385,"1923":3386,"1933":3387,"à¤ĵà¤¨à¤²":3388,"à¤ĵà¤°à¤¡":3389,"à¤¯à¤®à¤ķ":3390,"Ġà¤Ĩà¤¯à¤Ŀ":3391,"Ġà¤Ĩà¤¯à¤ĵà¤µ":3392,"Ġà¤Ĩà¤°à¤¡":3393,"à¤Ĩà¤®à¤§":3394,"Ġà¤¨à¤µà¤ľ":3395,"Ġà¤ħà¤®à¤°":3396,"Ġà¤ªà¤¦à¤¨":3397,"Ġà¤ıà¤¨à¤µ":3398,"Ġà¤¥à¤ķà¤²":3399,"Ġ542":3400,"à¤®à¤¤à¤¦":3401,"à¤§à¤¨à¤ķ":3402,"à¤¬à¤¤à¤¹":3403,"à¤¡à¤°à¤¬":3404,"à¤ħà¤°à¤®à¤§":3405,"Ġ87":3406,"Ġ98":3407,"Ġ1789":3408,"à¤¨à¤¤à¤®":3409,"1870":3410,"à¤¸à¤®à¤µ":3411,"Ġ144":3412,"Ġ131":3413,"Ġà¤Ĳà¤ķà¤£":3414,".\".":3415,"Ġ1868":3416,"Ġà¤ĩà¤°à¤Ĺ":3417,"Ġ1878":3418,"Ġ1896":3419,"Ġ1853":3420,"Ġ1859":3421,"1959":3422,"Ġà¤ªà¤ķà¤¡à¤¤":3423,"Ġ1847":3424,"Ġà¤īà¤¤à¤°à¤µà¤£":3425,"à¤¯à¤²à¤¨à¤¨":3426,"................................................................":3427,"Ġà¤¤à¤¸à¤¤à¤¶":3428,"Ġ6702":3429,",\"":3430,"700":3431,"900":3432,"?'":3433,"or":3434,"Î¹":3435,"Ġc":3436,"à¤°à¤Ł":3437,"à¤¯à¤ļà¤°":3438,"à¤¯à¤ĳà¤ķ":3439,"à¤¤à¤«":3440,"à¤¤à¤³à¤£":3441,"à¤²à¤Ł":3442,"à¤²à¤¢":3443,"à¤²à¤¯à¤¨":3444,"à¤¨à¤¨à¤²":3445,"à¤¨à¤ĸà¤¡":3446,"à¤ķà¤¯":3447,"à¤ķà¤Ĺà¤£":3448,"à¤µà¤ķà¤°":3449,"à¤ļà¤¡":3450,"à¤ļà¤«":3451,"à¤ļà¤¨à¤°":3452,"à¤£à¤¥à¤³":3453,"Ġà¤ķà¤¢":3454,"Ġà¤ķà¤µà¤Ł":3455,"Ġà¤ªà¤ª":3456,"à¤ªà¤«":3457,"à¤ªà¤µà¤¤":3458,"à¤ªà¤Łà¤¨à¤¨":3459,"à¤¾à¤Ĥ'":3460,"à¤¦à¤®à¤ļ":3461,"à¤§à¤¶":3462,"à¤Ĺà¤¨à¤®à¤§":3463,"Ġà¤µà¤ľ":3464,"Ġà¤µà¤³à¤µà¤²":3465,"Ġà¤ľà¤³à¤¤":3466,"Ġà¤ľà¤²à¤µ":3467,"à¤¶à¤ªà¤ļ":3468,"à¤ľà¤°à¤ļ":3469,"Ġà¤¨à¤°à¤ķ":3470,"à¤·à¤¨":3471,"à¤·à¤ļ":3472,"Ġà¤¦à¤®à¤Ł":3473,"à¥ĩ.-":3474,"à¤łà¤¬à¤³":3475,"Ġà¤¶à¤²":3476,"Ġà¤¶à¤¯à¤¨":3477,"Ġ119":3478,"à¤ĸà¤Łà¤²":3479,"Ġà¤ļà¤ª":3480,"Ġà¤ıà¤ķà¤µ":3481,"Ġà¤ħà¤¸à¤¹":3482,"à¤«à¤®":3483,"à¤¾.,":3484,"Ġà¤«à¤°à¤¶":3485,"à¤°à¤ķà¤¸":3486,"à¤Ŀà¤®à¤¨":3487,"à¤Ŀà¤°à¤ļ":3488,"à¤Īà¤ľ":3489,"à¤Īà¤µà¤°":3490,"à¤Īà¤Łà¤¨":3491,"à¤Īà¤¸à¤ļ":3492,"à¤ĩà¤¨à¤¨":3493,"à¤®à¤¨à¤¦":3494,"à¤ħà¤ļ":3495,"Ġà¤®à¤¹à¤®":3496,"Ġà¤ĵà¤ķà¤ļ":3497,"à¤īà¤Ĺ":3498,"à¤¸à¤¹à¤ľ":3499,"1912":3500,"1913":3501,"1927":3502,"Ġà¤łà¤°à¤µ":3503,"à¤ĵà¤¶":3504,"à¤ĵà¤³":3505,"à¤ĵà¤ķà¤²":3506,"Ġà¤Ĩà¤¯à¤Ł":3507,"à¤Łà¤²à¤®à¤§":3508,"à¤Ĩà¤¹":3509,"à¤Ĩà¤Ĭ":3510,"Ġà¤īà¤ªà¤¶":3511,"Ġà¤¨à¤µà¤ª":3512,"Ġà¤¨à¤µà¤ķà¤²":3513,"Ġà¤ħà¤®à¤®":3514,"à¥Ĥ.-":3515,"à¤Ĺà¤²à¤ļ":3516,"à¤µà¤¨à¤®":3517,"Ġ5000":3518,"à¤Łà¤ļà¤°":3519,"à¤¸à¤²à¤®":3520,"à¤§à¤¨à¤¸":3521,"Ġà¤Īà¤Ŀ":3522,"à¤¡à¤°à¤¡":3523,"à¤ħà¤°à¤¬":3524,"Ġ92":3525,"Ġ1776":3526,"Ġ106":3527,"à¤Ľà¤¨":3528,"Ġ125":3529,"à¤ķà¤Łà¤®à¤§":3530,"Ġ140":3531,"101":3532,"Ġ1901":3533,"Ġà¤²à¤ĺà¤µ":3534,"Ġ1869":3535,"Ġ1891":3536,"1943":3537,"1949":3538,"Ġà¤ªà¤²à¤Łà¤¨":3539,"1951":3540,"1952":3541,"Ġà¤¸à¤®à¤ľà¤¤":3542,"1902":3543,"1909":3544,"à¤Ķà¤·à¤§":3545,"Ġà¤ľà¤²à¤¤à¤°à¤£à¤ªà¤Ł":3546,"Ġà¤ļà¤¢à¤īà¤¤":3547,"Ġà¤ħà¤µà¤ľà¤¡":3548,"ĠÂ£":3549,"Ġà¤²à¤¯à¤¬à¤¦":3550,"ĠVII":3551,"\".\"":3552,"'),":3553,"-'":3554,"120":3555,";\"":3556,"<!":3557,"ÏĦ":3558,"Ð³":3559,"Ġs":3560,"Ġv":3561,"Ġà¤·":3562,"à¤¾>":3563,"à¤²à¤ľ":3564,"à¤²à¤Ĺà¤¤":3565,"à¤¨à¤¸à¤¨":3566,"à¤ķà¤ł":3567,"à¤ķà¤ħ":3568,"à¤µà¤¯à¤ķ":3569,"à¤®à¤ł":3570,"à¤®à¤¸à¤¨à¤ļ":3571,"à¤¹à¤¦":3572,"Ġà¤¸à¤¡à¤²":3573,"Ġà¤¸à¤ĸà¤²":3574,"Ġà¤Ĩà¤ķà¤¸":3575,"Ġà¤Ĩà¤Īà¤²":3576,"Ġà¤Ĩà¤ķà¤²à¤¨":3577,"à¤Łà¤®à¤ļ":3578,"à¤ªà¤¸à¤¨à¤ļ":3579,"Ġà¤®à¤²à¤¯":3580,"à¤¦à¤Ĺà¤¡":3581,"à¤§à¤ª":3582,"à¤§à¤ªà¤Ł":3583,"à¤Ĺà¤¯":3584,"à¤Ĺà¤µà¤£":3585,"Ġà¤µà¤³à¤µà¤£":3586,"à¤¡à¤ªà¤°":3587,"Ġà¤¹à¤ļ":3588,"Ġà¤ħà¤³":3589,"Ġà¤ħà¤ł":3590,"Ġà¤ľà¤Ĺà¤²":3591,"à¤·à¤µ":3592,"à¤¬à¤¬":3593,"à¤¬à¤°à¤¤":3594,"Ġà¤ıà¤ľà¤ķ":3595,"à¤³à¤ª":3596,"Ġà¤¯à¤°":3597,"Ġà¤¯à¤¹":3598,"Ġà¤°à¤¤":3599,"Ġà¤°à¤¬à¤°":3600,"Ġà¤°à¤£à¤¨":3601,"à¤¥à¤°à¤¹":3602,"à¥Ģ.).":3603,"à¤°à¤£à¤¯":3604,"Ġà¤Ĺà¤ª":3605,"Ġà¤Ĺà¤³à¤¤":3606,"Ġà¤ļà¤¢à¤£":3607,"à¤µà¤°à¤¸":3608,"Ġà¤ıà¤ķà¤ľ":3609,"Ġà¤īà¤§":3610,"Ġà¤īà¤¹à¤°":3611,"Ġà¤īà¤¥à¤³":3612,"à¤«à¤µà¤°":3613,"à¤Ńà¤¯":3614,"à¤Ńà¤Ł":3615,"à¤Ńà¤ª":3616,"Ġà¤ªà¤°à¤µà¤¡à¤£":3617,"à¤°à¤ķà¤ªà¤£":3618,"à¥Ģ,\"":3619,"Ġà¤ĩà¤·":3620,"Ġà¤ĩà¤¯à¤¤":3621,"Ġà¤ĺà¤¡à¤£":3622,"à¤¯à¤ķà¤¶":3623,"à¤¾,\"":3624,"à¤ĺà¤¤":3625,"à¤ĺà¤¡":3626,"à¤Ŀà¤¡":3627,"à¤Ŀà¤°à¤¨":3628,"à¤Īà¤¶":3629,"à¤Īà¤²à¤¨":3630,"à¤Īà¤¨à¤®à¤§":3631,"à¤Īà¤¦à¤°à¤®":3632,"à¤¯à¤¨à¤¸":3633,"à¤¯à¤¨à¤®":3634,"Ġ\"[":3635,"à¤Łà¤°à¤Ĺ":3636,"à¤ªà¤¨à¤¹":3637,"à¤ªà¤¨à¤¦":3638,"à¤°à¤¸à¤¦":3639,"à¤Łà¤¨à¤¹":3640,"à¤¦à¤°à¤¨":3641,"à¤ħà¤¯":3642,"à¤ħà¤¡":3643,"à¤Ĭà¤¡":3644,"à¤µà¤¤à¤¯":3645,"Ġà¤ĵà¤¶":3646,"Ġà¤ĵà¤ĺ":3647,"à¤¶à¤¨à¤¶":3648,"à¤īà¤ľà¤µ":3649,"1918":3650,"1917":3651,"1925":3652,"à¤°à¤²à¤¨":3653,"Ġà¤Ĩà¤¯à¤¡à¤²":3654,"à¤Łà¤²à¤ļ":3655,"à¤Łà¤²à¤°à¤ļ":3656,"à¤Ĩà¤ªà¤¤":3657,"à¤Ĩà¤ľà¤ļ":3658,"Ġà¤īà¤ªà¤¸à¤®":3659,"Ġ3000":3660,"Ġà¤ıà¤®à¤Ł":3661,"Ġà¤ıà¤®à¤¬":3662,"Ġ1818":3663,"à¤ķà¤¸à¤®à¤§":3664,"Ġà¤ķà¤®à¤²":3665,"Ġà¤ıà¤¨à¤¸":3666,"à¤µà¤¨à¤¸":3667,"Ġà¤¥à¤¡à¤Ĺ":3668,"Ġà¤ĩà¤¤à¤°à¤¤":3669,"à¤¯à¤°à¤«":3670,"à¤²à¤¬à¤²":3671,"Ġà¤Īà¤µ":3672,"Ġà¤Īà¤Ĺà¤²":3673,"à¤ıà¤¸à¤ı":3674,"à¤¯à¤²à¤²":3675,"Ġ731":3676,"Ġà¤ħà¤ªà¤Ĺ":3677,"à¤¾')":3678,"Ġ900":3679,"Ġ1788":3680,"Ġ103":3681,"Ġ105":3682,"Ġ107":3683,"Ġ108":3684,"1850":3685,"à¤ıà¤ķà¤¦":3686,"à¤Ĺà¤³à¤µ":3687,"à¤Ĺà¤¨à¤¯":3688,"Ġà¤īà¤ļà¤²à¤£":3689,"à¤ķà¤£à¤®":3690,"Ġà¤ıà¤¡à¤Ĺà¤°":3691,"à¤ĳà¤¨à¤°":3692,"Ġ129":3693,"à¤Ńà¤µà¤µ":3694,"à¤¸à¤®à¤¸à¤ļ":3695,"Ġà¤Ĳà¤µà¤ľ":3696,"à¤Īà¤Łà¤¹":3697,"à¤¬à¤®à¤µà¤°":3698,"Ġ113":3699,"Ġà¤īà¤Ńà¤¯à¤ļà¤°":3700,"Ġ1875":3701,"Ġà¤Ĺà¤®à¤µ":3702,"601":3703,"Ġà¤¸à¤®à¤ľà¤£":3704,"Ġ1844":3705,"1907":3706,"Ġ1803":3707,"Ġ1804":3708,"Ġà¤¢à¤ķà¤²à¤¤":3709,"Ġà¤įà¤ķ":3710,"Ġà¤¨à¤³à¤ķ":3711,"ĠâĢ²":3712,"Ġà¤Ĩà¤īà¤Łà¤«":3713,"Ġà¤ªà¤¸à¤°à¤µà¤£":3714,"Ġà¤ļà¤²à¤¨à¤µ":3715,"Ġà¤įà¤ªà¤²à¤Ĺ":3716,"\";":3717,")'":3718,"150":3719,"et":3720,"st":3721,"Ð»":3722,"Ñĥ":3723,"âĢ":3724,"à¤¯à¤¬à¤°":3725,"à¤¯à¤°à¤µ":3726,"à¤¯à¤°à¤¶":3727,"à¤¯à¤¸à¤²":3728,"à¤¯à¤Ŀà¤°":3729,"à¥Ģ]":3730,"à¤¤à¤ªà¤Ł":3731,"à¤²à¤¨à¤ļ":3732,"à¤¨à¤¨à¤ļ":3733,"à¤¨à¤Ĺà¤¨":3734,"à¤ķà¤°à¤®":3735,"à¤ķà¤¸à¤¨":3736,"à¤ķà¤¸à¤ļ":3737,"à¤¸à¤°à¤¤":3738,"à¤¸à¤®à¤¨":3739,"à¤¸à¤°à¤¸":3740,"à¤¸à¤Ĩà¤°":3741,"à¤ļà¤¶":3742,"à¤ļà¤°à¤ķ":3743,"à¥ĭ/":3744,"à¥ĭ),":3745,"à¥ĭ\",":3746,"à¤¹à¤Ĺ":3747,"à¤¹à¤°à¤¸":3748,"Ġà¤¸à¤£":3749,"Ġà¤Ĩà¤¯à¤ķ":3750,"Ġà¤Ĩà¤¤à¤²":3751,"Ġà¤Ĩà¤ľà¤ķ":3752,"Ġà¤Ĩà¤ĸà¤£":3753,"à¤Łà¤ķà¤¨":3754,"à¤ªà¤Łà¤¨à¤ļ":3755,"à¤¦à¤µà¤£":3756,"à¤§à¤°à¤µ":3757,"à¤§à¤¤à¤µ":3758,"à¤Ĺà¤°à¤²":3759,"à¤¡à¤®à¤¨":3760,"Ġà¤¹à¤¯":3761,"Ġà¤¹à¤¡à¤¨à¤°":3762,"à¤¶à¤§":3763,"à¤¶à¤ªà¤°":3764,"à¤ľà¤°à¤¸":3765,"à¤·à¤¬":3766,"à¤·à¤µà¤¤":3767,"à¤¬à¤ľ":3768,"à¤¬à¤®à¤²":3769,"Ġà¤ıà¤ı":3770,"Ġà¤ıà¤¬à¤°":3771,"Ġà¤ıà¤¡à¤¨":3772,"Ġà¤ıà¤ħà¤°à¤µ":3773,"à¤³à¤Ĺà¤£":3774,"Ġà¤¦à¤®":3775,"Ġà¤¯à¤²":3776,"Ġà¤¯à¤µ":3777,"Ġà¤¬à¤ķà¤°":3778,"Ġà¤¬à¤Łà¤®":3779,"Ġà¤°à¤®":3780,"Ġà¤°à¤ľ":3781,"Ġà¤°à¤«à¤²":3782,"à¥ī,":3783,"à¤°à¤£à¤¯à¤°à¤®":3784,"Ġ112":3785,"Ġà¤ļà¤¯":3786,"Ġà¤ļà¤µà¤¦":3787,"Ġà¤ħà¤¸à¤¹à¤ķ":3788,"Ġà¤īà¤ķ":3789,"Ġà¤īà¤«":3790,"Ġà¤īà¤¥à¤®":3791,"à¤«à¤Ĺ":3792,"à¤«à¤°à¤¸à¤¨":3793,"Ġ212":3794,"Ġ214":3795,"Ġà¤Łà¤¸":3796,"Ġà¤Ŀà¤°":3797,"Ġà¤ĸà¤²":3798,"Ġà¤ĩà¤¯":3799,"Ġà¤ĩà¤¨à¤µ":3800,"à¤ªà¤°à¤Ĺ":3801,"Ġà¤ĺà¤¨à¤¦":3802,"à¤ıà¤²à¤¨":3803,"à¤ıà¤Ĩà¤°":3804,"à¤Ŀà¤ķ":3805,"à¤Ŀà¤ª":3806,"à¤Īà¤®à¤§":3807,"à¤Īà¤«":3808,"à¤ĩà¤Łà¤°":3809,"à¤ĩà¤¸à¤¨":3810,"à¤ĩà¤¸à¤²":3811,"à¤Łà¤°à¤¥":3812,"à¤ħà¤°à¤¸":3813,"à¤ħà¤Ĺà¤¦":3814,"à¤ķà¤°à¤®à¤§":3815,"Ġà¤ĵà¤¶à¤¨":3816,"Ġà¤ĵà¤¢à¤£":3817,"à¤¶à¤¨à¤ķà¤¡":3818,"à¤¶à¤¨à¤¸à¤¹":3819,"à¤īà¤ªà¤¨":3820,"à¤¸à¤¹à¤¸":3821,"à¤¸à¤°à¤³":3822,"1921":3823,"à¤ķà¤¨à¤¨":3824,"à¤¯à¤®à¤²":3825,"Ġà¤¸à¤¹à¤ļà¤°":3826,"à¤Ĩà¤¦":3827,"à¤Ĩà¤Ĺ":3828,"à¤Ĩà¤¯à¤ª":3829,"Ġà¤īà¤ªà¤ľ":3830,"Ġà¤ªà¤¦à¤ªà¤¥":3831,"Ġà¤ıà¤²à¤ıà¤²à¤¸":3832,"Ġ1810":3833,"Ġ1840":3834,"Ġ1824":3835,"à¤¨à¤ļà¤ķ":3836,"à¤Ĺà¤²à¤°":3837,"à¤ķà¤¸à¤Ń":3838,"Ġ450":3839,"à¤²à¤¬à¤¹":3840,"Ġà¤ľà¤¨à¤ķ":3841,"à¤ªà¤¦à¤µ":3842,"à¤¹à¤¨à¤Ĺ":3843,"Ġà¤Ĩà¤¤à¤¡":3844,"Ġà¤ħà¤ªà¤¶à¤¬":3845,"à¤¾'.":3846,"Ġ1567":3847,"Ġ1568":3848,"Ġ170":3849,"Ġ1796":3850,"Ġ1797":3851,"Ġ1763":3852,"Ġ1798":3853,"Ġ1774":3854,"Ġ109":3855,"1800":3856,"1876":3857,"Ġà¤¦à¤°à¤®à¤¹":3858,"à¤ľà¤µà¤³à¤ľà¤µà¤³":3859,"à¤ĳà¤Ł":3860,"Ġ160":3861,"Ġ136":3862,"Ġ138":3863,"Ġà¤Ĳà¤ļ":3864,"à¤ıà¤®à¤ıà¤²":3865,"Ġà¤īà¤ªà¤¸à¤Ń":3866,"Ġà¤Ĩà¤®à¤¦":3867,"à¤Łà¤®à¤µ":3868,"à¤°à¤®à¤£à¤ķ":3869,"Ġà¤¬à¤¸à¤Ĺ":3870,"à¤ľà¤Ĺà¤Ńà¤°":3871,"Ġ256":3872,"à¤·à¤®à¤³":3873,"à¤ıà¤ļà¤Ł":3874,"à¤®à¤¶à¤¹":3875,"1961":3876,"Ġà¤Ķà¤·à¤§à¤¨":3877,"221":3878,"à¤ıà¤«à¤ıà¤®":3879,"Ġ290":3880,"à¤¡à¤¦à¤³":3881,"à¤ĳà¤«à¤ļ":3882,"Ġ1843":3883,"1903":3884,"à¤¨à¤µà¤°à¤¹":3885,"Ġà¤ĸà¤¡à¤¤à¤°":3886,"...]":3887,"Ġà¤¦à¤«à¤¨à¤Ń":3888,"Ġxi":3889,"Ġà¤Ĩà¤īà¤Łà¤²":3890,"à¤¨à¤Ŀà¤¡":3891,"Ġà¤¹à¤Łà¤µà¤²":3892,"Î¿Ï":3893,"Ġà¤¦à¤¡à¤ªà¤¶":3894,"à¤§à¤°à¤µà¤¡":3895,"\").":3896,",-":3897,"-\"":3898,"/.":3899,"430":3900,"=|":3901,">),":3902,"TT":3903,"Î±":3904,"Î´":3905,"Ðļ":3906,"Ġa":3907,"Ġk":3908,"Ġt":3909,"Ġ|":3910,"ĠÏ":3911,"ģĦ":3912,"ĪĴ":3913,"ī¤":3914,"Ġà¤ĭ":3915,"à¥Ģ!\"":3916,"à¥Ģ=|":3917,"à¤¤à¤¬":3918,"à¤²à¤ķà¤¡":3919,"à¤²à¤¸à¤ļ":3920,"à¤¨à¤µà¤£":3921,"à¤ķà¤Łà¤°":3922,"à¤ķà¤°à¤¸":3923,"à¤ķà¤Łà¤ļ":3924,"à¤ķà¤®à¤ķ":3925,"à¤¸à¤¦à¤°":3926,"à¤ļà¤Ł":3927,"à¤£à¤®":3928,"à¤£à¤ª":3929,"à¤£à¤®à¤§":3930,"à¤®à¤°à¤²":3931,"à¤®à¤¡à¤²":3932,"à¤®à¤¡à¤£":3933,"à¤¹à¤¸à¤¹":3934,"à¤¹à¤²à¤®à¤§":3935,"Ġà¤Ĩà¤Ĭ":3936,"Ġà¤Ĩà¤µà¤¡à¤£":3937,"Ġà¤®à¤Ŀ":3938,"à¤¦à¤®à¤§":3939,"à¤Ĺà¤°à¤ķ":3940,"à¤Ĺà¤¬à¤°":3941,"à¤Ĺà¤ķà¤¡":3942,"à¤Ĺà¤¨à¤²":3943,"à¤Ĺà¤¨à¤¸":3944,"Ġà¤¤à¤¶":3945,"Ġà¤µà¤²":3946,"Ġà¤µà¤¸à¤¤":3947,"à¤¡à¤¬à¤²":3948,"Ġà¤¹à¤¡à¤¸à¤¨":3949,"Ġà¤ħà¤¥":3950,"Ġà¤ľà¤µ":3951,"Ġà¤ľà¤Ĺà¤¨":3952,"Ġà¤ľà¤¸à¤µ":3953,"à¤¶à¤¹":3954,"à¤¶à¤µà¤°":3955,"à¤ľà¤«":3956,"à¤ľà¤¯à¤µ":3957,"Ġà¤¨à¤¨":3958,"Ġà¤¨à¤¹":3959,"à¤·à¤¯à¤°":3960,"Ġà¤ıà¤µà¤°":3961,"Ġà¤ıà¤Łà¤µ":3962,"à¤³à¤¨":3963,"à¤³à¤ķà¤°":3964,"à¤³à¤ķà¤ªà¤£":3965,"Ġà¤¦à¤ĸà¤²":3966,"Ġà¤¯à¤®":3967,"Ġà¤¬à¤¤":3968,"Ġà¤¬à¤Ŀ":3969,"Ġà¤¬à¤¹à¤°":3970,"Ġà¤¬à¤¸à¤ļ":3971,"Ġà¤¬à¤¡à¤¬à¤¡":3972,"Ġà¤°à¤¨":3973,"Ġà¤°à¤ļà¤¤":3974,"à¤¥à¤¡":3975,"à¤¥à¤¸à¤¹":3976,"à¤°à¤£à¤¹":3977,"Ġà¤²à¤Łà¤ķ":3978,"Ġà¤Ĺà¤¡":3979,"Ġ118":3980,"Ġ117":3981,"Ġ110":3982,"à¤¤à¤°à¤¶":3983,"Ġà¤īà¤Ŀ":3984,"à¤«à¤²à¤ķ":3985,"Ġ(#":3986,"Ġà¤«à¤¡à¤ķ":3987,"Ġà¤Łà¤®":3988,"Ġà¤ªà¤°à¤®":3989,"Ġà¤Ńà¤Ł":3990,"Ġ')":3991,"à¤°à¤®à¤¯":3992,"Ġà¤ĩà¤°à¤µ":3993,"Ġà¤ĩà¤Ĩà¤¨":3994,"à¤ıà¤¬":3995,"à¤ıà¤¥":3996,"à¤ıà¤ķà¤²":3997,"à¤ıà¤²à¤ļ":3998,"à¤ıà¤¥à¤²":3999,"à¤ıà¤Łà¤°à¤ļ":4000,"à¤ıà¤ħà¤°à¤«":4001,"à¤¾,'":4002,"à¤ĺà¤¡à¤¤":4003,"à¤Ŀà¤®à¤§":4004,"à¤Ŀà¤µà¤°":4005,"à¤Ŀà¤¬à¤°":4006,"Ġà¤¸à¤°à¤¨":4007,"à¤Īà¤°":4008,"à¤Īà¤Ĺ":4009,"Ġà¤ĳà¤¨à¤°":4010,"à¤Łà¤°à¤¯":4011,"à¤°à¤¸à¤®à¤ľ":4012,"à¤Łà¤¨à¤µ":4013,"à¤Łà¤¨à¤µà¤°":4014,"à¤Łà¤¨à¤®à¤¨":4015,"à¤ħà¤Ł":4016,"à¤ħà¤Ŀ":4017,"à¤ħà¤«à¤µ":4018,"à¤Ĭà¤®à¤§":4019,"à¤Ĭà¤¸à¤¨":4020,"à¤Ĭà¤¨à¤®à¤§":4021,"à¤ķà¤°à¤ª":4022,"Ġà¤ĵà¤¢à¤¤":4023,"à¤īà¤¨à¤®à¤§":4024,"à¤¯à¤¤à¤¶":4025,"1936":4026,"1932":4027,"Ġà¤ıà¤¸à¤ıà¤¸":4028,"à¤ľà¤¨à¤®à¤§":4029,"à¤ĵà¤¦":4030,"à¥ĭ...":4031,"à¤¯à¤®à¤ª":4032,"Ġà¤Ĩà¤¯à¤¶":4033,"à¤Łà¤²à¤®":4034,"à¤¦à¤²à¤¹":4035,"à¤Ĩà¤ªà¤²":4036,"à¤Ĩà¤¯à¤µ":4037,"à¤Ĩà¤¯à¤¸":4038,"à¤¤à¤²à¤¤":4039,"Ġà¤¨à¤µà¤¶":4040,"204":4041,"Ġà¤ıà¤®à¤¡":4042,"Ġ1819":4043,"Ġ1820":4044,"Ġ1811":4045,"Ġ1825":4046,"Ġ1837":4047,"Ġ1838":4048,"Ġ1831":4049,"à¤ķà¤¸à¤¸":4050,"à¤°à¤¶à¤¸":4051,"à¤¸à¤²à¤°":4052,"à¤¯à¤°à¤µà¤°":4053,"Ġà¤ľà¤¨à¤¸":4054,"à¤¹à¤¨à¤¤":4055,"Ġà¤Īà¤®":4056,"à¤ıà¤¸à¤¡":4057,"),'":4058,"Ġà¤ĵà¤³à¤ĸà¤ªà¤¤":4059,"à¤¡à¤°à¤¥à¤²":4060,"Ġ740":4061,"à¥Ģ'.":4062,"Ġà¤ħà¤ªà¤µà¤°":4063,"à¤®à¤°à¤®à¤§":4064,"à¤¨à¤µà¤¯":4065,"Ġà¤Ĩà¤łà¤µà¤²":4066,"Ġ174":4067,"Ġ1730":4068,"Ġ1762":4069,"Ġ1794":4070,"Ġà¤ľà¤®à¤²":4071,"à¤¤à¤¨à¤¶":4072,"à¤ľà¤°à¤¨":4073,"Ġ102":4074,"180":4075,"à¤ıà¤ķà¤ķ":4076,"à¤ıà¤ķà¤¤à¤°":4077,"à¤Ĺà¤¨à¤¶":4078,"à¥ĩ);":4079,"à¤®à¤²à¤·":4080,"à¤ıà¤¨à¤ľ":4081,"Ġ121":4082,"Ġ122":4083,"Ġ124":4084,"à¤ªà¤ļà¤¯":4085,"à¥ĩ')":4086,"Ġ145":4087,"Ġà¤ħà¤ĸà¤¤":4088,"à¤ĩà¤Łà¤µà¤°":4089,"Ġà¤Ĳà¤ķà¤¤":4090,"Ġà¤¨à¤ķà¤³à¤¤":4091,"125":4092,"à¤ĺà¤°à¤Ĺ":4093,"à¤¡à¤¸à¤°à¤ļ":4094,"à¤µà¤°à¤£à¤¶":4095,"à¤¨à¤¶à¤°":4096,"Ġà¤°à¤¹à¤¦":4097,"à¤¡à¤®à¤¸à¤ļ":4098,"Ġà¤ķà¤łà¤ª":4099,"Ġà¤ĵà¤²à¤¸à¤°":4100,"à¤¹à¤²à¤ªà¤°":4101,"Ġà¤ľà¤¬à¤¡":4102,"1941":4103,"1942":4104,"Ġ1852":4105,"3775":4106,"399":4107,"à¤¡à¤°à¤¸à¤¨à¤ļ":4108,"Ġ363":4109,"à¤¨à¤Ńà¤°à¤ª":4110,"Ġà¤ªà¤¸à¤°à¤¤":4111,"Ġ1808":4112,"à¤Łà¤®à¤¨à¤ļ":4113,"Ġ(;)":4114,"Ġà¤ªà¤¸à¤°à¤µà¤²":4115,"Ġà¤ªà¤¸à¤°à¤µà¤¤":4116,"Ġ(,)":4117,"à¤¸à¤³à¤§":4118,"Ġ','":4119,"Ġà¤¦à¤¡à¤ªà¤²":4120,"ĠXV":4121,"Ġà¤¶à¤¯à¤¨à¤ķà¤ķ":4122,"Ġà¤ħà¤¸à¤¹à¤®à¤¤":4123,"âĢĿ":4124,"à¤īà¤ªà¤¨à¤Ĺà¤°":4125,"';":4126,",'":4127,".;":4128,"/'":4129,"110":4130,"113":4131,"240":4132,"734":4133,"833":4134,"://":4135,"HTT":4136,"da":4137,"in":4138,"ml":4139,"rÃ¼":4140,"ss":4141,"Äį":4142,"Ð¼":4143,"ÑĤ":4144,"âģĦ":4145,"Ġe":4146,"Ġl":4147,"Ġn":4148,"Ġz":4149,"Ġ00":4150,"à¤°à¤¹à¤°":4151,"à¤°à¤¨à¤²":4152,"à¤°à¤°à¤ļà¤¨":4153,"à¤°à¤¬à¤²":4154,"à¥ĩ?":4155,"à¤¯à¤§":4156,"à¤¯à¤¡à¤ķ":4157,"à¤¯à¤«à¤°":4158,"à¤¯à¤Ĺà¤Ł":4159,"à¤¤à¤µà¤°":4160,"à¤¤à¤ªà¤ķ":4161,"à¤²à¤¹à¤°":4162,"à¤²à¤®à¤°":4163,"à¤²à¤ľà¤µà¤³":4164,"à¤ķà¤Łà¤²":4165,"à¤ķà¤¬à¤¸":4166,"à¤¸à¤¬à¤¦":4167,"à¤¸à¤³à¤¤":4168,"à¤¸à¤¸à¤®":4169,"à¤ļà¤ĸ":4170,"à¤ļà¤²à¤°":4171,"à¤£à¤µà¤²":4172,"à¤£à¤¬à¤¤":4173,"à¤®à¤ķà¤°":4174,"à¤®à¤¸à¤¹":4175,"Ġà¤ķà¤²à¤¯":4176,"Ġà¤¸à¤Ł":4177,"Ġà¤¸à¤¶":4178,"Ġà¤¸à¤¦à¤°":4179,"Ġà¤Ĩà¤µà¤°":4180,"Ġà¤ªà¤¥":4181,"à¤Łà¤µà¤²":4182,"à¤Łà¤¸à¤ļ":4183,"à¤Łà¤¤à¤®":4184,"à¤ªà¤Łà¤¨à¤²":4185,"Ġà¤®à¤®":4186,"Ġà¤®à¤Ł":4187,"Ġà¤®à¤°à¤¤":4188,"Ġà¤®à¤¦à¤°":4189,"Ġà¤®à¤¨à¤Ĺ":4190,"à¤¦à¤¬":4191,"à¤Ĺà¤ªà¤¤":4192,"à¤¡à¤µà¤¤":4193,"Ġà¤¹à¤¡":4194,"Ġà¤¹à¤«":4195,"à¤¶à¤Ĺ":4196,"à¤¶à¤Ŀ":4197,"à¤¶à¤¯à¤µ":4198,"à¤ľà¤¬à¤°":4199,"Ġà¤¨à¤²":4200,"Ġà¤¨à¤Łà¤ķ":4201,"à¤·à¤ªà¤£":4202,"à¤¬à¤Łà¤¨":4203,"à¤¬à¤¨à¤ļ":4204,"à¤¬à¤²à¤ķ":4205,"Ġà¤ıà¤Īà¤¡":4206,"à¤³à¤Ĺà¤¡":4207,"Ġà¤¬à¤Łà¤°":4208,"Ġà¤¬à¤¦à¤¨":4209,"Ġà¤¬à¤¸à¤µ":4210,"Ġà¤°à¤¥":4211,"Ġà¤°à¤£à¤§":4212,"à¤¥à¤²à¤ļ":4213,"à¥Ģ.\",":4214,"Ġà¤²à¤ªà¤µ":4215,"à¤ĸà¤ļ":4216,"Ġà¤ļà¤Ł":4217,"à¤¤à¤°à¤Ń":4218,"à¤«à¤ľ":4219,"Ġ220":4220,"Ġà¤¡à¤«":4221,"Ġ($":4222,"Ġà¤«à¤¨à¤ª":4223,"Ġà¤Łà¤¬":4224,"Ġà¤ªà¤°à¤µà¤¡à¤¤":4225,"Ġà¤Ŀà¤ļ":4226,"Ġà¤Ŀà¤¡à¤ª":4227,"Ġà¤ĸà¤®":4228,"Ġà¤ĸà¤Ŀ":4229,"à¥Ī\"":4230,"à¥Ī'":4231,"Ġ'.":4232,"à¤°à¤®à¤ķà¤ªà¤£":4233,"Ġà¤ĩà¤¨à¤¸":4234,"Ġà¤ĩà¤¨à¤Ĺ":4235,"Ġà¤ĩà¤ľà¤²":4236,"Ġ208":4237,"à¤¯à¤ķà¤°à¤£":4238,"à¤¯à¤ķà¤²à¤µà¤°":4239,"à¤ıà¤¹":4240,"à¤ıà¤Ĺ":4241,"à¤ıà¤¨à¤ļ":4242,"à¤ıà¤¨à¤¸":4243,"à¤¬à¤°à¤ª":4244,"à¤¬à¤°à¤µà¤°":4245,"à¤ĺà¤£":4246,"à¤Ŀà¤«":4247,"à¤Ŀà¤²à¤ļ":4248,"à¤¢à¤ªà¤£":4249,"à¤Īà¤Łà¤²":4250,"à¤Īà¤²à¤ļ":4251,"à¤Īà¤¤à¤³":4252,"à¤ĩà¤¡à¤²":4253,"à¤ĩà¤²à¤®à¤§":4254,"Ġà¤ĳà¤®":4255,"Ġà¤ĳà¤Īà¤²":4256,"à¤ĥ\"":4257,"à¤®à¤¨à¤¸":4258,"à¤ªà¤¨à¤°":4259,"à¤°à¤¸à¤ľ":4260,"à¤ķà¤¡à¤«":4261,"à¤Łà¤¨à¤ª":4262,"004":4263,"à¤ħà¤ªà¤°":4264,"à¤¹à¤°à¤¡":4265,"à¤ķà¤°à¤¦":4266,"Ġà¤ĵà¤ľ":4267,"Ġà¤ĵà¤¢":4268,"à¤¶à¤¨à¤®":4269,"à¤īà¤·":4270,"à¤īà¤ªà¤¯":4271,"à¤¸à¤°à¤®à¤§":4272,"1900":4273,"1916":4274,"1938":4275,"Ġà¤łà¤³à¤ķà¤ªà¤£":4276,"à¤µà¤¸à¤Ńà¤°":4277,"à¤ĵà¤ķà¤¸":4278,"à¤ķà¤¨à¤°":4279,"à¤ķà¤¨à¤µ":4280,"à¤°à¤²à¤®à¤§":4281,"Ġà¤Ĩà¤¯à¤ļ":4282,"Ġà¤Ĩà¤¯à¤¬":4283,"Ġà¤Ĩà¤¯à¤ĵà¤¸":4284,"Ġà¤¸à¤¹à¤ħà¤¸":4285,"à¤Łà¤²à¤ķ":4286,"à¤Łà¤²à¤®à¤¨":4287,"à¤Ĩà¤¡":4288,"à¤Ĩà¤ªà¤£":4289,"à¤°à¤ªà¤Łà¤²":4290,"Ġà¤īà¤ªà¤¦":4291,"Ġà¤īà¤ªà¤µà¤¨":4292,"à¤¡à¤²à¤¹":4293,"Ġ350":4294,"Ġ325":4295,"Ġ183":4296,"Ġ1812":4297,"Ġ1814":4298,"Ġ1822":4299,"Ġ1828":4300,"Ġ1839":4301,"à¤Ĺà¤²à¤Łà¤¨":4302,"à¤ķà¤¸à¤¬à¤°":4303,"Ġà¤ıà¤¨à¤Ĺ":4304,"Ġà¤ıà¤¨à¤¬":4305,"Ġà¤ıà¤¨à¤Ŀ":4306,"à¤²à¤¨à¤µ":4307,"Ġà¤ľà¤¨à¤¨":4308,"Ġà¤ĳà¤«à¤¸":4309,"Ġà¤Īà¤²":4310,"à¤¯à¤²à¤Łà¤ļ":4311,"à¤¡à¤°à¤«":4312,"Ġ833":4313,"à¤ļà¤°à¤®à¤§":4314,"Ġ151":4315,"Ġ153":4316,"Ġ1570":4317,"Ġ1582":4318,"Ġ175":4319,"Ġ176":4320,"Ġ177":4321,"Ġ1750":4322,"Ġ1740":4323,"Ġ1766":4324,"Ġ1792":4325,"Ġ1787":4326,"à¤ľà¤°à¤®à¤§":4327,"1880":4328,"1889":4329,"1855":4330,"1868":4331,"à¤ĩà¤¨à¤®":4332,"à¤ĩà¤¨à¤ª":4333,"à¤¯à¤ªà¤°à¤®":4334,"Ġà¤ħà¤ķà¤®":4335,"Ġà¤īà¤ļà¤²":4336,"à¤µà¤Łà¤ªà¤°":4337,"Ġà¤īà¤²à¤¦":4338,"Ġà¤īà¤²à¤¥":4339,"Ġà¤īà¤²à¤Łà¤²":4340,"à¤®à¤¸à¤Ń":4341,"Ġ161":4342,"Ġ168":4343,"Ġ1627":4344,"à¥Ģ):":4345,"à¥Ģ);":4346,"à¤¬à¤²à¤µ":4347,"Ġà¤īà¤ĺà¤¡à¤¤":4348,"à¤ĩà¤Łà¤¸":4349,"à¤īà¤¨à¤¸à¤¹":4350,"Ġ133":4351,"Ġ135":4352,"Ġ137":4353,"Ġ139":4354,"Ġ1300":4355,"à¤Ĺà¤¡à¤¦":4356,"103":4357,"105":4358,".\"\"":4359,"Ġà¤ªà¤Łà¤µà¤²":4360,"Ġà¤īà¤¡à¤µ":4361,"à¤°à¤®à¤£à¤ķà¤°":4362,"149":4363,"à¤µà¤§à¤Ĺ":4364,"à¤ıà¤ļà¤Ŀ":4365,"Ġ275":4366,"Ġ279":4367,"Ġà¤ħà¤¡à¤ĸ":4368,"Ġ1894":4369,"1954":4370,"Ġà¤ĵà¤°à¤¡à¤£":4371,"Ġà¤ķà¤¡à¤µà¤Ł":4372,"377":4373,"à¤īà¤¥à¤µà¤°":4374,"Ġà¤¹à¤®à¤µ":4375,"Ġ1842":4376,"Ġ1849":4377,"à¤®à¤¦à¤ļ":4378,"1906":4379,"396":4380,"à¤°à¤µà¤£à¤¤":4381,"Ġà¤īà¤¤à¤°à¤µ":4382,"365":4383,"Ġ364":4384,"Ġ354":4385,"Ġà¤Ĩà¤¸à¤¨à¤ķ":4386,"Ġà¤µà¤³à¤£à¤ªà¤Ł":4387,"à¤īà¤ªà¤µ":4388,"Ġ4771":4389,"à¤¯à¤«à¤²à¤®à¤§":4390,"653":4391,"Ġà¤§à¤¡à¤ķà¤²":4392,"Ġ'('":4393,"à¤ªà¤Łà¤¨à¤®":4394,"Ġà¤ıà¤ªà¤²à¤Ĺ":4395,"à¤¸à¤ĸà¤¸":4396,"à¤¯à¤¬à¤²à¤®à¤§":4397,"Ġà¤µà¤§à¤¸":4398,"Ġà¤¦à¤¡à¤ªà¤£":4399,"XXXXXXXXXXXXXXXXXXXXXXXXXXXXXXXXXXXXXXXXXXXXXXXXXXXXXXXXXXXXXXXX":4400,"ard":4401,"org":4402,"Ġà¤ķà¤¢à¤Ī":4403,"Ġà¤®à¤¨à¤Ĺà¤Ł":4404,"!\",":4405,"':":4406,"').":4407,"'/'":4408,")>":4409,"--":4410,"1200":4411,"112":4412,"380":4413,"488":4414,"613":4415,">,":4416,"PS":4417,"an":4418,"ha":4419,"km":4420,"mi":4421,"rs":4422,"ul":4423,"Î·":4424,"Î¸":4425,"Îº":4426,"Ñı":4427,"ĠXX":4428,"à¤°à¤°à¤ļ":4429,"à¤¯à¤Łà¤²":4430,"à¤¯à¤¶à¤¸":4431,"à¤¿]":4432,"à¤¤à¤Ń":4433,"à¤²à¤§":4434,"à¤²à¤Łà¤¨":4435,"à¤²à¤ķà¤°":4436,"à¤²à¤¸à¤°":4437,"à¤²à¤ªà¤¦":4438,"à¤¨à¤¥":4439,"à¤¨à¤°à¤¸":4440,"à¤¨à¤ľà¤µà¤³":4441,"à¤ķà¤°à¤¤":4442,"à¤ķà¤µà¤ļ":4443,"à¤¸à¤Łà¤¨à¤ļ":4444,"à¤¸à¤ĵà¤µ":4445,"à¤µà¤Ī":4446,"à¤µà¤µà¤¤":4447,"à¤ļà¤¬à¤°":4448,"à¤ļà¤®à¤¨":4449,"à¤ļà¤¨à¤²":4450,"à¤£à¤¹":4451,"à¤®à¤°à¤¤":4452,"à¤®à¤°à¤®":4453,"à¤®à¤Ŀ":4454,"à¤®à¤¸à¤¨à¤¨":4455,"à¥ĭ!":4456,"à¥ĭ).":4457,"Ġà¤ķà¤ªà¤ļ":4458,"à¤¹à¤ľ":4459,"à¤¹à¤¨à¤²":4460,"à¤¹à¤²à¤ķ":4461,"à¤¹à¤¬à¤¦":4462,"à¤¹à¤²à¤ļ":4463,"à¤¹à¤®à¤ļ":4464,"Ġà¤Ĩà¤¦à¤²":4465,"Ġà¤Ĩà¤¡à¤®":4466,"Ġà¤Ĩà¤Ĭà¤Ł":4467,"Ġà¤Ĩà¤ĩà¤¸à¤²":4468,"Ġà¤ªà¤«":4469,"Ġà¤ªà¤µà¤¨":4470,"à¤Łà¤ľà¤µà¤³":4471,"à¥ģ\"":4472,"à¤ªà¤²à¤¨":4473,"à¤ªà¤¸à¤®":4474,"à¤¦à¤°à¤ķ":4475,"à¤§à¤¹":4476,"à¤§à¤ªà¤£":4477,"à¤§à¤ªà¤¤":4478,"à¤§à¤¶à¤¤à¤ķ":4479,"à¥Ĥ;":4480,"à¤Ĺà¤ľà¤µà¤³":4481,"à¤¡à¤°à¤¦":4482,"à¤¡à¤®à¤ļ":4483,"à¤¡à¤Ľ":4484,"à¤¡à¤Ĺà¤µ":4485,"Ġà¤¹à¤¡à¤°":4486,"Ġà¤¹à¤¸à¤¤":4487,"Ġà¤ħà¤¥à¤¨":4488,"Ġà¤ľà¤²à¤¸":4489,"à¤¶à¤²à¤¨":4490,"à¤¶à¤²à¤¤":4491,"à¤ľà¤¦à¤°":4492,"Ġà¤¨à¤Ŀà¤°":4493,"à¤·à¤²":4494,"à¤¬à¤ª":4495,"à¤¬à¤Īà¤¤":4496,"Ġà¤ıà¤°à¤µ":4497,"à¤³à¤Ĺà¤¤":4498,"Ġà¤°à¤ļà¤£":4499,"Ġà¤°à¤¬à¤°à¤ļ":4500,"Ġà¤°à¤£à¤Ĺ":4501,"à¤¥à¤µà¤°":4502,"à¤¥à¤°à¤ļ":4503,"à¤¥à¤°à¤¨":4504,"à¤°à¤£à¤ķà¤°":4505,"Ġà¤²à¤ªà¤µà¤²":4506,"Ġà¤Ĺà¤¦":4507,"Ġà¤¶à¤Łà¤°":4508,"à¥ħ.":4509,"à¤ĸà¤Ĺ":4510,"à¤ĸà¤ªà¤¦":4511,"à¤ĸà¤µà¤Ł":4512,"à¤ĸà¤®à¤²":4513,"Ġà¤ļà¤·":4514,"Ġà¤ļà¤¢à¤²":4515,"à¤¤à¤°à¤¯":4516,"à¤¤à¤°à¤ľ":4517,"Ġà¤ħà¤¸à¤Ń":4518,"Ġà¤īà¤łà¤µà¤²":4519,"Ġà¤īà¤¦à¤°à¤¨":4520,"à¤«à¤¸à¤¨":4521,"à¤Ńà¤Łà¤ķ":4522,"Ġ219":4523,"Ġà¤¡à¤¸":4524,"Ġ(â":4525,"Ġà¤«à¤¨":4526,"Ġà¤«à¤°à¤¸":4527,"Ġà¤Ńà¤µà¤¨":4528,"Ġà¤Ŀà¤³":4529,"Ġà¤Ŀà¤³à¤ķ":4530,"à¤°à¤ķà¤µà¤°":4531,"Ġà¤ĸà¤¸à¤ĸà¤¸":4532,"à¤°à¤®à¤¹":4533,"à¤°à¤®à¤µà¤°":4534,"Ġà¤ĩà¤¨à¤²":4535,"Ġ204":4536,"Ġ2030":4537,"Ġà¤ĺà¤°à¤®":4538,"Ġà¤ĺà¤¨à¤ķ":4539,"à¤¯à¤ķà¤²à¤¬à¤°":4540,"Ġà¤¸à¤®à¤¶":4541,"à¤ıà¤¸à¤ļ":4542,"à¤ıà¤¨à¤ķ":4543,"à¤ıà¤®à¤¸":4544,"à¤ĺà¤²":4545,"à¤Ŀà¤°à¤¸à¤ļ":4546,"Ġà¤¸à¤°à¤¸":4547,"à¤Īà¤¦":4548,"à¤Īà¤¬":4549,"à¤Īà¤¨à¤ļ":4550,"à¤Īà¤²à¤Ĺ":4551,"à¤Īà¤ķà¤°à¤ļ":4552,"à¤ĩà¤¶":4553,"à¤ĩà¤ĵà¤®":4554,"Ġà¤ĳà¤ļ":4555,"à¤¯à¤¨à¤¸à¤¹":4556,"Ġ\").":4557,"Ġà¤ħà¤¨à¤¨":4558,"à¤Łà¤°à¤°":4559,"à¤Łà¤°à¤¸à¤¬à¤°":4560,"à¤®à¤¨à¤µ":4561,"à¤ªà¤¨à¤°à¤¨":4562,"à¤Łà¤¨à¤ķà¤¡":4563,"à¤¦à¤°à¤°":4564,"à¤¦à¤°à¤µà¤°":4565,"à¤ħà¤°à¤ª":4566,"à¤ħà¤«à¤Ĺ":4567,"à¤Ĭà¤ľ":4568,"à¤ķà¤²à¤°":4569,"à¤ķà¤²à¤¸":4570,"à¤ķà¤²à¤«":4571,"à¤µà¤¤à¤ªà¤£":4572,"à¤¹à¤°à¤µà¤°":4573,"à¤ķà¤°à¤¶":4574,"Ġà¤ĵà¤ł":4575,"Ġà¤ĵà¤ªà¤°à¤®":4576,"à¤µà¤£à¤ķ":4577,"à¤¶à¤¨à¤²à¤¨":4578,"à¤īà¤ªà¤ķ":4579,"à¤īà¤ªà¤ļ":4580,"à¤īà¤²à¤®à¤§":4581,"à¤īà¤ªà¤¸":4582,"à¤¸à¤°à¤¨":4583,"à¤¸à¤°à¤¦":4584,"à¤°à¤µà¤ļà¤¨":4585,"1911":4586,"1928":4587,"1937":4588,"1935":4589,"1934":4590,"Ġà¤ıà¤¸à¤¸":4591,"à¤ľà¤¨à¤°":4592,"à¤ĵà¤ªà¤°":4593,"à¤ĵà¤¬à¤°":4594,"à¤ĵà¤ªà¤¨":4595,"à¤ĵà¤¸à¤ļ":4596,"Ġà¤Ĩà¤¯à¤ª":4597,"Ġà¤Ĩà¤¯à¤ıà¤¸":4598,"à¤µà¤¡à¤ķà¤°":4599,"à¤Ĩà¤Ī":4600,"à¤¤à¤²à¤ĸ":4601,"à¤µà¤³à¤ª":4602,"à¤¨à¤²à¤®à¤§":4603,"à¤¨à¤²à¤µà¤°":4604,"à¤¡à¤²à¤Łà¤¨":4605,"à¥Ĥ.,":4606,"Ġ311":4607,"Ġ340":4608,"Ġ370":4609,"Ġà¤ªà¤¦à¤¯":4610,"à¤¨à¤°à¤¬":4611,"à¤¨à¤°à¤ĸ":4612,"Ġà¤ıà¤®à¤ıà¤¸":4613,"Ġ181":4614,"Ġ1823":4615,"Ġ1826":4616,"Ġ1835":4617,"Ġ1829":4618,"Ġ1836":4619,"à¤¤à¤ķà¤®":4620,"à¤ķà¤¸à¤®":4621,"à¤µà¤¨à¤¶à¤ķ":4622,"Ġà¤¶à¤¹à¤°à¤Ńà¤°":4623,"Ġ550":4624,"Ġà¤ķà¤²à¤ķà¤¤":4625,"à¤²à¤¬à¤µ":4626,"Ġà¤Īà¤ķ":4627,"Ġà¤Īà¤Ł":4628,"Ġà¤Īà¤¬":4629,"à¤ıà¤¸à¤Ł":4630,"à¤²à¤°à¤µà¤°":4631,"à¤¯à¤²à¤¸":4632,"à¤¯à¤²à¤¢":4633,"à¤¡à¤°à¤®à¤§":4634,"Ġ720":4635,"Ġ750":4636,"Ġ748":4637,"à¤ħà¤°à¤µà¤°":4638,"...\"":4639,"à¤¨à¤ķà¤Ł":4640,"Ġà¤ªà¤¤à¤µ":4641,"Ġà¤¦à¤¶à¤ķà¤Ńà¤°":4642,"Ġ850":4643,"Ġ887":4644,"à¤ļà¤°à¤¨":4645,"Ġ970":4646,"Ġ949":4647,"Ġ932":4648,"Ġ967":4649,"Ġ961":4650,"Ġ973":4651,"Ġ152":4652,"Ġ1560":4653,"Ġ1596":4654,"Ġ171":4655,"Ġ172":4656,"Ġ1741":4657,"Ġ1799":4658,"Ġ1761":4659,"Ġ1764":4660,"Ġ1779":4661,"à¤Ĭà¤¨à¤¶":4662,"1812":4663,"1840":4664,"1827":4665,"1835":4666,"1857":4667,"1896":4668,"1897":4669,"1861":4670,"1865":4671,"1883":4672,"1884":4673,"à¤Ľà¤µ":4674,"à¤ķà¤ļà¤±":4675,"à¤ıà¤ķà¤®":4676,"Ġà¤¹à¤²à¤£":4677,"à¤µà¤ľà¤£":4678,"Ġà¤ķà¤¥à¤¨":4679,"Ġà¤ıà¤¡à¤ľ":4680,"à¤ĳà¤ª":4681,"Ġ167":4682,"Ġ169":4683,"Ġ127":4684,"à¤ķà¤Łà¤ªà¤£":4685,"Ġà¤Ĩà¤¶à¤¯":4686,"à¤¬à¤²à¤®à¤§":4687,"Ġ147":4688,"à¤ĩà¤Łà¤ª":4689,"à¤ıà¤®à¤ľ":4690,"à¤ıà¤®à¤®à¤§":4691,"à¤ıà¤®à¤¡à¤¬":4692,"Ġà¤®à¤¨à¤®":4693,"à¤ĩà¤²à¤Ł":4694,"à¤ĩà¤²à¤µà¤°":4695,"à¤Ĩà¤¯à¤®à¤§":4696,"à¥ĩ-'":4697,"126":4698,"Ġ303":4699,"Ġ3041":4700,"102":4701,"Ġà¤Ĩà¤¦à¤®":4702,"Ġà¤Ĩà¤«à¤¤":4703,"306":4704,"Ġà¤¬à¤¸à¤µà¤¤":4705,"à¤¤à¤ªà¤¶":4706,"155":4707,"Ġ236":4708,"Ġ238":4709,"Ġ226":4710,"à¤¡à¤®à¤¸à¤²":4711,"à¥Ģà¤ĥ\"":4712,"111":4713,"1100":4714,"Ġ281":4715,"Ġà¤ľà¤¸à¤ľà¤¶":4716,"Ġà¤ħà¤¡à¤µà¤²":4717,"Ġà¤ħà¤¡à¤ķà¤¤":4718,"Ġ260":4719,"à¤°à¤¬à¤³":4720,"à¤ħà¤ªà¤ĺ":4721,"256":4722,"239":4723,"Ġà¤µà¤¨à¤µà¤°":4724,"Ġà¤ĵà¤°à¤¡à¤¤":4725,"à¤¶à¤ªà¤ª":4726,"à¤¯à¤Ŀà¤²":4727,"à¤īà¤¥à¤ļ":4728,"357":4729,"385":4730,"Ġ1841":4731,"Ġà¤®à¤¶à¤°":4732,"Ġà¤ħà¤Łà¤²à¤¬":4733,"à¤¶à¤ļà¤Ł":4734,"à¥ĩ...\"":4735,"Ġ1805":4736,"Ġà¤Ĩà¤ļà¤°à¤£":4737,"à¤īà¤ªà¤ķà¤°à¤£":4738,"Ġ1501":4739,"ĠÎ²":4740,"à¤Īà¤ªà¤µà¤°":4741,"à¤¯à¤«à¤²à¤ļ":4742,"Ġ(;,":4743,"Ġà¤Ľà¤³à¤Ľ":4744,"Ġà¤ħà¤ªà¤¹à¤°à¤£à¤ķà¤°":4745,"Ġà¤īà¤Ĺà¤®à¤¸":4746,"à¤¾?\"":4747,"à¤ıà¤¸à¤ıà¤¸à¤ĵà¤¸":4748,"12857":4749,"Ġà¤Īà¤Ŀà¤¥":4750,"Ġà¤·à¤Łà¤ķ":4751,"à¤²à¤Ĺà¤¤à¤ļ":4752,"ĠâĢ²)":4753,"Î´Îµ":4754,"Ġà¤ĭà¤·":4755,"Ġà¤²à¤Łà¤ķà¤µà¤²":4756,"HTTPS":4757,"ssd":4758,"Ġà¤«à¤°à¤¸à¤¬":4759,"Ġà¤ĺà¤¨à¤ķà¤ļà¤°":4760,"!,":4761,"\"\"":4762,"\":":4763,")\"":4764,")-":4765,")/":4766,",,":4767,"013":4768,"119":4769,"114":4770,"360":4771,"336":4772,"440":4773,"560":4774,"799":4775,"8000":4776,"926":4777,"980":4778,"935":4779,"Ni":4780,"ac":4781,"du":4782,"ht":4783,"it":4784,"on":4785,"re":4786,"th":4787,"ya":4788,"yard":4789,"Î²":4790,"Î»":4791,"Î½":4792,"Ø§":4793,"Ġ&":4794,"ĠW":4795,"Ġb":4796,"Ġr":4797,"ĠÃ":4798,"ĠÐļ":4799,"Ĥ¬":4800,"à¤į":4801,"Ġà¤±":4802,"à¤¾!'":4803,"à¤°à¤ĺ":4804,"à¤°à¤§à¤¨":4805,"à¤°à¤¨à¤®à¤§":4806,"à¤°à¤¡à¤¸":4807,"à¤°à¤°à¤¬":4808,"à¥ĩ!\"":4809,"à¥ĩ!'":4810,"à¤¯à¤µà¤¨":4811,"à¤¯à¤¥à¤¨":4812,"à¥Ģ?":4813,"à¤¤à¤¬à¤²":4814,"à¤²à¤ķà¤¤":4815,"à¤²à¤°à¤¶":4816,"à¤¨à¤¸à¤²":4817,"à¤ķà¤Łà¤¨":4818,"à¤ķà¤µà¤¸":4819,"à¤ķà¤ľà¤µà¤³":4820,"à¤¸à¤µà¤¤":4821,"à¤¸à¤ĳà¤°":4822,"à¤µà¤ĸ":4823,"à¤µà¤ªà¤°":4824,"à¤µà¤ļà¤¨":4825,"à¤µà¤ªà¤ķ":4826,"à¤ļà¤¹":4827,"à¤ļà¤°à¤£":4828,"à¤ļà¤¯à¤¨":4829,"à¤ļà¤¸à¤¹":4830,"à¤£à¤°":4831,"à¤£à¤Ń":4832,"à¤£à¤ªà¤Ł":4833,"à¤£à¤®à¤¹":4834,"à¥ĭ]":4835,"à¥ĭ\")":4836,"Ġà¤ķà¤³à¤µà¤²":4837,"Ġà¤ķà¤¡à¤µ":4838,"Ġà¤ķà¤³à¤µà¤£":4839,"Ġà¤ķà¤³à¤µà¤¤":4840,"à¤¹à¤¬":4841,"à¤¹à¤Ŀ":4842,"à¤¹à¤®à¤¨":4843,"à¤¹à¤°à¤¸à¤¹":4844,"à¤¹à¤¡à¤¸à¤¨":4845,"Ġà¤¸à¤¯":4846,"Ġà¤Ĩà¤¡":4847,"à¤Łà¤µà¤£":4848,"à¤Łà¤µà¤ķ":4849,"à¤Łà¤°à¤ķà¤¡":4850,"à¤ªà¤¦à¤°":4851,"à¤ªà¤¸à¤®à¤§":4852,"Ġà¤®à¤³":4853,"Ġà¤®à¤ĸà¤®à¤²":4854,"à¤¦à¤ķà¤¤":4855,"à¤¦à¤¯à¤¸":4856,"à¤§à¤¡à¤£":4857,"à¤Ĺà¤Ĺ":4858,"à¤Ĺà¤°à¤£":4859,"à¤Ĺà¤ĸ":4860,"à¤Ĺà¤ªà¤°":4861,"à¤Ĺà¤¢":4862,"à¤Ĺà¤°à¤¶":4863,"à¤Ĺà¤¨à¤ķ":4864,"à¤Ĺà¤ķà¤£":4865,"Ġà¤µà¤¤à¤¨":4866,"Ġà¤µà¤Ĺà¤³":4867,"Ġà¤µà¤Łà¤µ":4868,"à¤¡à¤¯":4869,"à¤¡à¤ªà¤£":4870,"à¤¡à¤°à¤¶":4871,"à¤¡à¤ıà¤®":4872,"à¤¡à¤ıà¤«":4873,"à¤¡à¤°à¤ķà¤¡":4874,"à¤¡à¤Ĺà¤²à¤¸":4875,"Ġà¤¹à¤Łà¤²":4876,"Ġà¤ħà¤µà¤¨":4877,"Ġà¤ħà¤ªà¤¤":4878,"Ġà¤ħà¤¦à¤®":4879,"Ġà¤ľà¤²à¤ķ":4880,"Ġà¤ľà¤²à¤ļ":4881,"à¤¶à¤Ł":4882,"à¤¶à¤¬à¤°":4883,"à¤¶à¤ķà¤¤":4884,"à¤¶à¤ªà¤¤":4885,"à¤¶à¤²à¤ļ":4886,"à¤ľà¤¬à¤°à¤¦à¤¸":4887,"à¤·à¤µà¤£":4888,"à¤·à¤ħà¤ĸ":4889,"à¤¬à¤Ŀ":4890,"à¤¬à¤®à¤¨":4891,"à¤¬à¤ķà¤°":4892,"à¤¬à¤¸à¤¨":4893,"à¤¬à¤¸à¤ļ":4894,"à¤¬à¤°à¤®à¤¨":4895,"à¤³à¤Ĺà¤²":4896,"à¤³à¤¬à¤³":4897,"Ġà¤¦à¤«":4898,"Ġà¤¦à¤¯à¤¨":4899,"Ġà¤¬à¤¤à¤¨":4900,"Ġà¤°à¤²":4901,"Ġà¤°à¤¸à¤²":4902,"à¤¥à¤®à¤§":4903,"à¤¥à¤ķà¤¡":4904,"Ġà¤²à¤¬":4905,"Ġà¤Ĺà¤¨à¤ļ":4906,"Ġà¤Ĺà¤Ĺà¤¨à¤ļ":4907,"Ġà¤¶à¤Ł":4908,"Ġà¤¶à¤µà¤µ":4909,"à¤ĸà¤±":4910,"Ġà¤ļà¤®à¤ļ":4911,"à¤µà¤°à¤¯":4912,"à¤µà¤°à¤¶":4913,"à¤¤à¤°à¤ªà¤°":4914,"à¤¤à¤°à¤®à¤¹":4915,"à¤¤à¤°à¤¸à¤°à¤ķ":4916,"Ġà¤ıà¤ķà¤¨":4917,"à¥ĩ,'":4918,"Ġà¤ħà¤¸à¤¦":4919,"Ġà¤īà¤¬":4920,"Ġà¤īà¤²à¤Ĺ":4921,"Ġà¤īà¤®à¤°":4922,"à¤«à¤¶":4923,"à¤«à¤¬à¤°":4924,"à¤«à¤µà¤²":4925,"à¤«à¤¨à¤°":4926,"à¤Ńà¤¨":4927,"à¤Ńà¤§":4928,"à¤Ńà¤Ĺ":4929,"à¤Ńà¤°à¤¤":4930,"Ġ217":4931,"Ġ210":4932,"à¤°à¤¤à¤²":4933,"à¤°à¤¤à¤ľ":4934,"Ġà¤¡à¤²à¤ķ":4935,"Ġà¤«à¤¯":4936,"Ġà¤«à¤¸à¤µ":4937,"Ġà¤Ŀà¤°à¤£":4938,"Ġà¤Ŀà¤²à¤ķ":4939,"Ġà¤Ŀà¤Ĺà¤®":4940,"Ġà¤ĸà¤Ł":4941,"Ġà¤ĸà¤³à¤¬à¤³":4942,"à¤°à¤®à¤¸":4943,"à¤°à¤®à¤ª":4944,"à¤°à¤®à¤®à¤§":4945,"à¤°à¤®à¤ªà¤²":4946,"Ġà¤ĩà¤®à¤°":4947,"Ġà¤ĩà¤¨à¤¡":4948,"Ġ205":4949,"à¤ªà¤°à¤Ł":4950,"à¤ªà¤°à¤µà¤°":4951,"à¤ªà¤°à¤«":4952,"Ġà¤ĺà¤Łà¤¤":4953,"à¤¯à¤ķà¤®":4954,"à¤¯à¤ķà¤ªà¤£":4955,"à¤ıà¤¨à¤¨":4956,"à¤ıà¤¥à¤¨":4957,"à¤¬à¤°à¤µ":4958,"à¤¬à¤°à¤¡":4959,"à¤¬à¤°à¤ł":4960,"à¤Ŀà¤Ŀ":4961,"à¤Ŀà¤µà¤£":4962,"à¤Ŀà¤¸à¤¹":4963,"à¤Ŀà¤°à¤µ":4964,"à¤µà¤²à¤ķ":4965,"Ġà¤¸à¤°à¤¡":4966,"à¤Īà¤ĺ":4967,"à¤Īà¤¸à¤°":4968,"à¤ĩà¤¯":4969,"à¤ĩà¤¨à¤²":4970,"à¤ĩà¤®à¤ļ":4971,"à¤ĩà¤²à¤°":4972,"à¤ĩà¤ķà¤ļ":4973,"à¤ĩà¤°à¤Ĺ":4974,"Ġà¤ĳà¤¬à¤°":4975,"à¤¯à¤¨à¤µà¤°":4976,"à¤¯à¤¨à¤°à¤¨":4977,"Ġ\"-":4978,"Ġà¤ķà¤°à¤µ":4979,"Ġà¤ķà¤°à¤ļ":4980,"Ġà¤ķà¤°à¤ĺ":4981,"à¤ĥ)":4982,"à¤®à¤¨à¤°":4983,"à¤®à¤¨à¤ķà¤°à¤£":4984,"003":4985,"005":4986,"à¤¦à¤°à¤¬":4987,"à¤ħà¤µà¤°":4988,"à¤ħà¤°à¤®":4989,"à¤ħà¤¨à¤²":4990,"à¤ħà¤°à¤®à¤¨":4991,"à¤Ĭà¤ķ":4992,"à¤Ĭà¤¥à¤²":4993,"Ġà¤®à¤¹à¤²":4994,"à¤ķà¤²à¤ļ":4995,"à¤µà¤¤à¤¤":4996,"à¤·à¤£à¤¯":4997,"à¤·à¤£à¤¤à¤ľ":4998,"à¤¹à¤°à¤¨":4999,"à¤¹à¤°à¤¹":5000,"à¤¹à¤°à¤Ł":5001,"à¤¹à¤°à¤µà¤²":5002,"à¤ķà¤°à¤µ":5003,"Ġà¤ĵà¤¤à¤£":5004,"à¤¶à¤¨à¤ªà¤°":5005,"à¤īà¤¶":5006,"à¤īà¤¹à¤°":5007,"à¤īà¤¥à¤®":5008,"à¤¸à¤¹à¤¯":5009,"à¤¸à¤¹à¤Ń":5010,"à¤°à¤µà¤ªà¤¦":5011,"Ġà¤ıà¤¸à¤ı":5012,"à¤ľà¤¨à¤µà¤°":5013,"à¤ľà¤¨à¤¨à¤¶":5014,"à¤ĵà¤¯":5015,"à¤ĵà¤ıà¤¸":5016,"à¤ĵà¤¸à¤®à¤§":5017,"à¤ĵà¤Ŀà¤¨":5018,"à¤ĵà¤³à¤ĸ":5019,"à¤¸à¤¨à¤°":5020,"à¤¸à¤¨à¤®à¤§":5021,"à¤¸à¤¨à¤µà¤°":5022,"à¤ķà¤¨à¤²":5023,"à¤ķà¤¨à¤®à¤§":5024,"Ġà¤Ĩà¤¯à¤°à¤¨":5025,"Ġà¤Ĩà¤¯à¤Ĺà¤¬à¤°":5026,"à¤Łà¤²à¤°à¤²":5027,"à¤¦à¤²à¤¦à¤²":5028,"à¤Ĩà¤ł":5029,"à¤Ĩà¤ķà¤°":5030,"à¤Ĩà¤¯à¤®":5031,"à¤Ĩà¤¯à¤²":5032,"à¤Ĩà¤µà¤°à¤£":5033,"Ġà¤īà¤ªà¤ĸ":5034,"Ġà¤īà¤ªà¤µà¤°":5035,"Ġà¤īà¤ªà¤¸à¤ļ":5036,"Ġà¤ħà¤²à¤°":5037,"Ġà¤ħà¤²à¤¸":5038,"Ġà¤ħà¤²à¤ļ":5039,"Ġà¤ħà¤²à¤®":5040,"à¤¡à¤²à¤ľ":5041,"à¤¡à¤²à¤®à¤¨":5042,"à¤¡à¤²à¤°à¤ļ":5043,"Ġ320":5044,"Ġ337":5045,"Ġà¤ıà¤²à¤°":5046,"Ġà¤ıà¤²à¤¸":5047,"Ġà¤ıà¤²à¤Ĩà¤°":5048,"Ġ1815":5049,"Ġ1813":5050,"Ġ1832":5051,"à¤Ĺà¤²à¤¨":5052,"à¤Ĺà¤²à¤®":5053,"Ġà¤ıà¤¨à¤«":5054,"Ġà¤ıà¤¨à¤ıà¤®":5055,"à¤µà¤¨à¤°à¤ķ":5056,"à¤²à¤¨à¤®à¤§":5057,"Ġ535":5058,"à¤¸à¤²à¤¸":5059,"à¤¸à¤²à¤Ĺ":5060,"à¤¸à¤²à¤®à¤§":5061,"à¤°à¤ĸà¤°":5062,"Ġà¤ķà¤²à¤°":5063,"Ġà¤ķà¤²à¤¶":5064,"à¤ªà¤²à¤²":5065,"à¤ªà¤²à¤¬":5066,"à¤²à¤¬à¤µà¤°":5067,"à¤ļà¤¨à¤¨":5068,"Ġà¤ıà¤«à¤¡à¤¬":5069,"à¥ĭ,\"":5070,"Ġà¤ĳà¤«à¤¶":5071,"à¤ªà¤ķà¤ªà¤¦":5072,"à¤¡à¤°à¤Ĺ":5073,"Ġà¤Ĺà¤Łà¤¬à¤¦":5074,"à¤¯à¤µà¤§":5075,"à¤ħà¤°à¤¹":5076,"à¤¯à¤Łà¤ľà¤°":5077,"à¤°à¤¹à¤®à¤®à¤§":5078,"à¤¯à¤¸à¤®à¤§":5079,"Ġà¤¸à¤°à¤ķà¤²":5080,"Ġà¤¸à¤°à¤ķà¤£":5081,"Ġ919":5082,"Ġ911":5083,"Ġ960":5084,"à¤®à¤°à¤Ĺà¤¨":5085,"Ġ1575":5086,"Ġ1586":5087,"Ġ1721":5088,"Ġ1728":5089,"Ġ1795":5090,"Ġ1780":5091,"Ġ1757":5092,"Ġ1746":5093,"Ġ1747":5094,"Ġ1742":5095,"Ġ1772":5096,"Ġ1781":5097,"Ġ1769":5098,"à¤¤à¤¨à¤¤":5099,"à¤¥à¤²à¤¹":5100,"Ġà¤ļà¤°à¤¬":5101,"à¤°à¤¨à¤¬":5102,"1830":5103,"1814":5104,"1828":5105,"1824":5106,"1834":5107,"1875":5108,"1866":5109,"1867":5110,"1888":5111,"1841":5112,"1878":5113,"1858":5114,"1892":5115,"1887":5116,"1874":5117,"1851":5118,"1853":5119,"1879":5120,"à¤ĩà¤¨à¤µà¤°":5121,"à¤¡à¤ķà¤µ":5122,"à¤¤à¤®à¤ľ":5123,"à¤ĳà¤¬":5124,"à¤ıà¤¨à¤Ŀ":5125,"à¤ıà¤¨à¤ıà¤«":5126,"Ġ164":5127,"Ġ166":5128,"Ġ1600":5129,"Ġ1693":5130,"Ġ1603":5131,"à¤ĺà¤Łà¤¨à¤ķ":5132,"à¥Ģ\"|":5133,"à¤¬à¤²à¤¸":5134,"à¤¸à¤®à¤®":5135,"Ġ141":5136,"Ġ142":5137,"Ġ148":5138,"Ġ149":5139,"à¥ĩ\")":5140,"à¥ĩ.\"\"":5141,"Ġà¤ıà¤°à¤¡":5142,"à¤ĩà¤Łà¤µ":5143,"à¤ĩà¤Łà¤®à¤§":5144,"à¤ıà¤®à¤¡":5145,"à¤ĩà¤¡à¤¬":5146,"à¤ĩà¤¡à¤µà¤°":5147,"à¤Īà¤Łà¤¸":5148,"à¤Īà¤Łà¤®à¤§":5149,"à¤Īà¤Łà¤«":5150,"à¤Ĩà¤¯à¤ıà¤¸":5151,"à¥ĩ-\"":5152,"12149":5153,"à¤Ĩà¤°à¤ıà¤²":5154,"173":5155,"1795":5156,"1788":5157,"1746":5158,"1764":5159,"Ġà¤®à¤²à¤Ī":5160,"à¤Ĺà¤¡à¤®à¤¸":5161,"104":5162,"106":5163,"108":5164,"50488":5165,".\"(":5166,".\")":5167,"Ġ115":5168,"Ġ116":5169,"à¤Łà¤®à¤®à¤§":5170,"Ġà¤ĳà¤²à¤®":5171,"à¤µà¤°à¤£à¤µ":5172,"à¤ħà¤®à¤®":5173,"148":5174,"à¤ķà¤®à¤¤à¤°à¤¤":5175,"164":5176,"167":5177,"Ġ246":5178,"1500":5179,"Ġ233":5180,"Ġ235":5181,"Ġ221":5182,"Ġ222":5183,"Ġ224":5184,"Ġ228":5185,"134":5186,"à¤¬à¤¨à¤Ĺà¤°":5187,"Ġ280":5188,"Ġ401":5189,"Ġ405":5190,"Ġ265":5191,"à¤°à¤¬à¤¦à¤²":5192,"à¤ľà¤¸à¤ľà¤¸":5193,"à¤²à¤Ńà¤¤":5194,"Ġ[]":5195,"Ġ[...]":5196,"280":5197,"285":5198,"232":5199,"Ġà¤ªà¤²à¤Łà¤¨à¤ļ":5200,"Ġà¤µà¤¨à¤ª":5201,"Ġà¤¨à¤Ĭà¤µà¤°":5202,"246":5203,"à¤°à¤µà¤°à¤ļ":5204,"Ġà¤ķà¤¡à¤§":5205,"37828":5206,"à¥Ĥ'-":5207,"à¤ĳà¤«à¤¸":5208,"8068":5209,"80828":5210,"Ġà¤¹à¤®à¤«":5211,"3544":5212,"à¤¿.'":5213,"à¤ĸà¤²à¤¨à¤ª":5214,"Ġà¤ĩà¤ľà¤²à¤ļ":5215,"1901":5216,"Ġà¤¬à¤³à¤ľà¤¬à¤°":5217,"492":5218,"290":5219,"Ġà¤ĵà¤ªà¤¨à¤ļ":5220,"à¤¡à¤°à¤¸à¤¹":5221,"...>":5222,"332":5223,"333":5224,"858":5225,"Ġà¤ªà¤µà¤¨à¤ļà¤ķ":5226,"Ġà¤¡à¤°à¤¬à¤¨":5227,"à¤¡à¤µà¤²à¤¦":5228,"à¤¡à¤µà¤²à¤¶":5229,"7612149":5230,"Ġà¤Łà¤¨à¤ªà¤°":5231,"9680828":5232,"Ġ1802":5233,"Ġ1806":5234,"Ġ1807":5235,"Ġxii":5236,"Ġà¤Ĺà¤¨à¤¸à¤¹":5237,"Ġ479":5238,"ĠÎ¶":5239,"à¤¯à¤«à¤²à¤¨":5240,"ĠâĪĴ":5241,"Ġà¤Ĩà¤īà¤Łà¤¸":5242,"Ġà¤¸à¤¬à¤µ":5243,"Ġà¤§à¤¡à¤§à¤¡à¤£":5244,"06396":5245,"Ġà¤ªà¤¸à¤°à¤µ":5246,"Ð¾Ð½":5247,"à¤Ĭà¤¥à¤µà¤°":5248,"Ġà¤ķà¤¡à¤ķà¤ªà¤£":5249,"Ġà¤ķà¤³à¤«à¤²à¤ķ":5250,"Ġà¤ħà¤µà¤¤à¤²":5251,"Ġà¤ıà¤Ŀà¤Ł":5252,"à¤¡à¤¸à¤°à¤®à¤§":5253,"Ð°ÑĢ":5254,"ÑģÐ°":5255,"ÑģÐµ":5256,"à¤¯à¤¬à¤²à¤¸":5257,"Ã¼rÃ¼":5258,"Ġà¤ħà¤¡à¤ķà¤µà¤²":5259,"Ġà¤¶à¤Łà¤²à¤ļ":5260,"ĠÂ±":5261,"Ġà¤Ńà¤Łà¤ķà¤£":5262,"3869680828":5263,"................................................................................................................................":5264,"Ġà¤Īà¤Ŀà¤¹":5265,"ĠVIII":5266,"à¤ķà¤ħà¤ªà¤ļ":5267,"Î¿ÏĤ":5268,"3775399":5269,"ĠXVI":5270,"Ġà¤ĵà¤ªà¤°à¤®à¤¨":5271,"Ġ8879":5272,"html":5273,"Ġà¤ľà¤²à¤ļà¤°":5274,"Ġà¤¦à¤«à¤¨à¤µ":5275,"Ġà¤Ŀà¤Ĺà¤®à¤Ĺà¤¤":5276,"3782806396":5277,"35443782806396":5278,"38696808288068":5279,"37753997612149":5280,"3544378280639649":5281,"\">":5282,"%%":5283,"%).":5284,"->":5285,"/>":5286,"010":5287,"065":5288,"118":5289,"1128":5290,"211":5291,"295":5292,"320":5293,"312":5294,"349":5295,"476":5296,"540":5297,"622":5298,"670":5299,"780":5300,"747":5301,"867":5302,"995":5303,"?)":5304,"Ac":5305,"IV":5306,"as":5307,"br":5308,"ce":5309,"gt":5310,"is":5311,"ks":5312,"lz":5313,"ta":5314,"uu":5315,"Ã¡":5316,"Ìĥ":5317,"Î³":5318,"Ïĥ":5319,"ÏĨ":5320,"Ïĩ":5321,"âī¤":5322,"ĠD":5323,"ĠM":5324,"Ġd":5325,"Ġm":5326,"Ġ...":5327,"ĠÂ°":5328,"ĠÃĤ":5329,"ĠÐ³":5330,"ĠNi":5331,"ĠÌĥ":5332,"ĩssd":5333,"à¥į'":5334,"à¤°à¤ľà¤¨":5335,"à¥ĩ?\"":5336,"à¤¯à¤°à¤¦":5337,"à¤¯à¤Łà¤ļ":5338,"à¤¯à¤ľà¤°":5339,"à¤¯à¤ľà¤®":5340,"à¤¯à¤īà¤¤":5341,"à¤¯à¤°à¤¸à¤¹":5342,"à¤¯à¤°à¤®à¤¨":5343,"à¥Ģà¤¾à¤Ĥ":5344,"à¥Ģ!'":5345,"à¤¤à¤Ĳ":5346,"à¤²à¤°à¤¸":5347,"à¤²à¤ķà¤¨":5348,"à¤²à¤°à¤ª":5349,"à¤²à¤°à¤¸à¤¹":5350,"à¤²à¤®à¤¨à¤ļ":5351,"à¤¨à¤·":5352,"à¤¨à¤µà¤¨":5353,"à¤¨à¤Łà¤ķ":5354,"à¤¨à¤¥à¤²":5355,"à¤¨à¤§à¤°":5356,"à¤ķà¤ľ":5357,"à¤ķà¤®à¤¤":5358,"à¤ķà¤ļà¤°":5359,"à¤ķà¤°à¤¸à¤¹":5360,"à¤ķà¤®à¤¨à¤¨":5361,"à¤¸à¤Ĩ":5362,"à¤¸à¤®à¤ļ":5363,"à¤¸à¤¦à¤¨":5364,"à¤¸à¤¶à¤¸":5365,"à¤¸à¤®à¤²":5366,"à¤¸à¤Ńà¤°":5367,"à¤¸à¤°à¤¸à¤¹":5368,"à¤µà¤ĺ":5369,"à¤µà¤Ŀ":5370,"à¤µà¤¶à¤ķ":5371,"à¤µà¤ľà¤ķ":5372,"à¤µà¤¨à¤ļà¤ķ":5373,"à¤ļà¤ªà¤°":5374,"à¤ļà¤³à¤µà¤³":5375,"à¤®à¤ĺ":5376,"à¤®à¤Łà¤¨":5377,"à¤®à¤²à¤ļ":5378,"à¤®à¤²à¤¤":5379,"Ġà¤ķà¤Łà¤°":5380,"Ġà¤ķà¤¦à¤²":5381,"Ġà¤ķà¤Łà¤ļ":5382,"Ġà¤ķà¤Łà¤ķ":5383,"Ġà¤ķà¤³à¤£":5384,"à¤¹à¤ª":5385,"à¤¹à¤¡":5386,"à¤¹à¤«":5387,"à¤¹à¤ķà¤¡":5388,"à¤¹à¤²à¤°":5389,"Ġà¤¸à¤¨à¤²":5390,"Ġà¤¸à¤Ĺà¤³":5391,"Ġà¤¸à¤ĺà¤¨":5392,"Ġà¤¸à¤Īà¤¦":5393,"Ġà¤Ĩà¤¬":5394,"Ġà¤Ĩà¤ķà¤²":5395,"Ġà¤ªà¤¬à¤®à¤§":5396,"à¤Łà¤ħ":5397,"à¤Łà¤¸à¤°":5398,"à¤Łà¤¤à¤²":5399,"à¤Łà¤¬à¤¦":5400,"à¤Łà¤Ĩà¤Ĭ":5401,"à¤ªà¤ķà¤¡":5402,"à¤ªà¤Łà¤ķ":5403,"à¤ªà¤¡à¤£":5404,"à¤ªà¤µà¤ķ":5405,"à¤ªà¤¡à¤¦":5406,"Ġà¤®à¤¬":5407,"à¤¦à¤°à¤¸":5408,"à¤¦à¤®à¤¸":5409,"à¤¦à¤«à¤¨":5410,"à¤§à¤Ĺ":5411,"à¤§à¤¬à¤²":5412,"à¥Ĥà¤ĥ":5413,"à¥Ĥ\",":5414,"à¤Ĺà¤°à¤ľ":5415,"à¤Ĺà¤¡à¤¨":5416,"à¤Ĺà¤°à¤¸à¤¹":5417,"Ġà¤¤à¤¬à¤²":5418,"Ġà¤µà¤Ł":5419,"Ġà¤µà¤¶":5420,"Ġà¤µà¤¨à¤µ":5421,"Ġà¤µà¤³à¤µà¤¤":5422,"à¤¡à¤Ŀ":5423,"à¤¡à¤Łà¤°":5424,"à¤¡à¤¹à¤°":5425,"à¤¡à¤¨à¤¸":5426,"à¤¡à¤¨à¤°à¤¨":5427,"Ġà¤¹à¤°à¤¤":5428,"Ġà¤¹à¤¬à¤°":5429,"Ġà¤¹à¤ķà¤²":5430,"Ġà¤¹à¤°à¤µ":5431,"Ġà¤¹à¤¸à¤¨":5432,"Ġà¤¹à¤Łà¤£":5433,"Ġà¤ħà¤¦à¤°":5434,"Ġà¤ħà¤°à¤µ":5435,"Ġà¤ħà¤¡à¤µ":5436,"Ġà¤ħà¤¹à¤²":5437,"Ġà¤ľà¤²à¤°":5438,"Ġà¤ľà¤²à¤ª":5439,"Ġà¤ľà¤³à¤ľ":5440,"à¤¶à¤«":5441,"à¤¶à¤ªà¤£":5442,"à¤¶à¤ªà¤²":5443,"à¤¶à¤ªà¤®à¤§":5444,"à¤ľà¤ķà¤¡":5445,"à¤ľà¤²à¤Ĺ":5446,"à¤ľà¤¸à¤µ":5447,"à¤ľà¤¬à¤¡":5448,"Ġà¤¨à¤¤":5449,"Ġà¤¨à¤ª":5450,"Ġà¤¨à¤ĸ":5451,"Ġà¤¨à¤¨à¤ļ":5452,"à¤·à¤¶":5453,"à¤·à¤¦à¤°":5454,"à¤·à¤°à¤²":5455,"à¤¬à¤ĸ":5456,"à¤¬à¤°à¤®":5457,"à¤¬à¤ķà¤²":5458,"à¤¬à¤²à¤¨":5459,"Ġà¤ıà¤Łà¤²":5460,"Ġà¤ıà¤¡à¤ķ":5461,"Ġà¤ıà¤¹à¤®":5462,"Ġà¤ıà¤Łà¤²à¤¸":5463,"à¤³à¤¯":5464,"à¤³à¤®":5465,"à¤³à¤ªà¤£":5466,"Ġà¤¦à¤µ":5467,"Ġà¤¦à¤²à¤ļ":5468,"Ġà¤¯à¤¤":5469,"à¥ĩ..":5470,"à¥ĩ.âĢĿ":5471,"Ġà¤¬à¤Ĺ":5472,"Ġà¤¬à¤«":5473,"Ġà¤¬à¤¨à¤ķ":5474,"Ġà¤¬à¤Łà¤°à¤ļ":5475,"Ġà¤¬à¤Łà¤°à¤²":5476,"Ġà¤¬à¤¡à¤ľ":5477,"Ġà¤¬à¤ĺà¤¤":5478,"Ġà¤°à¤Ł":5479,"Ġà¤°à¤¦à¤°":5480,"Ġà¤°à¤ķà¤°":5481,"Ġà¤°à¤¡à¤¤":5482,"Ġà¤°à¤®à¤ľ":5483,"à¤¥à¤®à¤¨":5484,"à¤¥à¤ħà¤®":5485,"à¥Ģ....":5486,"à¥Ģ.'.":5487,"à¤łà¤ªà¤£":5488,"à¤łà¤ªà¤Ł":5489,"à¤łà¤³à¤ķ":5490,"à¤°à¤£à¤¶":5491,"Ġà¤²à¤¨":5492,"Ġà¤²à¤ľ":5493,"Ġà¤Ĺà¤Ŀ":5494,"Ġà¤Ĺà¤¨à¤°":5495,"Ġà¤¶à¤µ":5496,"Ġà¤¶à¤ļ":5497,"Ġà¤¶à¤µà¤ª":5498,"à¤ĸà¤ķà¤¤":5499,"Ġà¤ļà¤¢à¤µà¤²":5500,"Ġà¤ļà¤®à¤ķà¤¤":5501,"Ġà¤ļà¤ªà¤³":5502,"à¤µà¤°à¤µà¤°":5503,"à¤µà¤°à¤¸à¤¹":5504,"à¤¤à¤°à¤¨":5505,"à¤¤à¤°à¤¦":5506,"à¤¤à¤°à¤ļà¤¨":5507,"à¤¤à¤°à¤¶à¤¹à¤°":5508,"Ġà¤ıà¤ķà¤ª":5509,"Ġà¤ıà¤ķà¤®à¤¨":5510,"Ġà¤īà¤ķà¤¡":5511,"Ġà¤īà¤§à¤³":5512,"Ġà¤īà¤¸à¤³":5513,"Ġà¤īà¤Ŀà¤¬":5514,"Ġà¤īà¤Īà¤Ĺ":5515,"à¤«à¤¹":5516,"à¤«à¤ª":5517,"à¤«à¤¨à¤ļ":5518,"Ġà¤®à¤§à¤®":5519,"à¤Ńà¤°à¤ª":5520,"à¤Ńà¤µà¤¨":5521,"à¤Ńà¤¯à¤ªà¤Ł":5522,"Ġ230":5523,"Ġ216":5524,"Ġ215":5525,"Ġà¤¡à¤¯":5526,"Ġà¤¡à¤ķà¤ļ":5527,"Ġà¤¡à¤¨à¤¬à¤°":5528,"Ġà¤¡à¤°à¤¬":5529,"Ġà¤¡à¤®à¤«":5530,"à¤¾.'":5531,"Ġ(=":5532,"Ġà¤«à¤®":5533,"Ġà¤«à¤²à¤¦":5534,"Ġà¤Łà¤¨à¤µà¤°":5535,"Ġà¤Łà¤¬à¤®à¤§":5536,"Ġà¤ªà¤°à¤ķ":5537,"Ġà¤ªà¤°à¤¬":5538,"à¤°à¤ķà¤¨":5539,"à¤°à¤ķà¤®à¤§":5540,"Ġà¤ĸà¤¬à¤°":5541,"à¥Ī-":5542,"à¤°à¤®à¤²":5543,"à¤°à¤®à¤¬à¤¦":5544,"Ġà¤ĩà¤¦":5545,"Ġà¤ĩà¤Ŀ":5546,"Ġà¤ĩà¤Ĺà¤²":5547,"Ġà¤ĩà¤¨à¤ķ":5548,"Ġà¤ĩà¤¨à¤®à¤§":5549,"Ġà¤ĩà¤ĵà¤¨":5550,"à¤ªà¤°à¤¹":5551,"à¤ªà¤°à¤ª":5552,"à¤ªà¤°à¤Ĺà¤£":5553,"Ġà¤ĺà¤¸":5554,"Ġà¤ĺà¤¬à¤°":5555,"Ġà¤ĺà¤¨à¤®":5556,"Ġà¤ĺà¤¸à¤°à¤¤":5557,"à¤ıà¤®à¤¨":5558,"à¤ıà¤¨à¤°":5559,"à¤ıà¤®à¤ļ":5560,"à¤ıà¤ľà¤ķ":5561,"à¤ıà¤²à¤°":5562,"à¤ıà¤¡à¤µ":5563,"à¤ıà¤ıà¤ļ":5564,"à¤¬à¤°à¤¸":5565,"à¤¬à¤°à¤µà¤£":5566,"Ġà¤µà¤°à¤µà¤°à¤ļ":5567,"à¤ĺà¤¹":5568,"à¤ĺà¤³":5569,"à¤ĺà¤¨à¤¨":5570,"à¤Ŀà¤¶":5571,"à¤Ŀà¤¨à¤ļ":5572,"à¤Ŀà¤®à¤®à¤§":5573,"à¤¢à¤ª":5574,"à¤µà¤²à¤°":5575,"à¤µà¤²à¤Ĺ":5576,"à¤Īà¤¥":5577,"à¤Īà¤¨à¤°":5578,"à¤Īà¤ªà¤²":5579,"à¤Īà¤¨à¤¸":5580,"à¤Īà¤Łà¤µà¤°":5581,"à¤ĩà¤®à¤¨":5582,"à¤ĩà¤°à¤¹":5583,"à¤ĩà¤¨à¤¹":5584,"à¤ĩà¤¡à¤®à¤§":5585,"à¤ĩà¤®à¤¸":5586,"à¤ĩà¤ķà¤®à¤§":5587,"à¤ĩà¤ľà¤ļ":5588,"à¤ĩà¤Ŀà¤²":5589,"Ġà¤ĳà¤¯à¤°":5590,"à¤¯à¤¨à¤Ł":5591,"à¤¯à¤¨à¤ķà¤¡":5592,"à¤¯à¤¨à¤²à¤ļ":5593,"Ġ\"&":5594,"Ġ\";":5595,"Ġ\".\"":5596,"à¤ĥ;":5597,"Ġà¤ħà¤¨à¤¡":5598,"à¤Łà¤°à¤¡à¤¨":5599,"à¤®à¤¨à¤²":5600,"à¤°à¤¸à¤²":5601,"à¤Łà¤¨à¤°":5602,"à¤Łà¤¨à¤Ł":5603,"à¤Łà¤¨à¤¶":5604,"à¤Łà¤¨à¤¬":5605,"à¤Łà¤¨à¤ľà¤µà¤³":5606,"à¤¦à¤°à¤ļ":5607,"à¤ħà¤³":5608,"à¤ħà¤¸à¤ļ":5609,"à¤ħà¤°à¤ľ":5610,"à¤ħà¤Łà¤ķ":5611,"à¤ħà¤¹à¤µ":5612,"à¤ħà¤°à¤¸à¤¹":5613,"à¤ħà¤°à¤¸à¤¨":5614,"à¤Ĭà¤µà¤°":5615,"à¤Ĭà¤Łà¤ļ":5616,"Ġà¤®à¤¹à¤¨":5617,"à¤·à¤£à¤¸":5618,"à¤·à¤£à¤®":5619,"à¤·à¤£à¤¹":5620,"à¤¹à¤°à¤°":5621,"à¤¹à¤°à¤¦":5622,"à¤¹à¤°à¤Ĺ":5623,"à¤¹à¤°à¤¡à¤¬":5624,"à¤ķà¤°à¤µà¤°":5625,"à¤ķà¤°à¤ªà¤£":5626,"Ġà¤ĵà¤¤":5627,"Ġà¤ĵà¤¦":5628,"Ġà¤ĵà¤®à¤°":5629,"Ġà¤ĵà¤¹à¤®":5630,"Ġà¤ĵà¤ĺà¤®":5631,"à¤¶à¤¨à¤¹":5632,"à¤¶à¤¨à¤ª":5633,"à¤īà¤ªà¤°":5634,"à¤īà¤Ī":5635,"à¤īà¤¡à¤«":5636,"à¤īà¤ĺà¤¡":5637,"à¤°à¤µà¤¶":5638,"Ġà¤§à¤®à¤¨":5639,"Ġà¤ıà¤¸à¤ļ":5640,"à¤ĵà¤¤":5641,"à¤ĵà¤ĩ":5642,"à¤ĵà¤¨à¤¹":5643,"à¤ĵà¤ıà¤¨":5644,"à¤ĵà¤¸à¤®":5645,"à¤ĵà¤ıà¤®":5646,"à¤ĵà¤Ŀà¤ļ":5647,"à¤¸à¤¨à¤ª":5648,"à¤¸à¤¨à¤¦":5649,"à¤¸à¤¨à¤¬à¤°":5650,"à¤¸à¤¨à¤¸à¤¹":5651,"à¤°à¤²à¤¸":5652,"à¤¯à¤®à¤¦":5653,"à¤¯à¤®à¤µà¤¯":5654,"Ġà¤Ĩà¤¯à¤«":5655,"Ġà¤¸à¤¹à¤¶":5656,"à¤Łà¤²à¤µ":5657,"à¤¦à¤²à¤ª":5658,"à¤Ĩà¤ĸ":5659,"à¤Ĩà¤¯à¤¨":5660,"à¤Ĩà¤ķà¤¡":5661,"à¤Ĩà¤¦à¤°":5662,"à¤Ĩà¤¸à¤¨":5663,"à¤Ĩà¤¨à¤¨":5664,"à¤Ĩà¤¦à¤®":5665,"à¤Ĩà¤Īà¤¨":5666,"à¤Ĩà¤łà¤µ":5667,"à¤Ĩà¤µà¤¡à¤¤":5668,"à¤Ĩà¤Ĭà¤Ł":5669,"à¤¤à¤²à¤®":5670,"Ġà¤īà¤ªà¤®":5671,"Ġà¤īà¤ªà¤®à¤¹":5672,"Ġà¤īà¤ªà¤ĺà¤Łà¤ķ":5673,"Ġà¤īà¤ªà¤ķà¤²à¤®":5674,"à¤¨à¤²à¤¨":5675,"Ġà¤¨à¤µà¤¨":5676,"Ġà¤¨à¤µà¤µà¤°":5677,"à¤¹à¤¤à¤ķ":5678,"à¤¡à¤²à¤²":5679,"à¤¡à¤²à¤¬à¤°":5680,"à¤¡à¤²à¤°à¤²":5681,"à¤¡à¤²à¤°à¤¨":5682,"à¤¡à¤²à¤¸à¤¬":5683,"Ġ3200":5684,"Ġ323":5685,"203":5686,"205":5687,"207":5688,"à¤¨à¤°à¤¶":5689,"Ġà¤ıà¤²à¤Ĺ":5690,"Ġà¤ıà¤²à¤Ŀ":5691,"Ġà¤ıà¤®à¤ıà¤ķ":5692,"Ġ1833":5693,"à¤Ĺà¤¤à¤ªà¤£":5694,"à¤Ĺà¤²à¤¤":5695,"à¤ŀà¤®":5696,"Ġà¤ķà¤®à¤µ":5697,"Ġà¤ķà¤®à¤³":5698,"à¤µà¤¨à¤¸à¤¤":5699,"à¤°à¤¶à¤ķ":5700,"Ġà¤¥à¤°à¤¥":5701,"Ġà¤¥à¤²à¤ķà¤°":5702,"à¤²à¤ķà¤®":5703,"à¤²à¤ķà¤¹":5704,"à¤²à¤ķà¤Łà¤¨":5705,"à¤Ĺà¤°à¤ĸ":5706,"à¤Ĺà¤°à¤®à¤§":5707,"à¤²à¤¨à¤¨":5708,"Ġ557":5709,"à¤¸à¤²à¤²":5710,"à¤¸à¤²à¤µà¤°":5711,"à¤¸à¤²à¤Łà¤¨":5712,"à¤¯à¤°à¤°":5713,"à¤¯à¤°à¤¬":5714,"Ġ4000":5715,"Ġ418":5716,"Ġ417":5717,"Ġ425":5718,"Ġ431":5719,"à¤¦à¤¸à¤®":5720,"à¤ªà¤²à¤®":5721,"à¤ªà¤²à¤®à¤§":5722,"à¤ªà¤²à¤«":5723,"à¤²à¤¬à¤¶":5724,"à¤ļà¤¨à¤Ĺ":5725,"Ġ650":5726,"Ġ622":5727,"Ġ660":5728,"Ġ680":5729,"Ġ666":5730,"Ġ691":5731,"à¤¹à¤¨à¤¶":5732,"à¤¹à¤¨à¤®à¤§":5733,"Ġà¤Īà¤¡à¤¨à¤ļ":5734,"Ġà¤Īà¤¡à¤¨à¤¨":5735,"à¤ıà¤¸à¤®à¤§":5736,"à¤ıà¤¸à¤ıà¤²":5737,"à¤ıà¤¸à¤Ĩà¤¯":5738,"Ġà¤Ľà¤Ł":5739,"à¤ľà¤ķà¤£":5740,"à¤¡à¤¨à¤¶":5741,"à¤¡à¤¨à¤¬à¤°":5742,"à¤¡à¤¨à¤°à¤ļ":5743,"à¤¯à¤²à¤°à¤®":5744,"à¤¡à¤°à¤µà¤°":5745,"à¤¡à¤°à¤¬à¤°":5746,"à¤¡à¤°à¤¬à¤¸":5747,"Ġ712":5748,"Ġ782":5749,"Ġà¤ħà¤¶à¤°":5750,"à¤¦à¤¨à¤ķ":5751,"à¤¦à¤¨à¤¹":5752,"à¤¦à¤¨à¤ªà¤¤":5753,"à¤¯à¤µà¤ļ":5754,"à¤°à¤¹à¤¸":5755,"Ġà¤ªà¤°à¤¤à¤«":5756,"Ġà¤ħà¤ªà¤¸":5757,"Ġà¤ħà¤ªà¤Ń":5758,"Ġ819":5759,"Ġ827":5760,"Ġ834":5761,"Ġ878":5762,"Ġ844":5763,"Ġ8101":5764,"à¤¾';":5765,"Ġà¤¸à¤°à¤ķà¤µ":5766,"Ġ999":5767,"à¤¨à¤¨à¤¨":5768,"à¤Ĺà¤¸à¤¬à¤°":5769,"à¤¨à¤µà¤ľ":5770,"Ġ155":5771,"Ġ156":5772,"Ġ1595":5773,"Ġ1565":5774,"Ġ1554":5775,"Ġ1581":5776,"Ġà¤²à¤¢à¤µ":5777,"Ġà¤Ĩà¤łà¤®à¤§":5778,"Ġ1700":5779,"Ġ1719":5780,"Ġ1736":5781,"Ġ1785":5782,"Ġ1775":5783,"Ġ1767":5784,"Ġ1790":5785,"Ġ1755":5786,"Ġ1768":5787,"Ġ1791":5788,"Ġ1778":5789,"Ġ1752":5790,"Ġ1773":5791,"Ġ1782":5792,"Ġ1783":5793,"Ġ1705":5794,"Ġ1793":5795,"Ġ1777":5796,"Ġ1759":5797,"à¤¥à¤²à¤®à¤§":5798,"Ġ1070":5799,"à¤Łà¤¬à¤¨":5800,"1819":5801,"1810":5802,"1822":5803,"1823":5804,"1860":5805,"1826":5806,"1885":5807,"1890":5808,"1846":5809,"1856":5810,"1847":5811,"1898":5812,"1864":5813,"1871":5814,"1805":5815,"1893":5816,"1872":5817,"1881":5818,"1859":5819,"1807":5820,"1869":5821,"1804":5822,"1802":5823,"à¤ıà¤ķà¤Ł":5824,"à¤µà¤ľà¤µà¤³":5825,"Ġà¤ıà¤ļà¤ª":5826,"Ġà¤®à¤¦à¤¤à¤¨":5827,"à¤ĩà¤¨à¤¸à¤¹":5828,"à¤Ĺà¤¨à¤ª":5829,"Ġ2025":5830,"à¤¡à¤ķà¤Ł":5831,"à¤¡à¤ķà¤³":5832,"à¤¡à¤ķà¤Łà¤¨":5833,"à¤ıà¤²à¤ıà¤¸à¤Ł":5834,"Ġà¤īà¤²à¤Łà¤£":5835,"à¤¤à¤®à¤ª":5836,"à¤ĳà¤²à¤®":5837,"à¤ıà¤¨à¤Ł":5838,"Ġ165":5839,"Ġ1620":5840,"Ġ1617":5841,"Ġ1613":5842,"Ġ1611":5843,"Ġ1670":5844,"Ġ1685":5845,"Ġ1632":5846,"Ġ1688":5847,"Ġ1690":5848,"Ġ1658":5849,"Ġ1665":5850,"Ġ1607":5851,"à¤ķà¤Łà¤µà¤£":5852,"Ġà¤Ĩà¤¶à¤²à¤°":5853,"à¤¾-\"":5854,"à¤¾\"),":5855,"à¤¾\").":5856,"à¥Ģ\"-":5857,"à¤¬à¤²à¤²":5858,"à¤¬à¤²à¤Ł":5859,"à¤¬à¤²à¤¦":5860,".)-":5861,"Ġ1480":5862,"Ġ1457":5863,"Ġ1489":5864,"Ġ1484":5865,"Ġ1486":5866,"à¥ĩ\":":5867,"à¥ĩ\";":5868,"à¥ĩ.\"(":5869,"à¥ĩ.\".":5870,"Ġ134":5871,"à¤ıà¤®à¤ª":5872,"à¤¤à¤³à¤®à¤ľà¤²":5873,"à¤Īà¤Łà¤®à¤¨à¤¨":5874,"à¥ĩ--":5875,"123":5876,"127":5877,"129":5878,"1252":5879,"Ġà¤ĩà¤¨à¤µà¤°":5880,"Ġà¤ĩà¤¨à¤«":5881,"à¤Ĩà¤°à¤Ĩà¤¯":5882,"1728":5883,"1789":5884,"1766":5885,"1790":5886,"1799":5887,"1763":5888,"1768":5889,"1793":5890,"1777":5891,"à¤ħà¤²à¤¸":5892,"à¤¬à¤®à¤ª":5893,"à¤µà¤ķà¤±":5894,"1070":5895,"à¤¸à¤¬à¤¹":5896,"Ġ$)":5897,"5083":5898,"Ġà¤Ĩà¤ľà¤ª":5899,"Ġà¤Ĩà¤ľà¤ªà¤°":5900,"301":5901,"3024":5902,"à¤ĩà¤®à¤®à¤§":5903,"à¤ĩà¤®à¤°à¤®à¤¨":5904,"Ġ111":5905,"Ġà¤ķà¤ªà¤¸":5906,"Ġà¤¹à¤¸à¤£":5907,"Ġà¤¸à¤²à¤®":5908,"Ġà¤ĩà¤²à¤µà¤°":5909,"145":5910,"1450":5911,"à¤¦à¤®à¤¦":5912,"160":5913,"161":5914,"166":5915,"1617":5916,"1614":5917,"1640":5918,"1689":5919,"1606":5920,"Ġ254":5921,"Ġ2500":5922,"à¤¯à¤¬à¤²à¤ļ":5923,"à¤·à¤®à¤ľ":5924,"Ġ240":5925,"Ġ242":5926,"à¤¨à¤®à¤Ł":5927,"151":5928,"1567":5929,"1569":5930,"Ġ234":5931,"à¤ıà¤ļà¤ª":5932,"Ġ223":5933,"Ġ225":5934,"Ġ507":5935,"131":5936,"135":5937,"III":5938,"Ġ089":5939,"Ġ211":5940,"à¤¾à¤ĥ\"":5941,"Ġ278":5942,"à¤ıà¤«à¤ļ":5943,"à¤ıà¤«à¤ª":5944,"à¤ıà¤«à¤ıà¤«":5945,"à¤µà¤ªà¤³":5946,"Ġà¤ħà¤¡à¤µà¤¤":5947,"Ġà¤ħà¤¡à¤µà¤£":5948,"Ġà¤Ĩà¤Īà¤¶":5949,"Ġà¤Ķà¤·à¤§à¤¶":5950,"Ġ();":5951,"à¤ħà¤ªà¤µ":5952,"Ġà¤Ĭà¤¦à¤ķ":5953,"281":5954,"406":5955,"957":5956,"à¤ļà¤²à¤¨à¤µ":5957,"à¤Łà¤£à¤®":5958,"271":5959,"279":5960,"263":5961,"370":5962,"375":5963,"à¥Ĥ'.":5964,"Ġ601":5965,"à¤īà¤¥à¤®à¤§":5966,"354":5967,"356":5968,"à¤ĩà¤µà¤Ĺ":5969,"382":5970,"384":5971,"38734":5972,"à¥Ģ.\"(":5973,"à¥Ģ.\")":5974,"à¤¾.\"(":5975,"à¤¯à¤¥à¤¨à¤®à¤§":5976,"à¤·à¤ªà¤¦à¤¹":5977,"Ġà¤ıà¤ľà¤«":5978,"à¤ıà¤¶à¤¨à¤¶":5979,"391":5980,"392":5981,"393":5982,"3906":5983,"Ġà¤¸à¤¹à¤ľà¤¤":5984,"348":5985,"Ġ4554":5986,"Ġà¤ªà¤£à¤ľ":5987,"à¤¡à¤°à¤¸à¤¨à¤¨":5988,"à¤®à¤°à¤£à¤¶à¤ķ":5989,"à¤ĩà¤ķà¤°à¤µà¤°":5990,"Ġà¤¬à¤ķà¤±":5991,"754":5992,"894":5993,"Ġà¤Ĩà¤¸à¤¨à¤¸":5994,"764":5995,"Ġà¤ĺà¤¡à¤µà¤£":5996,"Ġ1577":5997,"Ġ1801":5998,"Ġ1809":5999,"Ġ381":6000,"Ġ371":6001,"977":6002,"994":6003,"9948":6004,"Ġà¤įà¤Ĺ":6005,"à¤īà¤ªà¤ª":6006,"Ġ344":6007,"ĠÎ³":6008,"ĠÎ¸":6009,"787":6010,"645083":6011,"Ġâī¤":6012,"Ġà¤Ĩà¤īà¤Łà¤¬":6013,"Ġà¤«à¤³à¤¬":6014,"à¤®à¤¸à¤¨à¤®à¤§":6015,"à¤ħà¤µà¤¯à¤µ":6016,"Ġà¤§à¤¡à¤ķà¤¤":6017,"Ġà¤§à¤¡à¤ķà¤£":6018,"Ġà¤¡à¤¬à¤²à¤¡":6019,"à¤¯à¤°à¤¸à¤ļ":6020,"Ġà¤īà¤Ĺà¤µà¤¤":6021,"à¤¯à¤«à¤²à¤®à¤¨":6022,"Ð¾v":6023,"Ð¾Ð»":6024,"à¤¾?'":6025,"Ġà¤¤à¤¹à¤²à¤ķ":6026,"à¤¼à¥ĩ":6027,"à¤¼à¥Ģ":6028,"Ġà¤įà¤ªà¤²à¤¬":6029,"à¤ıà¤ħà¤°à¤¬":6030,"ÑģÑģ":6031,"Ð¸Ð½":6032,"Ð¸Ñĩ":6033,"Ð¸Ñı":6034,"Ġà¤ħà¤¡à¤ķà¤µ":6035,"Ġà¤Ĩà¤īà¤Łà¤Ł":6036,"Ġà¤ļà¤®à¤ķà¤£":6037,"Ġix":6038,"Ġà¤²à¤Łà¤ķà¤²":6039,"cho":6040,"à¤¯à¤ªà¤°à¤Ł":6041,"Ġà¤¹à¤¸à¤²à¤°":6042,"ĠXIII":6043,"Ġà¤īà¤ľà¤³":6044,"Ġà¤īà¤ľà¤³à¤¤":6045,"Ġà¤ĵà¤ıà¤¸à¤¸":6046,"3869948":6047,"Î¹Îº":6048,"Î¹Î¿ÏĤ":6049,"Ġà¤¶à¤¯à¤¨à¤Ĺ":6050,"Ð³Ñĥ":6051,"à¤ķà¤ħà¤ªà¤¸":6052,"ete":6053,"Ġkdu":6054,"ĠÏī":6055,"ĠÏĩssd":6056,"Ġà¤«à¤¡à¤ķà¤µà¤²":6057,"24098":6058,"inch":6059,"Ġà¤ħà¤¡à¤ĸà¤³à¤¤":6060,"à¤¦à¤°à¤ķà¤°":6061,"Ġà¤Ĩà¤¯à¤ıà¤¸à¤¯":6062,"Ġà¤Ĩà¤¶à¤¯à¤ªà¤¤":6063,"à¤įà¤ªà¤²":6064,"Ã¼rÃ¼ks":6065,"Acac":6066,"cem":6067,"à¤¤à¤Ĳà¤µà¤ľà¤ķ":6068,"à¤ªà¤Łà¤ķà¤¥":6069,"Ġà¤ľà¤³à¤ľà¤³":6070,"Ġà¤°à¤¦à¤°à¤«":6071,"Ġà¤īà¤ķà¤¡à¤²":6072,"Ġà¤īà¤§à¤³à¤ªà¤Ł":6073,"à¤ĵà¤ıà¤¨à¤¥":6074,"302424098":6075,"38734302424098":6076,"3869948645083":6077,"\"*":6078,"\"/":6079,"\"...":6080,"%.":6081,",.":6082,",...":6083,"-,":6084,"-).":6085,"-?)":6086,".:":6087,".')":6088,"050":6089,"027":6090,"070":6091,"038":6092,"057":6093,"032":6094,"046":6095,"063":6096,"117":6097,"116":6098,"115":6099,"219":6100,"220":6101,"210":6102,"317":6103,"314":6104,"325":6105,"337":6106,"335":6107,"3348":6108,"412":6109,"415":6110,"480":6111,"449":6112,"457":6113,"445":6114,"510":6115,"514":6116,"513":6117,"511":6118,"522":6119,"524":6120,"549":6121,"567":6122,"590":6123,"599":6124,"620":6125,"617":6126,"626":6127,"657":6128,"645":6129,"648":6130,"693":6131,"720":6132,"730":6133,"715":6134,"711":6135,"724":6136,"737":6137,"757":6138,"742":6139,"820":6140,"818":6141,"830":6142,"813":6143,"840":6144,"895":6145,"870":6146,"875":6147,"841":6148,"950":6149,"940":6150,"937":6151,"970":6152,"938":6153,"949":6154,"976":6155,"932":6156,";\"|":6157,"<...>":6158,"Pas":6159,"])":6160,"].":6161,"aha":6162,"aya":6163,"bit":6164,"co":6165,"cda":6166,"ed":6167,"ers":6168,"ho":6169,"ib":6170,"iv":6171,"ix":6172,"ion":6173,"krÃ¼":6174,"mu":6175,"no":6176,"ou":6177,"ov":6178,"ps":6179,"pcda":6180,"qi":6181,"sl":6182,"xv":6183,"xhtml":6184,"yy":6185,"Â±":6186,"Ã©":6187,"Ä°":6188,"ÄŁ":6189,"Î¶":6190,"ÎŃ":6191,"ÏĢ":6192,"Ïģ":6193,"ÏĤ":6194,"Ïī":6195,"Øµ":6196,"ÙĦ":6197,"Ùħ":6198,"ÛĮ":6199,"Ġ@":6200,"Ġ]":6201,"Ġy":6202,"Ġ..":6203,"ĠĠĊ":6204,"ĠÃ¼":6205,"ĠÏĦ":6206,"ĠÄį":6207,"ĠÑģÐµ":6208,"Ġ/>":6209,"ĠÐ¸Ð½":6210,"ĠPas":6211,"Ĥ¹":6212,"ĥÎ¹Î¿ÏĤ":6213,"ĩar":6214,"à¥¤":6215,"à¥į,":6216,"à¥į-":6217,"à¤°à¤Łà¤°":6218,"à¤°à¤Łà¤¨":6219,"à¤°à¤¨à¤°":6220,"à¤°à¤¨à¤¸":6221,"à¤°à¤Ĺà¤¨":6222,"à¤¯à¤ĸ":6223,"à¤¯à¤ĺ":6224,"à¤¯à¤¡à¤¸":6225,"à¤¯à¤ıà¤«":6226,"à¤¯à¤¡à¤Ĺ":6227,"à¤¯à¤¡à¤¨à¤®à¤§":6228,"à¤¯à¤¬à¤°à¤¨":6229,"à¥Ģ>":6230,"à¥Ģ?\"":6231,"à¤¤à¤§":6232,"à¤¤à¤Ŀ":6233,"à¤¤à¤¸à¤¹":6234,"à¤¤à¤ķà¤¤":6235,"à¤¤à¤³à¤¤":6236,"à¤¤à¤®à¤°":6237,"à¤¤à¤ĺà¤°":6238,"à¤²à¤¯à¤®":6239,"à¤²à¤¡à¤²":6240,"à¤²à¤°à¤¦":6241,"à¤²à¤®à¤ļ":6242,"à¤²à¤¶à¤¸":6243,"à¤²à¤®à¤®à¤§":6244,"à¤²à¤¢à¤£":6245,"à¤²à¤ľà¤µà¤³à¤ļ":6246,"à¤²à¤°à¤ķà¤¡":6247,"à¤¨à¤§":6248,"à¤¨à¤¹à¤°":6249,"à¤¨à¤®à¤ļ":6250,"à¤¨à¤Ĳà¤µà¤ľ":6251,"à¤¨à¤īà¤¤":6252,"à¤¨à¤¯à¤Ń":6253,"à¤¨à¤ľà¤µà¤³à¤ļ":6254,"à¤¨à¤°à¤¸à¤¹":6255,"à¤¨à¤°à¤ªà¤¦":6256,"à¤ķà¤Ń":6257,"à¤ķà¤°à¤ķ":6258,"à¤ķà¤¹à¤°":6259,"à¤ķà¤Łà¤ķ":6260,"à¤ķà¤ªà¤²":6261,"à¤ķà¤ªà¤Ł":6262,"à¤ķà¤ĳà¤«":6263,"à¤ķà¤ľà¤µà¤³à¤ļ":6264,"à¤ķà¤¸à¤¨à¤¸":6265,"à¤ķà¤Ĩà¤Ĭ":6266,"à¤¸à¤·":6267,"à¤¸à¤Ŀ":6268,"à¤¸à¤Ĭ":6269,"à¤¸à¤ķà¤¤":6270,"à¤¸à¤¸à¤°":6271,"à¤¸à¤¡à¤²":6272,"à¤¸à¤¸à¤ļ":6273,"à¤¸à¤ªà¤¦":6274,"à¤¸à¤ľà¤µà¤³":6275,"à¤¸à¤Ĳà¤µà¤ľ":6276,"à¤¸à¤Ĺà¤¡":6277,"à¤¸à¤Łà¤¨à¤®à¤§":6278,"à¤¸à¤«à¤ļ":6279,"à¤¸à¤Łà¤¨à¤²":6280,"à¤¸à¤ľà¤µà¤³à¤ļ":6281,"à¤¸à¤®à¤¨à¤ļ":6282,"à¤¸à¤Īà¤¦":6283,"à¤µà¤¬":6284,"à¤µà¤¥":6285,"à¤µà¤ł":6286,"à¤µà¤¢":6287,"à¤µà¤ķà¤¡":6288,"à¤µà¤ķà¤¤":6289,"à¤µà¤¨à¤ļ":6290,"à¤µà¤ªà¤¦":6291,"à¤µà¤ħà¤Ł":6292,"à¤ļà¤Ĺ":6293,"à¤ļà¤¯à¤ķ":6294,"à¤ļà¤¢":6295,"à¤ļà¤°à¤¸":6296,"à¤ļà¤¨à¤ļ":6297,"à¤ļà¤ªà¤¦":6298,"à¤ļà¤Ĳà¤µà¤ľ":6299,"à¤ļà¤Ĺà¤¡":6300,"à¤ļà¤®à¤®à¤§":6301,"à¤ļà¤Ĺà¤Ł":6302,"à¤ļà¤¢à¤£":6303,"à¤ļà¤ľà¤µà¤³à¤ļ":6304,"à¤£à¤£":6305,"à¤£à¤«à¤²à¤ķ":6306,"à¤®à¤Ń":6307,"à¤®à¤ªà¤°":6308,"à¤®à¤¦à¤°":6309,"à¤®à¤¸à¤°":6310,"à¤®à¤ľà¤¨":6311,"à¤®à¤°à¤¶":6312,"à¤®à¤ªà¤²":6313,"à¤®à¤ľà¤µà¤³":6314,"à¤®à¤°à¤®à¤¨":6315,"Ġà¤ķà¤·":6316,"Ġà¤ķà¤ĸ":6317,"Ġà¤ķà¤µà¤°":6318,"Ġà¤ķà¤®à¤¨":6319,"Ġà¤ķà¤ªà¤¨":6320,"Ġà¤ķà¤¡à¤²":6321,"Ġà¤ķà¤µà¤¨":6322,"Ġà¤ķà¤ªà¤²":6323,"Ġà¤ķà¤ªà¤Ł":6324,"Ġà¤ķà¤Łà¤µà¤°":6325,"Ġà¤ķà¤Łà¤°à¤¨":6326,"Ġà¤ķà¤Łà¤ª":6327,"à¤¹à¤ķà¤²":6328,"à¤¹à¤²à¤¨":6329,"à¤¹à¤¡à¤°":6330,"à¤¹à¤¡à¤¤":6331,"Ġà¤¸à¤¡":6332,"Ġà¤¸à¤°à¤®":6333,"Ġà¤¸à¤¬à¤°":6334,"Ġà¤¸à¤¶à¤ķ":6335,"Ġà¤¸à¤ľà¤²":6336,"Ġà¤¸à¤¬à¤®":6337,"Ġà¤¸à¤«à¤¨":6338,"Ġà¤¸à¤ľà¤µà¤¤":6339,"Ġà¤Ĩà¤³":6340,"Ġà¤Ĩà¤¯à¤®":6341,"Ġà¤Ĩà¤ľà¤°":6342,"Ġà¤Ĩà¤ĵà¤Ł":6343,"Ġà¤Ĩà¤®à¤¸à¤Ń":6344,"Ġà¤ªà¤ľ":6345,"Ġà¤ªà¤²à¤ķ":6346,"Ġà¤ªà¤ļà¤¨":6347,"Ġà¤ªà¤¬à¤®":6348,"Ġà¤ªà¤¥à¤ª":6349,"à¤Łà¤§":6350,"à¤Łà¤Ń":6351,"à¤Łà¤°à¤¤":6352,"à¤Łà¤ı":6353,"à¤Łà¤¬à¤°":6354,"à¤Łà¤¸à¤®à¤§":6355,"à¤Łà¤®à¤°":6356,"à¤Łà¤ľà¤°":6357,"à¤Łà¤Ĺà¤¨":6358,"à¤Łà¤®à¤²":6359,"à¤Łà¤¸à¤¨à¤¨":6360,"à¤Łà¤ľà¤µà¤³à¤ļ":6361,"à¤Łà¤ĵà¤µ":6362,"à¤Łà¤Ĩà¤Ĭà¤Ł":6363,"à¤ªà¤ªà¤°":6364,"à¤ªà¤ķà¤¤":6365,"à¤ªà¤ªà¤£":6366,"Ġà¤®à¤²à¤µ":6367,"à¤¦à¤ľ":6368,"à¤¦à¤ķà¤°":6369,"à¤¦à¤ªà¤£":6370,"à¤¦à¤¤à¤µ":6371,"à¤¦à¤³à¤£à¤µà¤³à¤£":6372,"à¤§à¤¸":6373,"à¤§à¤¦":6374,"à¤§à¤°à¤¤":6375,"à¤§à¤ķà¤²":6376,"à¤§à¤ľà¤¨":6377,"à¤§à¤¹à¤¸":6378,"à¥Ĥ),":6379,"à¤Ĺà¤°à¤¸":6380,"à¤Ĺà¤Łà¤¨":6381,"à¤Ĺà¤¸à¤¨":6382,"à¤Ĺà¤¬à¤¦":6383,"à¤Ĺà¤Ĺà¤¨":6384,"à¤Ĺà¤ľà¤¨à¤¨":6385,"à¤Ĺà¤ľà¤µà¤³à¤ļ":6386,"à¤Ĺà¤°à¤ķà¤¡":6387,"à¤Ĺà¤¡à¤¨à¤¨":6388,"Ġà¤¤à¤¨":6389,"Ġà¤¤à¤¡":6390,"Ġà¤¤à¤ķà¤¸":6391,"Ġà¤µà¤µ":6392,"Ġà¤µà¤¹":6393,"Ġà¤µà¤¨à¤ķ":6394,"à¤¡à¤¡":6395,"à¤¡à¤°à¤ķ":6396,"à¤¡à¤°à¤µ":6397,"à¤¡à¤¬à¤¦":6398,"à¤¡à¤ªà¤°à¤²":6399,"à¤¡à¤Ĺà¤¨":6400,"à¤¡à¤¸à¤°à¤²":6401,"à¤¡à¤¸à¤¨à¤¨":6402,"à¤¡à¤¸à¤¨à¤ļ":6403,"à¤¡à¤«à¤ļ":6404,"Ġà¤¹à¤¸à¤°":6405,"Ġà¤¹à¤¬à¤²":6406,"Ġà¤¹à¤¬à¤°à¤¨":6407,"Ġà¤¹à¤¡à¤¨à¤°à¤ļ":6408,"Ġà¤ħà¤®à¤¨":6409,"Ġà¤ħà¤ķà¤²":6410,"Ġà¤ħà¤¹à¤°":6411,"Ġà¤ħà¤°à¤²":6412,"Ġà¤ħà¤¥à¤ķ":6413,"Ġà¤ľà¤¶":6414,"Ġà¤ľà¤Ŀ":6415,"Ġà¤ľà¤¯à¤ª":6416,"Ġà¤ľà¤¬à¤²":6417,"Ġà¤ľà¤łà¤°":6418,"à¤¶à¤Ĺà¤°":6419,"à¤¶à¤°à¤¨":6420,"à¤¶à¤Ĳà¤µà¤ľ":6421,"à¤¶à¤ªà¤®":6422,"à¤ľà¤ľ":6423,"à¤ľà¤ªà¤°":6424,"à¤ľà¤¯à¤ķ":6425,"à¤ľà¤°à¤²":6426,"à¤ľà¤Ĺà¤£":6427,"à¤ľà¤¤à¤¨":6428,"à¤ľà¤ľà¤µà¤³":6429,"à¤ľà¤²à¤µ":6430,"à¤ľà¤°à¤ķà¤¡":6431,"Ġà¤¨à¤¬":6432,"Ġà¤¨à¤Łà¤ļ":6433,"Ġà¤¨à¤°à¤Ń":6434,"Ġà¤¨à¤®à¤¸":6435,"Ġà¤¨à¤Łà¤¸":6436,"à¤·à¤®à¤§":6437,"à¤¬à¤¯":6438,"à¤¬à¤°à¤ķ":6439,"à¤¬à¤ķà¤¤":6440,"à¤¬à¤²à¤¬":6441,"à¤¬à¤Īà¤²":6442,"à¤¬à¤ķà¤ļ":6443,"à¤¬à¤Īà¤ļ":6444,"Ġà¤ıà¤ªà¤°":6445,"Ġà¤ıà¤¹à¤°":6446,"Ġà¤ıà¤°à¤²":6447,"Ġà¤ıà¤Ĺà¤°":6448,"Ġà¤ıà¤Łà¤ķ":6449,"Ġà¤ıà¤¥à¤¨":6450,"Ġà¤ıà¤ıà¤ļ":6451,"à¤³à¤Ń":6452,"à¤³à¤ªà¤°":6453,"Ġà¤¦à¤ľ":6454,"Ġà¤¦à¤±":6455,"Ġà¤¦à¤²à¤¬":6456,"Ġà¤¯à¤¨":6457,"Ġà¤¯à¤ª":6458,"Ġà¤¯à¤ľ":6459,"Ġà¤¯à¤¶à¤µ":6460,"à¥ĩ.(":6461,"à¥ĩ._":6462,"à¥ĩ.),":6463,"à¥ĩ.).":6464,"à¥ĩ....":6465,"Ġà¤¬à¤¬":6466,"Ġà¤¬à¤ĺ":6467,"Ġà¤¬à¤¸à¤°":6468,"Ġà¤¬à¤Łà¤²":6469,"Ġà¤¬à¤¸à¤®à¤§":6470,"Ġà¤¬à¤Ĺà¤³":6471,"Ġà¤¬à¤¬à¤²":6472,"Ġà¤¬à¤¸à¤¦":6473,"Ġà¤¬à¤²à¤µ":6474,"Ġà¤¬à¤Ŀà¤°":6475,"Ġà¤¬à¤¦à¤®":6476,"Ġà¤¬à¤«à¤°":6477,"Ġà¤¬à¤Łà¤°à¤µà¤°":6478,"Ġà¤¬à¤Łà¤²à¤°à¤¨":6479,"Ġà¤°à¤¯":6480,"Ġà¤°à¤ļ":6481,"Ġà¤°à¤ĸ":6482,"Ġà¤°à¤¸à¤ļ":6483,"Ġà¤°à¤¨à¤°":6484,"Ġà¤°à¤¤à¤¨":6485,"Ġà¤°à¤¤à¤®":6486,"à¤¥à¤¯":6487,"à¤¥à¤¬":6488,"à¤¥à¤ªà¤°":6489,"à¤¥à¤ªà¤£":6490,"à¤¥à¤°à¤²":6491,"à¤¥à¤¸à¤ļ":6492,"à¤¥à¤¨à¤ļ":6493,"à¤¥à¤®à¤ļ":6494,"à¤¥à¤¸à¤®":6495,"à¤¥à¤¤à¤ľ":6496,"à¥Ģ..":6497,"à¥Ģ.:":6498,"à¥Ģ.>":6499,"à¥ī\"":6500,"à¤łà¤®":6501,"à¤łà¤µà¤°":6502,"à¤°à¤£à¤§":6503,"à¤°à¤£à¤¯à¤ª":6504,"Ġà¤²à¤«":6505,"Ġà¤²à¤Ĺà¤¤":6506,"Ġà¤Ĺà¤³à¤²":6507,"Ġà¤Ĺà¤¨à¤¸":6508,"Ġà¤Ĺà¤¨à¤®à¤§":6509,"Ġà¤Ĺà¤¡à¤¬à¤¡":6510,"Ġà¤¶à¤Ĺ":6511,"Ġà¤¶à¤¤à¤µ":6512,"Ġ1199":6513,"Ġ1190":6514,"à¤ĸà¤¹":6515,"à¤ĸà¤ľ":6516,"à¤ĸà¤°à¤£":6517,"à¤ĸà¤¡à¤ķ":6518,"Ġà¤ļà¤°à¤£":6519,"Ġà¤ļà¤°à¤µ":6520,"Ġà¤ļà¤°à¤²":6521,"Ġà¤ļà¤ªà¤°à¤²":6522,"Ġà¤ļà¤ķà¤ļ":6523,"Ġà¤ļà¤µà¤ļ":6524,"à¤®à¤§à¤²":6525,"à¤µà¤°à¤¡":6526,"à¤µà¤°à¤®à¤§":6527,"à¤µà¤°à¤ķà¤¡":6528,"à¤µà¤°à¤¬à¤¦":6529,"à¤¤à¤°à¤µ":6530,"à¤¤à¤°à¤®":6531,"à¤¤à¤°à¤Ĺ":6532,"à¤¤à¤°à¤Ľ":6533,"à¤¤à¤°à¤¨à¤Ĺà¤°":6534,"Ġà¤ıà¤ķà¤µà¤°":6535,"Ġà¤ıà¤ķà¤¶à¤¨":6536,"Ġà¤ıà¤ķà¤°à¤ļ":6537,"Ġà¤ıà¤ķà¤°à¤¹":6538,"Ġà¤ħà¤¸à¤Ĺ":6539,"Ġà¤īà¤µ":6540,"Ġà¤īà¤¹":6541,"Ġà¤īà¤¬à¤¤":6542,"Ġà¤īà¤®à¤²":6543,"Ġà¤īà¤łà¤µà¤£":6544,"Ġà¤īà¤¸à¤³à¤²":6545,"Ġà¤īà¤Ĺà¤µà¤²":6546,"Ġà¤īà¤¬à¤µà¤£":6547,"Ġà¤īà¤¬à¤µà¤¤":6548,"Ġà¤īà¤Īà¤ĺ":6549,"à¤«à¤¦":6550,"à¤«à¤¬":6551,"à¤«à¤³":6552,"à¤«à¤°à¤¸":6553,"à¤«à¤ķà¤¡":6554,"à¤«à¤¹à¤°":6555,"à¤«à¤¨à¤²":6556,"à¤«à¤¸à¤¨à¤¨":6557,"à¤«à¤°à¤¸à¤¦":6558,"à¤Ńà¤ļ":6559,"à¤Ńà¤°à¤²":6560,"à¤Ńà¤°à¤¹":6561,"Ġ2200":6562,"Ġ218":6563,"à¤°à¤¤à¤¨":6564,"Ġà¤¡à¤®":6565,"Ġà¤¡à¤Ŀ":6566,"Ġà¤¡à¤Ĺà¤²":6567,"Ġà¤¡à¤ļà¤²":6568,"Ġ(.":6569,"Ġ(/":6570,"Ġ().":6571,"Ġà¤«à¤ľ":6572,"Ġà¤«à¤¤à¤µ":6573,"Ġà¤«à¤¯à¤®à¤ļ":6574,"Ġà¤«à¤¡à¤«":6575,"Ġà¤Łà¤Łà¤²":6576,"Ġà¤Łà¤¨à¤²":6577,"Ġà¤Łà¤¬à¤¨":6578,"Ġà¤Łà¤¬à¤ļ":6579,"Ġ191":6580,"Ġà¤ªà¤°à¤¹":6581,"Ġà¤ªà¤°à¤¡":6582,"Ġà¤Ńà¤Ĺà¤µ":6583,"Ġà¤Ńà¤¯à¤Ń":6584,"Ġà¤Ŀà¤®":6585,"Ġà¤Ŀà¤¡":6586,"Ġà¤Ŀà¤Ŀ":6587,"Ġà¤Ŀà¤°à¤¦":6588,"à¤°à¤ķà¤¦":6589,"Ġà¤ĸà¤µ":6590,"à¥Ī')":6591,"Ġ''":6592,"Ġ'-":6593,"à¤°à¤®à¤¦":6594,"à¤°à¤®à¤ķà¤¤":6595,"à¤°à¤®à¤¨à¤¨":6596,"à¤¹à¤£à¤²":6597,"à¥Ģ,%%":6598,"Ġà¤ĩà¤¨à¤¹":6599,"Ġà¤ĩà¤¸à¤µ":6600,"Ġà¤ĩà¤²à¤¸":6601,"Ġà¤ĩà¤ķà¤¬":6602,"Ġà¤ĩà¤ĵà¤¸":6603,"Ġà¤ĩà¤Ŀà¤®":6604,"Ġà¤Ĩà¤²à¤®":6605,"Ġ206":6606,"Ġ2032":6607,"à¤ªà¤°à¤®à¤§":6608,"Ġà¤ĺà¤¶":6609,"Ġà¤ĺà¤°à¤ķ":6610,"Ġà¤ĺà¤¸à¤°":6611,"Ġà¤ĺà¤Łà¤²":6612,"Ġà¤ĺà¤¨à¤°":6613,"à¤¯à¤ķà¤¡":6614,"Ġà¤¸à¤®à¤°à¤¸":6615,"Ġà¤¸à¤®à¤¤à¤²":6616,"à¤ıà¤ľà¤¨":6617,"à¤ıà¤°à¤²":6618,"à¤ıà¤¤à¤²":6619,"à¤ıà¤¡à¤²":6620,"à¤ıà¤ķà¤¸":6621,"à¤ıà¤ªà¤²":6622,"à¤ıà¤¨à¤µ":6623,"à¤ıà¤°à¤¨":6624,"à¤ıà¤ķà¤ļ":6625,"à¤ıà¤Ĩà¤¯":6626,"à¤ıà¤Łà¤®à¤§":6627,"à¤ıà¤¶à¤²":6628,"à¤ıà¤Łà¤µ":6629,"à¤ıà¤¶à¤¨à¤²":6630,"à¤ıà¤ħà¤°à¤ļ":6631,"à¤¬à¤°à¤¹":6632,"à¤ĺà¤¯":6633,"à¤Ŀà¤¤":6634,"à¤Ŀà¤ķà¤°":6635,"à¤Ŀà¤²à¤®à¤§":6636,"à¤Ŀà¤²à¤µà¤°":6637,"à¤Ŀà¤°à¤¸à¤¨":6638,"à¤¢à¤¨":6639,"à¤¢à¤Ĺ":6640,"à¤¢à¤¤à¤ļ":6641,"à¤µà¤²à¤¨":6642,"à¤µà¤²à¤ļ":6643,"à¤µà¤²à¤¨à¤¶":6644,"Ġà¤¸à¤°à¤²":6645,"Ġà¤¸à¤°à¤Ĺ":6646,"Ġà¤¸à¤°à¤ľ":6647,"à¤Īà¤£":6648,"à¤Īà¤¯à¤¨":6649,"à¤Īà¤¸à¤¹":6650,"à¤Īà¤¸à¤¨":6651,"à¤Īà¤Ĺà¤²":6652,"à¤Īà¤¨à¤¨":6653,"à¤Īà¤ķà¤ļ":6654,"à¤Īà¤®à¤²":6655,"à¤Īà¤ķà¤¶":6656,"à¤Īà¤¡à¤µ":6657,"à¤Īà¤®à¤®à¤§":6658,"à¤ĩà¤ªà¤°":6659,"à¤ĩà¤°à¤¸":6660,"à¤ĩà¤ķà¤¸":6661,"à¤ĩà¤²à¤¨":6662,"à¤ĩà¤²à¤¬":6663,"à¤ĩà¤¨à¤ķ":6664,"à¤ĩà¤²à¤Ĺ":6665,"à¤ĩà¤¨à¤µ":6666,"à¤ĩà¤°à¤¨":6667,"à¤ĩà¤ªà¤ļ":6668,"à¤ĩà¤Ŀà¤°":6669,"à¤ĩà¤Łà¤¨à¤®à¤§":6670,"à¤ĩà¤Ĩà¤¨":6671,"à¤ĩà¤«à¤²":6672,"à¤ĩà¤Ĺà¤¬":6673,"Ġà¤ĳà¤¨à¤¸":6674,"Ġà¤ĳà¤¯à¤¸":6675,"à¤¯à¤¨à¤ķà¤°":6676,"à¤¯à¤¨à¤Ĺà¤°":6677,"à¤¯à¤¨à¤®à¤ļ":6678,"à¤¯à¤¨à¤²à¤®à¤§":6679,"Ġ\":":6680,"Ġà¤ķà¤°à¤ª":6681,"Ġà¤ķà¤°à¤ĸ":6682,"Ġà¤ķà¤°à¤¬à¤²à¤ļ":6683,"à¤ĥ'":6684,"à¤ĥ-":6685,"Ġà¤ħà¤¨à¤¨à¤¸":6686,"Ġà¤ħà¤¨à¤µà¤§":6687,"Ġà¤ħà¤¨à¤Łà¤°à¤¬à¤°":6688,"à¤Łà¤°à¤ıà¤ķ":6689,"à¤Łà¤°à¤Ĳà¤µà¤ľ":6690,"à¤Łà¤°à¤¸à¤¨à¤¨":6691,"à¤Łà¤°à¤¸à¤¨à¤ļ":6692,"à¤Łà¤°à¤¡à¤¨à¤ļ":6693,"à¤®à¤¨à¤¶":6694,"à¤®à¤¨à¤®à¤§":6695,"à¤®à¤¨à¤¸à¤¹":6696,"à¤°à¤¸à¤®":6697,"à¤°à¤¸à¤®à¤§":6698,"à¤ķà¤¡à¤ķ":6699,"à¤ķà¤¡à¤°à¤®":6700,"à¤ķà¤¡à¤«à¤ļ":6701,"à¤ķà¤¡à¤«à¤²":6702,"à¤Łà¤¨à¤¦":6703,"à¤Łà¤¨à¤ªà¤°":6704,"à¤Łà¤¨à¤¸à¤¹":6705,"à¤Łà¤¨à¤ľà¤µà¤³à¤ļ":6706,"001":6707,"006":6708,"008":6709,"à¤¦à¤°à¤ª":6710,"à¤¦à¤°à¤ªà¤£":6711,"à¤ħà¤«":6712,"à¤ħà¤µà¤¤":6713,"à¤ħà¤µà¤¸":6714,"à¤ħà¤°à¤¶":6715,"à¤ħà¤¶à¤ķ":6716,"à¤ħà¤ªà¤²":6717,"à¤ħà¤²à¤°":6718,"à¤ħà¤®à¤°":6719,"à¤ħà¤¹à¤®":6720,"à¤ħà¤¶à¤°":6721,"à¤ħà¤łà¤°":6722,"à¤ħà¤Ŀà¤°à¤¬":6723,"à¤ħà¤¨à¤ķà¤Ł":6724,"à¤ħà¤¸à¤®à¤®":6725,"à¤Ĭà¤¶":6726,"à¤Ĭà¤«":6727,"à¤Ĭà¤¡à¤²":6728,"à¤Ĭà¤¥à¤°":6729,"à¤Ĭà¤¡à¤ª":6730,"à¤Ĭà¤¥à¤µ":6731,"à¤ķà¤²à¤²":6732,"à¤ķà¤²à¤®à¤§":6733,"à¤ķà¤²à¤µà¤°":6734,"à¤·à¤£à¤ķ":6735,"à¤·à¤£à¤¶":6736,"à¤¹à¤°à¤¬":6737,"à¤¹à¤°à¤¬à¤°":6738,"à¤ķà¤°à¤«":6739,"à¤ķà¤°à¤ªà¤Ł":6740,"Ġà¤ĵà¤ļ":6741,"Ġà¤ĵà¤«":6742,"Ġà¤ĵà¤¤à¤²":6743,"Ġà¤ĵà¤¸à¤µ":6744,"Ġà¤ĵà¤ĩà¤Ł":6745,"Ġà¤ĵà¤¸à¤¬":6746,"Ġà¤ĵà¤Īà¤¡":6747,"à¤¶à¤¨à¤²à¤ļ":6748,"à¤¶à¤¨à¤ľà¤µà¤³":6749,"à¤¶à¤¨à¤²à¤®à¤§":6750,"à¤īà¤ķ":6751,"à¤īà¤µ":6752,"à¤īà¤ľ":6753,"à¤īà¤¤à¤°":6754,"à¤īà¤«":6755,"à¤īà¤Ń":6756,"à¤īà¤°à¤²":6757,"à¤īà¤²à¤ļ":6758,"à¤īà¤²à¤°":6759,"à¤īà¤ļà¤°":6760,"à¤īà¤¨à¤¨":6761,"à¤īà¤Łà¤®à¤§":6762,"à¤īà¤Łà¤¸":6763,"à¤īà¤ľà¤ļ":6764,"à¤īà¤ªà¤²à¤¬":6765,"à¤¯à¤¤à¤¨":6766,"à¤¯à¤¤à¤ľ":6767,"à¤¸à¤°à¤¶":6768,"à¤¸à¤°à¤µà¤°":6769,"à¤¸à¤°à¤«":6770,"à¤°à¤µà¤³":6771,"Ġà¤§à¤¡à¤ª":6772,"Ġà¤ıà¤¸à¤ª":6773,"Ġà¤ıà¤¸à¤¡":6774,"Ġà¤ıà¤¸à¤ıà¤ļ":6775,"à¤ľà¤¨à¤¯":6776,"à¤ľà¤¨à¤²":6777,"à¤ľà¤¨à¤¸":6778,"à¤ľà¤¨à¤ª":6779,"à¤ľà¤¨à¤¦":6780,"à¤ľà¤¨à¤¸à¤¹":6781,"à¤ľà¤¨à¤Ĺà¤£à¤¨":6782,"à¤ĵà¤ľ":6783,"à¤ĵà¤°à¤®":6784,"à¤ĵà¤¢":6785,"à¤ĵà¤ķà¤¡":6786,"à¤ĵà¤¶à¤¨":6787,"à¤ĵà¤¸à¤°":6788,"à¤ĵà¤ľà¤¨":6789,"à¤ĵà¤°à¤²":6790,"à¤ĵà¤Ĺà¤²":6791,"à¤ĵà¤¸à¤²":6792,"à¤ĵà¤¨à¤®à¤§":6793,"à¤ĵà¤ķà¤ļ":6794,"à¤ĵà¤ľà¤ļ":6795,"à¤ĵà¤ªà¤°à¤®":6796,"à¤ĵà¤ıà¤«à¤¸":6797,"à¤¸à¤¨à¤ªà¤°":6798,"à¤¸à¤¨à¤°à¤ļ":6799,"à¤ķà¤¨à¤¶":6800,"à¥ĭ.'":6801,"à¤°à¤²à¤¦":6802,"à¤°à¤²à¤µà¤°":6803,"à¤°à¤²à¤¸à¤¹":6804,"à¤¯à¤®à¤¹":6805,"à¤¯à¤®à¤¶":6806,"à¤¯à¤®à¤¸à¤¨":6807,"à¤¯à¤®à¤Ĺà¤¤":6808,"Ġà¤Ĩà¤¯à¤µà¤°":6809,"Ġà¤Ĩà¤¯à¤Ī":6810,"Ġà¤Ĩà¤¯à¤ĵ":6811,"Ġà¤Ĩà¤¯à¤ĵà¤¨":6812,"Ġà¤Ĩà¤¯à¤¶à¤°":6813,"Ġà¤¸à¤¹à¤ķà¤²":6814,"Ġà¤¸à¤¹à¤¨à¤¶":6815,"à¤Łà¤²à¤µà¤°":6816,"à¤Łà¤²à¤ªà¤°":6817,"à¤Łà¤²à¤¨à¤ļ":6818,"à¤Łà¤²à¤¨à¤®à¤§":6819,"à¤Ĩà¤Ł":6820,"à¤Ĩà¤ĩà¤¸":6821,"à¤Ĩà¤Īà¤ļ":6822,"à¤Ĩà¤Ĺà¤®à¤¨":6823,"à¤Ĩà¤¯à¤ķà¤¡":6824,"</...>":6825,"à¤µà¤³à¤ļ":6826,"Ġà¤īà¤ªà¤Ń":6827,"Ġà¤īà¤ªà¤ķà¤°":6828,"Ġà¤īà¤ªà¤īà¤¤":6829,"Ġà¤īà¤ªà¤ħà¤§":6830,"à¤¨à¤²à¤²":6831,"à¤¨à¤²à¤¸":6832,"à¤¨à¤²à¤ª":6833,"à¤¨à¤²à¤ªà¤°":6834,"Ġà¤ħà¤²à¤¨":6835,"Ġà¤¨à¤µà¤ĸ":6836,"Ġ2001070":6837,"à¤¹à¤¤à¤ļ":6838,"à¤¡à¤²à¤ķ":6839,"Ġà¤ħà¤®à¤ķ":6840,"à¥Ĥ.),":6841,"Ġ310":6842,"Ġ330":6843,"Ġ314":6844,"Ġ313":6845,"Ġ328":6846,"Ġ324":6847,"Ġ380":6848,"Ġ335":6849,"Ġ331":6850,"Ġ349":6851,"Ġ339":6852,"Ġ385":6853,"208":6854,"209":6855,"2024":6856,"Ġà¤ªà¤¦à¤¤":6857,"Ġà¤ıà¤²à¤®":6858,"Ġà¤ıà¤²à¤ª":6859,"Ġà¤ıà¤²à¤«":6860,"Ġà¤ıà¤²à¤ĺ":6861,"Ġà¤ıà¤²à¤ıà¤«":6862,"Ġà¤ıà¤®à¤ķ":6863,"Ġà¤ıà¤®à¤¸":6864,"Ġà¤ıà¤®à¤ı":6865,"Ġà¤ıà¤®à¤Ŀ":6866,"Ġà¤ıà¤®à¤ıà¤²":6867,"Ġà¤ıà¤®à¤ıà¤ļà¤Ŀ":6868,"Ġ182":6869,"Ġ1834":6870,"à¤²à¤¯à¤¬à¤¦":6871,"à¤ķà¤°à¤£à¤µ":6872,"à¤Ĺà¤²à¤²":6873,"à¤Ĺà¤²à¤Ł":6874,"à¤Ĺà¤²à¤®à¤§":6875,"à¤Ĺà¤²à¤ªà¤°":6876,"à¤Ĺà¤²à¤®à¤ļ":6877,"à¤ķà¤¸à¤¦":6878,"à¤ķà¤¸à¤¸à¤®à¤§":6879,"à¤ŀà¤¤":6880,"à¤°à¤ľà¤µà¤³à¤ļ":6881,"à¤µà¤¨à¤µ":6882,"à¤µà¤¨à¤Ĺ":6883,"à¤µà¤¨à¤®à¤§":6884,"à¤°à¤¶à¤ļ":6885,"Ġà¤¥à¤ª":6886,"Ġà¤¥à¤°à¤®":6887,"Ġà¤¥à¤ķà¤µ":6888,"à¤²à¤ķà¤Ł":6889,"Ġà¤¶à¤¹à¤°à¤µ":6890,"à¤Ĺà¤°à¤°":6891,"à¤Ĺà¤°à¤Ł":6892,"à¤Ĺà¤°à¤¬":6893,"à¤°à¤ªà¤Łà¤¸":6894,"à¤²à¤¨à¤¸à¤¹":6895,"à¤°à¤¦à¤¸":6896,"Ġ519":6897,"Ġ520":6898,"Ġ530":6899,"Ġ516":6900,"Ġ540":6901,"Ġ523":6902,"Ġ526":6903,"Ġ580":6904,"Ġ5500":6905,"Ġ591":6906,"Ġ561":6907,"à¤®à¤¤à¤ļ":6908,"à¤¬à¤¦à¤¨":6909,"à¤¸à¤²à¤¬":6910,"à¤¯à¤°à¤¹":6911,"à¤¯à¤°à¤¨à¤¨":6912,"Ġ410":6913,"Ġ422":6914,"Ġ423":6915,"Ġ460":6916,"Ġ476":6917,"Ġ467":6918,"Ġ497":6919,"Ġ4239":6920,"à¤¶à¤ķà¤ªà¤£":6921,"à¤®à¤ķà¤µ":6922,"à¤Łà¤ķà¤ļ":6923,"à¤Łà¤ķà¤Ł":6924,"à¤²à¤ļà¤ķà¤ļ":6925,"à¤ªà¤²à¤Łà¤¨":6926,"à¤²à¤¬à¤ª":6927,"à¤²à¤¬à¤¸à¤¹":6928,"à¤ļà¤¨à¤¨à¤¨":6929,"Ġà¤ħà¤°à¤¹":6930,"à¤¯à¤¦à¤³à¤µ":6931,"Ġ620":6932,"Ġ616":6933,"Ġ638":6934,"Ġ685":6935,"Ġ667":6936,"Ġ645":6937,"Ġ669":6938,"à¤ªà¤¦à¤ªà¤£":6939,"à¤¹à¤¨à¤¨":6940,"à¤¹à¤¨à¤µ":6941,"à¤¹à¤¨à¤¹":6942,"Ġà¤ĳà¤«à¤²":6943,"Ġà¤Īà¤°":6944,"Ġà¤Īà¤ª":6945,"Ġà¤Īà¤¦":6946,"Ġà¤Īà¤¡":6947,"Ġà¤Īà¤¡à¤¨":6948,"Ġà¤Īà¤ıà¤¸à¤ª":6949,"à¤ıà¤¸à¤¸":6950,"à¤ıà¤¸à¤µ":6951,"à¤ıà¤¸à¤ľ":6952,"à¤ıà¤¸à¤ıà¤®":6953,"à¤ıà¤¸à¤ıà¤«":6954,"à¤¨à¤¸à¤¡":6955,"à¤¨à¤¸à¤ªà¤°":6956,"à¤¡à¤¨à¤ª":6957,"à¤¡à¤¨à¤¡":6958,"à¤¡à¤¨à¤¬":6959,"Ġà¤ĵà¤³à¤ĸà¤ķà¤°":6960,"à¤¯à¤²à¤ªà¤°":6961,"à¤¯à¤²à¤°à¤ļ":6962,"à¥Ģ-'":6963,"à¥Ģ--":6964,"Ġ7000":6965,"Ġ711":6966,"Ġ724":6967,"Ġ733":6968,"Ġ788":6969,"Ġ747":6970,"Ġ742":6971,"Ġà¤¡à¤¬à¤²à¤¨":6972,"Ġà¤¡à¤¬à¤²à¤ļ":6973,"Ġà¤Ĺà¤Łà¤®à¤¨à¤¨":6974,"à¤ħà¤°à¤°":6975,"à¤ħà¤°à¤Ĺ":6976,"à¤¯à¤Łà¤ľà¤°à¤¸":6977,"Ġà¤ªà¤¤à¤®":6978,"à¤°à¤¹à¤ķ":6979,"à¤°à¤¹à¤¶":6980,"à¤¸à¤¤à¤¤":6981,"à¤²à¤Ĺà¤Ŀ":6982,"à¤²à¤Ĺà¤ĩà¤¨":6983,"à¥Ģ'-":6984,"à¥Ģ'),":6985,"Ġà¤µà¤¸à¤µà¤²":6986,"Ġà¤ħà¤ªà¤ļà¤µà¤£":6987,"à¤¯à¤¸à¤¶":6988,"à¤¯à¤¸à¤µà¤°":6989,"à¤¯à¤¸à¤ķà¤¡":6990,"Ġà¤°à¤¸à¤¦":6991,"Ġà¤¦à¤¶à¤ķà¤ħà¤ĸ":6992,"Ġ810":6993,"Ġ830":6994,"Ġ814":6995,"Ġ811":6996,"Ġ822":6997,"Ġ840":6998,"Ġ835":6999,"Ġ846":7000,"Ġ874":7001,"à¤ļà¤°à¤¬":7002,"à¤¾'),":7003,"à¤¥à¤®à¤µ":7004,"Ġ910":7005,"Ġ930":7006,"Ġ924":7007,"Ġ935":7008,"Ġ931":7009,"Ġ985":7010,"Ġ976":7011,"Ġ990":7012,"Ġ956":7013,"Ġ943":7014,"Ġ981":7015,"à¤¨à¤¨à¤¶":7016,"à¤°à¤Ńà¤°à¤ļ":7017,"à¤®à¤°à¤Ĺ":7018,"Ġà¤ħà¤ľà¤¯":7019,"à¤¸à¤ķà¤ªà¤£":7020,"à¤¨à¤µà¤ª":7021,"Ġ154":7022,"Ġ159":7023,"Ġ1550":7024,"Ġ1530":7025,"Ġ1528":7026,"Ġ1540":7027,"Ġ1576":7028,"Ġ1563":7029,"Ġ1591":7030,"Ġ1558":7031,"Ġ1587":7032,"Ġà¤ĩà¤®à¤¸":7033,"Ġà¤²à¤¢à¤µà¤¤":7034,"à¤Īà¤²à¤®à¤§":7035,"Ġ178":7036,"Ġ179":7037,"Ġ1712":7038,"Ġ1714":7039,"Ġ1716":7040,"Ġ1715":7041,"Ġ1713":7042,"Ġ1724":7043,"Ġ1770":7044,"Ġ1739":7045,"Ġ1756":7046,"Ġ1765":7047,"Ġ1771":7048,"Ġ1744":7049,"Ġ1743":7050,"Ġà¤ľà¤®à¤µà¤²":7051,"à¤¤à¤¨à¤ª":7052,"à¥ĩà¤ĥ-":7053,"Ġ1020":7054,"Ġ1066":7055,"à¤°à¤¨à¤¶":7056,"à¤Łà¤¬à¤¶":7057,"181":7058,"182":7059,"184":7060,"185":7061,"187":7062,"1811":7063,"1838":7064,"1831":7065,"1832":7066,"1845":7067,"1899":7068,"1862":7069,"1863":7070,"1891":7071,"1848":7072,"1894":7073,"1844":7074,"1852":7075,"1873":7076,"1882":7077,"1886":7078,"1801":7079,"1877":7080,"1809":7081,"1803":7082,"Ġà¤¹à¤²à¤¤":7083,"Ġà¤¹à¤²à¤²":7084,"à¤µà¤ľà¤¸":7085,"Ġà¤ıà¤ªà¤ļ":7086,"Ġà¤ıà¤ªà¤ľ":7087,"Ġà¤ıà¤ļà¤ķ":7088,"Ġà¤ıà¤ļà¤¡":7089,"Ġà¤®à¤¦à¤¤à¤ķ":7090,"à¤ĩà¤¨à¤Ł":7091,"à¤ĩà¤¨à¤«":7092,"à¤ĩà¤¨à¤®à¤¨":7093,"à¤ĩà¤¨à¤ħà¤ª":7094,"à¤Ĺà¤¨à¤®":7095,"à¤Ĺà¤¨à¤ķà¤¡":7096,"à¤¿,\"":7097,"Ġà¤ĳà¤¸à¤¬":7098,"à¤ıà¤²à¤²":7099,"à¤ıà¤²à¤µ":7100,"à¤ıà¤²à¤¶":7101,"à¤ıà¤²à¤°à¤²":7102,"Ġà¤ĳà¤Ĺà¤¸à¤¬à¤°":7103,"Ġà¤īà¤²à¤Łà¤µ":7104,"Ġà¤īà¤²à¤¥à¤µ":7105,"à¤®à¤¸à¤®":7106,"à¤®à¤¸à¤¶":7107,"à¤®à¤¸à¤¬à¤ª":7108,"Ġà¤ıà¤¡à¤¨à¤²":7109,"à¥ĩ)'":7110,"à¥ĩ):":7111,"à¥ĩ);\"":7112,"à¥ĩ;\"|":7113,"à¤ıà¤¨à¤ª":7114,"à¤ıà¤¨à¤ıà¤¸":7115,"Ġ162":7116,"Ġ163":7117,"Ġ1618":7118,"Ġ1612":7119,"Ġ1610":7120,"Ġ1650":7121,"Ġ1621":7122,"Ġ1628":7123,"Ġ1660":7124,"Ġ1626":7125,"Ġ1689":7126,"Ġ1645":7127,"Ġ1656":7128,"Ġ1663":7129,"Ġ1642":7130,"Ġ1691":7131,"Ġ1606":7132,"Ġ1605":7133,"Ġ1601":7134,"Ġ1602":7135,"Ġ126":7136,"Ġ1230":7137,"Ġ1240":7138,"Ġ1223":7139,"Ġ12858":7140,"à¤ķà¤Łà¤µ":7141,"à¤ķà¤Łà¤Ĺ":7142,"à¤Ńà¤µà¤ļ":7143,"à¥Ģ)\"":7144,"à¤¾-'":7145,"Ġà¤Ķà¤°":7146,"à¥Ģ\".\"":7147,"à¥Ģ\"...":7148,"à¤¬à¤²à¤ĸ":7149,"à¤¬à¤²à¤¸à¤¹":7150,".))":7151,"à¤¸à¤®à¤¯":7152,"à¤¸à¤®à¤¤à¤²":7153,"à¥ĩ';":7154,"Ġ1400":7155,"Ġ1450":7156,"Ġ1440":7157,"Ġ1495":7158,"Ġ1485":7159,"Ġ1490":7160,"Ġ1456":7161,"Ġ1491":7162,"Ġ1458":7163,"Ġ1492":7164,"Ġ1453":7165,"à¥ĩ\"...":7166,"à¤¾)'":7167,"à¤¾)-":7168,"à¤¾):":7169,"Ġà¤īà¤ĺà¤¡à¤ķ":7170,"Ġà¤Ĺà¤£à¤ķ":7171,"à¤¨à¤Ĺà¤¨à¤ļ":7172,"à¤¨à¤Ĺà¤¨à¤¨":7173,"à¤ıà¤®à¤Ł":7174,"à¤ľà¤²à¤¸":7175,"Ġà¤ħà¤µà¤ĺà¤¡":7176,"à¤ĩà¤²à¤²":7177,"à¤ĩà¤²à¤®":7178,"à¤ĩà¤²à¤¥":7179,"Ġà¤ľà¤Ĺà¤¹":7180,"Ġà¤ľà¤Ĺà¤ª":7181,"Ġà¤ľà¤Ĺà¤µà¤²":7182,"121":7183,"124":7184,"1254":7185,"à¤¡à¤¬à¤²à¤¨":7186,"à¤¡à¤¬à¤²à¤ļ":7187,"à¤ĸà¤¨à¤¶":7188,"175":7189,"179":7190,"1700":7191,"1720":7192,"1717":7193,"1725":7194,"1727":7195,"1737":7196,"1780":7197,"1770":7198,"1739":7199,"1785":7200,"1776":7201,"1745":7202,"1762":7203,"1798":7204,"1791":7205,"1773":7206,"1774":7207,"1783":7208,"1772":7209,"Ġà¤¸à¤¨à¤®":7210,"Ġà¤¸à¤¨à¤Ł":7211,"Ġà¤¸à¤¨à¤ª":7212,"à¤¬à¤®à¤¸à¤¹":7213,"à¤¬à¤®à¤¬à¤¦":7214,"à¤ĺà¤°à¤¬":7215,"à¤µà¤ķà¤¹":7216,"à¤Ĺà¤¡à¤¨à¤²":7217,"à¤Ĺà¤¡à¤®à¤ļ":7218,"à¤Ĺà¤¡à¤®à¤²":7219,"Ġ301":7220,"Ġ305":7221,"Ġ306":7222,"Ġ307":7223,"à¤ĸà¤ķà¤¹":7224,"107":7225,"109":7226,"1086":7227,"Ġà¤Ĩà¤¦à¤®à¤²":7228,"501":7229,"Ġà¤Ĩà¤ľà¤¤":7230,"3047":7231,"30926":7232,"à¤ĩà¤®à¤¶":7233,"à¤ĩà¤®à¤°à¤²":7234,"Ġ114":7235,"à¤Łà¤®à¤µà¤°":7236,"Ġà¤ªà¤Łà¤£":7237,"Ġà¤ªà¤Łà¤µà¤£":7238,"Ġà¤ĳà¤²à¤¸":7239,"à¤¶à¤¯à¤ªà¤£":7240,"Ġà¤īà¤Ńà¤¯à¤²":7241,"à¤Ŀà¤°à¤µà¤°":7242,"à¤µà¤°à¤£à¤ª":7243,"140":7244,"141":7245,"143":7246,"144":7247,"146":7248,"1487":7249,"Ġà¤¬à¤¸à¤¸à¤¹":7250,"à¤ĸà¤²à¤®à¤¯":7251,"à¤¦à¤®à¤ª":7252,"à¤¦à¤®à¤µà¤°":7253,"à¤¦à¤®à¤°à¤¤":7254,"à¤ıà¤°à¤¡":7255,"163":7256,"165":7257,"168":7258,"1619":7259,"1611":7260,"Ġ252":7261,"Ġ255":7262,"Ġ2527":7263,"Ġà¤īà¤°à¤¬":7264,"Ġà¤ĳà¤°à¤¬":7265,"à¤Ĭà¤¸à¤¶":7266,"Ġ241":7267,"Ġ245":7268,"Ġ248":7269,"Ġ249":7270,"152":7271,"157":7272,"158":7273,"1521":7274,"1588":7275,"1598":7276,"1571":7277,"1587":7278,"1573":7279,"Ġ232":7280,"Ġà¤¹à¤°à¤µà¤¤":7281,"Ġà¤ħà¤¬à¤¨":7282,"Ġà¤ħà¤¬à¤¸":7283,"Ġà¤ħà¤¬à¤¶":7284,"Ġ1006":7285,"à¤ıà¤ļà¤ķ":7286,"à¤ıà¤ļà¤ľ":7287,"à¤®à¤¶à¤°":7288,"Ġ2231":7289,"Ġ503":7290,"à¤¡à¤®à¤®à¤§":7291,"1362":7292,"Ġ09":7293,"Ġ082":7294,"Ġ083":7295,"à¤¹à¤²à¤°à¤ļ":7296,"à¤¹à¤²à¤¸à¤¹":7297,"Ġà¤ħà¤¦à¤ľ":7298,"à¤¾à¤ĥà¤ĥ":7299,"Ġ270":7300,"Ġ276":7301,"à¤¾;\"|":7302,"Ġ283":7303,"à¤ħà¤¨à¤§":7304,"à¤ħà¤¨à¤«":7305,"à¤ħà¤¨à¤¦à¤°":7306,"à¤ħà¤¨à¤¸à¤°":7307,"à¤«à¤¨à¤µà¤°":7308,"à¤ıà¤«à¤ı":7309,"Ġà¤Ĩà¤Īà¤¸":7310,"Ġà¤Ĩà¤Īà¤µà¤°":7311,"Ġà¤Ĩà¤Īà¤ķà¤¡":7312,"Ġ403":7313,"Ġ4078":7314,"Ġ262":7315,"Ġ268":7316,"Ġ():":7317,"à¤¥à¤°à¤«":7318,"Ġ291":7319,"Ġ296":7320,"Ġ299":7321,"à¥ĭ')":7322,"à¥ĭ'.":7323,"à¥ĭ';":7324,"à¤ĩà¤ķà¤°à¤¸":7325,"Ġà¤ķà¤£à¤µ":7326,"Ġà¤Ĭà¤¸":7327,"288":7328,"Ġà¤ªà¤²à¤ªà¤°":7329,"Ġà¤ªà¤²à¤Łà¤¨à¤²":7330,"608":7331,"9570":7332,"Ġà¤¨à¤Ĭà¤ļ":7333,"242":7334,"243":7335,"244":7336,"Ġà¤ĵà¤°à¤¡à¤²":7337,"Ġ651":7338,"Ġ657":7339,"à¤°à¤°à¤®à¤§":7340,"273":7341,"27734":7342,"à¤¶à¤ªà¤Ĺ":7343,"374":7344,"376":7345,"3770":7346,"3790":7347,"3779":7348,"806":7349,"Ġ603":7350,"Ġ604":7351,"Ġà¤īà¤²à¤Łà¤µà¤£":7352,"à¤ķà¤¬à¤ļ":7353,"Ġà¤¹à¤®à¤¬à¤°":7354,"355":7355,"3538":7356,"3549":7357,"3556":7358,"35937":7359,"à¤®à¤¦à¤¤":7360,"499":7361,"Ġ+\"":7362,"Ġ+,":7363,"Ġ+)>":7364,"292":7365,"Ġà¤ĵà¤ªà¤¨à¤¸":7366,"à¤ıà¤¶à¤¨à¤¦":7367,"à¤ıà¤¶à¤¨à¤®à¤§":7368,"à¤°à¤µà¤£à¤¦":7369,"à¤¸à¤«à¤µ":7370,"Ġà¤īà¤¤à¤°à¤µà¤¤":7371,"à¤Īà¤Ŀà¤¥":7372,"364":7373,"366":7374,"368":7375,"369":7376,"3660":7377,"3687":7378,"Ġ485":7379,"344":7380,"Ġ453":7381,"Ġ458":7382,"Ġà¤ªà¤£à¤ª":7383,"Ġ#\"":7384,"575":7385,"579":7386,"à¤ĩà¤ķà¤°à¤¨":7387,"à¤ĩà¤ķà¤°à¤®à¤§":7388,"à¤īà¤Łà¤¡":7389,"Ġ361":7390,"Ġ365":7391,"Ġ366":7392,"à¤¾),\"":7393,"à¤¯à¤®à¤¨à¤¨":7394,"Ġ355":7395,"856":7396,"8515":7397,"758":7398,"7568":7399,"897":7400,"Ġà¤Ĺà¤µà¤¤à¤¯":7401,"661":7402,"668":7403,"à¥ĭ\".\"":7404,"à¥ĩ...[":7405,"à¥ĩ...]":7406,"Ġ446":7407,"Ġ4449":7408,"6724":7409,"Ġà¤ĺà¤¡à¤µà¤¤":7410,"à¤°à¤³à¤ķ":7411,"à¤°à¤³à¤®à¤§":7412,"à¤ıà¤¡à¤Ĺà¤°":7413,"451":7414,"452":7415,"456":7416,"Ġà¤«à¤¸à¤µà¤²":7417,"Ġ1572":7418,"Ġ1573":7419,"Ġ1578":7420,"88867":7421,"908":7422,"465":7423,"468":7424,"à¥Ģ/.":7425,"Ġ387":7426,"Ġ3300":7427,"Ġ372":7428,"553":7429,"558":7430,"à¤µà¤¹à¤¨à¤ķ":7431,"999":7432,"à¤®à¤ľà¤¬":7433,"Ġà¤¸à¤ľà¤µà¤£":7434,"Ġà¤ıà¤Ĺà¤¬":7435,"Ġà¤ıà¤Ĺà¤¬à¤°":7436,"à¤īà¤ªà¤ľ":7437,"Ġ1502":7438,"Ġ1504":7439,"Ġ1506":7440,"981":7441,"983":7442,"Ġxm":7443,"Ġxhtml":7444,"Ġà¤Ĺà¤¨à¤°à¤ļ":7445,"Ġ471":7446,"à¤Łà¤®à¤¨à¤²":7447,"Ġà¤¸à¤°à¤³à¤ªà¤£":7448,"à¤¯à¤«à¤³":7449,"à¤¯à¤«à¤°à¤¸":7450,"à¤ľà¤¨à¤°à¤²à¤ļ":7451,"Ġ671":7452,"Ġ679":7453,"Ġ693":7454,"à¤ªà¤¸à¤¨à¤²":7455,"à¤ªà¤¸à¤¨à¤µ":7456,"644":7457,"ĠâĤ¬":7458,"ĠâĤ¹":7459,"à¤ıà¤¨à¤ıà¤®à¤§":7460,"à¤ıà¤¨à¤ıà¤µà¤°":7461,"!\"(":7462,"à¤ļà¤®à¤¬":7463,"Ġà¤¸à¤«à¤µ":7464,"à¤Īà¤ķà¤°à¤®à¤§":7465,"à¤ĩà¤¡à¤°à¤¨":7466,"Ġ569":7467,"à¤Ķà¤·":7468,"069":7469,"4350":7470,"Ġà¤ļà¤®à¤ķà¤²":7471,"Ġ4650":7472,"Ġà¤ļà¤¢à¤µà¤¤":7473,"à¤«à¤¸à¤µà¤£":7474,"à¤īà¤ļà¤°à¤ļ":7475,"à¤ªà¤Łà¤¨à¤®à¤ļ":7476,"à¤¬à¤¦à¤²à¤£":7477,"à¤ıà¤ıà¤ı":7478,"à¤²à¤®à¤¨à¤²":7479,"Ġà¤ıà¤¬à¤°à¤ķ":7480,"ĠÎ±cem":7481,"Ð¾Ð¾":7482,"Ð¾ÑĢ":7483,"Ð¾ÑĤ":7484,"à¤¦à¤¶à¤²à¤ķ":7485,"Ġà¤ĩà¤¥à¤°à¤¨":7486,"Ġ\"('":7487,"à¤Ĭà¤¥à¤¹":7488,"1306":7489,"à¤¯à¤¡à¤°à¤µà¤°":7490,"à¤¦à¤¹à¤¶à¤¤à¤µ":7491,"Ġà¤ıà¤ķà¤¸à¤¦à¤¨":7492,"à¥ĩ!,":7493,"Ġà¤ķà¤³à¤ª":7494,"à¤¸à¤³à¤¯":7495,"Ġà¤įà¤ªà¤²à¤Łà¤¨":7496,"à¤®à¤°à¤¸à¤¥":7497,"à¤ıà¤¸à¤ıà¤¸à¤ı":7498,"à¤ıà¤¸à¤ıà¤¸à¤Ĩà¤°":7499,"Ġà¤¬à¤¡à¤¤à¤°":7500,"Ġà¤ľà¤¨à¤®à¤¤à¤¸":7501,"Ð°Ð½":7502,"Ð°ÑĤ":7503,"à¤ĵà¤Ŀà¤µà¤°":7504,"ÐµÑĢ":7505,"Ð¸Ð¾":7506,"à¤¾],":7507,"à¤ĩà¤¥à¤°à¤ļ":7508,"Ġà¤¦à¤¡à¤ªà¤¤":7509,"à¤īà¤Ŀà¤°à¤²":7510,"à¤īà¤Ŀà¤°à¤¶":7511,"Ġà¤²à¤Łà¤ķà¤¤":7512,"Ġà¤īà¤ªà¤°à¤ļà¤¨":7513,"Ġà¤įà¤ªà¤²à¤ļ":7514,"iii":7515,"Ġà¤ıà¤«à¤ıà¤®à¤Ĩà¤°à¤Ĩà¤¯":7516,"\"-(":7517,"ĠXIV":7518,"à¤ĩà¤®à¤°à¤®à¤§":7519,"ÑĩÑĥ":7520,"Ġà¤Ĩà¤¯à¤Ŀà¤¨à¤¹":7521,"à¤¦à¤®à¤ļà¤²":7522,"à¤ĵà¤³à¤ĸà¤¤":7523,"ÏĦÎµ":7524,"Ġà¤·à¤Ł":7525,"à¤ķà¤ħà¤ªà¤¨":7526,"Ġà¤Ĩà¤ķà¤²à¤¨à¤¶à¤ķ":7527,"à¤¡à¤ªà¤°à¤²à¤ļ":7528,"Ġà¤ħà¤łà¤¸à¤·":7529,"à¤ħà¤¡à¤¥à¤³":7530,"Ð»Ð¸":7531,"Ġà¤ıà¤ıà¤ıà¤ļ":7532,"à¤ħà¤°à¤¸à¤¨à¤²":7533,"à¤ħà¤°à¤¸à¤¨à¤¨":7534,"...]\"":7535,"Î¿ÏĥÎ¹Î¿ÏĤ":7536,"Ġkbit":7537,"Ġà¤ĭà¤£":7538,"Ġà¤«à¤¡à¤ķà¤µà¤£":7539,"Ġà¤Ńà¤Łà¤ķà¤¤":7540,"Ġà¤ıà¤¸à¤ıà¤¸à¤Ĩà¤°":7541,"Ġà¤¨à¤ķà¤³à¤¤à¤ªà¤£":7542,"daa":7543,"Äįsl":7544,"Ġecho":7545,"Ġno":7546,"à¤ļà¤ĸà¤¶":7547,"Ġà¤ªà¤¥à¤¦":7548,"Ġà¤®à¤¦à¤°à¤¶":7549,"Ġà¤¹à¤¡à¤¸à¤¨à¤ļ":7550,"Ġ($)":7551,"Ġà¤ħà¤¡à¤ĸà¤³à¤£":7552,"XXXXXXXXXXXXXXXXXXXXXXXXXXXXXXXXXXXXXXXXXXXXXXXXXXXXXXXXXXXXXXXXXXXXXXXXXXXXXXXXXXXXXXXXXXXXXXXXXXXXXXXXXXXXXXXXXXXXXXXXXXXXXXXX":7553,"ulu":7554,"Î¸Î¸":7555,"ÑıÐ½":7556,"à¤Ńà¤Łà¤ķà¤£":7557,"Ġ(âĪĴ":7558,"Ġ(âĤ¬":7559,"Ġà¤Ŀà¤³à¤ķà¤²":7560,"Ġ3707":7561,"Ġ7206":7562,"3571777":7563,"Î´ÎµÎ¹Îº":7564,"799285":7565,"Î½Î¿":7566,"Ø§ÙĦ":7567,"ĠÃĩar":7568,"à¤°à¤ĺà¤³à¤²":7569,"à¤°à¤ĺà¤³à¤¤":7570,"Ġà¤®à¤³à¤®à¤³":7571,"Ġà¤ĸà¤³à¤¬à¤³à¤ľà¤¨à¤ķ":7572,"Ġxiii":7573,"................................................................................................................................................................................................":7574,"31256":7575,"ÏĨi":7576,"ĠMaha":7577,"à¤°à¤ľà¤¨à¤¨à¤®":7578,"Ġà¤Ĩà¤ķà¤²à¤¨à¤¶":7579,"à¤Łà¤Ĩà¤Ĭà¤Łà¤®à¤§":7580,"Ġà¤¹à¤ķà¤²à¤¬":7581,"Ġà¤¡à¤°à¤¬à¤¨à¤ļ":7582,"Ġà¤ĸà¤¬à¤°à¤¦":7583,"à¤īà¤ĺà¤¡à¤ªà¤£":7584,"Ġà¤¥à¤°à¤¥à¤°":7585,"Ġ6222":7586,"12521362":7587,"Ð¾Ð»Ðµ":7588,"Ð³ÑĥÐ¸Ñı":7589,"Ã¼rÃ¼ksulu":7590,"5136724":7591,"coch":7592,"mud":7593,"pcdata":7594,"ĠÃ¼krÃ¼":7595,"ĠÄįssd":7596,"ĠÐ¸Ð½Ð³ÑĥÐ¸Ñı":7597,"ĠPasha":7598,"Ġà¤¨à¤°à¤Ńà¤ķ":7599,"Ġà¤¦à¤²à¤¬à¤¦à¤²":7600,"Ġà¤°à¤ĸà¤¡à¤²":7601,"Ġà¤°à¤¤à¤®à¤²":7602,"Ġà¤²à¤Ĺà¤¤à¤ļ":7603,"Ġà¤ļà¤ķà¤ļà¤ķ":7604,"Ġà¤¡à¤Ŀà¤¨à¤¹":7605,"Ġà¤¡à¤Ĺà¤²à¤¸à¤ļ":7606,"à¤ıà¤ªà¤²à¤Ĺ":7607,"à¤ħà¤¹à¤®à¤¦":7608,"Ġ200107034":7609,"Ġ6673":7610,"309265136724":7611,"Ġ08230":7612,"Ġ08317":7613,"377912521362":7614,"3538799285":7615,"35937309265136724":7616,"888672":7617,"ÐµÑĢÐ¼":7618,"Î´ÎµÎ¹ÎºÎ¿":7619,"ĠMahamud":7620,"3779125213623047":7621,"3538799285888672":7622}